#version: 0.2
Ġ <
r e
Ġ t
e r
a t
e n
o u
Ġ c
Ġ a
Ġt h
Ġ o
i n
a r
re at
e s
u re
reat ure
a n
f t
Ġth e
a m
en d
i t
t l
o n
Ġ b
Ġ C
o t
Ġ y
o w
Ġy ou
â Ģ
g h
âĢ Ķ
e x
Ġ âĢĶ
es s
Ġ s
ow er
ou gh
i s
Ġ d
p ower
n l
am e
ex t
n ess
a c
ough ness
n ame
ĠC reature
Ġo f
o r
o ft
m c
< |
| >
č Ċ
end oft
endoft ext
t oughness
Ġ f
Ġ w
Ġ W
e l
r o
in g
ar d
g e
Ġa n
s t
Ġt o
Ġc reature
Ġ p
Ġ m
a l
Ġ ~
Ġ S
Ġ l
en t
i l
Ġ it
Ġ h
u r
i f
n t
a y
Ġ 2
h en
e d
Ġ A
Ġ T
ĠW hen
Ġ u
Ġ 1
ge t
er s
e f
Ġ g
Ġc ard
Ġyou r
r a
t ro
v e
Ġ 3
i c
ur n
Ġ H
Ġc on
. <|
Ġ I
Ġo n
v er
o m
Ġan d
Ġ D
tro l
Ġcon trol
el d
Ġ in
Ġ n
at tl
i eld
Ġb attl
a st
Ġ F
l e
ef ield
Ġbattl efield
u t
Ġb e
i r
it h
u m
an d
Ġ e
a s
ar get
Ġt urn
o l
Ġth is
Ġo r
Ġ E
Ġ (
Ġw ith
. )
e ver
' s
l y
Ġ +
Ġ ent
Ġ R
h e
Ġt arget
/ +
Ġ M
Ġ L
ou nt
Ġ 4
Ġ P
ar y
r i
Ġ B
Ġ re
Ġth at
Ġent ers
ac h
ĠWhen ever
Ġ at
Ġ G
Ġa s
Ġc ount
ac k
ro m
c h
Ġf or
Ġu nt
Ġd e
Ġ end
Ġp l
um an
Ġf rom
Ġ is
l o
a in
Ġm ay
a d
Ġs p
el l
ĠH uman
p p
ly ing
h er
a ge
Ġs t
k e
> :
o s
' t
c t
r t
Ġc an
i on
e g
ac t
Ġunt il
rt if
an t
c k
Ġpl ay
e p
i d
Ġc ast
Ġ get
Ġat t
Ġe ach
Ġp ut
am age
Ġit s
rtif act
Ġsp ell
Ġd amage
Ġplay er
e t
Ġatt ack
o re
> ,
Ġde al
lo ck
ĠT he
ĠF lying
a p
ic e
Ġcount er
om b
Ġl i
Ġcreature s
eg end
i m
egend ary
Ġ K
k en
gh t
Ġb lock
n d
Ġg ain
r if
Ġ ex
ĠL egendary
Ġl if
Ġ O
l l
c e
Ġ 5
Y ou
Ġg ra
ac rif
Ġc o
i es
r u
y ard
am p
Ġh and
Ġgra ve
Ġgrave yard
on g
Ġget s
Ġo pp
Ġ V
on ent
Ġm an
Ġopp onent
Ġu p
at e
a ve
Ġ if
Ġlif e
i ght
b r
acrif ice
h o
Ġcard s
Ġto ken
ĠS p
l d
ĠI f
Ġ N
Ġdeal s
il e
i z
Ġan y
Ġon e
o d
h is
q u
Ġa rtifact
t o
Ġli br
il l
Ġlibr ary
Ġ v
ol d
u s
Ġa re
m ent
n ing
Ġh ave
Ġthe ir
e ar
u e
os e
i g
ra w
g in
es t
reat e
Ġman a
ĠW ar
i e
Ġd o
i v
w o
Ġs h
ac e
omb at
Ġbe gin
b le
t her
Ġb y
nl y
Ġc ombat
i re
Ġco st
Ġbegin ning
e m
e ct
Ġcount ers
Ġin to
ou t
u l
ĠI t
Ġo nly
Ġ You
Ġm ore
b l
ot her
Ġp er
b er
Ġattack s
Ġh as
Ġt wo
ĠS h
ri or
Ġblock ed
i er
al l
is t
ĠA t
iz ard
Ġ power
i an
Ġl and
at h
ĠWar rior
a v
is c
Ġl ong
Ġan other
Ġgain s
nd er
Ġc reate
e re
Ġ X
Ġp ay
it y
u n
Ġ 6
ĠS acrifice
k er
ĠG o
Ġ~ .
l er
m an
Ġa b
w n
o g
ĠW izard
Ġ k
ou r
Ġ Z
t h
Ġd raw
T his
d d
c om
ou ld
Ġw h
isc ard
Ġb l
Ġa ll
r amp
ĠS old
um ber
Ġ 0
Ġ en
Ġs e
ast e
ramp le
man ent
ĠA rtifact
Ġper manent
Ġn umber
ĠSold ier
Ġu nder
Ġth en
c er
ir st
Ġto p
ĠA s
ke ep
Ġbe com
Ġo wn
ĠI n
Ġo ther
ĠE l
ir it
bl in
in d
ĠT h
Ġthe m
Ġthe y
Ġd ies
Ġ U
Ġc ol
Ġf lying
pp ed
a g
an ce
Ġre t
Ġab il
it e
Ġt im
Ġret urn
ĠD ra
ou s
Ġn on
Ġn ot
Ġe qu
ĠSp irit
re e
> .
Ġst ep
Ġcontrol s
ĠE le
Ġex ile
ĠZ omb
Ġw as
Ġcol or
g on
Ġs or
Ġbecom es
ef end
Ġt a
Ġl ess
Ġin st
ri ke
ĠGo blin
he re
i ve
a re
r y
o k
ĠZomb ie
h y
Ġth an
Ġsor cer
Ġsorcer y
Ġn o
ct iv
Ġequ al
Ġup keep
on e
Ġst rike
t er
ĠA n
ĠS c
ĠB e
ch ant
Ġa m
Ġc ho
ow n
Ġtim e
Ġf ace
v en
i p
Ġl e
ment al
f f
ĠR e
ĠEle mental
Ġc om
Ġ r
ve al
ar t
n ight
es tro
ĠD e
as h
Ġw ould
ĠT arget
ĠP ut
estro y
Ġa l
ĠEl f
a k
Ġs acrifice
ig il
Ġn ext
ĠS t
ĠE x
u st
Ġb ut
Ġh aste
ler ic
Ġl o
p h
Ġc h
ĠC leric
hy re
hyre x
ctiv ate
igil ance
ĠDra gon
ĠA r
s h
Ġd iscard
ou nd
Ġh e
ĠP hyrex
Ġf irst
ol k
a ur
s e
Ġth ree
ĠK night
o p
an g
Ġre veal
in k
o ve
Ġown er
Ġre m
W hen
ĠC h
ĠPhyrex ian
or d
Ġ J
Ġw here
ĠR og
w al
Ġunt ap
amp ire
is h
/ -
Ġw ill
ot h
am an
ĠRog ue
it ion
ĠBe ast
ĠT rample
Ġm y
u ff
ĠS l
e w
Ġw e
ĠM er
Ġdeal t
ep t
Ġv al
ĠF l
Ġ~ :
d er
at ion
Ġ .
l and
ru ct
Ġex c
Ġm e
ĠV ampire
Ġ -
ir d
ĠC on
ad e
Ġd efend
ĠSh aman
Ġa dd
Ġf l
Ġabil ity
r ow
Ġw ay
Ġattack ing
chant ment
y p
Ġta pped
id e
Ġval ue
l ing
or n
ĠT his
Ġbl ack
Ġd estroy
om e
Ġ *
l ess
Ġcho ose
ic k
nt o
Ġu n
Ġg reat
os es
Ġo nto
Ġh is
Ġco p
ear ch
ĠS k
Ġg re
ĠA ctivate
as s
in e
Ġu nl
v es
Ġspell s
g el
o st
r ot
Ġh er
ur ing
Ġwh ite
a w
Ġs c
e ad
Ġsh uff
Ġ j
Ġt rample
Ġ 7
n ow
Ġw or
Ġexc ept
ĠEx ile
Ġam ong
Ġt oughness
Ġt yp
ar k
Ġwith out
lo od
f olk
ou ch
Ġ( <
Ġunl ess
ĠA dd
Ġ ro
Ġcop y
Ġl oses
i ant
ĠR et
i ver
ĠThe y
il d
Ġshuff le
Ġp re
Ġth ose
Ġd own
ver y
Ġw ho
e c
Ġg o
Ġgre en
ĠH or
Ġadd ition
Ġinst ant
ĠRet urn
a ke
ft er
ĠB ird
Ġ name
r or
ĠD iscard
ru id
el ink
ĠAn gel
ĠW e
ĠE n
s s
rot ect
en er
Ġtoken s
u nt
it ies
i a
Ġs o
Ġdefend ing
r an
en ace
Ġd uring
Ġre d
Ġa r
is e
ĠT re
Ġde ath
Ġ out
ou l
Ġd on
Ġpl an
ĠMer folk
g er
ĠO ther
on d
ot t
t ouch
or t
ĠC at
or m
or ph
ast er
ĠD ruid
a b
ĠD raw
s p
ĠE ach
e ed
Ġabil ities
ĠA l
Ġman y
Ġdo es
u ch
Ġw ere
ul t
Ġt ap
at or
Ġn an
ĠO r
When ever
Ġthe re
ĠP l
Ġen chantment
ĠV igilance
re d
Ġ âĢ
ĠâĢ ¢
Ġ~ '
v ent
es wal
ĠG iant
ĠSl iver
Ġinst ead
Ġplan eswal
p t
Ġa g
il ed
u ard
Ġlo ok
ĠHor ror
as e
ĠFl ash
ing s
ĠM y
ĠN o
Ġ our
Ġw hen
ore st
ere d
I t
Ġcom m
Ġopponent s
Ġse e
a z
w ay
at ch
ĠE ld
ur a
ĠF irst
es h
ĠH aste
i ble
Ġaddition al
Ġv igilance
Ġf our
y c
ĠDe ath
Ġs k
Ġs earch
Ġh ad
ra z
Ġu s
n er
Ġp ro
Ġgreat er
al ly
os aur
ott om
Ġplaneswal ker
Ġ ri
at ed
Ġre st
i x
v o
Ġb ottom
Ġw ar
w ar
m p
ĠA d
ic er
Ġe very
Ġex p
Ġcost s
tl e
re n
ĠC reate
Ġon ce
Ġnon land
rotect ion
ĠH e
Ġc l
Ġdoes n
ĠD em
r on
est ruct
ĠIn s
Ġa ble
ĠD efend
ĠF a
ĠCon st
en ce
i al
ain s
I f
ef ore
ĠDefend er
Ġth ough
Ġm ill
Ġlif elink
in osaur
Ġk now
g re
i ous
ĠW h
Ġex iled
ĠF or
le m
ĠW all
Ġland s
ou ble
Ġm uch
ĠU nt
av es
o od
ĠAr ch
Ġ ru
ĠDem on
f ect
Ġor der
rtif icer
ĠO n
ĠH er
Ġse c
Ġs ur
ĠIns ect
Ġp o
as ure
Ġl ast
ĠM on
ĠU n
ĠT ap
Ġin d
Ġli ke
ur m
Ġpermanent s
ol l
ĠR o
ri m
id er
at her
or y
ad ow
ap t
Ġs w
ĠSc out
u d
v el
Ġn ever
c l
Ġt ra
Ġcontrol ler
Ġ ra
Ġb efore
Ġm on
r ough
ĠA ll
ĠD inosaur
acrif ic
! <|
or s
Ġl ose
ĠA rtificer
Ġfor m
ĠRe ach
Ġs acrific
ic ker
Ġblock s
Ġ~ ,
a us
Ġc ould
' re
ĠGo lem
Ġname d
a pped
Ġ Y
and om
Ġcolor less
Ġr andom
ĠS w
Ġf ight
el f
ĠS er
Ġtyp e
Ġrem ove
ĠR eg
t s
ĠC l
ĠB lood
ĠConst ruct
v ed
Ġj ust
Ġag ain
ou d
ĠB l
Ġunt apped
Ġ qu
ĠT urn
ĠI s
Ġt ri
Ġpay ing
ĠM in
Ġis n
Ġcomm and
estruct ible
a ble
o ok
Ġbl ue
a id
Ġb oth
Ġg r
Ġwh at
Ġ 8
' ve
i ed
Ġp art
h in
g g
ĠL e
Ġblock ing
Ġm ost
Ġre s
o f
er ie
raz i
Ġs l
Ġm ust
ĠEld razi
Ġ el
Ġn ew
ĠM enace
Ġre ach
ig n
Ġwor ld
on s
ĠR em
Ġtyp es
at er
ĠT o
Ġartifact s
f ul
k ing
u b
re ad
al f
ol f
ĠTh at
Ġle aves
l ed
ĠS n
ĠP ir
Ġth rough
Ġd ra
ĠD o
ion s
ic t
ener ate
i gh
p l
en s
ĠD estroy
a il
m er
Ġo ver
Ġs he
Ġd ay
Ġdiscard s
Ġnon c
T he
ĠReg enerate
er t
ĠCreature s
Ġe ven
ĠAs s
in s
u g
ĠS e
Ġst ill
et h
Ġd id
ĠD war
as ic
s o
ĠTre asure
ĠRem ove
ĠW urm
if f
ĠOr c
* <|
ĠF orest
u ll
re am
os en
wal k
ĠO gre
Ġcho ice
Ġind estructible
o y
p ro
Ġtarget s
un g
Ġdeath touch
Ġnonc reature
ar g
ĠDeath touch
ĠFa erie
i ft
i ent
Ġb lood
is on
ĠT hen
Ġde ad
ick ed
m b
Ġc aus
tl y
ith er
Ġatt ach
av en
y r
Ġb ack
ĠPir ate
Ġm enace
ĠDra ke
' ll
b e
is s
a ut
k s
l es
w e
Ġp h
Ġh im
Ġh ear
ĠN ight
oll ow
k in
i ef
ĠL if
ĠIs land
Ġa d
Ġde v
Ġen ough
p er
ĠR at
Ġal so
Ġch osen
Ġf e
os s
o b
ĠS he
ĠEn chantment
o c
ar s
ot aur
ĠP re
al e
Ġn eed
ang er
way s
v is
v ing
th ing
Ġar m
Ġt ot
Ġs m
pro of
f in
i k
at es
Ġb r
Ġs ome
ĠA v
Ġcom p
Ġd es
ĠW olf
ĠDe v
Ġtot al
? <|
an e
ex proof
Ġh unt
Ġbe t
a u
ho ose
Ġc reat
ar ch
Ġd ie
ĠG u
Ġturn ed
Ġ Q
Ġp rotection
Ġt ru
Ġb asic
Ġs ay
u ally
Ġ im
el y
Ġp e
Ġg l
ic h
Ġe y
ĠSh ap
ĠSw amp
p s
al t
ĠIt s
Ġpay s
o on
ef olk
ĠSk y
Ġattach ed
c es
Ġb el
Ġt w
Ġa c
al d
ĠI mp
ĠE qu
Ġbecom e
Ġal ways
ĠAl ly
a f
ch o
Ġm orph
Ġli ght
ear s
Ġta ke
Ġsec ond
an s
it s
ĠD og
Ġk icked
c ap
es e
ri d
ers er
Ġbattl e
Ġwh ile
Ġpo ison
ĠDwar f
i fter
it ch
Ġf ive
ĠB erser
Ġal one
a ker
ĠS un
Ġn ight
ĠM ount
ĠM orph
ĠSp ell
ire d
Ġsc ry
a i
n al
Ġt e
ar i
Ġs u
ĠS oul
ĠP ro
ĠMin otaur
a wn
Ġs our
ĠS earch
ĠA ura
Ġg u
Ġmon st
Ġa ctivate
Ġof f
ro ll
Ġh ow
ĠBerser ker
v est
el et
ĠThe re
Ġlo st
ĠTre efolk
f orm
z e
in t
Ġs er
Ġs ame
ge d
Ġm ake
ĠG l
p et
Ġd ouble
ro ss
ĠS qu
ĠH y
Ġbe en
Ġsh adow
chant ed
Ġa pp
ar b
Ġb ase
Ġd iff
Ġf ind
ent s
Ġst r
Ġk n
Ġt r
Ġb and
Ġd is
esh ifter
A t
a ir
d ra
o x
Ġa fter
ar a
ĠC yc
iz e
ip ment
ĠShap eshifter
Ġ ef
in n
Ġm ind
ĠI ll
us ion
Ġam ount
ass in
Ġg ame
Ġent er
ĠM ut
ĠSp ider
ĠWar lock
hin x
Ġf ollow
ut e
ĠNo ble
ĠUnt il
r oud
Ġ keep
Ġt re
Ġto o
ĠG uard
ĠOn e
ĠSn ake
n y
at t
ĠS am
ct or
ĠAss assin
ĠLif elink
ing er
ĠS ome
Ġn at
ĠL and
in j
ĠâĢĶ *
Ġbe ing
to ken
Ġk ind
Ġse ven
Ġc ar
ĠW ard
ĠD r
ĠMer c
Ġgo blin
at ar
Ġf orest
Ġnon token
ĠAd vis
ĠPre vent
a ver
Ġb est
ore d
rif fin
Ġtim es
ĠS il
ĠP rotection
ĠSp hinx
ĠAt t
ĠMon k
Ġsacrific es
an n
us p
Ġro ll
ĠUnt ap
ĠAdvis or
u nd
at s
ĠAr m
ĠAv atar
al m
Ġ1 0
ĠM ar
ĠP art
Ġdiff ere
ar ian
Ġf ear
Ġf ire
Ġp aid
al ken
and er
Ġplay ers
Ġper pet
ist s
ph ant
sh ip
Ġexp lo
Ġsour ce
m age
r act
re et
m are
ĠC ent
ĠC hoose
Ġf o
Ġf all
ĠEqu ipment
ĠIll usion
a x
Ġm ut
Ġm ag
ĠN inj
op e
ĠArch er
Ġdid n
Ġperpet ually
ĠM an
Ġsp ent
are d
Ġle ave
Ġs oul
f all
g u
re s
Ġth ink
al s
Ġl it
ĠT ra
ear th
Ġen em
g r
Ġc all
Ġs ix
el p
ro s
Ġh igh
Ġin t
Ġn ow
ĠK or
ura i
apt ain
Ġc ity
ar n
Ġw ord
Ġp ass
ra b
ith kin
Ġef fect
g th
am i
am il
ro g
Ġl egendary
ĠD es
Ġas s
ĠK icker
at ter
ar m
ĠC o
Ġd ark
Ġw on
Ġe v
ĠB ut
amp ion
b el
c ient
t ing
w or
in ed
id ed
us h
ĠWh at
w ise
at ing
Ġa ctiv
Ġw ard
ĠF ire
ĠG od
ran s
ĠQ u
r ous
ĠL ord
av u
ĠHy dra
w here
an cer
ĠC om
ĠB o
ap er
ĠSam urai
a h
ar th
ot ion
Ġl et
ĠH ell
ĠD ouble
ĠB r
ĠG h
iv ers
Ġle ast
Ġrem ains
ĠSk elet
vo ke
ren gth
Ġmill s
b orn
i ke
Ġg row
ra ft
Ġattack ed
im e
Ġk ill
Ġsk y
ĠCent aur
Ġs om
ed alken
he m
ear n
ĠSh adow
u k
Ġd ist
Ġpl us
ep h
Ġsh are
ect ive
p e
Ġ '
re ak
Ġw ant
e ep
in ce
Ġw atch
Ġh exproof
ĠT r
ĠG riffin
Ġab out
gg ers
j inn
p en
Ġs ing
Ġm ight
ang el
ation s
Ġgo od
Ġtri ggers
cap e
ĠPart ner
p ent
u p
on es
Ġf a
Ġf ew
ĠF ood
Ġre g
Ġdraw s
ĠAr c
ĠPl ant
ĠUn earth
u ck
y e
er g
at ive
ĠH ar
ĠD et
ĠP ay
iz en
ĠCh ampion
Ġsacrific ed
Ġdra gon
ĠMerc en
Ġlit tle
o ved
re l
Ġth ings
ĠA nd
ĠM ir
ĠV i
Ġcom e
Ġpre vent
Ġey es
c ed
e v
Ġc ame
ĠA b
ĠB ack
ĠG r
Ġdefend er
i pped
in o
Ġs now
Ġd ied
Ġf ri
ut h
ĠB attl
ĠEle phant
ĠMy r
Ġcommand ers
Ġmonst rous
in es
ĠS ent
Ġl earn
ĠA fter
ĠP h
Ġst e
Ġst rength
ĠK avu
ag er
ec ial
ĠDev il
ĠSkelet on
c on
l ight
t e
er r
Ġd iv
Ġg uard
Ġcast s
Ġri ght
ĠDo ctor
ĠMut ant
ĠLand fall
k es
re ss
Ġa ge
ĠD jinn
ĠM aster
ĠL izard
ĠG n
ter nal
ash ino
Ġreveal ed
Ġgreat est
Ġsec re
vest ig
' m
Ġc le
Ġa way
Ġo il
an ge
Ġh ere
Ġg od
ĠH unt
ĠM ag
Ġst and
ĠK ithkin
wo od
th ers
Ġle ad
Ġhe ad
Ġsur v
D amage
a it
re nt
le ct
ĠP er
ĠN ow
Ġv ict
op le
Ġpre y
vo id
we en
ĠDet ective
' d
> .)
it ter
Ġb u
Ġf ore
Ġf ound
Ġh elp
ĠA ven
ĠT roll
ĠE very
ĠM age
og g
ak es
i en
it or
ĠC it
Ġw in
ĠS o
ic ate
ĠE mp
Ġits elf
ĠV edalken
od y
Ġdiffere nt
ĠVi ashino
f or
h ing
i ers
re r
Ġs il
Ġm aster
il t
Ġcon t
Ġe ver
Ġe ither
Ġany thing
Ġle ft
Ġagain st
ĠMercen ary
e y
l if
m on
y n
Ġa rt
ad d
ĠHer o
Ġsw ord
Ġcaus es
Ġdev otion
Ġbet ween
i um
ou n
ac es
st er
Ġm er
Ġg ive
Ġany where
ĠU r
Ġwor k
Ġru n
ĠSer pent
Ġtru e
Ġstr ong
j ure
s c
Ġs un
Ġp r
Ġh ome
ĠA c
ĠH is
ĠP row
Ġsp irit
pp er
us k
Ġreveal s
Ġwe ap
ĠOther wise
ĠNight mare
c end
u nder
v ish
y ing
Ġc lo
Ġth ese
Ġy et
Ġp rotect
al ker
ay a
Ġin vestig
ĠE m
Ġpe ople
s ide
w ard
Ġt em
al es
ĠS ur
ol t
ant s
Ġup on
ĠEld er
Ġcaus e
n ot
o ze
or p
el ves
Ġe m
ĠE ven
ri der
ung us
Ġph ase
A ny
s er
Ġ 9
Ġ es
ĠC ol
Ġs old
Ġf in
Ġm ount
ur y
ĠR anger
ĠL ook
ad ness
Ġli ving
ag a
Ġband ing
z z
Ġc yc
ĠW ith
ro p
Ġh ist
ĠD om
Ġe as
et her
ho p
ĠYou r
Ġen erg
ĠTh ose
Ġnot hing
Ġgr ound
ĠMount ain
Ġnat ure
Ġ ext
en ix
Ġd ef
Ġd ream
Ġf ar
al k
il es
Ġh ard
Ġh uman
ĠA k
ri est
ĠB ear
ho enix
Ġwh ich
ry ad
Ġr ather
Ġrem ain
Ġ* <|
Ġhear t
Ġactiv ated
ĠCit izen
A s
e er
end s
Ġs n
Ġm et
ĠS ap
ĠG ra
Ġsh ould
Ġen chanted
Ġfl ip
ĠDr one
Ġsing le
m aster
Ġs ince
Ġw ild
Ġbe c
Ġe cho
ĠR es
ĠL et
ĠG reat
ĠK eep
ind er
Ġcommand er
ĠCyc ling
gu ise
e ak
i ra
en se
Ġc ur
on y
Ġb ro
ot s
Ġs usp
Ġw ind
ro c
Ġm ade
Ġe at
ĠB arb
ĠG re
ĠN ec
ous and
The y
ĠGuard ian
Ġinvestig ate
d u
e ch
o ice
s elves
it i
tl ess
Ġw ell
Ġh ope
ic al
Ġcon s
ĠG arg
Ġpl ace
ĠO oze
Ġsh ield
Ġrem oved
Ġsee k
Ġthough t
eth ing
P ut
a ired
Ġc ru
al ad
ef ul
ĠH alf
ol ves
Ġst art
ĠRe bel
az e
gr ound
d e
v ers
re sh
ĠW ild
ay er
ĠF ungus
ĠP hoenix
Ġre n
ĠK ra
hin o
Ġres ult
n a
on or
ic s
ĠF ear
ĠR av
Ġde c
iv es
Ġcom es
Ġbr ing
ĠNinj a
Ġo pen
in el
Ġf eed
Ġp ur
ĠD on
ĠD ryad
ĠL eg
ri ght
all er
Ġtw ice
i b
Ġth ing
Ġo thers
Ġs et
ay ers
Ġre p
Ġgraveyard s
ul ar
Ġfl esh
T o
a im
c ess
i ar
i ence
l ord
s elf
re ed
Ġt en
Ġh or
ĠA ur
ic a
ĠO nly
Ġsh all
Ġper fect
Ġhe al
ĠPl ains
ĠOn ce
ĠCl ue
Ġbel ie
Ġmut ate
Ġenerg y
L ook
a ken
f l
t ed
er ing
Ġb urn
ough t
Ġm in
ĠS now
ĠA g
ĠB and
ack ing
Ġbl ess
Ġse a
own ed
Ġfe el
ĠBarb arian
b ack
e k
an a
Ġd isc
Ġu se
ra ge
Ġin c
Ġbe y
ĠR hino
bl es
ĠU nder
ĠRe veal
ĠArm y
l an
n g
s u
x ic
z a
am orph
ro ling
ur al
ĠI nd
ĠM oon
ĠL ight
ĠG or
lo ps
im es
You r
Ġhand s
ĠSp ect
ĠIn f
Ġfl ash
rim e
ĠBo ar
u es
an c
an king
ow ard
Ġs y
Ġs uch
Ġs af
al ity
ĠD isc
ke y
ĠN ot
Ġse en
ĠAn y
aw s
Ġwar rior
au ght
eph al
a pp
e ath
reat h
an ion
Ġw ings
Ġh ide
ic orn
Ġcon jure
ĠThe ir
Ġthem selves
ous e
Ġcolor s
ĠSc aven
ĠDe void
ĠSt orm
ĠEx p
Ġme an
ener al
read y
Ġph as
Ġsom ething
m a
p le
s w
en ge
Ġo ld
Ġy ears
ac le
Ġw ait
ge on
st one
Ġp ath
ĠS y
Ġh alf
ĠD is
id d
bl ade
Ġlo y
Ġar ound
Ġdra ft
ĠSap roling
a e
a unt
c est
Ġb ig
ĠC aptain
ĠI nt
iz es
us e
un e
are c
Ġal ready
Ġch ild
sh aper
war m
Ġhist or
b or
d om
Ġc are
am es
Ġb o
ĠC ount
Ġs ize
Ġm ove
ĠT y
ve il
Ġn e
ir rel
ol y
ĠE ternal
ĠB al
id s
et imes
ru s
av or
Ġbl ade
ĠIn c
Ġro om
Ġel se
alt y
Ġac ross
Ġgoblin s
angel ing
ĠSent inel
hop ter
Ġbey ond
C reate
t ell
ar ing
ow s
Ġd el
ro l
Ġp at
Ġm em
Ġg iant
Ġbe aut
ĠM a
ĠB en
Ġre f
ad es
Ġst op
id es
un ger
Ġpart y
ĠGu ild
Ġmag ic
ĠBack ground
c raft
t ra
ar ies
ĠC ast
âĢĶ <
Ġan cient
ĠH exproof
om ad
ĠP at
Ġre c
Ġde ck
Ġde ep
ad y
eg amorph
ĠSp end
ig ure
em an
Ġequ ipped
ĠJ ust
Ġtra vel
Ġqu ick
Ġpart ner
Ġim p
wor k
ĠGarg oy
Ġth ousand
Ġf amil
Ġw r
ĠW ind
Ġh old
ĠT ur
ĠT hopter
ra s
ĠD u
Ġent ered
ĠR en
ĠG old
Ġsp ecial
are r
Ġwor th
Ġqu est
Ġenem ies
arec row
h ind
Ġt er
it an
Ġs ound
Ġd anger
el e
Ġm akes
Ġl ater
il s
ĠF ox
ri er
ĠG ate
ĠN y
ĠSh ade
Ġse em
Ġso on
ĠRo b
Ġhistor ic
eman ship
ĠGargoy le
o v
Ġt ouch
Ġa ir
Ġp ast
il y
ĠF rog
ut ure
as c
ĠE cho
ĠR ak
ĠP e
ĠP ar
et er
ect ed
Ġen chant
ĠTh ese
Ġdiscard ed
ĠCh angeling
ish ed
Ġdestroy ed
ĠEn chanted
ather light
Ġday s
) .
m ith
re w
Ġt ell
at yr
ar p
or ies
al er
ra g
Ġin s
le ep
Ġbe ast
ĠL o
Ġput s
Ġv ot
av al
Ġch ar
Ġun b
Ġred u
Ġbet ter
alad in
ĠHalf ling
E ach
r ic
v ol
Ġo b
ft en
Ġw all
ĠW or
el s
get her
ri x
Ġcount ered
ĠK ami
ĠN e
ire s
ĠSc arecrow
ip le
Ġarm y
ĠSpell s
Ġenem y
roc od
s ed
en g
Ġc ry
Ġo ften
ĠC rab
Ġw ater
el t
Ġp ack
ĠA m
Ġe arth
ĠP il
ĠG e
ĠG ru
ĠK ar
ĠK ing
Ġex ert
ru ll
raw ler
ĠZ h
ĠEl ves
ĠTh resh
pt ion
Ġsm all
Ġcreat es
ĠRav n
H uman
e ker
m it
v ant
in er
Ġs aw
or i
ro d
ent or
ĠD el
ĠM et
ĠB ar
Ġex ist
ĠO ur
od on
Ġexc ess
ĠHor se
ĠWh ile
ĠHer ald
ĠSpell shaper
ĠCyc lops
Ġword s
Ġsold iers
ĠCount er
rocod ile
ĠThresh old
A r
k ers
r ing
Ġ z
Ġt rans
er a
in ing
Ġb en
ĠC or
Ġs aid
or os
Ġf uture
Ġm ort
Ġin sp
Ġn ear
ol og
ĠR ing
ĠM ind
ri b
ĠB at
Ġcan not
et y
Ġco in
iv ing
ĠDe ep
Ġj our
ĠUn icorn
Ġey e
Ġtre es
ĠCom m
ĠArc ane
in ation
Ġb reak
ĠC ar
ĠC rocodile
Ġd un
Ġan gel
Ġm adness
Ġl eg
Ġh o
Ġh onor
ĠA ug
ĠF ish
Ġbe hind
ol s
ĠM entor
Ġre l
ch er
lo om
Ġsp end
Ġst ud
ke t
Ġli ves
ĠV e
Ġv is
ere r
Ġrem em
ĠSqu irrel
ĠMan y
Ġdark ness
E L
c ul
e el
g an
Ġc rime
Ġs ub
Ġd ri
Ġf ree
Ġm o
Ġm atter
ĠA ether
ĠT ime
ĠD awn
Ġwith in
ĠR ed
he t
ĠP aladin
ĠB ro
eg as
Ġcast ing
im ic
ill ed
av ing
keep er
Ġcol lect
Ġwas n
row s
Ġexp er
Ġtri g
ann el
Ġcyc le
a j
a os
h ic
i end
s ided
at ic
Ġc ou
Ġa ct
am m
it es
Ġs im
ĠW atch
st ic
Ġm od
ĠS atyr
ĠA z
ĠT rans
ĠH om
ĠI m
ĠD usk
as k
ĠE f
Ġst one
Ġst orm
Ġst icker
im s
ru it
qu is
Ġsh roud
ag es
Ġevery thing
Ġmon arch
Ġfight s
ĠLe vel
Ġgod s
ĠProw ess
Ġren owned
ĠTy ran
a ult
b ers
i ath
re aker
Ġt ry
Ġb ones
ĠC ephal
Ġw his
Ġto gether
Ġp aired
Ġm ark
ĠS or
ur g
ĠT em
Ġg ift
ra sh
ĠF rom
Ġe mer
ol ored
ĠN aga
Ġv ol
ul k
Ġlong er
op y
ĠCh im
ĠMon st
aus e
Ġel ves
rid e
Ġkn own
ĠBattl e
Ġsecre ts
ĠLeg ion
Ġbelie ve
egas us
E V
h old
Ġ |
er ate
Ġc r
Ġb ra
Ġb reath
Ġm ult
ĠA pp
ĠT er
Ġu nd
Ġg ot
ra k
ĠD ark
Ġin v
Ġn ec
ĠM o
ĠM ist
ĠL EV
ĠB as
Ġre sp
Ġde cl
lock ed
Ġex iles
ĠO b
ĠIn st
ĠAn cient
ĠSl ivers
ener ated
Ġcl oud
Ġknow s
Ġra ge
ĠMin ion
Ġlearn ed
ĠKra ken
Ġphas es
ĠTur tle
ĠRavn ica
ĠLEV EL
A n
_ _
c o
g uard
j ect
r ath
u al
re t
Ġt ext
Ġt oward
en ed
Ġc or
in ity
on in
Ġb orn
Ġs ent
is k
is her
Ġf ield
Ġp ain
ĠS m
ĠS av
Ġl egend
ĠT itan
ra p
ĠH ow
ĠH ost
Ġcontrol led
ĠF amil
ut su
as m
he ad
ĠP rim
Ġas k
Ġli ve
ĠO ut
Ġab ove
Ġwh y
ĠIn sp
ĠEl vish
ĠU nd
Ġcreat ed
ĠGh oul
ĠSpect er
Ġdun geon
W e
a o
b it
c y
c yc
k i
o ke
er n
Ġa w
ar l
end er
ow ing
Ġf ier
ĠD read
et s
ru pt
Ġk ing
ĠIn fect
ag ue
oth ing
ĠFl ame
Ġpre c
Ġpre d
ron t
Ġgl ory
Ġcar ry
ros ity
lif erate
bor g
Ġunb locked
d ers
p ose
r is
Ġ ge
Ġb ody
ĠC aval
Ġd u
ĠW hy
ĠS warm
Ġin iti
Ġn or
ĠR aven
ĠM ay
ĠP riest
ri es
ĠG ol
Ġsp eak
ĠO x
iz ed
Ġare n
ment s
ĠTh ough
ĠTh rull
Ġstep s
ĠZomb ies
ak ing
Ġlo ve
ound ed
ĠRat s
Ġcomp le
Ġfri ends
Ġloy alty
ĠBen al
Ġspecial izes
ĠTyran id
c i
g es
u tl
it ed
Ġs ure
Ġd one
Ġf le
Ġw is
el ess
el com
Ġm ere
ĠA rt
ĠT or
Ġg old
ĠF ore
as on
Ġturn s
ĠE nt
ch es
Ġde p
id ers
id ence
ĠV ol
ag ing
Ġreturn ed
Ġless er
ĠSc ion
Ġout side
ĠPl ot
pl icate
ract ion
Ġreg enerated
ĠPh ant
ĠGn ome
Ġsurv iv
Ġbu ild
Ġfore ver
ĠDisc iple
ĠFamil iar
f ire
h orn
w ing
z an
in ct
ĠC ur
ow ar
Ġf ell
ro st
ĠS u
ĠA ff
ĠH igh
ĠD ream
um mon
ĠR un
ĠR iver
Ġsp ore
Ġv ill
Ġsh ow
Ġta kes
ĠDe ad
Ġcomm on
ign s
ĠSe a
alt ed
Ġsu pp
form er
Ġkn ew
Ġtr uth
Ġexplo res
Ġsoul s
Ġdragon s
Ġweap ons
Ġes cape
Ġbec ame
lan owar
cul us
ĠEf reet
ĠCephal id
ĠChim era
We atherlight
cyc ling
C hoose
c le
h a
h i
o ot
p ers
r al
s cape
Ġc ent
an i
ĠC an
Ġs qu
Ġd estruct
ĠW itch
st and
Ġm ar
ĠS age
Ġh unger
ir t
ol ar
ĠE mb
ad a
Ġsp read
ĠK am
ĠSp y
ill s
ie ge
Ġsh ap
ĠGoblin s
ĠPhyrex ia
ĠOr der
Ġpro du
Ġsur veil
ĠCl oud
led ge
Ġser ve
ĠNinj utsu
Ġfa ith
ĠHunt er
ĠHero ic
Ġweap on
Ġpur pose
ĠInd estructible
c ept
ure s
it z
Ġd ire
Ġw ish
ĠW here
Ġan sw
Ġto ok
Ġh ar
if ic
ed ge
ĠA ut
Ġg ener
ic es
ic olored
om at
le y
ir in
um bl
ĠM or
ĠM ult
ĠL ike
rom ancer
ap s
ĠN ew
ĠN omad
ĠEl ite
ĠTh under
Ġcho oses
ĠAr g
ĠCh annel
ott en
ĠMy stic
Ġsk ies
Ġpo int
Ġdead ly
ĠUr za
Ġmet al
Ġstart ing
Ġbless ing
Ġsy mb
ĠExp lo
Ġben eath
ĠMonst rosity
c c
k ite
t he
at ely
ou p
ĠC ou
Ġf ury
Ġp ers
ĠS ire
Ġl ine
Ġh ors
ed s
ĠA p
ĠT yr
ĠR a
ĠB ush
ad er
ĠO utl
Ġv ampire
out h
ian ce
Ġown ers
ip er
ĠSt one
Ġfl ame
gre ss
ĠTo xic
Ġcomp anion
ĠGu ide
Ġte eth
Ġev idence
ĠCom p
Ġste el
Ġeas y
asc ade
R e
d os
r in
w ell
ĠC y
Ġd r
ĠW ay
ro v
Ġm om
al king
ĠS al
ĠT w
ic ore
Ġon es
ĠF all
le g
ut ion
as ant
ĠR u
ĠR apt
ĠR aid
he art
ĠP egasus
Ġre al
ack er
id o
Ġattack ers
im id
Ġgain ed
ĠSh ield
un culus
Ġk ami
th s
Ġle vel
Ġch ange
Ġun p
Ġro ck
pt s
Ġcl aim
ert ain
ĠSqu ad
Ġnat ural
Ġeffect s
ĠDes ert
Ġsurv ive
rent ice
ogg art
ĠDom in
ĠDis guise
Ġquick ly
ĠRak dos
f igure
i pp
Ġ .<|
it t
Ġb ur
Ġs ide
Ġf un
ĠW ill
ĠW ood
Ġh arm
if ul
ed ition
ĠA pe
ĠT ief
Ġcon n
eld or
um ul
ĠL i
ĠL lanowar
ĠP y
ĠB est
Ġfor ce
Ġattack er
ĠK eld
ho v
ist er
Ġcop ies
ĠSk ir
Ġher o
Ġar ri
ator s
ĠSe er
ung le
iss ary
Ġdis guise
ĠWard en
ĠHell ion
Ġvict ims
Ġrep res
Ġmean ing
Ġdanger ous
Ġjour nal
ĠTief ling
C h
c an
c aller
e en
i qu
j eldor
m in
Ġ very
Ġs ol
Ġs add
is ed
or a
Ġw ood
Ġp oss
ĠS om
ĠS ec
ra d
ic ian
ĠH ag
Ġcon st
ast ers
ĠF er
ĠP ower
ch ed
ru sh
ĠV eter
ĠN at
Ġsh ip
av im
Ġen c
ĠRe con
op s
ĠCon s
Ġfl anking
Ġgo ad
sp er
vent ure
Ġru le
ĠY avim
ĠSwamp walk
und red
hem oth
Ġcle ar
Ġdream s
Ġbeaut y
ĠVe hic
Ġwis dom
umul ative
E l
e al
g otten
k a
m e
u ro
v al
Ġ ve
Ġc ut
an ct
ow ed
ac red
Ġf ood
Ġw alk
ĠW ho
ĠW his
Ġan cest
Ġp air
Ġm ain
Ġm ist
ĠS usp
il ity
ĠA st
um m
ĠE ye
ĠR ad
ĠM al
ĠM ant
ĠM ost
ĠP rot
Ġpl aces
im ir
ĠK ob
ĠK jeldor
Ġv oice
ist ed
un n
ĠTh ief
ĠU l
ĠBe e
Ġr ise
ĠCh ar
Ġme ans
ick s
Ġsc out
ran ge
ab al
Ġpro liferate
ĠArch on
ĠBl ack
ĠBl ade
ĠLif e
Ġte ach
Ġgu ild
Ġser v
Ġtre asure
att ered
ĠSil ver
ĠAtt raction
ĠPer former
Ġspirit s
Ġchild ren
ĠRob ot
ĠVeter an
ĠYavim aya
ĠKob old
P l
g ing
i et
l i
o ck
r ator
Ġt ree
Ġc atch
end ik
Ġs leep
Ġd ruid
Ġf ull
Ġp ot
ĠS and
ent ure
ĠT e
ic ious
ĠH and
ĠI ron
Ġbe gan
Ġe ight
as ion
Ġre alm
Ġst ay
Ġst reet
ue en
ul ate
ĠZ endik
Ġwh ose
ĠCon voke
aw a
ort un
ĠAl ien
Ġsur f
ĠSer ra
ĠLe ech
Ġdiv ide
ĠGuild mage
ĠHom unculus
Ġsymb ol
. .
b ound
b reaker
f er
n e
t wo
Ġ /
Ġt reat
Ġc old
an k
ĠC umulative
Ġs ong
Ġs ight
ac ed
ge red
al an
Ġl uck
ĠT ru
ĠD ef
ĠF le
ir ium
ĠR amp
Ġre qu
Ġst un
id ar
ĠV er
ĠV al
ĠN im
ĠN othing
ĠSh roud
Ġk night
Ġdraw n
ĠEl k
Ġreturn s
ĠSc ry
ĠSt r
Ġj o
Ġplaneswal kers
Ġwar ning
ĠRo ot
Ġgr oup
Ġad v
Ġkeep s
Ġbest ow
ĠAtt ach
ĠMar sh
oun c
ĠDom ain
Ġbec ause
ĠKeep er
Ġwarrior s
Ġfamil y
ele br
Ġbeast s
ĠGru ul
Ġmult icolored
Ġdecl ared
ĠSire n
Ġhors emanship
ĠTyr ant
ĠRapt or
ĠRecon figure
c at
d own
m s
o h
s on
t acking
u v
v iv
v ok
Ġ ir
Ġt act
Ġt ied
Ġc ross
Ġth reat
end ed
Ġyou ng
Ġs ign
Ġw izard
Ġw elcom
ro ve
Ġh orn
Ġh ost
Ġh undred
ĠA er
ĠT al
ĠH o
ĠH ear
ĠR ider
ĠL ore
ĠP o
ĠB og
ĠB oros
Ġre ady
ĠG eneral
ch ing
Ġfor ces
ain ed
ce rer
ĠSp awn
Ġv i
ul s
ĠAn other
ang uard
ĠJ ack
ish ing
cl aw
ĠLe v
ĠOrc s
Ġad apt
Ġtru ly
Ġshadow s
At tacking
Ġev il
orp ion
Ġbro ken
ĠAur as
ĠGe ist
ĠDel irium
Ġremem ber
Ġdestruct ion
ĠBush ido
ĠBest ow
Ġrepres ents
ĠZendik ar
1 0
e e
g ar
l ine
m ost
n ce
n aut
Ġt err
Ġc he
Ġc our
Ġth ird
Ġb ad
ĠC ry
is ion
ac ious
Ġw ake
ro ach
Ġm iss
al con
ĠS el
ĠS ag
ĠS add
ur ies
ĠA mb
ut y
Ġe ager
as ed
ĠP ra
ĠP ack
ĠB ard
Ġst range
eg ade
im mer
rif f
ru n
iv en
Ġsh aman
ĠSt alker
ĠDragon s
ĠJ un
Ġsc ream
ĠWh ite
ĠRo le
Ġra re
Ġel e
iss a
Ġte am
ĠMut ate
Ġfollow ing
Ġfo ot
Ġfri end
Ġcont in
orp se
ĠAg ent
Ġne ither
ĠPe asant
Ġchar ge
imid ate
Ġsadd led
ĠSusp end
Pl ayers
ĠLev iath
e aker
i o
v a
w h
z hov
Ġ gh
re st
en om
in y
in it
ar ia
ac y
st alker
Ġm ach
ur t
Ġg one
ut ter
ĠE nd
Ġtarget ed
ĠM ur
ĠP ur
ri e
ch ief
ad em
ke ts
ct ion
ĠK al
ĠK ros
br inger
iz z
to oth
est s
bl ack
ĠBe hemoth
Ġcom ing
Ġr ounded
ĠEx alted
ound s
ang le
ĠCon tra
Ġshuff les
ĠWe aver
ĠOr zhov
Ġenchantment s
Ġag o
Ġres earch
ug ger
ĠIsland walk
Ġtru st
Ġpe ace
ĠMir rod
ĠAven ger
idd en
Ġwall s
Ġcloud s
Ġdu plicate
ĠRaven ous
Ġsurf ace
ĠFle et
ĠSadd le
init ely
ĠMirrod in
2 0
U nt
d ay
g en
n s
t ide
Ġa ff
Ġth under
am mer
ĠC ap
ĠC abal
Ġs av
Ġs ummon
is er
ac tly
Ġw urm
ro at
Ġm egamorph
ĠS imic
Ġl aw
il isk
Ġh it
Ġh op
Ġyour self
ĠH al
ĠF rost
ĠE v
he ther
ĠM em
ĠP rotect
ri be
ĠB el
ĠB ra
ĠB ald
Ġde m
ap h
im ent
Ġex actly
ĠO l
ĠO m
ĠO ver
ies t
ĠV oice
dd en
Ġnot es
ĠKnight s
Ġway s
ĠHor s
ĠEn gin
ĠAd ept
Ġsur p
Ġsl ow
Ġfe et
Ġhunt er
Ġgu ide
Ġmut ates
Ġhigh er
wor ld
ĠHell kite
Ġsom etimes
Ġshare s
err ard
Ġvict ory
Ġsil ent
Ġclo se
Ġtem pts
ĠGre en
ĠBand s
aught er
Ġwait ing
oly te
ĠApp rentice
omat on
Re veal
ĠJack al
ugger naut
Unt il
b t
d ge
g ari
h an
n ed
Ġ eld
en n
am bl
it u
Ġb one
ĠC rus
ĠC opy
Ġs uff
Ġd ice
Ġf ly
Ġf ade
ĠW ere
Ġp le
Ġp rom
Ġm us
al ion
Ġl ar
Ġl ist
ur b
urn ace
ĠF iend
Ġe mb
as a
ĠE mer
ĠR az
ĠM e
ĠM adness
ĠM egamorph
ĠL oy
ĠP ers
ri on
ri ble
id ing
ĠV anguard
Ġv enture
th irst
ĠTh orn
ĠU nl
Ġnon e
Ġnon black
ĠSc orpion
Ġam ass
ĠSt reet
sh ift
Ġher d
Ġpre s
Ġar ch
Ġru ins
Ġdes ign
Ġhunt ing
ĠQ ueen
Ġcall ed
ĠSent ry
Ġsecre t
Ġlead er
Ġfore tell
ĠSur viv
ĠCol oss
Ġhuman s
ĠGor gon
ĠPat rol
Ġtrans form
ĠAug ment
Ġtrig gered
ĠGol gari
Ġmere ly
Ġvampire s
ĠSom etimes
ĠVehic le
ĠLeviath an
A rtifact
b ond
f ish
t y
Ġ ou
en a
en tly
am ing
Ġb ird
Ġb right
ĠC ao
Ġs ave
Ġd en
or row
Ġf er
Ġf avor
ĠW ither
Ġan g
ĠS tro
ĠS et
Ġh app
Ġh aunt
ĠA nt
ĠH el
Ġin n
ĠF ar
Ġbe ar
ir l
ir ation
ĠR el
ĠB u
Ġcount s
Ġend less
Ġsp ec
ell ation
Ġst ar
ck less
Ġli es
ĠSp r
ect s
ere t
un ning
our ge
ĠIn n
ĠIn iti
are n
Ġal ong
ĠSt eel
ĠJ uggernaut
yp e
Ġgre w
Ġro ots
Ġpre p
unt er
Ġwere n
Ġpro v
ĠConst ellation
Ġmill ed
Ġsw amp
Ġtra ined
ĠDwar ven
oc us
Ġarm s
Ġcreat ions
Ġmonst ers
Ġdiffere nce
ax im
Ġhigh est
Ġass igns
ĠEm issary
olt ari
Ġmount ain
ĠNec ron
Ġcru sh
ĠLight ning
Ġsaf e
Ġredu ced
Ġcou rage
ĠBenal ish
ĠEmb alm
Ġcour se
ĠSag as
ĠContra ption
. '
b ook
b asic
d ig
o z
o id
r r
y s
y al
Ġt aste
Ġt own
en ing
Ġc ertain
Ġa p
in a
am ent
Ġs end
ame d
Ġf oul
ĠW orm
ard s
Ġm axim
ent y
Ġh om
Ġh ung
if act
ĠT ower
ra ith
om s
ĠD imir
Ġin f
ast es
ol as
ĠE voke
ĠR ep
ĠM od
ĠL av
ĠP r
ĠP ath
ĠB urn
ĠG ar
ch olar
ad ing
ĠHuman s
Ġst ir
ct op
ĠSp ike
od ies
ig ator
Ġsh arp
ul pt
th y
Ġunder stand
art ifact
Ġch aos
wal d
ish ra
Ġwe ak
ab ly
Ġknow ledge
Ġlast s
Ġarm or
ĠDev our
Ġbel ow
ĠHar vest
ĠGr and
Ġste al
itter ing
lif e
Ġsword s
Ġpr ice
ĠGra ve
Ġwild s
ĠScaven ge
Ġworth y
ĠWor ld
ĠMet al
Ġz one
rib ute
ĠComm ander
Ġmom ent
E x
b s
d a
h unter
r ict
v an
w olf
Ġ ill
Ġ ide
re ck
er ies
at ers
Ġc aptain
ure d
it ory
Ġf ail
el ly
Ġp ar
Ġp ure
Ġm age
Ġm aking
il it
if ied
ef initely
Ġg ave
ut en
ir th
um e
Ġe mp
as her
ĠR ig
ri ad
ĠB y
ch ange
Ġsp eed
Ġst at
Ġst ru
ĠO ctop
ight s
ĠSp l
iz ier
ig awa
Ġdo or
ĠSh iv
our s
Ġnon artifact
ter n
ĠSc ar
ĠRe cl
ĠSt ar
Ġhe av
ĠFl anking
Ġwho le
ĠEn for
Ġind efinitely
Ġsw ift
ĠY et
Ġtri b
Ġres ol
Ġsl ivers
ĠForest s
Ġhear ts
ĠGu est
Ġfo ol
Ġgrow s
Ġfew er
ĠHar p
Ġes cap
Ġeas ily
ĠMoon folk
ĠPil ot
ori us
Ġmort al
Ġangel s
Ġlegend aries
ĠCaval ry
ĠAff inity
ĠKam igawa
Ġadv ance
ĠProtect or
Artifact s
ĠStro m
T h
a un
g m
i or
m l
s y
t ain
u ge
w art
Ġt ro
Ġc ult
Ġc apt
Ġo gre
on a
ess ig
Ġs ick
Ġs elf
Ġs ail
Ġs acred
ower s
is a
Ġd awn
Ġf lo
Ġan im
Ġto xic
Ġp et
Ġm ess
Ġm asters
ĠS anct
Ġl ot
ent h
il ing
ĠT wo
ĠT angle
Ġg iven
ic id
ĠH ist
ĠI zz
Ġe arn
Ġe ternal
ol ver
Ġent ire
ĠR i
ĠM ishra
ĠB one
ĠG ho
Ġfor gotten
lo ye
her d
Ġli e
ĠV or
ĠSp ecial
Ġany one
iv il
Ġbegin s
Ġpower ful
ian a
ĠAs h
ĠAs cend
ok a
ter m
ĠRe v
Ġhe ard
ang u
ord e
Ġun f
ost er
Ġj ungle
Ġro se
ĠPl ague
atch er
Ġsk in
Ġri de
ren z
ĠSer vant
ĠBlood thirst
aut hi
we aver
ĠIsland s
Ġdes cend
Ġtw isted
ĠUr borg
ĠAc olyte
Ġext ra
Ġhor ror
ĠInf ilt
Ġflash back
Ġpat rol
Ġvot es
Ġexert ed
olog ist
Ġstud y
Ġexper ience
ĠIm m
Ġancest ors
ounc il
uv ian
Ġterr itory
Ġou tl
ĠOctop us
ĠIzz et
ĠGho st
loye e
* ,
R ather
b a
i ok
k n
k ir
n i
n ey
o ph
w ater
Ġ ign
Ġc omb
Ġc raft
Ġa ven
Ġo cc
in ess
tl ing
on t
Ġb an
Ġb ran
ĠC ut
ĠC all
ĠC elebr
ot ed
is es
is ing
Ġd ance
ac eful
Ġf elt
Ġw hether
ĠW ell
ĠW ander
ge ant
Ġl oss
ed e
ĠT ree
Ġ1 2
ĠH arb
ĠD ire
le ctor
ut t
ir ing
and on
ĠE nl
ĠE ver
ĠR ub
ĠM ark
ĠL ie
ĠL ead
ĠB ell
ĠB efore
ĠB att
Ġre ally
Ġfor t
ĠK essig
ĠO j
ĠO ld
ong ue
ĠN or
Ġv an
Ġsh ell
Ġsh ort
ath om
Ġab s
ĠZ eal
Ġse es
ind ing
Ġnon basic
ĠAn im
Ġr ats
sh roud
ove re
ĠPhyrexian s
wal ker
ĠFl esh
ĠVampire s
pt y
Ġus ed
Ġru les
ud e
cl ave
Ġpart s
ĠForest walk
be ast
Ġneed s
Ġsome one
Ġcomp an
Ġlight ning
rid ge
ĠSoul shift
Ġmind s
ĠBack up
Ġbu ilt
ĠEmp loyee
ĠProw ler
Ġdef ense
Ġdisc o
ĠInc ub
ĠInc arn
ĠSor cerer
ĠBas ilisk
ĠCou rier
ĠRa ider
ĠComp anion
iqu e
ĠPower stone
Ġvi ol
ĠLoy al
uten ant
ĠInfilt rator
T K
a ab
b o
b on
b ane
c r
c ent
c ate
c hem
h aps
k night
o j
p herd
r ay
r um
u el
u ber
y m
Ġ ke
re ep
Ġt ide
Ġt ales
Ġc as
ĠC al
ot ype
Ġs and
Ġd est
Ġf ate
Ġf ill
Ġf ears
ĠW raith
Ġp ie
Ġm is
Ġm outh
al ed
al ian
il os
il iana
Ġh ive
if est
ed d
ĠT her
Ġg en
Ġg riffin
Ġg ives
ĠH ouse
ĠD ar
ĠD ri
ĠD rom
ĠD ash
ĠD authi
ĠF ew
ĠF orm
le t
Ġe voke
ĠE vol
ĠR age
ĠR ab
ĠL ur
ĠL ost
ĠB et
Ġre b
ĠG rim
ad ian
Ġst ory
ore s
omb er
ĠK ill
ĠN on
ĠN ever
ect or
ĠSh ip
Ġk icker
Ġbl ades
ĠAs p
Ġno ble
ĠSc ourge
Ġr an
art es
Ġal most
Ġfl avor
Ġpre fer
Ġlook ed
Ġcomm it
Ġexp ress
ĠMon key
rough t
Ġfight ing
ĠBl ight
Ġfe ast
Ġdes er
Ġsay ing
ĠEqu ipped
Ġsu c
att ers
Ġexplo its
Ġfo es
Ġmight y
up he
ĠMage craft
Ġmount ains
Ġmin otaur
ĠScaven ger
enge ance
Ġbeaut iful
ĠNy x
Ġvis it
ĠAether born
ĠBro od
rupt ed
ĠPhant om
Ġunp aired
ĠNat ure
ĠAst artes
ĠMant icore
Ġpot ent
ĠHear t
ĠBald uvian
ĠHors emanship
ĠIniti ate
ĠMetal craft
Ex ile
ĠLie utenant
ĠBatt alion
A ctivate
S t
a gh
a gin
c ore
i am
i os
r one
w ind
y a
y ed
z en
Ġ Ã
Ġt al
Ġt ale
Ġc rew
ar o
am ander
ĠC ult
ow stone
is an
Ġd ash
Ġd ust
Ġd uty
Ġf ast
ard u
Ġp row
Ġm atch
al a
al wart
Ġl ab
ur k
ay s
ay ed
Ġ2 0
ĠH a
ĠH ope
Ġcon f
Ġn um
um p
and ra
ol arian
ĠE sper
ĠM ardu
ĠL icid
ĠP red
ri g
ĠB oggart
Ġre pl
ĠG ri
ĠG ain
ack s
Ġfor ge
Ġsp ark
pp ing
os ing
ĠSp ark
Ġv enom
ig er
ul f
Ġpower s
Ġall ies
Ġen s
ĠTh al
hy s
ĠRe c
Ġal ive
ĠSt rider
ĠJ und
Ġme al
ĠWe ird
ab it
ĠOr acle
Ġwar m
ĠHe aler
Ġcl ash
Ġcl aws
ron gh
ĠFor ce
Ġgr and
ĠLe onin
ens es
be arer
fin ite
Ġhunt ers
Ġim agin
ps es
ĠSoul bond
ĠSil ent
Ġwon der
Ġlet ter
uk o
Ġcle an
Ġsold ier
Ġfin al
Ġsusp ected
Ġsaf ety
Ġmem ory
Ġsim p
Ġvol can
ĠUnd ying
Ġcent uries
ĠExplo it
ĠKeld on
ĠProt otype
Ġstreet s
Ġtact ics
ĠPers ist
Ġang ry
Ġmaxim um
overe ign
G eneral
a ff
c ity
c aster
e ash
f ang
g ers
h il
i ac
m o
m ir
m aw
p ered
r ise
u ous
Ġ ice
Ġt all
er or
Ġc ap
Ġa void
in ner
an ged
it ness
it ting
on ic
ĠC r
ĠC er
ĠC ome
Ġs ho
Ġs ense
is m
Ġd inosaur
Ġf ur
Ġf ine
Ġw ield
Ġw and
ĠW u
ĠW ater
Ġto day
Ġp ir
Ġp ride
Ġm ass
Ġh um
ed ic
ve red
om ination
ĠD uring
Ġin cl
ĠF e
ĠF ang
um i
ol ly
ĠE t
ĠR am
ĠR ath
ĠR ip
ĠL ong
ĠP it
ĠB rawler
Ġde term
id ent
id night
Ġspell book
ĠO uphe
ĠV od
Ġdo g
ĠSh ambl
ĠWarrior s
ere st
man e
our n
ĠEx t
Ġch ose
ang ler
ĠCh aos
ĠCon clave
row th
ĠSk ull
Ġwor se
Ġgo ing
ort al
Ġri dd
ĠAd venture
Ġevery one
ĠFa ith
Ġtra ining
ĠSer vo
Ġjust ice
Ġgr ant
ĠSe eker
Ġbel ong
ĠImp er
Ġapp ear
Ġfall en
Ġpass es
ĠCo al
ĠMag us
Ġem pty
ĠUnder world
ĠSy l
Ġwr ong
ĠDu el
ĠComm and
Ġmark s
Ġresp ect
ĠInsp ired
ĠRu in
ĠDomin aria
ĠMarsh al
Ġwelcom e
ĠCry pt
ĠColoss us
ĠEnfor cer
ĠYet i
rongh old
Ġsimp ly
E nt
b reak
c ing
c ast
e em
f ort
g l
g rim
l s
l ers
m ph
r am
r ine
t ail
Ã »
er y
at eg
Ġc aught
an ces
Ġb ite
Ġb ound
Ġb reed
Ġb odies
ĠC ascade
ot e
or ious
Ġw ear
el est
st rike
Ġto ld
ĠS ig
ĠS oltari
ĠS cholar
ĠS overeign
il er
ĠT ro
ĠT im
ĠH ollow
ĠH ipp
Ġin ter
ir c
um b
um gar
Ġe ars
as ing
ĠR id
ĠM ast
ĠM elet
ĠL ion
ĠL aw
ĠL iving
ri ed
ĠB ur
ĠG ae
Ġsp l
ant uko
lock work
ĠK y
ĠV an
Ġv ast
em ere
ĠSh u
ath ers
ĠGo at
Ġab andon
ĠIn quis
ĠTh ought
ag on
ĠRe vel
ĠSt alwart
sh ot
Ġhe at
ord s
ord er
Ġfl ames
Ġun sp
ĠEn rage
Ġar rows
Ġlook s
Ġri ver
ĠWh ale
Ġra d
Ġra ised
Ġqu ite
Ġgr ace
ĠOrc ish
ĠShe pherd
Ġsm ash
Ġim m
itch er
Ġsour ces
Ġgu ess
Ġforest walk
ĠAtt end
Ġdist urb
Ġmer folk
ĠAur iok
Ġbo oster
ĠEternal ize
ĠBal oth
Ġgiant s
ĠRen egade
ĠGold en
Ġquest ion
Ġtrig ger
ĠAz orius
Ġaw aken
ĠFore tell
ĠAut omaton
Ġgener ations
ĠOutl ast
ĠChar ger
Ġjo in
ĠPra et
Ġrare ly
ĠKros an
ĠSet ess
ĠMod ular
Ġtrib ute
ĠHarp y
ĠIncub ator
Ġexpress ion
Ent er
ĠGae a
emere f
V ec
b y
b ut
e ous
g o
i ator
o int
r ate
w all
en ch
Ġa ether
am er
ĠC he
ĠC omb
ĠC ho
Ġd ou
Ġd rop
ac yn
Ġf ish
Ġf ought
Ġf igure
Ġw ander
ĠW olves
ĠW olver
Ġp ile
Ġm or
Ġm ine
al ks
ĠS ar
Ġl ow
il der
Ġh at
Ġh ur
Ġh ers
ĠT in
Ġ1 1
ĠH orn
ĠH aunt
ĠI x
om ancer
Ġin vent
Ġn ames
ĠF alcon
ĠF urnace
ol is
ĠE id
ĠE gg
ĠE arth
Ġent ry
ĠR ot
ĠB ody
ĠG en
Ġas h
Ġst o
Ġst ri
ant ry
ĠK in
ĠO h
ong er
ho k
iz on
to g
ill a
Ġv ers
Ġk or
Ġbl itz
ĠSold iers
Ġinst inct
ip s
Ġr ich
Ġwe ight
ide on
less ed
ĠSk yc
ĠSk aab
aw k
ia ble
ĠAd apt
Ġexp edition
Ġtra in
ĠSer aph
ĠBl itz
Ġqu een
Ġqu iet
Ġres ist
Ġdra kes
Ġarm ies
ĠAv acyn
Ġdes p
au gh
ĠSky shroud
its une
Ġnight mare
ĠMount ains
Ġsu dden
ĠPro p
Ġoff er
ĠSil umgar
ĠTr acker
Ġreg ular
ĠMir ror
ĠAb zan
Ġwin ter
ĠEmp ire
for ce
Ġdef e
ĠInt imidate
ĠNe uro
ĠZh alf
Ġleg s
ĠTrans form
Ġwhis pers
ĠOut rider
Ġpred ators
Ġiniti ative
ĠArg oth
Ġpers on
ĠSal amander
ĠCons ulate
Ġeld er
ĠWere wolf
Ġfer oc
chem ist
ĠNeuro k
A N
P h
S c
b ly
g est
h ide
h ort
p ur
t ers
u x
u ght
v y
w olves
x e
y l
Ġt est
Ġt roll
er i
at a
Ġc ascade
Ġc ivil
es a
an os
Ġb al
Ġb irth
ĠC ity
ĠC inder
ĠC ouncil
is i
Ġd well
Ġf il
Ġf act
Ġf olk
Ġf aces
Ġw ing
Ġw ond
st em
st orm
Ġp ri
Ġp ick
Ġp ract
Ġp riest
Ġh ate
nt h
ĠT el
ĠT ri
ef eri
ra x
ra fter
ĠH ob
ĠD en
ĠD ist
Ġin fect
Ġin side
ĠF an
le ase
ut ai
um n
as p
as er
ĠR im
ĠM ore
ĠM ill
ĠL ox
ĠP ain
ĠP et
ĠB ant
Ġre ward
ch ie
Ġfor get
ad s
Ġsp ect
Ġst om
Ġst ick
Ġput ting
ĠK irin
Ġex amp
ĠO w
Ġman ifest
br and
Ġv engeance
iv ien
all i
ĠWizard s
Ġk in
Ġk ithkin
ĠZ uber
th roat
ĠIn k
ĠTh ass
ĠTh rab
Ġta king
ĠAn cest
ĠRe aper
Ġwould n
ak ed
ove red
ĠJ elly
Ġwill ing
Ġmy r
Ġfl ight
Ġro ar
Ġgo es
sp eaker
ĠAl ab
ĠPl ayers
az ing
Ġsk ull
vo ker
ĠMon ster
ĠRo ck
ud ge
Ġform er
Ġel vish
ful ly
ĠPir ates
ĠAss em
ĠSe e
Ġhim self
Ġbr ings
Ġsay s
Ġtw enty
Ġac cept
ĠPro dig
Ġfollow s
Ġfire s
Ġmag es
ĠDes p
ĠAb omination
ĠEm ber
olt en
ĠCol lector
Ġcur rent
Ġwind s
ĠGre ml
ras her
ĠRen own
ĠPhant asm
Ġvill age
Ġansw er
ĠWhis per
riff ins
ĠBurn ing
ulpt or
ĠRig ger
Ġbran ches
ĠZeal ot
Ġdisco ver
ĠIncarn ation
ĠEvol ve
ĠRec ruit
ĠDuel ist
ĠSig ard
ĠWolver ine
ĠThass a
ĠThrab en
A l
C aptain
S h
T arget
b ow
c a
f oot
h ir
i od
i us
j oy
o ves
s l
s ion
u at
u pp
u ld
w urm
z umi
Ġ er
re ci
Ġt or
Ġt ask
Ġt unn
Ġc orpse
Ġa ut
Ġa wo
es k
es ny
ft ain
am a
Ġb ar
Ġb ri
Ġb ond
ĠC le
ĠC arn
ĠC rawler
ot er
is ay
Ġd war
or ous
Ġf ang
Ġf reed
Ġf illed
Ġf ront
Ġw aste
Ġw ise
Ġw aves
Ġw aters
ĠW ing
Ġp un
Ġm ad
Ġm oon
al y
ĠS im
ĠS yr
ĠS leep
ĠS eng
ĠS iege
Ġl ack
Ġh aven
ĠA h
ĠT iger
ra id
ic ken
ĠH aven
ĠH onor
ĠH unger
ĠI ce
Ġin h
ĠF ound
ir m
Ġe gg
ol on
ĠR ho
ĠR oll
ĠM ach
ĠL ancer
ĠB all
ĠG er
ĠG ive
ĠG rix
Ġis land
ant u
ep ar
Ġget ting
et ic
im ate
ĠK ol
ĠK her
ĠO f
ru k
ĠV old
br ace
old red
ie ftain
bl ed
all id
ere n
Ġnot ed
Ġta ught
one y
ip l
ĠRe ckless
ĠSt e
Ġch ance
se eker
ĠSl ug
Ġme asure
ĠCon jure
Ġun att
Ġwor ry
ĠWe i
ĠEn core
unt ie
Ġwhen ever
atch ling
Ġus ing
vo cate
Ġcl an
ĠFa ir
ĠWall s
Ġsacrific ing
ĠDo om
ens ity
ĠAss ist
Ġph ilos
ĠNight stalker
Ġsm ell
ik a
Ġac c
Ġte ch
Ġapp reci
Ġcall s
Ġint ensity
ĠDes cend
ĠCo ven
ĠCo hort
ĠBut cher
Ġkill ed
Ġdist ance
ĠArc bound
Ġdiv ided
Ġhead s
Ġsil ence
Ġart ist
Ġclo ser
Ġsusp ect
Ġcons ists
Ġbig ger
ĠNy mph
Ġseem s
Ġvot e
ĠPil grim
ĠAug ur
ĠWatch er
ĠTrans m
Ġcomple ted
Ġfle e
Ġgold en
Ġdep ths
Ġhar vest
ific ations
ĠExplo rer
ĠCy borg
Ġconn ives
ĠKjeldor an
ĠBee tle
ĠSel esny
ĠJun k
Ġsummon ing
ĠRaz or
ĠSpr ite
ĠSpecial ize
Ġhorror s
ĠMark ov
ĠLead er
ĠVod alian
ĠCoal ition
ĠPraet or
ĠEid olon
AN G
ĠLox odon
Ġexamp le
ĠZuber a
Target ing
uat li
ĠSeng ir
ĠGrix is
ĠVold aren
ĠSelesny a
C lan
D uring
T a
e et
g rowth
i ge
k ki
t i
t am
v ation
z ed
Ġ ver
Ġ edge
Ġt end
Ġc at
Ġc oun
Ġo dd
in ter
an ar
an tly
end ary
it ude
tl es
Ġb ol
Ġb ell
Ġb us
ĠC lo
ĠC ru
ĠC aller
Ġs at
Ġs warm
Ġd im
Ġd ig
Ġf ruit
Ġf uel
Ġw ave
ro an
Ġto m
Ġm ilit
ĠS ub
Ġl ines
ent ion
il ess
Ġh eld
Ġh aving
ur ch
ĠT ales
ĠT aj
Ġg n
Ġg riffins
ĠH ound
ĠH ead
ĠD ep
ĠD ale
ast ed
ĠF ort
ir cle
um in
and s
and ed
and erer
ĠE r
ĠE scape
he el
ĠL or
ount y
ri k
ĠB ad
Ġde mon
Ġst ood
Ġst ories
id ian
id able
ĠO t
ru its
ĠV ision
ĠV oid
ho d
ĠN aya
ig an
ĠWar lord
iv ia
ble m
ther ium
ul er
ĠSh ark
all s
ath ar
Ġen gin
Ġse ed
ĠIn voker
ĠSpirit s
ĠBe hold
ak os
Ġch all
op l
ĠCh ain
ĠCh ron
oth ers
Ġmy th
Ġmy self
Ġj ob
Ġwor ks
Ġro am
ĠAngel ic
ĠMy riad
az er
Ġsk ill
raz en
Ġcl aw
Ġthough ts
cl aim
ĠAll iance
ĠY u
Ġsl iver
Ġreach es
arg ing
Ġad m
au der
Ġoff ering
Ġapp roach
ara oh
ĠAtt acking
ĠMar auder
Ġfo e
Ġass em
Ġev ol
bel t
Ġactiv ating
Ġgrow th
Ġprevent ed
ĠDevil s
Ġdiv inity
Ġstrong est
ĠAc adem
Ġhist ory
ĠRes tless
Ġbro od
ĠNec romancer
vers eer
Ġheal ing
Ġinc ub
Ġphas ed
ĠInt er
Ġdel ight
Ġref lect
Ġtravel ers
Ġimp ort
Ġhold s
Ġemer ge
ĠInst ant
Ġcor pses
Ġfier ce
Ġshap e
leg endary
Ġserv ice
Ġtreat ed
Ġrequ ires
Ġknight s
ĠEngin e
Ġtransform s
Ġbird s
Ġhung ry
sy ch
ĠCut throat
ĠHarb inger
ĠRub ble
ĠOj utai
ĠDrom oka
agh an
ĠPred ator
mo or
ĠRip tide
Ġridd le
ĠInquis itor
ĠAttend ant
ĠComb ine
ĠProdig y
Ġawo ke
ĠGer alf
ĠKol aghan
Ġunatt ach
E qu
G errard
P ay
b ur
c utter
d en
f ast
k o
l ave
n arch
v in
y ll
Ġ ramp
Ġ elf
re g
en tless
ou m
Ġc alm
Ġa f
Ġa id
Ġa rtificer
Ġa head
in th
end ing
it ual
on aut
Ġb ow
Ġb ug
Ġb oon
Ġb oggart
Ġb rought
ĠC ave
ĠC reep
ĠC elest
ess ian
Ġs ought
Ġs epar
Ġf al
Ġf ocus
Ġw ent
Ġw olves
Ġw alks
ĠW anderer
el ter
Ġan ger
Ġm en
ĠS ol
Ġl ate
Ġl av
Ġl aws
Ġh on
Ġh ell
ur ity
ĠT act
ĠT ry
ĠT olarian
Ġg ard
Ġg ather
Ġyour s
Ġcon qu
ĠI g
ĠD ay
Ġin fl
attl e
ĠF ri
ĠF alken
ĠF ury
Ġbe ings
Ġbe ars
ĠR ef
ĠL ady
ĠB ru
ĠB olas
ĠB lessed
ĠB ANG
ĠB razen
Ġre ad
Ġre ality
ach er
ĠG al
Ġst ra
Ġst eed
Ġst ones
Ġatt em
ĠK n
ĠK en
Ġex change
ĠO ff
Ġco ver
Ġopp ortun
ĠV ess
ĠV ir
ĠV enge
ĠV izier
ho ira
ther n
em age
ĠSh rine
av igator
Ġen joy
ĠTh ousand
ĠTh allid
ĠU p
ag g
ag ger
ĠDra ft
Ġnon legendary
Ġnot e
Ġta ken
ĠSc rap
ĠBe arer
Ġam b
Ġle aving
Ġr ot
ĠCh ild
ĠCh andra
ĠJ o
Ġun s
ass ins
Ġro ot
Ġpre t
Ġar row
Ġplan e
sp ass
Ġlook ing
Ġsee king
Ġsee ks
Ġpro cess
ĠWh ip
ĠFor ge
ĠArch angel
ĠRo c
Ġform s
ĠBl ad
be y
per ate
Ġneed ed
At a
Ġroll ed
Ġpass ed
Ġass ault
ĠQu icks
ĠBo ast
ah ng
ĠBr ute
ivers e
Ġwatch es
Ġfri ght
uth less
ĠMag ic
Ġstand s
itor ial
Ġmer chant
ĠAc c
ĠEm rak
Ġem brace
ĠMountain walk
ĠAk ki
ĠAk oum
Ġcur se
Ġsusp end
Ġcru el
Ġresult s
Ġfeed ing
Ġburn s
Ġbless ed
Ġdisc overed
Ġinc re
Ġsy stem
Ġmem ories
Ġter ror
Ġter rible
ele e
Ġmort als
Ġsim ple
Ġmod ified
Ġstorm s
ĠTem ur
Ġcr ack
ĠInst ead
bit er
Ġking dom
Ġprec ious
ĠCaval ier
ĠBenal ia
umbl ed
ĠFall en
Ġreal ized
Ġrock s
Ġmist ake
Ġdruid s
Ġele mental
Ġmach ines
Ġsurp ris
ĠCrus ader
Ġinn oc
ĠRecl use
Ġescap es
ĠHist ory
ĠRi ot
Ġdescend ed
Ġcompan ions
Ġincl ud
ĠAncest or
ĠGreml in
Ġtech n
Ġtom orrow
ĠVision ary
ĠAcadem y
Ġincub ate
Equ ipment
ĠFalken rath
ahng arth
ĠEmrak ul
G h
M ir
T ail
b b
d og
f ess
f iend
g ra
j o
l ict
m ing
m ate
m ark
n o
r ill
r ation
t ered
u ed
w are
Ġ ing
Ġ il
ou red
Ġc amp
Ġa rtif
Ġa im
Ġth row
in al
ft s
it er
it ation
Ġb it
Ġb og
ĠC old
Ġy ear
Ġs oft
Ġd om
or us
Ġf ather
Ġf air
Ġw o
Ġw itch
ĠW alker
ing ers
st e
st eel
Ġp en
Ġp ull
Ġm iles
al ist
ĠS a
ĠS ult
Ġl ed
Ġl ord
Ġl augh
il ver
Ġh our
Ġh air
Ġh ouse
ur i
if e
if ier
ed ron
ĠA untie
ĠT ell
ĠT enth
Ġg arg
ĠD ran
Ġin finite
ĠF el
ĠF ield
ol en
ol ute
Ġor ders
ĠE dge
ĠR aging
he im
ĠM eph
ĠM ogg
ĠL ich
ĠL iliana
ĠP est
ĠG ore
Ġas p
ch s
Ġfor th
lo g
lo ss
Ġsp ear
Ġsp ring
ell ig
Ġst ars
ĠO thers
ho od
ĠN ak
ĠN orn
ĠN ull
ĠN ephal
ĠN antuko
Ġv ie
em pl
ian s
ĠGo ad
th ough
Ġwh om
Ġbl ind
Ġown s
ĠSc ient
ven ant
Ġle onin
art yr
ph a
se en
ang ers
ĠCh rom
ĠCh ief
oth s
Ġme et
ick ster
ĠSk ulk
ond or
Ġsk ills
Ġus ually
Ġpro p
ĠHe av
Ġru in
Ġsur r
Ġsur ve
rim son
Ġtra pped
Ġra in
iff s
oy f
Ġad venture
Ġdev our
itch ed
Ġtr ick
Ġdis pl
Ġafter life
Ġexplo rer
Ġpass ion
ĠGh ira
Ġdist ribute
ĠTr uth
ĠTr ickster
Ġlead s
Ġlead ers
ĠPer haps
ĠEmp ires
Ġstrong er
ĠLook out
Ġground s
cess or
Ġburn ed
ĠInf antry
anc ers
ĠExp edition
sw orn
Ġtouch ing
ĠPar agon
ĠCor rupted
Ġinsp iration
Ġho oves
Ġmod ifications
ĠTem p
ĠTer ror
Ġfier y
Ġsupp ort
ĠWay f
Ġposs ess
Ġposs ible
Ġgoad ed
El vish
Ġve ins
Ġguild s
ĠTru st
Ġir on
Ġgh oul
ĠMur asa
ĠMem narch
ĠOm n
Ġlar ge
ĠHarvest er
Ġtro ops
Ġsick ness
ni hil
Ġocc asion
Ġdinosaur s
ĠExt ort
ĠImper ial
Ġdou bt
Ġhers elf
Ġstom ach
ĠJelly fish
esk ai
Ġfreed om
ĠRho x
Ġphilos op
tam un
ĠTact ician
ĠSult ai
ĠGhira pur
1 9
L e
S k
S p
S arp
U r
b ot
b id
b ody
d ent
f ist
g ot
h on
i ally
l t
m ind
s a
s k
s mith
u gg
v ar
w yn
y ss
Ġt ear
er m
en ger
ou rer
Ġc row
Ġc orn
Ġo ath
in cl
in ts
in force
am og
it ive
it able
on ian
on der
Ġb le
Ġb arg
ĠC os
ĠC og
ĠC are
ĠC orpse
ĠC lockwork
Ġd ue
Ġd are
ac les
or b
or ker
Ġf rag
Ġw ins
Ġw astes
ĠW est
ĠW ire
st o
Ġp ost
Ġm ot
Ġm ists
ĠS ure
ĠS to
ĠS aga
Ġl angu
Ġh ot
ĠA re
ĠA ctiv
ĠT om
ĠT id
Ġg le
Ġg aze
ĠH yp
ĠH orde
ĠH atchling
Ġon i
om a
ĠD ig
Ġn et
ĠF o
ĠF ree
le a
Ġe vent
Ġe ats
ĠR ally
ĠR iders
ĠM other
ĠM og
ĠM ite
ĠM ort
ĠM oss
ĠM ara
ĠL iege
ĠP ass
ĠP ride
ĠB ig
ĠB ane
Ġre pe
ĠG y
ĠG ix
Ġsp r
Ġst ack
ke m
os ition
rt ai
id ross
Ġli mit
ĠK h
ĠK oz
rif ying
ĠO verseer
ĠV ill
ĠSp it
ĠSp ire
ile k
iz ation
Ġv edalken
us her
Ġdo om
Ġsh ift
ire less
ul ly
bl er
bl ing
Ġhas n
ĠAt ark
av an
av el
av oc
un ch
ĠSold ev
ĠIn v
ind ers
ĠTh ree
Ġequ ip
ĠSc ra
Ġcom pl
ĠDe c
ĠDe ce
ĠSt and
ĠSt ew
ĠEx c
ph oros
ĠJ eskai
ish es
ĠSl ayer
ew er
Ġval ues
ĠFl owstone
Ġme ant
ĠCon du
ling er
Ġun n
Ġsc ent
Ġsc rap
Ġgo lem
ĠReturn ed
ĠWe atherlight
ĠEn chant
ond a
ott ed
az ot
Ġpro gress
Ġri d
ĠFa br
Ġknow ing
ious ly
Ġpo et
Ġra ven
ĠY aw
ĠSw ift
ĠSer geant
Ġres olves
Ġel ite
ub born
ail ing
Ġdes ert
ĠSwamp s
Ġsecond s
Ġsu per
Ġfollow ed
ĠLand s
Ġkind s
Ġcar rion
Ġforest s
aver n
ĠArm ored
ĠMan a
rab ras
Ġass ign
atter ing
Ġwatch ed
Ġfa iled
Ġdiv ine
ĠEvery thing
Ġfin est
ĠAk roan
Ġbro ke
Ġsusp ended
Ġeat en
Ġdec ided
Ġfeed s
Ġperfect ion
Ġburn ing
ĠGor ger
anc y
Ġloy al
Ġref uge
Ġredu ces
Ġinsp ire
Ġjour ney
Ġtry ing
Ġfield s
ĠPrim al
Ġpred ator
ĠGol iath
Ġspeak s
ĠSu pp
Ġansw ers
Ġhar sh
ĠCy ber
Ġdr ink
ĠRaid ers
itt en
ĠWill ow
Ġhero es
ĠUl amog
Ġserv ants
Ġtreasure s
Ġluck y
Ġhorn s
ĠPur phoros
Ġhop ing
Ġmus ic
ĠUnl eash
Ġhom es
ĠRep l
ĠLav a
ĠShiv an
Ġresol ved
Ġflo or
Ġmess age
kn own
ĠWander ing
ĠEnl ist
Ġsuc cess
Ġnum bers
ĠThal akos
Ã» l
ĠMelet is
ĠVan ishing
Ph araoh
ĠAssem bly
Ġimport ant
ĠRubble belt
ĠVenge ful
ĠMeph idross
ĠNak tamun
ĠNephal ia
ĠScient ist
Sarp adian
Ġlangu age
ĠActiv ated
ĠMog is
ĠKoz ilek
ĠAtark a
ĠSoldev i
rabras k
+ *
B ar
E ye
F or
I I
O r
T ap
T ales
W orker
b lood
b loom
b ably
d ition
g or
g ald
h ip
i ad
j ack
l a
o a
o en
p ens
s es
t ec
v age
v ail
y es
Ġ key
re b
Ġt ongue
at l
at og
en na
Ġc ase
Ġc reed
Ġc ries
Ġa chie
Ġth ri
Ġth irst
in c
ar ika
es is
an y
it o
Ġb are
Ġb ounty
ĠC ob
Ġy es
ess ary
Ġs al
is f
is en
Ġd ying
Ġf ed
Ġf et
Ġf aster
Ġw olf
ĠW r
ĠW alking
ĠW itness
el ope
ing u
Ġp hys
Ġm al
Ġm id
ĠS omber
Ġh idden
ur s
ur u
ur sed
ĠA tog
ĠT omb
ĠT aken
Ġ1 3
Ġg iving
ic ult
ic ally
ĠH ex
ĠH ur
ĠH az
ĠI ch
ĠI cat
Ġn est
Ġn omad
ĠF ight
ĠF emeref
le ader
ut al
Ġe ating
as ons
ĠR ose
ĠR ust
ĠM ine
ĠM idnight
ĠP sych
ĠB i
Ġre vel
Ġre ason
ĠG raft
ĠG loom
ĠG ondor
Ġas ide
Ġde t
Ġde ce
ad i
Ġsp roc
Ġst uff
Ġst ench
os ed
ct ic
ant ern
et urn
Ġli z
Ġli ved
ĠK now
ĠO ak
Ġco ol
ĠV ault
iz ens
us ed
ig ree
est er
iv ed
ĠYou ng
Ġper il
ist rad
Ġk avu
Ġse ason
ĠTh rough
ĠU k
ag ers
ree ching
Ġta il
here d
hy r
ĠSc or
ĠSc ulptor
ĠRe aver
ash i
ĠSt or
ĠSt ri
ĠSt ud
Ġch ain
ĠAr biter
ĠAr ctic
ĠJ or
ĠJ uk
ew ing
ĠMer row
Ġme at
ĠCon t
Ġun known
Ġsc aven
ead y
ec ution
Ġso ci
ott ing
ab or
ĠAl though
Ġus eful
Ġpro blem
Ġri der
Ġexp ect
ron ze
ĠFa eries
ĠArch ers
ĠMon itor
Ġtra p
Ġcould n
ĠReg ent
ĠCl an
ĠCl own
Ġtri ed
ign ed
Ġnonc ombat
ĠTreasure s
Ġad vant
Ġsm art
Ġbr other
Ġcomp et
ĠDev ourer
Ġhunt s
Ġpe aceful
ĠShap er
ĠSoul s
ĠGl ider
ĠGl ory
ĠSqu id
Ġdiff icult
Ġtr ouble
air s
Ġenter ing
ĠSam ite
ĠDr ac
ann a
Ġfo ols
ĠTra ined
Ġint ru
Ġint erest
Ġpass age
ĠGh itu
Ġgrow ing
Ġwant ed
ev al
Ġright eous
ĠEmp eror
sc ri
Ġsun s
ser ver
ĠWith in
Ġremain ed
ĠRes earch
Ġcons um
Ġshield s
Ġdec ayed
ĠBand ing
Ġsound s
rag orn
rod o
Ar rim
Ġz omb
ĠCar rion
Ġsub tle
Ġmo ves
Ġcou rt
Ġemer ged
Ġbra in
Ġund ead
__ __
ject s
Ġcomple t
ĠVol rath
Ġsurviv al
ĠRun ner
Ġprodu ce
Ġdire ct
umbl ing
ĠMor bid
rov ax
Ġharm ony
Ġarri ved
Ġconst ant
umm y
ĠRamp aging
Ġwizard s
ĠAer onaut
run ner
Ġscream s
Ġsav ed
ĠOl tec
ĠEngin eer
Ġpres ence
Ġspec ies
ĠInn istrad
Ġprep are
Ġstru gg
tern ity
ĠStrom kir
ĠStrom gald
Ġogre s
Ġanim als
Ġearn ed
ĠImm ortal
ĠRab bit
Ġminotaur s
Ġpotent ial
ĠSetess an
ĠProp het
Ġferoc ity
Ġpract ice
ĠOw l
upp et
Ġcoun tless
ĠCelest ial
Ġattem pt
Ġvie w
ĠStew ard
ĠFabr icate
Ġsproc kets
ĠJuk ai
ĠStromkir k
! '
D isa
J il
R eturn
S or
V ivien
f ly
f ec
h ow
h art
h urg
j ani
k ind
m en
m ore
m other
m aker
m onger
p id
r s
r ac
r ated
r int
u zz
w ord
w atch
w reck
re me
er ve
at iable
en cer
en cy
Ġc unning
Ġa kki
Ġo w
in ia
ar r
ar um
an ist
Ġb reat
Ġb as
Ġb ook
Ġb its
Ġb itter
Ġb loom
ĠC reat
ĠC ame
ĠC ust
ĠC ub
ĠC unning
Ġs ever
Ġs ap
Ġs ust
Ġs cho
Ġd ro
ac ing
Ġf resh
Ġw ounds
Ġw ilder
ĠW o
el st
Ġan n
st ep
Ġp it
Ġp rim
Ġp roud
Ġp atter
Ġm ur
Ġm oney
al ing
ĠS ong
ĠS ho
ĠS ummon
Ġl ay
ĠA ir
ĠA mp
ĠA ragorn
ĠT ide
ĠT ark
ĠT ake
ĠT err
ĠT eferi
ra gon
ic ator
ĠH old
ĠH ere
ĠH ulk
ĠH awk
om er
ĠD id
ĠD iv
ĠD ancer
ast y
ĠF in
ĠF renz
ĠF rodo
ir ion
and alf
Ġe t
as hen
Ġor c
ĠE z
ĠR uthless
ĠM ight
ĠM old
ĠM ak
ĠM ob
ĠM arch
ĠM ech
ĠL u
ĠL ast
ĠL un
ĠP ang
ĠB oss
ĠB reath
Ġre ce
Ġre lease
Ġat e
ĠG et
ĠG av
ĠG errard
Ġfor ged
Ġfor ward
Ġde eds
ain ted
Ġsp o
Ġsp y
Ġsp ies
Ġsp ider
Ġst age
Ġst ubborn
ĠK a
ĠK een
ĠO ath
ĠO per
ĠV uls
ĠSp ring
iz er
ill er
us ive
est ed
ier ce
ĠGo od
Ġall ow
Ġse eds
Ġunder city
ĠIn form
here s
Ġthan k
ĠRe id
Ġcom fort
Ġr out
ash ion
Ġal ly
ĠSt inger
Ġch ampion
Ġch orus
op er
ang ing
ĠCh osen
ĠCh ieftain
ĠCh arging
ĠJ am
ĠJ ungle
ĠJ hoira
ĠRog ues
Ġwe b
ĠMer chant
land s
Ġfl ow
ĠSk ul
ĠSk anos
ead ow
Ġwor st
Ġro ad
ĠRet ri
Ġar c
ab ility
ĠAl pha
Ġwere wolves
Ġsearch es
ĠAd vocate
Ġexp l
ĠHe ir
Ġcl im
ĠArch mage
ĠArch ae
ĠRo il
Ġtra il
ĠAll ies
ĠCl am
ĠBlood rush
ĠIs le
ĠLe af
Ġreach ed
ĠTo o
ĠDwar ves
ik icker
Ġim pro
Ġgl ad
ĠImp rov
ĠDog s
ĠPro ject
ĠPro cessor
Ġmonst er
Ġoff ers
ĠSqu ee
Ġapp et
Ġstr ateg
Ġtr ack
Ġmind less
Ġtre efolk
Ġfall s
ĠTra ining
Ġint imidate
ĠWhat ever
ĠHell b
ĠBr inger
Ġkill ing
Ġwatch ing
Ġfa erie
ĠBattl emage
Ġguard s
Ġguard ed
Ġsecre tly
Ġcle ver
ĠEvery one
ogg le
Ġmer cy
Ġrun ning
ward en
Ġfin ality
Ġcyc lops
Ġeas ier
Ġhard er
ĠSap raz
Ġcons ider
Ġcons ume
Ġhor izon
ĠSpect ral
ĠSy nth
Ġpat ience
ĠPat ron
Ġrec ruit
Ġquest ions
ĠNy lea
Ġchar ged
Ġstud ents
Ġmo ving
ĠIm oen
Ġgift s
Ġbra ins
ĠSav age
Ġask ed
ĠUnd ead
Ġge ists
Ġsurviv ed
Ġprodu ced
ĠMult ikicker
ĠChannel er
Ġbur st
ĠSkir k
ĠSec ret
ĠFer al
Ġship s
uro chs
ĠRad iant
alan x
ĠVer d
ĠVal or
ĠAer ial
Ġgh ost
ĠEv angel
ĠBra ss
ĠCrus her
Ġpres ent
ĠSurviv or
Ġfavor ite
ĠAnt elope
ĠHel iod
Ġstru ck
gm oth
ĠVor acious
Ġcomb ination
Ġke pt
Ġfears ome
Ġpie ces
ĠTher iad
Ġgen tle
Ġreb u
ĠNyx born
Ġprow l
ĠGri zz
Ġvolcan o
Ġmass ive
ĠShambl er
ĠCommand o
Ġmor ning
ĠSkyc lave
Ġdesp air
Ġnightmare s
ĠFan atic
Ġcurrent s
ĠRecruit er
Ġfang s
Ġbol ster
Ġbus iness
Ġsat isf
ĠBad ger
ĠBehold er
Ġassem bles
Ġaf raid
ĠCreep er
ĠQuicks ilver
Mir ri
Le af
incl ex
ĠWire wood
ĠMara ud
Ġrepe at
ĠYaw gmoth
ĠSomber wald
Ġsoci ety
Ġintru ders
Ġcomplet ely
fec tly
hurg oyf
elst rom
ĠTark ir
ĠVuls hok
ĠImprov ise
0 0
A d
A z
B l
D al
D raw
D Ã»l
G l
H ead
H uatli
K in
M ana
M izz
N issa
R ief
S u
T ribe
W all
a iled
c ers
c lo
e ks
f e
f it
g a
h ound
h aven
i as
i ary
m os
o le
o phant
p act
r all
s is
t aker
u ary
y nd
z on
Ġ id
re ach
re ts
Ġt read
Ġt alk
at ile
at ural
en ment
Ġc e
Ġc it
Ġc al
Ġc rash
Ġa ud
Ġa xe
Ġth op
ar ant
am ble
it on
it al
it ors
tl ed
on ight
Ġb ox
ĠC rimson
ot ic
ot ter
gh tly
Ġd read
Ġd irt
ac on
or ian
Ġf re
Ġf lock
Ġf lood
el a
ing ly
ard ic
Ġp op
Ġp ort
Ġp ets
Ġm ed
Ġm other
ĠS aw
ĠS uch
Ġl ur
Ġh el
Ġh ammer
Ġh iding
ĠA x
ĠA ge
ĠA rash
ĠT ribute
Ġu t
Ġu lt
Ġg ru
ra vel
ic ed
ic ers
ic ial
ĠH all
ĠH enge
ĠH idden
Ġcon cer
ver n
ĠD un
ĠD ross
Ġn im
Ġn ine
ĠF re
ĠF il
ĠF ist
ĠF eed
ĠF ading
Ġbe g
um a
um pet
and al
and rix
Ġe ar
Ġor ig
ĠE d
ĠE ag
ĠE reb
ly ph
ĠR ag
ĠR ift
ĠM ad
ĠM use
ĠM amm
ĠM artyr
ĠL ess
ĠL ocus
ĠL hurgoyf
ĠP al
ĠP ol
ĠP ill
ĠB an
ĠB ound
ĠB reaker
ĠB rush
ĠB rig
Ġre claim
ĠG w
ĠG ard
ĠG ed
ĠG ut
ĠG ith
ĠG ear
ĠG ideon
ch a
Ġde ar
ain t
ad ers
ad ox
Ġsp oke
ep hyr
ore al
ap he
im p
ĠK az
ĠK els
ĠK itsune
ĠK onda
ĠO d
ru p
ru st
ĠV is
ĠV ine
ĠV ict
ĠN ar
od iac
Ġv ow
Ġv icious
ie ves
iv al
iv ator
bl azer
ĠSh ar
ĠAt h
Ġland walk
ath ran
ler t
og n
ĠZ odiac
Ġbl ow
Ġbl ink
Ġen light
ĠArtifact s
ĠEl end
ĠTh ran
ĠU s
Ġcol l
ry ff
ĠBe ware
Ġcho ices
ven ge
ĠRe alm
ĠDe ade
ak s
ak ir
igil ant
ĠSt arn
ĠSt rength
ĠEx empl
Ġlo c
ph in
Ġch anged
ink ing
ord ial
ĠJ ark
ĠSl ith
ĠSl inger
ew ind
Ġun w
Ġun earth
Ġun ique
Ġsc ars
Ġro pe
Ġpre ss
Ġpre ser
sp eth
ĠAl t
red ict
ĠMy ra
Ġri vers
vo y
ĠAd am
Ġcl ick
Ġcl ass
ĠWh elp
Ġru st
Ġsw eet
ud ev
ĠY es
ĠSw ord
ĠBl adem
Ġsl ain
Ġsl umber
Ġworld s
ĠDo es
ens ion
Ġfe athers
ĠShe oldred
vis a
Ġdes perate
Ġcreat ion
alt ies
ĠSky knight
ĠGl ade
Ġkn ock
Ġtre m
Ġcar ries
Ġthink s
Ġthink ing
Ġint ellig
Ġdark est
ĠQu irion
ĠQu andrix
ĠMir ran
ĠGr ace
ĠPh alanx
ĠMag n
Ġsil ver
ey sa
sc ale
Ġclo sed
Ġprotect s
Ġfin ally
Ġdef enses
Ġren egade
ĠRav ager
Ġhor se
Ġheal ers
Ġbelie ved
ĠUnder growth
idd le
Ġdraft ed
ĠBal a
ĠMa elstrom
Ġfamil iar
Ġredu ce
ĠWor ker
ĠNe zumi
Ġcry st
elt y
ĠBar on
Ġvis ions
Ġremem bers
Ġdri ven
aj i
ĠAz ra
ĠHom ar
ask ed
Ġnec rom
Ġdecl are
ret ched
ĠSav ant
ĠOut cast
Ġprec ision
Ġiniti ate
Ġiniti ates
Ġcomple te
Ġfle et
ĠArt ist
ĠArt isan
ĠTor ment
Ġsurviv ors
Ġbuild ing
Ġmar ket
Ġshap es
Ġdire ction
ĠOutl aw
Ġmom ents
Ġbur ied
ĠLi br
ĠLi ber
ĠSkir m
Ġwood s
ĠRad ha
ĠMal akir
Ġteach ing
ortun ately
ĠDef iler
ĠNim ble
ĠTal as
Ġshaman s
Ġcontin ue
ĠKal onian
ĠCap ashen
Ġwurm s
Ġhop es
Ġsurp rise
Ġlar ger
Ġlist en
ĠEmer ge
ĠEmer ia
Ġdesign ed
Ġhapp y
ĠRel ic
Ġprov ide
Ġswamp walk
Ġide a
Ġheav y
ĠRev ane
ĠRev olt
utt on
Ġke en
Ġmis chief
ĠForm idable
ĠLur king
Ġtal ent
Ġens ure
Ġdeterm ined
Ġbelong s
Ġappear ance
ĠSyl van
ĠRid ge
Ġabandon ed
ĠKin ship
Ġsudden ly
ĠZhalf ir
ĠWhisper ing
Ġinh abit
ĠSte am
Ġappreci ate
ĠTransm ute
ĠTaj uru
ĠDale k
igan jo
Ġbug s
Ġboggart s
Ġinfl u
Ġopportun ity
Ġinnoc ent
fess or
ĠHeav y
nihil ator
hon as
Ġcrow d
ĠExc av
Jil ad
ĠCame l
ĠCust od
ĠTerr itorial
ĠGav ony
ĠOper ative
ĠHellb ent
ĠEreb os
ĠDeade ye
ĠJark eld
udev ic
* -
B ru
K or
O l
S ong
a its
b ble
b ered
c ol
d y
d em
e an
e ared
f ar
f ic
f ield
h us
i q
i y
k ar
l ies
m eadow
n ith
n ch
p ing
r ant
r ice
r iss
s ess
t ic
t ime
u c
u it
u dd
v ous
¼ d
Ã ¼d
Ġ ess
Ġ ur
Ġ est
Ġ ____
Ġc and
Ġc raw
Ġc rim
Ġc oward
Ġc irc
Ġa ug
Ġo ce
in ary
es mer
ure l
ure r
an ic
am o
tl ine
Ġb ark
ĠC ra
ĠC ad
ĠC ombat
ĠC our
Ġs anct
is p
Ġd iss
Ġd iet
or c
Ġf ro
Ġf av
Ġf ert
Ġf arm
Ġw ide
ĠW ave
ĠW ren
ĠW icked
el ed
el and
ro ot
Ġto ol
Ġto ll
Ġto ols
Ġp al
Ġp ol
Ġm ast
Ġm ap
Ġm ob
Ġm ourn
Ġm olten
al g
ĠS aur
ĠS eed
ĠS acred
ĠS isay
Ġl antern
Ġh oly
Ġh abit
ay ing
ĠA w
ĠA urochs
ĠT en
ĠT et
ĠT ho
ĠT ask
ra iser
ĠH an
ĠH ier
ĠH ammer
Ġcon fl
ĠI ma
om es
ĠD ro
ĠD amage
ĠD red
Ġin ner
ast ing
ĠF ollow
ĠF ada
ut s
ir ant
ir ling
Ġe therium
as es
ol ation
ĠE p
ĠE bon
ĠE yes
ĠE iganjo
ĠR ay
ĠR une
ĠM en
ĠM us
ĠM ass
ĠM aze
ĠL ar
ĠL um
ĠL ob
ĠP ri
ĠP ear
ĠP ak
ĠP oss
ĠP uppet
ri a
ri ar
ri arch
ĠB ent
ĠB eg
ĠB rim
ĠB right
Ġre ckless
ĠG ro
ĠG ener
ĠG ale
ĠG ilt
ĠG isa
ch i
Ġend s
Ġpl ains
Ġpl ague
lo s
lo on
ad or
pp el
Ġst ream
Ġcan opy
ck on
ore t
Ġli kes
im en
im ents
ĠK r
ĠK ins
ken zan
ĠO nd
ĠO ran
ĠO ona
ce ed
Ġgra sp
Ġco ok
ĠSp ore
ld ron
ĠN et
ĠN iv
ĠN ala
ĠN avigator
od ay
ill ing
Ġv ile
Ġv irt
Ġv izier
us s
Ġdo ing
iv ore
Ġsh ar
ect ion
ul a
Ġper form
Ġper fectly
ĠSh ore
man tle
ĠZ ephyr
ĠU rabrask
Ġnon att
ĠSc ut
ĠBe i
ven wald
ip e
Ġr um
Ġr hy
Ġr ising
art s
ĠSt eed
ĠSt rix
ĠSt ronghold
Ġlo ose
Ġlo ved
Ġch ant
ĠCleric s
ĠAr son
Ġhe ights
ĠJ ace
ĠJ ura
oth a
Ġmy ster
Ġwe ep
Ġwe ave
Ġ. ..
ling s
Ġun ity
Ġun ited
ĠSk itter
Ġher ald
Ġsc ra
Ġj ump
ĠEn voy
Ġso il
ran k
ĠCat er
ĠAl chemist
Ġag ent
esh a
Ġsk ip
ner Ã¼d
Ġpro bably
ĠFa e
Ġmon ks
ĠY ot
ĠSw itch
ĠCl aw
Ġcommand s
Ġpart ic
igh tly
Ġover head
ĠSe ek
be ats
Ġad ept
Ġsm ith
Ġbr others
au ldron
Ġgl orious
Ġbel ief
Ġhow ever
Ġapp ly
Ġfind ing
Ġdis p
ĠMar ket
arian s
Ġfall ing
Ġmag ical
ĠTra il
Ġcall ing
Ġpass ing
Ġeffect ive
Ġass ist
ĠFire brand
ĠShadow moor
uk arum
Ġdist ant
Ġmight iest
Ġfa e
ĠMercen aries
ĠAb yss
ĠGr ay
ĠPh arika
ress ed
ĠSo kenzan
Ġsil ently
Ġcont ent
ey es
Ġclo s
Ġprotect ing
ĠSur rak
ser v
Ġenerg ies
Ġhuman ity
Ġsn ake
ib ility
Ġset s
Ġset tle
Ġhor rible
fl ame
Ġmin us
ĠBand it
app ing
Ġpath s
Ġne igh
ĠMa uler
Ġref use
ĠGuild pact
Ġtravel er
ras ka
Ġseem ed
ĠDel ve
ĠMet athran
Ġnear ly
Ġleg acy
ĠRed eem
quis ite
Ġwhis per
Ġnec essary
ĠMist form
ĠCur sed
ĠAff lict
Ġshap ed
ĠTw in
ĠSec rets
Ġconst ruct
ĠFer oc
ĠUl venwald
.. .
Ġadapt ed
ĠAmb usher
ĠJun iper
Ġscream ing
rest ed
Ġdem and
ĠOver lord
Ġslow ly
Ġsuff er
Ġprom ise
Ġhaunt ing
ĠFar mer
ĠRel entless
yal ise
Ġap art
ĠSpl it
Ġresol ve
Ġcapt ure
ĠSanct um
Ġoutl aws
ĠCelebr ation
Ġviol ence
Ġcas u
Ġpie ce
ĠShip wreck
Ġran ks
ios ity
Ġclash ing
Ġvolcan ic
Ġpir ates
Ġdog s
ĠHipp o
ĠMast icore
oint ed
wall a
ĠIx alan
Ġstri kes
Ġdefe at
Ġcivil ization
Ġwond ers
ĠRim ewind
ĠAlab aster
ĠSigard a
ĠFound ry
Ġisland walk
Ġmilit ary
bur st
ĠKen nerÃ¼d
ĠVir idian
Ġincre ase
Ġkingdom s
ĠCold eyes
ĠTemp est
Ġcorn er
ĠCondu it
Ġunn atural
ĠRepl ica
Ġphys ical
ĠIcat ian
Ġliz ard
ĠKnow ledge
ĠStor mc
Ġadvant age
Ġsever al
Ġwilder ness
Ġmur der
ĠAmp lif
ĠJam ura
ĠRetri ever
Mizz et
Su q
ĠStarn heim
ĠBladem aster
ĠIma gin
ĠNala ar
Ġnonatt acking
ukarum el
B ra
D ragon
E yed
G or
L o
R ukarumel
W h
Z h
a pper
b ar
b ear
c hen
c tly
c atcher
c rafter
d ag
d otter
g y
g ard
g ul
g ged
h end
h ouse
i ro
i pper
i ora
j a
j ust
l ain
m et
m un
m ara
m ages
n ers
o ch
o ices
p in
p erer
r ayer
w en
w ild
w right
x ious
y rie
Ã ³
Ġ ze
Ġ err
re os
re hend
Ġt ower
Ġt ang
Ġt ides
Ġt owers
er al
at ron
ou rt
Ġc ro
Ġc ra
Ġc aves
Ġth in
Ġth ick
Ġth read
Ġth rull
an ity
it ary
it ect
it tle
tl er
on ored
Ġb ed
Ġb ord
Ġb arb
Ġb olt
ĠC a
ĠC ross
ĠC ircle
ĠC athar
ow l
ess enger
Ġs in
Ġs le
Ġs ell
is aur
Ġd ry
Ġd rew
ac er
ac atl
or ium
Ġf oll
Ġf ift
Ġf ingers
Ġf ashion
Ġw icked
Ġw ears
Ġw oke
ĠW ait
ĠW oj
el ing
el un
ro as
ro chi
ing ing
ge ist
Ġan ew
Ġto ler
Ġp ush
Ġp egasus
Ġm ir
Ġm ant
Ġm uff
Ġm oved
Ġm aze
Ġm atters
al ia
ĠS ou
ĠS in
ĠS um
ĠS ly
ĠS igil
ĠS elf
ĠS inger
ĠS angu
Ġl ion
il im
Ġh ills
Ġh urt
Ġh ym
ur id
ĠA y
ĠA ce
ĠA ren
ĠT an
Ġ1 6
Ġg ro
Ġg eneral
ra ged
ic ation
ĠH u
ĠH ard
ĠH oly
Ġcon ver
ĠI roas
om in
om per
ĠD ust
ĠD iss
ĠD ari
ĠD aun
Ġin ev
ĠF oul
ĠF athom
Ġbe e
Ġbe at
ir i
ith ing
um ph
ol in
ĠE s
ĠE ss
ĠE rr
Ġwith stand
ĠR est
ĠR itual
he c
he w
ĠM ong
ĠM ove
ĠM oth
ĠM ori
ĠM elee
ĠM ummy
ĠM essenger
ĠL an
ĠL im
ĠP act
ĠP ara
ĠP up
ĠP heres
ri ers
ĠB ow
ĠB ook
ĠB ones
ĠB ronze
Ġre venge
ĠG it
ĠG ust
ĠG amer
ĠG oma
ack ling
ch aser
Ġfor s
Ġde bt
Ġpl ant
lo y
ad ed
Ġsp are
ell ow
pp able
Ġst eady
os k
os p
ck ing
id ow
Ġatt ract
Ġatt ention
et ime
ap ult
Ġli k
im a
im ar
ĠK ong
ĠK ind
ĠK rov
Ġex ists
Ġex alted
ĠO k
ĠO p
ĠO pen
Ġgra ves
ĠV h
ĠV ig
ĠV alk
ight ened
ho of
ĠSp ear
ĠSp ec
ĠN eph
ĠN essian
Ġv ines
Ġv oices
Ġtheir s
ear ning
ig a
iv ian
wo op
Ġsh ore
Ġsh elter
em ber
out ing
ul i
ĠSh in
ĠSh uff
all ids
Ġk i
th at
th ree
com e
com pl
Ġbl aze
Ġen for
Ġse as
ĠIn gest
ind i
Ġsor t
Ġsor row
Ġinst rum
here al
ĠRe venant
ĠRe inforce
Ġr ound
Ġr ises
Ġal ike
ak ers
ĠSt amp
ĠSt alking
ĠEx per
Ġlo x
Ġch urch
Ġrem inder
ĠCh ap
ĠCh arm
ĠCh ange
ĠJ h
ĠSl aughter
Ġwe bs
Ġval u
ĠFl ip
ĠCon ver
Ġadd s
Ġfl ows
ick le
Ġgre ed
Ġsc r
Ġsc ales
ead fast
Ġj oy
Ġwor ship
ark han
ĠWe ap
ss on
Ġplan s
ab o
ĠAl ley
ĠPl an
ĠPl ay
Ġag es
Ġag gress
ĠMy oj
ĠNo v
Ġour s
az a
az av
raz ed
Ġpro per
Ġri pp
Ġri ders
ial s
ĠArch fiend
Ġru sh
ĠOn i
ĠHer d
Ġpo ints
ĠRo yal
cl es
Ġra pt
ĠBl ue
Ġgr at
Ġnew s
Ġdra ke
pl us
ens ive
iss ion
we ft
Ġdev ast
Ġfe ather
Ġfe ared
oss ible
vis ible
Ġsm ile
Ġcomp rehend
Ġim age
Ġgl ass
ĠSky s
Ġtw ist
Ġnight s
ĠPro liferate
Ġser geant
ĠGl int
ĠGl utton
dra gon
Ġtre spass
Ġcar ve
Ġmag n
ĠTra vel
Ġnow here
rog en
rog ant
ĠDes ec
wor thy
ĠQu ick
ah l
ah r
Ġlet ters
ĠShadow heart
Ġdist ract
Ġwant s
ĠTr iton
Ġfa eries
Ġreg ard
uck y
ev a
ĠAfter life
ĠPh asing
ecial izes
te ers
ĠHunt ed
Ġstand ing
Ġvict im
Ġsil k
Ġmer c
Ġrun s
Ġpr ayer
Ġprotect ors
Ġtem per
Ġtem ple
Ġem issary
zz eret
Ġext inct
ĠAk ros
Ġecho es
ĠGreat er
Ġstart ed
na ire
ĠFear less
Ġbring ing
Ġopen ed
Ġcare s
Ġdel icate
Ġmem bers
Ġstop s
Ġrec ruits
Ġrec ogn
ĠRob ber
Ġtouch ed
Ġins ult
Ġins ects
Ġob st
ĠZh ang
Ġsmall est
ĠHerald s
Ar na
ĠCor al
olog y
Ġact ion
amm ers
Ġmark ed
ĠTer isi
Ġinv asion
Ġinv aders
ĠMo le
co ver
Ġsent ry
ĠTitan ia
ĠPrim ordial
ĠInsp iring
elcom e
Ġbuild ings
Ġcent aur
ĠAut umn
ĠThunder ing
ĠArg ivian
ĠCou rt
ĠSquad ron
ĠLi u
ĠPy romancer
Ġarri val
Ġenc ount
val a
ĠKobold s
ĠTe am
Ġrealm s
ĠTru e
ĠRamp age
ĠRoot water
ĠHo ard
Ġmiss ion
ĠAmb ush
ĠKros a
ĠHal o
ĠBel eren
ĠBra in
ĠOl ivia
Ġhaunt s
Ġprep ared
ĠPr ince
Ġstir red
Ġstat ues
Ġescap ed
ĠCall aphe
ĠCelebr ant
ĠAnim a
bon der
ĠDar u
ĠAsp irant
ĠCult ivator
Ġlab or
mir al
Ġcap able
ĠCer at
Ġfur ther
Ġpir ate
ĠRath i
ĠAdventure r
Ġunsp ecializes
ĠBody guard
Ġsto pped
Ġresist ance
ĠDesp ite
Ġtunn els
Ġdwar ves
ĠAssist ant
Ġflee ing
Ġlav a
Ġgard en
ĠIg n
Ġstra ight
Ġamb ush
Ġpret ty
Ġinclud es
ĠSa ber
Ġgarg antu
loss om
Ġexplorer s
Ġphilosop her
ugg ler
Ġfrag ile
sto ppable
Ġnet work
Ġachie ve
ĠIch or
ĠJor aga
ecution er
ĠSummon er
ĠFrenz ied
ĠMak indi
ĠSapraz zan
Ġaud ience
Ġlur ks
ĠMamm oth
ĠAth reos
Ġenlight enment
ĠExempl ar
ĠAdam ant
ĠHomar id
ĠSkirm isher
hus i
Ġ____ _
ĠAw aken
ĠOnd u
ĠArson ist
Ġpartic ular
Lo visa
Ġbord ers
Ġfoll owers
ĠWoj ek
ĠDari en
ĠDaun tless
ĠEss ence
ĠMori ok
ĠPara bles
ĠNeph ilim
ĠMyoj in
ĠTerisi are
, '
1 2
B and
G ideon
J ace
L iliana
M er
P hyrex
T ahngarth
a ul
b ender
b ridge
c ombat
c all
e or
e ur
e ers
e ven
g ling
h v
h or
h ulk
i el
i ends
j e
j ud
j oice
k u
k ull
n ation
o o
p ed
u er
v ity
w ark
w agg
w idow
y on
z el
Ġ ident
re nder
Ġt ough
Ġt ur
Ġt yr
Ġt ears
er nal
at est
at hered
Ġc ath
Ġc leric
Ġc ub
Ġc aut
Ġc rop
Ġc elebr
Ġa lert
Ġth r
Ġth orn
Ġth roat
Ġth allids
Ġo bl
in ch
es p
an ing
an ced
am orous
end or
end ent
it chen
on ia
Ġb red
Ġb orrow
Ġb order
ĠC ann
ĠC oward
ĠC rew
ĠC rasher
ex ing
ĠâĢĶ ~
Ġs um
Ġs lo
Ġs igil
Ġs alt
Ġs ides
Ġs enses
is ans
Ġd a
Ġd ar
Ġd am
Ġd usk
Ġd rove
or ter
Ġf est
Ġf og
Ġf aced
ĠW ise
ĠW ils
ro b
ro ok
ard an
Ġan t
st able
st ones
Ġp ul
Ġp ity
Ġp osition
ĠS z
ĠS en
ĠS ak
ĠS af
ĠS yn
Ġl ore
Ġl arg
Ġl earning
Ġh y
Ġh ollow
Ġh int
nt s
ed ing
ĠT uk
ĠT olar
ĠT oday
Ġg ri
Ġg ang
Ġg ates
ve re
ic y
ĠH at
ĠH um
ĠH ul
ĠH ive
ĠH eret
ĠH ours
ĠH edron
Ġcon ce
Ġcon voke
ver b
ĠD ak
ĠD eth
ĠD aring
Ġin visible
Ġn av
ield er
ast ic
ĠF est
ĠF ind
ĠF ug
ĠF ract
ut in
as u
as ia
ĠE ater
ĠE sc
ĠE rtai
Ġwith er
ĠR ow
ĠR ive
ĠR ush
ĠR ager
ĠR onin
ĠR asp
ĠR honas
ĠM ul
ĠM ade
ĠM aw
ĠM ilit
ĠM edic
ĠM olten
ĠL in
ĠL on
ĠL ot
ĠL amp
ĠL umber
ĠL ab
ĠP en
ĠP ant
ĠP ale
ĠP iper
ĠP ardic
ĠB or
ĠB oth
ĠB ond
ĠB arg
ĠB oreal
Ġre gre
Ġre plicate
ĠG ot
ĠG le
ĠG em
ĠG ryff
Ġas ks
Ġde b
Ġde vel
Ġend ure
Ġend ed
Ġpl ants
ad ia
Ġsp ears
Ġsp hinx
Ġsp iders
ell or
Ġst ate
Ġst ronghold
ke tra
os tly
eg ot
ck s
Ġplay s
Ġatt end
ap ing
im in
im li
ĠK ro
ĠK ru
ĠK ath
ĠK uld
ĠO pp
ĠO raz
Ġco b
Ġco vered
ĠV r
ĠV ass
ĠV arch
ĠV aler
ĠV iper
ĠV igilant
br is
ĠSp eaker
ĠN i
ĠN est
ĠN em
ĠN eed
ĠN urt
iz ing
od e
od iment
ill iant
Ġv ault
ment ia
ig ma
est ic
ĠWar chief
ie ving
Ġdo ors
Ġsh red
Ġsh attered
em on
em eter
ul ator
ul wark
Ġper haps
ĠSh ow
ist ers
ist ic
ist rate
ere mon
ĠX en
un k
un ner
man ce
man cer
Ġk itsune
dd er
ĠAs c
ĠIn vent
ĠIn vestig
ĠTh rash
Ġta ils
ĠAn g
ĠAn nihilator
ĠSc ound
ĠSc reeching
ĠBe ing
ĠElemental s
Ġr ace
Ġal leg
ak im
ust om
ph ies
Ġhe ed
Ġhe ir
ink o
ĠCh anc
Ġwhere ver
ition s
Ġmy st
Ġmy riad
ĠSl ick
ew or
Ġwe ary
Ġval ley
ĠFl ayer
ĠFl ames
Ġme ch
Ġme als
ĠCon qu
Ġdefend ers
Ġfl ed
Ġfl ies
Ġfl our
Ġun icorn
Ġsc ar
Ġj ew
Ġro b
ild ed
ĠAngel s
ĠWe b
Ġso ars
ran sp
Ġdeath s
Ġout p
ab a
ab i
ĠPl ated
pt ing
pt ers
Ġag ents
az ri
atch ed
Ġsearch ed
ner y
Ġpro ve
Ġpro of
Ġri p
Ġevery where
ĠConst rict
Ġmill enn
ĠFor gotten
Ġlands cape
ĠHer mit
Ġsec urity
Ġpo or
Ġsw im
Ġtra dition
Ġmon um
ĠDinosaur s
ĠSw ine
Ġfight er
ĠSer v
ĠCl iff
Ġwhat ever
gg an
ĠLe ave
ĠRem ember
read er
ĠSn eak
Ġthrough out
Ġeven ing
ĠSe ason
be at
Ġad op
Ġdev oted
Ġdev oured
oc al
ĠPre c
vis ed
Ġdes ire
Ġbet ray
Ġcreat ing
Ġgl owing
ĠImp rint
rid es
rid ers
ĠPro gress
ĠPro gen
Ġgu ilt
ĠSqu ire
Ġapp ears
arb age
Ġfind s
Ġdis aster
Ġdis app
Ġef fic
ĠWarlock s
Ġkeep ing
Ġcar ved
ĠSil ence
ĠSil encer
und erer
ĠPart y
ship s
Ġexplo it
res her
ĠTra pper
ĠCo pper
ĠGod s
ĠBr own
Ġsky knight
ĠFood s
ĠArc anist
ĠHar rier
ĠAb s
ĠGn arl
ĠPer manent
for mance
Ġcont ains
yn x
Ġpr ayers
ĠSur veil
ĠCol ony
ĠWith out
Ġfar mer
ĠRes olute
Ġcur iosity
ech n
ĠGarg antu
Ġcru elty
ĠWild s
ĠAur ora
ĠAg ents
Ġbless ings
ĠGor illa
ĠInf ern
ĠInf ernal
ĠSy nd
ĠSy mb
Ġcare ful
ĠEternal s
rus her
Ġelse where
tell er
Ġmem ber
Ġimp ossible
Ġthousand s
ĠDu ke
Ġter rifying
ĠRak sh
ĠPe ace
ĠLo oter
vol ution
Ġpack s
ĠAm ong
ĠAm ber
ĠKar plus
ĠBar rier
Ġinsp ired
ĠCar rier
Ġho ard
Ġho of
Ġvis ion
het to
ĠBro ker
Ġcollect ion
Ġexper ien
Ġexper iment
amm asu
ites ail
Ġwhis pered
ĠDark steel
ĠMo or
ĠMo ons
Ġresp ons
ĠOb server
An other
ĠSav ior
ĠPrim eval
Ġprec ombat
Ġcarry ing
ĠMay be
ĠVol can
ĠCur se
Ġsqu ad
Ġsqu irrel
Ġdestruct ive
Ġprodu ces
Ġwish es
the y
Ġpers ist
ĠAp ex
ĠAp hetto
ĠWay s
ĠFall aji
Ġunp redict
Ġfun ction
ĠWood land
Ġharm less
Ġsol id
ĠNat ural
Ġve ter
ĠWhis perer
ĠDef iant
ĠVer min
Ġjo ined
ounc ing
Ġthreat en
ĠLore hold
ĠBog ardan
ĠPra hv
rie king
Ġresearch er
Ġsav age
ĠHal imar
ĠEv il
Ġdem ons
Ġsuff ering
Ġple asure
Ġarch ers
ĠGar ruk
Ġemp ire
Ġheav ens
Ġtro phies
Ġcult iv
ĠAscend ant
Ġfort ress
Ġviol ent
Ġdest iny
edd ler
ĠDar iga
ĠLur ker
Ġreb ell
ĠKill bot
ĠÃ Ĩ
ĠÃ ī
Ġprow ess
Ġwand ers
ĠRam os
ĠShambl ing
eem ed
Ġwear ing
ĠTim ber
Ġunsp ent
go blin
Ġhat red
ĠZhalf irin
Ġtroll s
Ġbal ance
Ġwing ed
ĠDist rict
Ġspect acle
ĠAlab orn
ĠPhantasm al
ĠSigard ian
sion ic
Ġbri ef
Ġbond s
Ġpun ish
ĠMach ines
Ġswarm ed
Ġchall enge
Ġreflect ion
Ġsepar ately
ĠFri end
gra f
Ġing en
Ġwo ven
ĠDran a
Ġsurr ound
Ġdispl ay
ĠOmn ath
Ġbarg ained
Ġpost combat
Ġevent ually
ĠScra pper
ĠDece iver
Ġraven ous
ĠCyber man
ĠCob ra
Ġfet ch
ĠTaken o
ĠResearch er
Ġzomb ie
ĠMarch esa
ĠPang olin
Ġarc ane
Ġclim b
Ġglad ly
Ġappet ite
ĠVerd ant
Ġrebu ild
Bl ade
Head ed
ĠArash in
ĠKels inko
Ġinhabit ants
Ġinflu ence
Ġcrim es
Ġaug ment
ĠCour ser
Ġfro zen
Ġfert ile
ĠSaur on
ĠDred ge
ĠPear l
ĠBent hic
ĠKr ark
Ġshar pen
Ġscra ps
ĠAbyss al
ĠFeroc ious
ĠAmplif y
Wh ile
Ġze al
ĠRitual ist
Ġlik ely
ĠKong ming
ĠValk yrie
ĠShuff le
Phyrex ian
ĠWils on
Ġlarg est
ĠTolar ia
ĠHeret ic
ĠDeth rone
ĠEsc ort
ĠRasp utin
ĠBarg ain
Ġdevel op
ĠKuld otha
ĠOraz ca
ĠVass al
ĠVarch ild
ĠValer on
emeter y
ĠScound rel
ĠChanc ellor
ĠDariga az
A f
C on
D iscard
F emeref
H H
M age
O n
O ne
S acrifice
S isay
a an
a el
a um
a he
a bles
b al
b ark
b ug
b rid
b inder
c ut
c ons
c ely
c oon
c cess
e a
e at
f inder
g s
g ill
h el
h all
h ammer
j i
j u
k h
k os
k wood
k het
m or
m atic
n et
o ff
p ents
r ou
r and
r ance
r ison
s ome
t es
t abi
v il
v old
v ious
w ain
w orm
w itch
y re
y an
y the
z awa
Ã º
Ġ ed
re k
re m
re ster
re amed
Ġt it
Ġt ight
Ġt itan
Ġt astes
Ġt onight
er u
at ami
at rice
en ces
ou nder
Ġc age
Ġc ities
Ġc ats
Ġc aval
Ġth ieves
in ker
ar ry
ft ed
it ing
it ality
on na
Ġb i
Ġb end
Ġb ot
Ġb ent
Ġb ait
ĠC ould
ĠC row
ĠC rag
ĠC rafter
ĠC emetery
ot hec
Ġy ield
ex p
Ġs am
Ġs it
Ġs tro
Ġs ang
Ġs ens
Ġs iege
is se
is ons
is ma
Ġd ive
Ġd ise
Ġd jinn
Ġd ryad
Ġd inner
ame tra
Ġf it
Ġf el
Ġf ix
Ġf inger
Ġf ungus
Ġf use
Ġf alcon
Ġf urnace
Ġf renz
Ġf irm
Ġw reck
Ġw itness
Ġw aits
ĠW y
ĠW ings
ĠW rath
ĠW elcome
Ġto oth
Ġto mb
Ġp ier
Ġp oll
Ġp olis
Ġm our
Ġm ood
Ġm arch
Ġm idnight
ĠS ower
ĠS le
ĠS ad
ĠS are
ĠS ail
ĠS oon
ĠS outh
ĠS ister
ĠS ewer
Ġl ink
Ġl osing
Ġl atest
il on
il ight
il us
Ġh ook
Ġh ides
Ġh ours
ur ist
ur ry
ur per
if ying
hen ge
ed ient
ĠA ber
ĠA cl
ĠA mon
ĠA xe
ĠA jani
ĠT usk
ĠT aze
ĠT arl
ĠT unn
ĠT ahngarth
ĠT ireless
Ġ1 5
Ġg ale
Ġg lyph
ic an
ĠH opl
Ġcon v
Ġcon du
ver guard
om an
ĠD an
ĠD am
Ġin ch
Ġin vol
Ġn urt
Ġbattl es
ast ria
ĠF r
ĠF en
ĠF al
ĠF ell
ĠF our
ĠF ive
ĠF olk
ĠF ront
ut ation
ir k
ith e
Ġe ag
Ġe ase
Ġe ternity
as aur
Ġturn ing
ol es
ĠE ight
ĠR ain
ĠR ap
ĠR ish
ĠM ac
ĠM ol
ĠM ap
ĠM imic
ĠM esa
ĠM asked
ĠL y
ĠL at
ĠL ine
ĠL uk
ĠL ittle
ĠL ynx
ĠP ix
ĠP roud
ĠP eak
ĠP ony
ĠP rime
ĠP ris
ri age
ri ek
ĠB ay
ĠB lo
ĠB omb
ĠB ree
ĠB orn
ĠB ull
ĠB ann
ĠB reak
ĠB ridge
ĠB order
ĠG ig
ĠG rot
ĠG alad
ĠG rove
ĠG andalf
ack le
rom a
Ġfor b
Ġfor ges
Ġmay hem
ad il
ad ier
Ġsp ot
Ġsp awn
ell an
ell ent
Ġst ing
Ġst itch
Ġst uck
Ġst olen
Ġcan n
eg is
eg uard
ant ic
ck atrice
et ah
Ġli qu
im ber
ĠK er
ĠK elp
ĠK alad
ĠK itchen
Ġlif etime
ĠO cc
Ġgra ss
ru um
ru ption
amp ions
ĠV ind
ĠV irt
ĠV enom
ĠV andal
ĠV raska
ave ti
br ute
ĠSp itting
ĠN ef
ĠN um
ĠN ear
ĠN oggle
Ġany more
od ons
Ġlibr aries
us ing
iv ely
Ġsh ows
Ġsh immer
Ġsh ores
em ble
Ġper formance
ĠSh ire
ĠSh attered
all ine
ist a
av ed
og riff
Ġk ick
Ġdraw ing
com p
Ġen g
ĠAs hen
ĠIn finite
ind s
ĠTh ird
ĠU gin
ĠU me
Ġcol ored
ĠDra z
Ġnot ice
ĠEle c
Ġinst ances
hy l
Ġequal ly
ĠAn n
ĠSc al
ĠSc ri
ĠBe c
Ġam id
ip les
ip line
Ġr ing
Ġr ange
art ing
ak i
ĠSt on
ĠSt rike
ĠSt ens
ĠSt eadfast
ĠEx change
ĠEx ecutioner
ph ix
Ġch ains
Ġch annel
ĠAr dent
ĠAr wen
sh ell
sh ark
op ard
Ġrem n
ĠCh icken
ĠJ ab
ĠJ avel
ish ana
Ġwe al
Ġwe ird
Ġwe ather
Ġwe eks
ĠMer ry
ĠFl int
ĠFl aming
Ġfl icker
Ġfl owstone
Ġun m
Ġun seen
Ġun ravel
Ġun exp
ĠSk ittering
ass ion
ine er
Ġunl eash
Ġher bs
Ġsc ale
Ġsc hem
Ġwor sh
Ġpre f
ec ially
Ġso ar
Ġar cher
Ġout s
ĠCat s
orm ant
ab y
sp ire
ator y
ĠPl underer
pt ions
Ġour selves
Ġcomm un
az i
az z
Ġsk illed
Ġsk ips
Ġsearch ing
Ġpro verb
osaur us
Ġexp ert
ren ce
ĠHe k
Ġcl ans
ron es
ĠFor get
Ġru led
ĠDemon s
ĠHer on
Ġsur ge
ĠMon s
ĠRo ad
Ġsw ear
Ġsw all
Ġsw eep
cl ad
Ġform ed
ĠY ar
ĠY an
ĠY ang
ĠReg al
ĠBl ades
gg ing
ĠLe ft
ĠLe ague
Ġres id
Ġres our
Ġsl ither
Ġel eg
ĠDo oms
pl ic
Ġover come
ĠSe ven
ung s
arg an
ient s
yr inth
Ġdev ours
ob ite
ĠPre s
ale vol
Ġsm oke
Ġbr ute
Ġbr illiant
ĠDev ast
ĠDev oted
ĠGu ul
Ġim per
Ġgl imp
Ġbel ly
Ġac cess
ĠSun burst
Ġsu nl
ĠPro voke
Ġgu ided
Ġgu ests
Ġgu arant
Ġser ved
Ġser pent
ĠHy ena
Ġapp rentice
Ġapp eared
Ġstr ay
Ġtr ace
Ġdis m
Ġcar ried
ĠMerc adian
und ers
ĠMan or
ĠTra p
ĠDes igned
ush ro
ĠQu an
ĠBr is
ĠBr ing
ĠBr utal
Ġkill s
Ġreg enerate
ĠHar per
ĠMir ari
ĠMir kwood
ev il
ĠGr is
uth or
Ġguard ian
Ġguard ians
ĠGn oll
Ġstand ard
rent on
ien tly
Ġcont ain
oun cer
Ġmer row
Ġmer rows
Ġwork ed
sc ura
ĠNightmare s
Ġtem pl
ĠSur ge
Ġem otion
Ġmount s
Ġcyc les
ĠRes c
ense i
Ġcur sed
Ġbro ad
ĠGre y
ĠNec rop
ĠKra ul
Ġopen ing
Ġpur su
ĠDon key
ĠLeg ate
ĠLeg olas
Ġset ting
Ġrep ort
ĠPlains cycling
Ġmin ions
Ġmin ute
anc he
ĠDisc ord
ĠAny thing
idd ing
Ġbig gest
ĠSentinel s
Ġdeep est
ĠWind s
ĠGate keeper
ĠLo am
ĠPil f
ĠGru b
ĠKar ametra
ĠZh ou
Ġexist ence
Ġnear by
olog ical
ĠDeep wood
Ġbreak ing
Ġleg ion
Ġrel ics
Ġsub jects
ĠDawn hart
Ġexper iments
ĠTem ple
Ġbra ve
Ġnec ro
Ġnec romancer
ĠOb scura
ret ch
ĠInsp iration
ĠInsp ector
Ġfier cest
Ġge ms
ĠEnt ity
Ġfell ow
ĠDream s
Ġvill agers
Ġmar sh
Ġansw ered
Ġgener ation
ĠMult ani
ĠMult iverse
Ġline age
ĠComp any
rin ker
ĠShield mate
Ġnatural ist
Ġconn ected
ĠPy re
ĠSkir ge
Ġarri ve
min ator
ĠSec ond
Ġconst antly
Ġenc ou
ĠVehic les
Ġwalk ed
ĠMant is
Ġscout s
alan ced
Ġrequ ired
ĠVal iant
ĠStr ong
vok ers
Ġthreat s
ĠTal ruum
ĠLore weaver
Ġmiss ing
Ġele ven
Ġfoot step
Ġmach ine
ĠKal astria
ĠOm en
Ġeld ers
Ġmus cle
ĠSurviv al
ĠSurviv ors
Ġcrush ed
Ġtown s
Ġweak ness
Ġfail ure
ĠSpl icer
ĠStar fish
Ġswift ly
Ġfool ish
Ġsail ors
ĠHist orian
ĠSpecial ist
Ġoutl aw
Ġign ore
Ġban ner
ĠEnl ightened
ĠNor th
Ġcompan y
Ġcas tle
Ġdest ination
Ġgen ius
ĠBet ter
Ġprefer red
Ġdeser ve
Ġsuc ceed
Ġcrew s
ĠThal ia
Ġwand ered
ĠEt hereal
ĠFaith ful
Ġgrant ed
ĠSyl vok
ĠTro ops
ĠHollow henge
ĠHipp ogriff
irc uit
ĠRevel ers
ĠSetess a
Ġinvent ion
Ġrich es
Ġdefe ated
ĠArgoth ian
ĠDen izen
ĠSee ing
Ġer u
Ġtor ment
ĠHaven wood
Ġegg s
ĠBall ard
Ta aveti
Ġodd s
ĠFort une
ĠLor wyn
Ġengin es
Ġchall eng
Ġevol ution
ĠFri ends
ĠBru iser
Ġsurpris ing
Ġartif icers
Ġdom ain
ste in
oths ayer
Ġadventure rs
ĠCog work
ĠCare taker
ĠTid al
ĠHyp not
kem far
ĠSpit eful
ĠEnchant er
azot z
Ġsuccess ful
Or acle
gor ger
ingu ish
Ġmal ice
ĠHaz oret
ĠPsych ic
ĠUk tabi
ĠStri ker
Ġcompet e
Ġstrugg le
erve k
Ġbreat he
Ġbook s
ĠCreat ion
Ġscho ol
Ġrece ive
ĠInform ant
Ġrout e
Ġstrateg y
ĠMaraud ing
clo ak
ynd horn
Ġid i
ĠFil igree
Ġbeg un
ĠEag le
ĠGard ener
Ġvow els
Ġintellig ence
Ġfleet ing
ĠLiber ator
Ġoce an
urel ia
alg am
ĠTho pters
Ġconfl ict
ĠPoss ess
Ġrum ors
ĠCater an
ĠTrail blazer
ĠSurrak ar
ĠRedeem er
ĠJamura a
Ġtoler ate
ĠSelf less
ĠSangu ine
ĠExper iment
ĠChap lain
Ġobst acles
ĠSaber tooth
ĠAwaken er
Ġborrow ed
ĠFract al
ĠRive teers
ĠKru phix
Ġalleg iance
Ġmech an
ĠConstrict or
ĠSeason ed
ĠPermanent s
ĠInfern o
ĠSynd icate
ĠKarplus an
Af ari
Ġcaval ry
othec ary
ĠSare vok
ĠAcl azotz
ĠAmon khet
ĠTaze em
ĠHopl ite
ĠBann eret
ĠKalad esh
ĠUme zawa
ĠJab ari
Ġglimp se
, /
1 1
A ss
C om
C rop
C rovax
F ur
G ar
H al
I C
K u
K en
K ing
K ara
L im
L ove
L ord
L yn
L udevic
O ld
P riest
S am
S he
S hin
S yr
T ree
T olarian
T eferi
V ol
Z ur
b us
b one
b ird
b ias
c reature
c asia
c rusher
d o
d or
d ri
d inary
f ell
f old
f ound
g ate
h orde
j aw
l ar
l ach
l ate
o ose
o oth
p ie
p ine
p oint
r at
r il
r ines
r oun
r owned
s uck
s linger
s dag
t ai
u le
u ity
v ir
v ate
v ine
v ale
w r
w er
w ill
x es
y x
y or
y ield
z ing
Ã ©
Ã Ń
Ġ raz
Ġ icy
re y
re pid
re dder
Ġt ent
Ġt ender
Ġt ireless
er ous
at i
at o
Ġc ac
Ġc ouncil
Ġc lockwork
Ġc eremon
Ġa er
Ġa gon
Ġa val
Ġa vail
Ġth y
Ġth aw
Ġo be
Ġo we
in ning
ar an
ar ity
ar ter
ar ition
ft ing
am ar
am ri
am ity
it ate
it us
tl ety
on om
Ġb old
Ġb raw
Ġb other
Ġb rid
Ġb rew
ĠC ac
ĠC apt
ĠC rash
ĠC avern
ĠC rovax
ĠC auldron
ĠC rested
Ġs ou
Ġs ac
Ġs way
Ġs atyr
Ġs ites
Ġs cholar
is hop
Ġd agger
ame t
or al
or ch
Ġf ac
Ġf rog
Ġw ary
Ġw alking
ĠW eld
ĠW as
ĠW ould
ĠW aves
ĠW inn
ĠW yll
el on
el ira
st ab
Ġp il
Ġp are
Ġp its
Ġp up
Ġm ig
Ġm ater
Ġm ogg
Ġm imic
Ġm aj
Ġm urk
Ġm elee
Ġm ushro
ĠS ay
ĠS ell
ĠS id
ĠS ter
ĠS alt
ĠS ince
ĠS kemfar
Ġl en
Ġl est
Ġl one
il n
il is
il ent
Ġh es
Ġh ang
Ġh arp
Ġh edron
ur ous
ur ial
hen ra
ed it
ed gling
ĠA erie
ĠA urelia
ĠT op
ĠT ome
ĠT eysa
ĠT azri
ĠT ilon
ef e
Ġg irl
Ġg onna
ra in
ra el
ra va
ic ol
ic ke
ic eless
ic onia
ĠH am
ĠH ord
ĠH ood
ĠH ung
ĠH edge
ĠH olly
ĠH uatli
ĠH avoc
ĠH onored
Ġcon se
ĠI k
ĠI l
ĠI r
ĠI II
om ir
ĠD ag
ĠD yn
ĠD uty
ĠD reg
ĠD agger
Ġcontrol lers
Ġin j
Ġn our
ast al
ast ion
ĠF ac
ĠF ast
ĠF ut
ĠF et
ĠF lock
ĠF ace
ĠF og
ĠF lood
ĠF ron
ĠF ather
ĠF ierce
ĠF ortunately
ĠF yndhorn
le on
le ment
le ater
ut es
ut ed
ut iful
ut stein
Ġbe aring
Ġe p
Ġe arl
as y
as ite
as ks
ol ent
ol rael
ĠE ff
ĠE ager
ĠE therium
ĠR ex
ĠR os
ĠR ight
ĠR ul
ĠR ash
ĠR ank
ĠR asa
ĠR isen
ĠR utstein
he e
ĠM is
ĠM are
ĠM ake
ĠM ouse
ĠM eng
ĠM ender
ĠM esmer
ĠL am
ĠL ow
ĠL ul
ĠL ag
ĠL ae
ĠL ux
ĠL umin
ĠL azav
ĠL ammasu
ĠP all
ĠP un
ĠP ter
ĠP ash
ĠP lease
ri eker
ĠB on
ĠB old
ĠB ran
ĠB ears
ĠB ats
Ġre nd
Ġre bel
Ġre asons
ĠG at
ĠG ang
ĠG ates
ĠG imli
ĠG ilded
ĠG arbage
ch ol
Ġde em
Ġde af
Ġde tain
lo k
lo v
lo ve
ain ous
ad ar
ad el
ad ise
Ġsp aces
Ġst ruct
os h
os y
eg ades
ant ed
Ġcast e
et te
ore r
ap se
ĠK u
ĠK itesail
ĠK henra
Ġex quisite
ĠO s
ĠO rochi
ĠO ketra
Ġgra in
ru ly
ĠV ile
ĠV ult
ĠV oy
ĠV icious
ĠV itu
ĠV ivien
ĠV exing
ĠV iconia
Ġman e
Ġman age
br ink
ho le
ĠSp ine
ĠSp ik
ĠSp ara
ĠSp ined
ĠSp ores
ĠN ext
ĠN one
ĠN ine
ĠN aut
ĠN issa
od ama
Ġv igil
Ġv ine
us es
us ker
ear ing
ig o
ig od
ĠWar ren
Ġdo zen
iv id
iv ist
iv orous
Ġsh ame
Ġsh own
Ġsh ade
Ġsh ines
Ġsh iny
Ġsh udd
ect ing
ul ous
ber ing
ĠSh el
ath ing
ath ed
Ġk ra
ould er
Ġwh ir
Ġbl an
Ġbl ast
Ġse ize
ĠAs k
ĠAs hi
keep ers
ĠIn gen
ĠIn vokers
ĠTh row
ĠTh ieving
ĠTh aum
ag ged
ous es
ous ly
Ġwas h
gon e
Ġta ble
Ġless on
Ġinst ance
are s
are t
Ġno ise
ĠAn urid
ĠSc ream
ĠSc ale
ĠSc hem
ĠSc roun
Ġam bit
own s
Ġle ather
Ġr anger
Ġr isk
Ġr itual
Ġr otting
ĠPut rid
Ġal ley
ak u
ĠSt ay
ĠSt ep
ĠSt ag
ĠSt itcher
ust er
Ġlo ves
ph on
Ġch im
Ġch arm
ĠDragon lord
sh aker
ang ling
Ġrem ark
ĠJ en
ĠJ et
ĠJ udge
ĠJ ahe
ĠBeast s
ĠSl ag
ĠSl ither
ĠSl ime
ĠSl asher
Ġwe igh
ĠFl edgling
ruct or
Ġexc ellent
ĠCon no
ĠCon scri
yp se
Ġun able
Ġun stoppable
Ġhis s
Ġgre et
Ġgre ml
ass ador
gel ess
aw ay
Ġro of
Ġro yal
Ġro ads
Ġgo at
ĠEn igma
ran ax
ĠTre spass
oul caller
orm ous
aster y
sp ear
ĠAl ways
ĠAl ora
ĠOr gg
ĠGiant s
ĠMy c
ĠNo xious
az da
esh aper
ĠDeath less
Ġus eless
Ġpro ved
Ġpro gen
ĠAd vers
ĠAd jud
Ġexp ected
ren ko
ĠHe aling
Ġcl iffs
ĠDem igod
lem n
ĠArch itect
ĠArch ivist
Ġru ined
Ġru bble
ĠDemon lord
Ġpo c
Ġind eed
oll um
ĠRo han
Ġsw itch
ud ith
vel s
Ġtra pper
Ġtra de
Ġra ging
icker y
ĠGolem s
ĠY or
ĠBlood fire
ĠBl ast
ĠBl ind
ĠBl azing
Ġqu ality
ĠIs eng
Ġtri be
Ġtri als
Ġtri umph
ĠMin amo
ĠLe y
Ġsl ith
Ġsl ight
Ġsl ime
Ġel eph
ĠTo casia
alf irin
ĠSn iper
ĠSn apper
pl anar
ail er
Ġover l
ĠAss ault
ull s
ift ing
Ġblood l
Ġblood chief
Ġcaus ed
be ard
Ġhear s
Ġad vent
Ġad mit
Ġdev ices
ĠShe ep
Ġarm ed
ik o
ik u
Ġdes igns
Ġhunt ed
Ġgl ow
ĠSky hunter
Ġac orn
Ġpoison ous
ĠSoul blade
ĠPro fessor
awn os
Ġgu ides
Ġhow l
Ġser vant
ĠGl en
ĠGl or
ĠGl ass
ĠGl issa
ĠHy brid
ĠDr ill
ĠDr own
ĠMerc iless
Ġexplo re
ĠIllusion ist
ĠTra der
ĠTra iner
gr is
gr ace
ĠKor l
Ġass assins
atter y
ĠBr ine
ĠBr amble
ĠTr umpet
ev in
ĠGr ound
ĠBattl es
ĠBattl efield
Ġste pped
te en
ĠGn omes
ĠHunt master
Ġsurv iving
Ġvict ories
Ġbu y
ĠSo j
Ġprotect ed
ĠEm in
Ġtem p
orp or
Ġem ber
ĠCol lect
Ġfin ished
Ġcyc ling
ĠMountain cycling
Ġext er
Ġext ract
Ġremain ing
Ġshould n
Ġshould er
Ġstart s
vers e
ĠKra sis
Ġdec or
Ġdec ad
Ġperfect ed
Ġheal er
Ġheal ed
ĠAg ency
ĠBand its
Ġfeel ing
Ġinc orpor
ĠUnder city
ĠSpect acle
anc ing
Ġhide ous
ĠScaven gers
Ġold est
ĠInt repid
Ġdel iver
Ġdel icious
ĠPat riarch
Ġdeep er
ĠJust ice
Ġimp ress
Ġfamil ies
Ġwr ath
Ġwr ithing
ĠWind grace
ĠDu o
ĠGold meadow
ov a
Ġtouch es
ĠRak ish
ĠPar ley
ĠPar adox
Ġins atiable
ric ious
ĠNe ither
ĠAm algam
ĠKar lach
ĠZh ur
Ġinsp iring
Ġbreak s
ĠCar avan
Ġrel ic
Ġstud ent
Ġremem bered
ĠSquirrel s
Ġsub st
Ġdri ve
ĠRed cap
ĠBro ken
Ġact ive
Ġact ions
ĠEf rava
ĠSor atami
Ġemer gen
Ġmult iple
ĠApp arition
Ġund eath
Ġund erest
ĠInst igator
co at
rap her
ĠFlame kin
Ġnor th
ĠTor ch
ĠFore runner
ĠCan opy
ĠCan yon
irt y
Ġspread s
Ġfaith ful
Ġdire ctly
ĠWhere ver
Ġhar ness
ific ation
ĠMult icolored
ĠArg ive
Ġpoint ed
ĠAp othecary
well er
ĠWay ward
ĠSal v
ĠSal vage
ĠTw ins
ĠTw ilight
Ġfun ny
ĠPy gm
ĠSkir sdag
Ġenc ore
ĠCons ul
El speth
ĠBee ble
Ġrequ ire
ĠNim bus
ĠRoot walla
Ġhundred s
ĠPo ison
Ġvi br
Ġche ck
ĠCry st
Ġele ments
Ġfriend ly
wh el
ĠEnd less
ĠMur der
izz ard
ĠCap enna
Ġsummon er
Ġlist ening
Ġemb alm
Ġemb ody
Ġherd s
Ġden y
ĠWither bloom
Ġspec imen
Ġprov ided
Ġswamp s
Ġcertain ly
ament al
ĠWorm fang
ĠTower ing
Ġinf est
Ġsteal th
Ġstat ure
Ġstat ue
Ġheav ily
Th at
ĠSanct ifier
ĠVor inclex
ba ile
Ġign or
ĠBell ige
Ġfort un
ĠNor thern
Ġvan ish
Ġshell s
Ġabs ol
cr at
Ġsand s
ĠTher os
ĠNon creature
Ġdeser ves
St itcher
ĠHa azda
Ġwarm th
Ġwield s
Ġhum ble
edic ated
ĠTro oper
ĠMelet ian
Ġspl it
Ġguess es
ĠHaunt ed
Ġash es
Ġsto le
Ġvers e
Ġinstinct s
Ġdwell ers
Ġpri ze
Ġpriest s
Ġtunn el
Ġaut omaton
Ġdwar f
aly st
ĠMach ine
Ġver min
ĠCru el
Ġmilit ia
ĠDep ths
ĠFort ress
Ġdemon st
ĠOt aria
ĠChron ic
Ġadm ire
Ġramp age
Ġfal se
Ġfal cons
Ġhell ion
ĠOff icer
ĠBlad ewing
Ġfright ened
Gh azi
Gh oulcaller
ĠTell er
ĠDran nith
ĠFel idar
ĠEdge wall
Ġleaders hip
ĠExpedition ary
ĠWayf inder
ĠWayf arer
ĠFo ols
Ġspr out
ĠDec oy
Ġgolem s
azot ep
ĠLava brink
Ġthri ves
inc ar
Ġsal vation
ĠWr angler
Ġmid st
ĠHur loon
Ġann oy
ĠDiv iner
ĠLun arch
ĠOath sworn
Az ewor
Ġcit izens
Ġthop ters
Ġult imate
ĠFre yalise
ĠLess on
ĠPal ace
rup ter
ĠVict ory
ĠElend ra
ĠUs urper
Ġtrem ble
Ol ivia
Ġess ence
Ġmast ered
ĠTask master
ĠHier ophant
ĠKins baile
Ġvirt ue
Ġneigh bor
Bra ids
Zh alfirin
ourt h
ĠSigil ed
ĠErr ant
ĠVh al
woop ing
ĠJh essian
Ġvalu able
Ġscr atch
Ġaggress ive
ĠNov ice
Ġcentaur s
Ġgargantu ans
Ġcath ars
Ġpul se
ĠHul king
Ġnav ig
ĠFug itive
ĠRush wood
ĠLab yrinth
ĠPant her
ĠGot cha
Ġsphinx es
ĠVr ist
ĠSlick shot
ocal ypse
Ġeffic ient
ĠAmber gris
Ġveter an
Ġrebell ion
ĠÃĨ ther
ĠRamos ian
Ġingen uity
Ġsam urai
isse ur
Ġdise ase
Ġfrenz y
ĠSle uth
ĠTunn el
ĠKer anos
ĠElec tro
ĠJavel ineer
Ġunexp ected
ĠHek ma
Ġtempl es
ĠResc uer
Ġfootstep s
Lyn a
She oldred
yield ing
Ġavail able
ĠSter ling
ĠTilon alli
icke red
ĠHolly phant
ĠRasa ad
ĠLul u
ĠPun isher
ĠAshi ok
ĠIngen ious
Ġambit ious
ĠJahe ira
ĠConno isseur
ĠIseng ard
ĠPygm y
ĠBellige rent
Azewor ai
* .<|
. âĢĶ
A R
A v
A venant
B e
B ey
C abal
C rowned
D o
D war
D emon
E rtai
G uls
H anna
H akim
I L
I S
J aya
L it
N am
N ik
N omad
N othing
P ro
Q ueen
S un
S now
S imic
T al
T aj
V or
W ard
a otic
b ed
b ra
b ones
b rig
b alist
c ale
c rop
c rasher
d ess
d ed
d ancer
d rinker
e ase
e ye
f i
f ront
f athom
g ly
g iving
h wain
i ars
j eru
k op
l ot
l ad
l aw
l ayer
m ag
m arch
m its
m ander
m outh
n n
n ought
n eath
o i
o ard
o op
o ologist
p ack
p res
p riest
p ecially
r it
r ity
r ich
r ata
s abo
t on
t old
t uk
t usk
t ender
t ongue
u is
u ul
v i
w it
w ire
w orn
w ick
w heel
w ielder
x a
y ou
Â ½
Ã ¡
Ġ raw
re en
re ll
re th
re ya
Ġt y
Ġt amed
Ġt asty
er ning
er ful
er horn
at ure
en e
en al
ou der
Ġc ure
Ġc ower
Ġc red
Ġc ull
Ġc rows
Ġc ircle
Ġc ustom
Ġa st
Ġa uthor
Ġth or
Ġo m
Ġo bey
Ġo pens
in ok
ar ious
es kir
an en
an ks
am ber
am bles
am ina
am bo
end able
it ects
tl et
on se
Ġb at
Ġb ough
Ġb all
Ġb rush
Ġb ridge
Ġb idding
Ġb alanced
ĠC ard
ĠC and
ĠC ove
ĠC ors
ĠC arth
ĠC ivil
ĠC rook
Ġyou th
ess e
Ġs ings
Ġs hop
Ġs ends
Ġs ailed
is to
Ġd row
Ġd ull
Ġd angers
Ġd reamed
Ġd ormant
ac re
ac ity
ac coon
or ing
or ist
or less
or ia
or able
Ġf an
Ġf ist
Ġf ox
Ġf ists
Ġf isher
Ġf rost
Ġf ulf
Ġf olly
Ġf ully
Ġf ickle
Ġw est
Ġw reak
Ġw akes
Ġw ounded
Ġw edd
Ġw retched
ĠW ary
ĠW ight
ĠW ake
ĠW izen
ĠW hether
ĠW astes
ĠW reck
ĠW hew
el ve
ro ck
st eed
Ġto y
Ġto re
Ġto ss
Ġp ra
Ġp rot
Ġp iles
Ġp hoenix
Ġp aladin
Ġp ause
Ġp uls
Ġp uzz
Ġm el
Ġm ix
Ġm ud
Ġm otion
Ġm aps
Ġm iddle
al i
al lying
al chemist
ĠS an
ĠS ard
ĠS ere
ĠS ink
ĠS ix
ĠS oc
ĠS edge
ĠS aint
ĠS arkhan
ĠS isma
Ġl on
Ġl og
Ġl aid
Ġl ull
Ġl air
Ġl aughter
Ġl urk
Ġl unch
Ġl ungs
Ġl ouder
il k
il ica
Ġit em
Ġh yp
Ġh ated
Ġh ounds
ur ge
ur ally
ur dy
if y
if ies
ed i
ĠA ud
ĠA geless
ĠT aunt
ĠT rawler
ĠT rost
ĠT attered
ĠT ransp
ĠT echn
ĠT usker
ĠT awnos
Ġg al
Ġg ate
Ġg rim
Ġg uts
tro p
ic ket
ic ators
ĠH ate
ĠH our
ĠH arm
ĠH ush
ĠH ada
Ġcon cept
ĠI v
ĠI vy
ver t
ĠD ru
ĠD aya
eld s
Ġin form
Ġn ice
Ġn aga
Ġn avigator
ast eland
ĠF ur
ĠF ly
ĠF bl
ĠF arm
ĠF oot
le ech
Ġbe ating
Ġbe hemoth
ir ith
ith a
um ing
and ers
as tline
ol us
Ġor gan
Ġor dinary
ĠE ar
ĠE ph
ĠE thers
ĠE ternity
ever y
ly n
ly s
Ġent ertain
Ġent rance
ĠR ime
ĠR angers
ĠR otting
ĠR accoon
ĠM eg
ĠM ig
ĠM ud
ĠM atron
ĠL egend
ĠL ath
ĠL air
ĠL earn
ĠL ys
ĠP u
ĠP ure
ĠP end
ĠP ig
ĠP ie
ĠP op
ĠP ort
ĠP alian
ĠP ouncing
ĠP eddler
ĠP sionic
ri en
ri an
ri el
ri al
ĠB il
ĠB raw
ĠB ans
ĠB itter
ĠB olt
ĠB loom
ĠB io
ĠB ully
ĠB ishop
ĠB astion
ĠB eskir
Ġre ly
Ġre ign
Ġre con
Ġre joice
Ġat op
ĠG ad
ĠG all
ĠG urm
ĠG aren
ĠG ollum
ack et
Ġde mentia
Ġend ing
Ġpl uck
ain er
ad an
ad on
ad ir
ad amri
Ġsp it
Ġsp ace
Ġsp illed
ell ed
pp e
Ġst ab
Ġst alk
Ġst oke
Ġst alking
Ġst icks
os qu
os tle
ct hwain
Ġcan to
ant er
ant om
ck ery
Ġplay ing
Ġplay ful
id ance
id ious
Ġli mb
Ġli ghtly
im m
im ately
ĠK e
ĠK el
ĠK os
ĠK em
ĠK inj
ĠK ange
ĠK ey
ĠK lement
ĠK renko
Ġblock ers
rif e
Ġex act
Ġex ha
ĠO y
ĠO rt
ĠO bl
ĠO res
Ġco ins
ĠV el
ĠV ast
ĠV ad
ĠV ant
Ġman ner
ho oter
ld er
ĠN ath
ĠN ether
ĠN acatl
od erm
qu ill
to ise
ill iam
Ġv or
Ġv oid
Ġv ials
est hir
ĠWar leader
iv is
iv ic
Ġsh ed
Ġsh ake
Ġsh ared
Ġsh ards
em aster
em ption
ul ent
ul ars
bl ights
Ġper ils
Ġper mit
ber d
ĠSh immer
ĠSh atters
ĠSh rieking
ier cer
all ic
ath some
av ored
ĠX ander
un a
Ġab und
Ġab omin
og ue
our ing
ĠZ ur
th p
com ple
Ġwh ip
Ġbl ame
Ġbl ows
Ġbl inding
Ġall owing
Ġall owed
Ġen l
Ġen vir
Ġen ormous
Ġunder ground
Ġunder foot
cer tain
Ġbecom ing
Ġother wise
ĠTh r
ĠTh ane
ĠTh resher
ĠTh unders
ĠTh elon
ag os
Ġret reat
ĠDra g
ĠDra kes
are th
ry n
ĠAn ointed
ĠAn je
ĠAn aba
ĠSc ribe
ĠBe aut
ĠBe acon
Ġcho ke
ven er
Ġle af
ĠRe ef
ĠRe ve
ĠRe volution
Ġcom rad
Ġr at
Ġr hino
Ġr ank
Ġr allying
art ed
Ġal oft
ak a
ak on
ak ke
ak ram
ĠSt ars
ĠSt inging
ĠSt omper
ĠEx ert
ĠEx arch
ust ic
Ġlo ot
Ġch est
Ġch ang
Ġch icken
Ġch ieftain
ĠAr den
ĠAr rogant
sh ade
Ġhe ight
ang ara
ĠCh ittering
ĠCh akram
ĠJ el
ĠJ ade
ĠJ oh
ĠJ edit
aman cer
Ġmy stic
Ġmy co
ĠSl ow
ĠSl im
ĠFl ight
Ġexc av
Ġfl u
Ġfl owing
ick ly
Ġun aw
Ġun stable
ĠSk in
ĠSk arr
ine e
ves h
rot orium
aw ning
Ġsc al
Ġsc roll
Ġj ung
Ġwor king
ark ar
ouch ed
ouch able
Ġgo al
Ġgo ats
ĠHor izon
ĠBird s
ĠEn raged
ss erhorn
unt il
ran os
ran qu
ran ite
ĠTre nch
ĠTre sserhorn
ond en
ott a
ort ex
ort ed
ort ion
ĠCat ac
ĠCat apult
ĠDruid s
ĠAl ara
vent h
Ġag ree
ĠMy ster
Ġsee ing
ura ble
Ġsk elet
Ġsk ulk
Ġpro ject
Ġpro dig
Ġpro fit
Ġri ft
Ġri ot
Ġwar s
Ġwar ren
ĠAd miral
ĠAd arkar
ĠHe y
ĠIns atiable
ĠConst able
ĠWh irl
ĠOn akke
Ġsur render
Ġpo ol
ĠUn f
ĠUn seen
ĠRo ar
ĠRo hir
Ġsw ore
Ġra ids
Ġra iders
Ġmon oc
Ġform idable
ĠY ellow
ĠSw ords
ĠCl ay
ĠBlood c
ĠBl aring
Ġqu ill
ĠMin er
Ġgr aceful
Ġsl ag
Ġsl ip
Ġsl aught
ĠTo ad
ĠSn oop
ĠDo or
eth or
ĠForest cycling
Ġblood line
ks dotter
we ir
Ġhear ing
ĠNight shade
Ġdev ils
ob i
vis ion
Ġarm ored
ik i
ik an
ik ari
ik ae
Ġbr icks
Ġbr utal
Ġsome how
Ġcomp ar
Ġcomp assion
ĠQ al
Ġpe aks
Ġgl int
Ġgl ittering
ĠSwamp cycling
ĠSky march
Ġac qu
Ġsu gg
ĠPro sper
ĠMinotaur s
Ġgu idance
int orius
Ġser ves
ĠGl ad
ĠGl immer
Ġkn ife
Ġtr ickery
Ġband s
Ġef reet
Ġef fort
Ġnat ive
ĠDr inker
ĠMerc adia
ĠMerc urial
ĠAtt ract
ann et
usp ecting
ĠArm or
ĠArm ory
ĠMar vels
Ġexplo s
Ġexplo ited
ax os
ĠMan ip
ĠTra itor
ĠTra inee
gr ath
Ġint ent
Ġint ended
Ġword y
ĠDes er
arm int
wor ks
Ġward s
ĠQu intorius
ĠBo a
ĠBr and
ĠSkelet al
ĠSkelet ons
born e
Ġkill er
ĠShadow s
uk ranos
Ġdist ric
Ġ' <
uck le
ĠMir ri
ĠAb bey
ĠGn aw
Ġhere tic
ĠHunt ing
ĠMag ma
Ġbu zz
ĠSo aring
ĠSo othsayer
ĠSo lemn
ey ser
Ġart ists
Ġrun es
Ġpr iceless
ĠProw ling
Ġclo ak
Ġprotect or
aya el
Ġtem pt
Ġtem pered
ĠSur geon
Ġes pecially
rop hy
Ġfar ther
Ġheart beat
Ġsn eak
Ġmet hod
ĠGra f
ĠGra pp
ĠRes p
ĠRes ist
Ġcur ious
ĠNec rom
ĠGuardian s
Ġthought weft
ĠHalf heart
ground s
ĠWild wood
ĠWild fire
ĠWild speaker
ĠLeg acy
Ġrep utation
aim er
Ġbelie ves
ĠAg gress
Ġfeel s
Ġinc arn
ĠScaven ging
ĠDis pl
idd a
Ġcare fully
Ġne ck
Ġne zumi
ĠBal eful
Ġpat ient
ĠMa j
ĠBen eath
Ġtravel ing
Ġfamil iars
Ġwr itten
ĠDu erg
ĠGold mane
ĠPar asite
Ġtell ing
Ġins ight
ĠLo ck
ĠLo cthwain
Ġvot ing
ric ade
Ġob sc
Ġob ser
Ġob ject
eng rid
Ġwater fall
Ġwater mark
ĠAm rou
ĠKar lov
ĠKar olus
ĠKing pin
Ġtrans cend
Ġben ef
ĠCor rupter
olog ists
Ġrel entless
ĠBro kers
Ġcollect ed
ĠWatch dog
ĠLegion naire
Ġcr own
Ġcr umbled
Ġbra very
Ġbreath es
ĠDark ness
Ġinv ading
ĠBas ilica
Ġresp ond
Ġresp onse
ĠOb sess
co il
Ġcor ruption
Ġpain t
ĠSm asher
ĠSm uggler
ĠHow ling
ĠPrim arch
Ġaw are
ĠDread horde
Ġge ars
Ġdu plic
ĠOx idda
ĠTor re
ĠEnt husi
ĠCur ator
ĠSu q
Ġspore s
Ġvill ages
Ġvill ainous
Ġsupp l
Ġsupp ly
Ġgener als
Ġsymb ols
ĠAp ostle
ĠRa ff
ĠOutl ander
rin ts
heart ed
ĠDomin us
ipp in
itt ers
Ġsol itary
ĠSom ething
ĠWhis pers
Ġancest ral
Ġmain tain
ĠMal amet
ĠProt e
ĠBee tles
Ġteach es
Ġpot ions
ĠTe acher
ĠTe zzeret
ĠRamp art
ĠStr ateg
vok ed
Ġcross ing
Ġcontin ues
wh at
ĠMur k
Ġtrust ed
Ġaff ord
iser y
world ly
ĠWere wolves
Ġple ase
Ġprom ised
Ġmus cles
ĠUnl ike
ĠBu ild
ĠBu zz
Ġprov ides
Ġcrush ing
Ġap es
Ġap ex
ĠLav inia
ĠGar riss
ĠDevour ing
Ġill usion
Ġide al
Ġide als
ĠScar ves
ĠScar ab
ĠRecl aimer
Ġcult ists
ĠSanct uary
Ġentire ly
ĠRi pper
ĠBone yard
renz o
Ġpatrol s
Ġcomb ined
ĠDire graf
ĠBell owing
ĠOj anen
Ġabs ence
ĠIncarn ate
ĠDri fter
ĠBet rayer
iam ond
ĠCult ist
ĠHa akon
ĠBoggart s
Ġimagin ation
Ġtall est
Ġincl ude
ĠFe ather
ĠEt ched
ĠCrypt ic
break ers
tail s
umb ered
ĠRevel er
Ġguess ed
Ġdisturb ing
Ġawaken ed
ĠChe erful
Ġwander ing
ĠHorn ed
ĠGen ius
tog rapher
ĠAdapt ive
Sc ar
Ġpri zed
ĠHob bit
ĠHob goblin
chie vous
Ġstick ers
ĠCle ver
ĠCarn age
ĠHaven gul
Ġacc ord
Ġharvest ed
heel i
Ġengin eer
Ġroam s
Ġevol ved
Ġramp aging
Ġsteed s
ĠUp on
ĠJo in
Ġuns uspecting
Ġmerchant s
Ġelemental s
Ġinclud ing
bb ed
Ġwitch es
ĠSa heeli
ĠField s
log ger
loss oms
ĠChrom e
Ġsurr ounded
Ġphilosop hy
Sk y
Ur za
Ġble ed
ĠCos mos
Ġmot to
ĠSto ic
Ġgle aming
ĠPass age
ĠVill ain
ĠVill age
ĠInv asion
Ġcompl ain
ĠEnchant ress
Ġrid ing
ĠSupp l
Ġbare ly
ingu ished
Ġperil ous
ĠScor ch
Ġscaven ge
ĠDrac onic
Ġconsum ed
Sor ine
Ġbas ilisk
Ġbloom s
ĠWo e
Ġpatter ns
Ġet ched
ĠEz uri
ĠMech anic
Ġspo ken
ĠArchae ologist
Ġimpro ve
ĠGrizz ly
Ġsatisf y
Gl issa
Ġfre qu
Ġpop ulate
Ġut ter
ĠPol ukranos
ĠBrush wagg
ĠOd ric
ĠShar ps
Ġpreser ve
ĠAlt isaur
Ġnecrom ancers
ĠLibr arian
ĠRelic bane
ĠExcav ator
ĠCustod i
Bru se
Ġfav ors
Ġfarm ers
Ġhabit at
ĠHan weir
ĠDro ver
ĠMus cle
ĠLum engrid
ĠPak al
ĠGener ous
Ġstream s
uss ar
ĠYot ian
Ġsmith s
Ġcasu alties
mun ition
Ġthrull s
Ġmir ror
Ġhym n
Ġinev itable
ĠGit ax
ĠGust cloak
ĠKrov ikan
ĠOp al
ĠSpec ies
Ġinstrum ent
Ġlox odon
ĠConver ge
ĠWeap ons
ĠPlan eswal
aza ar
ĠSkys ail
ĠGlutton ous
Ġencount er
ĠCerat ops
call ers
Ġcaut ious
Ġthr own
Ġsum mer
ĠSaf e
ĠTuk tuk
ĠFest ering
ĠRow an
ĠLin vala
ĠLot us
Ġregre t
ĠKath ari
ĠNem esis
ĠNurt urer
ĠAng ler
Ġmillenn ia
Ġadop ts
ĠPrec inct
Ġguilt y
ĠSymb i
ĠMoor land
Ġunpredict able
ĠÃī omer
One an
ju ven
Ġbot tle
Ġpier cing
ĠAxe bane
ĠFr illed
ĠFront ier
Ġeag les
ĠLuk amina
ĠPix ie
ĠPris m
Ġliqu id
ĠScri vener
ĠStens ia
Ġremn ants
Ġouts iders
ĠYar ok
Ġresour ces
ĠDevast ator
ĠPilf erer
Ass assins
Gar ruk
Shin tai
Ġagon y
Ġmushro oms
Ġlen gth
ĠHood ed
ĠHung ry
ĠFut urist
ĠLux a
chol ars
ĠVoy ager
ĠNaut ilus
ĠThaum at
ĠScroun ger
ĠAdvers ary
ĠAdjud icators
Ġoverl ay
ĠEmin ence
ĠSalv ager
Ġvibr ant
Ġinfest ation
ĠChronic ler
Av ram
Bey ond
Guls en
Taj ic
Vor inclex
Ġcred it
ĠWizen ed
ĠFbl thp
ĠEph ara
ĠEthers worn
ĠPalian o
ĠBans hee
ĠGurm ag
ĠGaren brig
ĠKinj alli
ĠKange e
Ġexha ust
ĠOres kos
ĠShatters kull
Ġenvir on
Ġcomrad es
Ġchang es
Ġjung les
ĠRohir rim
Ġmonoc olored
ikae us
Ġdistric ts
ĠGarriss on
' .
* .
* ?
A m
A jani
B o
C ursed
C ircuit
D om
E ater
F l
G re
G andalf
H av
H alf
I b
I n
I s
K am
K iora
L ady
L lanowar
L ament
N antuko
O b
P s
R em
R ise
R az
S qu
S idar
S word
T e
T eysa
W illiam
b ing
b urn
b ol
b ad
b all
b riar
c or
c um
c ass
c ial
d ark
d iver
d ruid
d ened
d ges
e ve
e tle
e aler
f our
f ord
f itter
f isher
g ent
g ue
g anger
g ans
h s
h ou
h ot
h ame
h ard
h and
h ome
h ib
h ana
h anded
i ation
k at
k ed
k ul
l u
l or
l ong
l ich
l asting
m ade
m ira
m ma
m asters
m akers
n u
n ant
n tly
n amental
o e
o or
o inter
p es
p ath
p alm
r ith
r ace
r ite
r ound
r ond
r icate
s n
s ig
s inger
s aken
t a
t end
t hen
t his
u z
v uli
w on
w ake
w aker
z u
z er
z ens
re f
re p
re ct
re rak
Ġt in
Ġt ame
Ġt ies
Ġt ong
Ġt ill
Ġt ired
Ġt iny
Ġt ainted
Ġt ranqu
er d
er id
at to
at us
en aut
en za
Ġc re
Ġc ore
Ġc ave
Ġc rab
Ġc reep
Ġc ried
Ġa vo
Ġth ir
Ġth rash
Ġth rone
Ġth irty
Ġo per
in ist
ar is
ar ion
ar row
ar led
ure au
an ul
an ner
Ġthe ory
am ir
end ers
it ic
tl ight
on ly
on ies
Ġb es
Ġb ore
Ġb ree
Ġb row
Ġb oss
Ġb ored
Ġb ats
Ġb ush
Ġb ought
Ġb ites
Ġb ulk
Ġb ased
Ġb unch
Ġb lossom
Ġb inds
ĠC ore
ĠC od
ĠC ab
ĠC ook
ĠC raft
ĠC ivic
ot au
Ġy a
Ġy awn
ow ered
ow beast
Ġyou ths
gh orn
Ġs ad
Ġs ink
Ġs elves
is ho
Ġd ile
Ġd ag
Ġd ish
Ġd iver
Ġd ail
Ġd ress
Ġd aring
Ġd aughter
ame leon
or ge
Ġf r
Ġf urn
Ġf ig
Ġf athom
Ġf ray
Ġf ancy
Ġf iends
Ġw ra
Ġw ound
Ġw ine
Ġw aking
Ġw asted
Ġw oman
ĠW ort
ĠW icker
ĠW ords
ĠW retched
ĠW asteland
el ry
el ia
el lect
el ands
ro ats
ro pe
ard rop
Ġan ts
st ers
st ruct
st ood
st ream
st atic
st ained
Ġto ad
Ġto ys
Ġp u
Ġp an
Ġp age
Ġp ig
Ġp ark
Ġp ran
Ġp ond
Ġp ale
Ġp ik
Ġp aper
Ġp ests
Ġp oured
Ġp anic
Ġp inch
Ġm eld
Ġm ate
Ġm ile
Ġm ail
Ġm und
Ġm alevol
ĠS end
ĠS it
ĠS eg
ĠS ab
ĠS ift
ĠS up
ĠS ib
ĠS tern
ĠS vy
Ġl oft
Ġl amp
Ġl ance
Ġl ake
Ġl eth
Ġl ush
Ġl ayer
ent ch
il ities
il ient
il obite
Ġh ol
Ġh id
Ġh ound
Ġh ord
Ġh ood
Ġh its
Ġh usk
Ġh orde
Ġh alls
Ġh ammers
ur ance
ur red
Ġ2 5
ed y
ĠA qu
ĠA gon
ĠA egis
ĠA inok
ĠT a
ĠT ar
ĠT iv
ĠT ze
ĠT atter
ĠT ah
ĠT ides
ĠT rib
ĠT ao
ĠT ender
ĠT rove
ĠT iam
ĠT avoc
ĠT ainted
ĠT ishana
ef net
Ġg rove
Ġg athers
ra f
ra v
ra se
ra ils
ve yor
ĠH ot
ĠH id
ĠH ave
ĠH ire
ĠH ull
ĠH ired
ĠH elp
ĠH acker
ĠH ounds
ĠH atcher
ĠH onden
Ġcon ven
Ġcon dem
ĠI I
ĠI V
ĠI b
ĠI d
ĠI name
ĠI sh
ĠI mage
ĠI gu
ĠI de
om ing
om ist
om az
om aro
om itable
ĠD er
ĠD il
ĠD est
ĠD own
ĠD estruct
ĠD rog
ĠD une
ĠD ays
ĠD utiful
ĠD axos
Ġin sc
Ġin quis
Ġn eg
Ġn ation
Ġn ick
Ġn inj
ast ric
ĠF at
ĠF ate
ĠF ren
ĠF arb
ĠF ey
ĠF reed
ĠF urt
ĠF ounder
Ġbe ach
Ġbe ats
Ġbe hold
ir ic
ir acy
um s
um er
um ble
um phant
and u
and ler
Ġe erie
as tly
as ma
as eless
ol a
ol ith
ol ated
Ġor gans
Ġor namental
ĠE el
ĠE os
ĠE ber
Ġwith ered
ĠR us
ĠR are
ĠR ade
ĠR ise
ĠR ix
ĠR ising
he ath
he mer
he cy
ĠM i
ĠM ot
ĠM om
ĠM as
ĠM id
ĠM ire
ĠM our
ĠM aus
ĠM aver
ĠM ime
ĠM uck
ĠM ourn
ĠM angler
ĠM onger
ĠM uld
ĠM tend
ĠM won
ĠL ure
ĠL one
ĠL oc
ĠL au
ĠL udevic
ount ain
ĠP ere
ĠP ark
ĠP orc
ri ver
ri ving
ĠB ot
ĠB le
ĠB ri
ĠB ill
ĠB art
ĠB ark
ĠB asic
ĠB ront
ĠB attering
ĠB riar
ĠB ulwark
ĠB oulder
ĠB aku
Ġre v
Ġre le
Ġre un
Ġre ass
Ġre roll
Ġre vered
Ġre inforce
ach n
ĠG ame
ĠG raz
ĠG ift
ĠG inger
ĠG ib
ĠG utter
ĠG irl
ĠG eyser
ĠG renzo
ack led
ch ar
Ġfor ced
Ġfor got
Ġunt amed
Ġde bris
Ġpl ot
Ġpl ain
Ġpl under
Ġpl enty
uman o
lo pers
Ġsp ire
Ġsp ort
Ġsp ines
Ġsp ires
pp ers
Ġst up
Ġst ride
Ġst itcher
Ġst umbled
Ġst ickered
Ġst rife
ke rer
os ite
ion eer
act er
ck roach
Ġplay ed
et op
et tling
et uous
ĠThe orist
ap ort
im ited
ĠK ed
ĠK um
ĠK as
ĠK ud
ĠK rus
ĠK iy
ĠK argan
ĠK odama
ĠK umano
ken s
rif ied
ĠO ri
ĠO ch
Ġco ve
ru der
ĠV es
ĠV iz
ĠV isc
ĠV ener
ĠV ert
ĠV engeance
Ġup ro
ight ed
ĠN ame
ĠN az
ĠN aj
ĠN egot
ile ge
Ġany way
od ah
his t
qu e
qu et
qu ake
qu ished
Ġv ents
Ġv ital
old ering
us ual
ear ling
ose i
ig or
ig ger
est ing
est one
est ealer
ĠWar caller
ĠWar monger
iv ating
Ġsh out
Ġsh ine
Ġsh atter
em a
em illa
ul ation
ul aport
ĠYou th
bl is
bl ight
Ġper iod
ber y
ber ry
ĠSh ard
ĠSh akes
ĠSh redder
ĠSh ifting
all ower
ist ering
ĠAt rax
ian ces
Ġland cycling
ath a
ath rid
av ers
av ens
Ġlong est
ĠX athrid
ĠZ ar
ĠZ ag
ĠZ iator
ĠZ ulaport
th m
th ief
com m
Ġwh ims
Ġbl unt
Ġbl azing
Ġall ows
Ġen force
Ġen vy
Ġse aled
ĠIn ner
Ġother worldly
ĠEl speth
ĠTh anks
ĠTh riving
ĠU mb
Ġcol oss
Ġcol lector
ag us
ag erie
ĠDra k
ĠDra in
ous a
ous er
ous ed
Ġnot iced
ree cher
ĠEle ments
Ġless ons
Ġthan ks
ter ran
ĠAn af
ĠAn ointer
ĠSc amp
ĠSc roll
ĠSc aled
ĠSc ythe
ĠSc reecher
Ġam phin
Ġam munition
Ġcho osing
ip tide
ip ede
Ġle ech
Ġle aping
ĠRe ality
ĠRe ason
ĠRe juven
Ġr aces
ĠDe an
ĠDe aler
ĠDe bt
ash ing
ash ed
Ġal arm
ĠSt age
ĠSt ang
ĠSt ory
ĠSt aun
ĠSt arting
ust ry
ph agus
Ġch ill
Ġch ief
Ġch ann
Ġch angeling
Ġch ampions
ĠDragon claw
ĠDragon fly
ĠAr isto
Ġdiscard ing
aur us
se ud
op ies
op od
op ter
Ġrem ind
ĠCh asm
ĠCh urch
ĠCh ameleon
ĠJ in
ĠJ ailer
Ġuntap s
oth l
ĠBeast master
ĠSl umber
ĠSl oth
ĠSl udge
Ġwe ek
ĠFl ower
Ġexc el
Ġme ek
Ġme ets
ĠCon dor
Ġfl at
Ġfl ower
Ġfl aw
Ġfl aming
Ġfl owers
row ing
Ġblack smith
Ġdestroy ing
less ly
ick ing
Ġun h
Ġun it
Ġun ite
Ġun ner
Ġun certain
Ġun usual
Ġgreat ness
Ġhis sed
ĠSk oph
Ġunl imited
ost or
Ġher mit
aw ks
Ġsc um
Ġsc are
Ġsc ience
Ġsc reeching
Ġj ud
Ġj udge
Ġexcept ion
Ġro oft
Ġro ared
ild e
Ġpre vail
ĠWe ak
ss a
ener gy
ĠTre acher
ĠTre etop
Ġout m
Ġout n
Ġout er
Ġout fit
oul t
touch er
ort s
ort ality
ab orn
sp ore
sp iracy
ĠAl ana
ĠAl pine
ĠOr ch
ĠPl under
ĠPl edge
ĠMy th
ĠNo body
az ed
az ir
Ġsk ul
raz y
Ġus es
Ġri fts
ix er
war i
Ġexp ans
Ġcl ay
ĠWh ich
ĠFor saken
ĠArch lich
ĠHer der
ĠHer balist
ĠUn w
Ġind ivid
ory gm
Ġsw ath
Ġsw irling
ĠScout s
vel y
Ġtra sh
Ġtra ps
Ġtra ils
Ġra ise
Ġra ges
Ġmon key
Ġform ation
ĠY earling
ĠSw allower
ĠCl ues
ĠCl ique
ĠCl iffs
ĠBlood lord
ĠBlood suck
ĠBl ister
ĠBl asted
ĠIs n
Ġtri al
ĠMin as
ĠLe aves
Ġres c
Ġres er
Ġsl ay
Ġsl ayers
Ġsl aughter
Ġsl ips
Ġel usive
Ġnew ly
ĠTo gether
ĠSn are
ĠSn apping
ĠDo ppel
ict ed
ict ion
ict ive
pl ate
pl asm
pl endent
ens er
ail s
Ġover whel
Ġstill ness
eth ers
ull a
walk ers
Ġblood y
be etle
we b
we ight
Ġph rase
ĠIsland cycling
Ġad just
Ġdev il
Ġdev ious
Ġdes cent
ĠDev out
au ku
Ġcreat ive
ĠGu an
Ġgl ide
Ġbel oved
Ġtw in
Ġtw ists
Ġtw elve
Ġac id
Ġac olyte
Ġac compl
ald ing
ald ir
ĠImp s
ĠImp etuous
ĠImp ostor
ĠSun rise
ĠSun home
Ġscry ing
Ġte em
Ġgu y
Ġoff icial
Ġser ving
ged y
ĠGl ac
ĠGl amorous
ĠHy d
Ġapp l
Ġapp rop
Ġstr anger
Ġstr ands
Ġtr umpet
Ġband its
Ġdis rupt
ara h
inn ed
ĠIll us
ĠIll umin
ĠSome one
Ġcar n
Ġcar cass
aver ing
aver ns
ĠSil k
ann ah
Ġroll s
ats u
ĠMar o
ĠMar iner
ĠPart isan
Ġfear less
mare t
ĠCent uries
ĠIllusion ary
Ġmut ated
ĠMan ifest
res ist
gr in
ros ive
Ġhigh ly
Ġint act
Ġint ricate
ĠKor vold
ĠCo ckatrice
Ġactiv ity
Ġactiv ates
ĠFire cat
ĠFire fist
ĠGod o
ĠQu ag
Ġlet s
ĠHell sp
ĠHell hound
ĠGh or
uk a
uk h
uk i
Ġdist inct
pe are
reak ed
ĠTr ou
ĠTr ilobite
Ġgood s
ĠArc het
Ġdragon lord
ev olent
ĠGr ant
ĠGr inder
Ġste am
Ġste als
ager y
light er
Ġguard ing
ĠMaster mind
ĠGn at
ĠGn arled
Ġcle aring
Ġgod dess
ĠMag istrate
Ġlead ing
ĠPer fect
ogg o
ĠCit anul
Ġwin ning
Ġcont ained
ey ed
Ġart s
ĠHero es
oun ce
ĠUr s
ĠAc id
ĠAc quis
ĠAc compl
ĠHis oka
ĠProw l
Ġspirit ual
ales k
Ġes c
Ġfin ish
Ġfin esse
Ġext inguish
Ġdef iance
alk a
Ġhard ly
ĠAk roma
Ġsn ap
Ġsn are
Ġsn iff
Ġsn acks
ĠGra vel
ĠRes plendent
Ġwind ows
ĠGre ven
Ġcons iders
Ġcru nch
Ġren egades
na pper
Ġdec ay
Ġdec ades
Ġhor rifying
Ġshall ows
ĠAg es
ĠBarbarian s
ĠAny one
ĠStorm scape
Ġold er
ĠSy phon
ĠDis p
Ġloy alties
ĠSaproling s
ĠInt imid
Ġbo at
Ġbo ar
Ġbo ast
Ġbo iling
Ġmove ments
ĠTy maret
oly tes
ĠInc iner
Ġpat roll
ĠMa adi
ĠPat ient
Ġtravel s
ĠGate keepers
Ġseem ingly
ĠRob ots
asc in
ĠPe ople
ĠPe ema
Ġtell s
rag o
ĠLo ch
Ġvot ed
Ġob edient
ĠWor k
Ġcry pt
ĠMet amorph
Ar rester
Ġtrans l
ĠCor rupt
Ġinsp ires
ĠRing leader
ĠDeep root
Ġeye blights
ĠCar riage
Ġangel ic
Ġho le
Ġdri ves
ĠDawn bringer
ĠWatch ful
Ġmod e
Ġmod el
ĠAz or
ĠAz ami
ĠDusk mantle
ĠCephal ids
urg lar
Ġgift ed
Ġemer ges
ĠChim ney
Ġcr acks
rak h
Ġinv ade
Ġinv itation
Ġnec rogen
ĠBas ri
ĠOb s
Ġsent inel
Ġsent ries
isk el
Ġpain ful
ĠGhoul s
Ġaw ait
Ġfier cely
ĠDread nought
Ġge ar
Ġnor thern
ĠMay or
ĠMay hem
Ġsure ly
Ġfle w
Ġdep art
ĠVol o
ĠVol ver
Ġsurviv or
ĠCur rent
Ġfell ed
ĠSu ccess
Ġvill ager
ĠDead ly
Ġsupp lies
Ġsqu are
ĠKam ahl
omat ons
cc ane
Ġhors es
ĠTw isted
ĠRapt ors
Ġreal ize
Ġlevel ers
Ġclaim ed
Ġconn ection
ĠPy ro
ĠKeld ons
Ġrepres ent
Ch andra
iqu es
Ġsol ve
Ġsol ace
Ġwood land
Ġposs ibility
ĠHag ra
Ġenc roach
Ġclear ly
Ġve get
umm el
ĠMal col
ĠMant a
ĠBlack smith
ĠSilver quill
Ġsleep ing
ne ous
ĠVer ge
ĠStr ay
ĠStr angler
Ġir resist
Ġtact ician
Ġwelcom ing
Ġwelcom ed
ĠHo verguard
ĠPo et
Ġterr itorial
ĠAmb assador
Ġeager ly
Ġcontin ued
ĠEnd uring
Ġaff ect
Ġaff lict
ĠCap ricious
ĠHal ana
ĠMem ories
ĠBel oved
ĠHors es
Ġemb odiment
ĠMe anders
ĠThorn scape
ĠUnl ess
Ġtransform ed
Ġden ied
Ġden izens
Ġfer al
Ġhapp en
Ġhapp ily
ĠAnt s
ĠFar rel
Ġendless ly
ĠInn oc
ĠInn keeper
Ġmountain walk
Ġcrush es
rr r
Ġsend ing
Ġhom eland
Ġhung ers
Ġinf antry
ĠGar rison
Ġstir ring
Ġunderstand ing
ĠGrand eur
Ġill ness
Ġfail s
Ġpar aly
ĠScar wood
Ġsail or
Ġunf athom
Ġdescend ants
Ġoutl ast
oph ony
Ġign ored
Ġcraft ed
ĠCall ous
utt ers
ĠNor wood
Ġvan ished
Ġvan ishing
Ġvan quished
Ġshort cutter
Ġabs orb
Ġdisco very
cr own
ĠCal amity
Ġmouth s
edd ling
let ter
ĠRab id
ĠRab ble
ĠBet ray
Ġstory teller
ĠKill er
Ġdeser ving
Ġtal ents
ĠHa uler
Ġconf ront
Ġnum erous
Ġrepl ied
Ġrepl aced
ĠGri ef
Ġens uring
ĠForce mage
Ġimagin ing
Ġimagin ed
ĠCr own
Ġsho ok
ĠFe i
ĠFang ren
ĠEt rata
ĠPit iless
ourn ers
ĠCommand ers
Ġinter f
ĠRid ges
ĠMast iff
ĠMast odon
ĠBur st
ĠKy ren
Ġsmash ed
Ġawaken ing
ĠChe etah
Ġmor ale
ĠSar uman
Ġlow est
Ġhur ts
ĠHorn et
ĠIx alli
ĠFalcon er
Ġvers atile
Ġexpedition s
Ġferoc ious
Sc roll
Ġfil igree
Ġfolk s
Ġwond ered
ĠTri al
ĠDen ethor
Ġinfect ion
ĠPain ter
Ġskull s
upp ets
Ġtor ches
Ġaut umn
Ġbri ghtly
Ġbri bery
ĠCle ar
ĠWing ed
ĠSim ian
ĠSim ple
ĠSleep er
ĠAh n
ĠKher u
ipl om
ipl ined
ĠConjure r
ĠDoom ed
Ta a
Ġbell ow
Ġdig ging
ĠOt ter
opl asm
ĠChain er
yll ion
Ġfocus ed
Ġgard ens
Ġgather ing
Ġconqu er
ĠIg neous
ĠRef lect
ĠGal van
ĠChild ren
Ġuns ettling
ĠAcc ursed
Ġincre ased
Ġtechn ology
Tail s
Ġdom in
Ġgarg oy
ĠFel hide
ĠPest ilent
Ġasp ire
ĠChrom a
Ġsurve y
Ġghoul s
Ġghoul callers
Ġoccasion al
Ġoccasion ally
Ġstomach s
mind ed
sk ol
ĠCos m
orb orygm
ĠSpit fire
Ġdoom ed
ĠDece it
Ġrid es
ĠFight er
Ġdet ective
ĠStud ent
ĠStud ents
abor atory
Ġcompet ition
Ġinterest ed
Ġconsum es
Ġbreat hing
Ġscho ols
ĠWo olly
Ġpatter n
ĠFin ally
Ġorc s
Ġorc ish
ĠMight y
ĠMech an
ĠKa ervek
ĠSkul kin
Ġexpl ains
ĠAerial ist
ĠGrizz led
ĠMaraud ers
ole um
Ġthop ter
Ġdread ful
Ġpop ular
Ġult imately
Ġgru dge
Ġconcer n
Ġnim ble
ĠFeed er
Ġorig ins
Ġorig inal
ĠRag avan
ĠBrig ade
ĠGear hulk
ĠKaz andu
ĠVis itor
ĠNar fi
ĠElend a
Ġloc al
Ġcryst al
ĠTorment or
ĠLibr ary
Ġtalent ed
Ġcand le
Ġsanct uary
Ġfav ored
Ġpol it
Ġmob ile
Ġmourn ful
ĠTen acious
ĠLob ster
ĠPri zed
ĠBrim stone
ckon ing
ĠScut tling
Ġrhy me
Ġmyster y
ĠSeek ers
Ġassist ant
Ġclos est
Ġcasu alty
ĠImagin e
ipper y
Ġtang ible
Ġthread s
Ġbarb arians
ĠCa ustic
Ġfift h
ĠSou leater
ĠSum ala
ĠAren a
Ġ16 7
ĠHu o
Ġconver ted
ĠMong rel
ĠMong oose
ĠLan es
Ġfors ake
ĠKind ly
ĠShin en
ĠReinforce ments
ĠStamp ede
ĠStamp eding
Ġgrat itude
ĠTravel ers
ĠDesec rator
Ġmerc iless
Ġextinct ion
ĠBrain iac
ĠCallaphe ia
Ġparticular ly
Ġident ity
ĠâĢĶ~ <|
Ġsigil s
Ġfest ival
ĠSen ate
Ġhy dra
ĠDak mor
ĠMilit ia
ĠLumber ing
ĠGem palm
Ġattend ants
ĠKro og
ĠOpp ortun
ĠNi blis
ĠNeed le
ĠXen agos
ĠAsc etic
ĠInvestig ator
ĠThrash ing
Ġmyst ical
Ġjew elry
Ġoutp ost
Ġmonum ents
ĠServ itor
rides cent
ĠProgen itor
Ġdisapp ear
ĠGnarl id
ĠGargantu an
ĠRaksh asa
Ġhoof beats
Ġexperien ced
Ġsquirrel s
Ġcultiv ate
Ġsurround ings
Con trol
On na
hall owed
rem ely
ĠWy vern
ĠDan itha
ĠFal se
ĠRish adan
ĠMol och
ĠBorder land
ĠGig ant
ĠGrot ag
ĠGalad riel
Ġforb idden
adil lo
Ġstitch ers
ĠOcc ult
Ġpref ers
ĠYan ling
ĠYang gu
Ġimper fect
Ġsunl ight
Ġguarant ee
ĠMercadian s
ĠNecrop olis
Ġpursu it
ĠHypnot ist
ĠPossess ed
Com mander
Vol rath
Ġraz or
Ġceremon ial
Ġaval anche
Ġobe yed
Ġsac r
ĠWinn ower
Ġpare nts
ĠSid isi
ĠIk oria
ĠDag sson
ĠFron tline
ĠRank le
ĠBran ch
Ġrebel s
Ġdeem ed
Ġdeaf ening
Ġstruct ure
ĠShel ob
aret ti
ĠJen ny
ĠJet mir
Ġpoc kets
ĠYor vo
Ġbloodl ust
ĠKorl is
ĠSoj ourners
Ġimpress ive
Ġsubst ance
Ġemergen cy
Ġunderest imate
Ġneighbor hood
Dwar ven
IL L
kop a
uis ance
reth ren
Ġty ran
Ġthor ough
ambo o
Ġbough s
ĠCarth alion
Ġdrow ning
Ġfulf ill
Ġwedd ing
Ġlon ely
edi ately
trop olis
ĠDru dge
ĠKem ba
Ġabund ance
Ġabomin ations
ĠThunders cape
ĠArden vale
Ġunaw are
Ġskelet ons
ĠBloodc razed
ĠSkymarch er
ĠGlad iator
ĠManip ulator
Ġmethod s
ĠResist ance
ĠObsess ive
Ġduplic ates
ĠTorre zon
ĠEnthusi ast
ĠProte ge
ĠSharps hooter
ĠGitax ian
ĠWeapons mith
Dom ri
Hav va
Ps emilla
Raz ia
Ġtong ues
Ġavo ided
Ġthir teen
Ġbush ido
ĠCab aretti
isho ba
Ġdile mma
Ġdag gers
Ġdail y
ĠSup reme
ĠSvy elun
Ġhord es
ĠTze entch
ĠTiam at
omaz oa
ĠDest iny
ĠDrog skol
Ġninj utsu
ĠFarb og
ĠRus alka
ĠMour ning
ĠMaus oleum
ĠMaver ick
ĠMtend a
ĠMwon vuli
ĠLoc ust
Ġstup id
ĠKiy omaro
ĠViz kopa
ĠVener able
ĠNegot iator
ĠYouth ful
ĠShakes peare
ĠZiator a
terran ean
ĠAnaf enza
ĠStang g
ĠStaun ch
Ġchann els
ĠAristo crat
ĠSkoph os
ĠTreacher ous
ĠPledge mage
ĠDoppel ganger
Ġapprop ri
ĠArchet ype
ĠIntimid ator
ĠInciner ator
ĠMalcol m
Ġunfathom able
orborygm os
) <|
+ *<|
1 4
? '
A sh
A kir
B ot
B ound
B lessed
C ry
D ran
D rones
D weller
D IS
E E
E R
E n
E r
E nd
E ternal
F re
F ield
F ist
F aced
F avored
G n
G u
G reat
G ang
G uard
H astric
J an
J hoira
K ro
K arn
L av
L uc
M od
M elira
M elds
N or
O U
O t
O gre
P y
P er
P it
R ad
R ak
R af
R aff
R iptide
S ach
S oltari
S arkhan
S ensei
T reat
T or
T ri
U rabrask
W ing
a ic
a bl
b ro
b red
b ors
b ox
b uck
b reed
b irth
c en
c ar
c ies
c ation
c rab
c eful
c rawler
c ribe
d n
d el
d ru
e es
e be
f logger
g n
g ast
g id
g ah
h am
h arg
h ai
h awk
h rall
h gah
i ker
i ates
i ys
i ksdotter
j ara
j ek
k r
k le
k ira
k maw
k ima
l ash
l inn
l ike
m al
m ire
m ist
m ere
m oon
n ir
n od
n oon
o il
o ol
o cl
o ving
o iler
p od
p to
p out
p ort
p ective
p reme
p rints
r ates
s i
s el
s oul
s kin
t w
t oss
t rans
u o
u ke
u iler
v ad
v iously
w eed
w inder
w atcher
x i
x en
y o
y u
z o
z es
z oc
z ama
Ã ¢
Ġ [
Ġ veil
Ġ era
Ġt ar
Ġt ant
Ġt id
Ġt ire
Ġt orn
Ġt ort
Ġt ren
Ġt iss
Ġt une
Ġt alking
Ġt angle
Ġt iger
Ġt ightly
Ġt rophy
Ġt atto
er p
er ation
er vation
er vous
at y
at al
at he
at ical
at ics
en b
en or
en gin
en ance
en ry
ou rage
Ġc er
Ġc ir
Ġc ous
Ġc rest
Ġc enn
Ġc inders
Ġc razy
Ġc averns
Ġa ber
Ġa we
Ġa ward
Ġa xes
Ġth ief
Ġth rill
Ġo i
Ġo l
Ġo oze
Ġo oz
Ġo men
Ġo pin
in f
in ar
in ate
ar u
ar all
ar ak
ar ling
ar ily
ar ring
es y
es ome
an ch
an im
an za
ft ers
am on
am ine
end id
it as
it age
it ons
it ably
tl and
on ge
on al
on ate
Ġb ard
Ġb ef
Ġb omb
Ġb ub
Ġb oy
Ġb ars
Ġb au
Ġb ann
Ġb alm
Ġb ury
Ġb ids
Ġb eds
Ġb owed
Ġb attered
Ġb io
Ġb onder
Ġb ronze
Ġb reach
Ġb ulwark
Ġb lossoms
Ġb rethren
ĠC e
ĠC en
ĠC ow
ĠC age
ĠC lock
ĠC raw
ĠC ler
ĠC one
ĠC ran
ĠC ase
ĠC ull
ĠC ros
ĠC arm
ĠC inders
ĠC owl
ĠC ackling
ĠC razed
ĠC athed
ot a
ot i
ot hy
ot ions
Ġy e
Ġy earn
ow der
ow ashi
âĢĶ <|
ex us
Ġs on
Ġs eld
Ġs age
Ġs ite
Ġs ip
Ġs igh
Ġs avor
Ġs aving
Ġs igns
Ġs itu
Ġs oltari
Ġs isters
Ġs earing
is dom
is oph
Ġd ut
Ġd od
Ġd ared
Ġd ivers
Ġd umb
Ġd edicated
ac id
ac ab
ac ular
ac ulate
ac rum
ac col
or ation
Ġf old
Ġf able
Ġf ates
Ġf alt
Ġf ired
Ġf und
Ġf anc
Ġf acing
Ġf aint
Ġf atal
Ġw ast
Ġw age
Ġw et
Ġw orn
Ġw its
Ġw ished
Ġw heel
ĠW ord
ĠW ish
ĠW aker
ĠW alk
ĠW inder
ĠW ily
ĠW ounds
ĠW inter
ĠW isdom
el ain
el ect
el ord
el brand
el haven
ro ads
ard er
Ġan ointed
st r
st ar
st rider
st oke
Ġp y
Ġp ru
Ġp ill
Ġp ear
Ġp atch
Ġp aus
Ġp ict
Ġp arch
Ġp awn
Ġp aws
Ġp sych
Ġp ierce
Ġp hyl
Ġp uppets
Ġm ent
Ġm ice
Ġm ace
Ġm art
Ġm aw
Ġm uck
Ġm ouse
Ġm amm
Ġm umm
Ġm edic
Ġm ention
Ġm artyr
Ġm atron
Ġm isery
al ik
al ai
al ni
ĠS ing
ĠS ave
ĠS esh
ĠS cho
ĠS ifter
ĠS ai
ĠS app
ĠS idar
ĠS aff
ĠS anity
ĠS ahr
ĠS wooping
ĠS cholars
Ġl ure
Ġl end
Ġl ash
Ġl az
Ġl inger
Ġl ying
Ġl ots
Ġl acks
Ġl ux
Ġl airs
ent iful
il a
il ich
Ġit ch
Ġh ack
Ġh ill
Ġh ire
Ġh ier
Ġh atch
Ġh ats
Ġh uge
Ġh atchling
ur p
ur z
ur ic
ur ion
ur ker
ur se
if ar
if ex
if icer
nt imber
ay wire
hen g
hen ax
ed ay
ed ged
ĠA rtif
ĠA im
ĠA rab
ĠA idar
ĠA esthir
ĠT ot
ĠT our
ĠT ak
ĠT oth
ĠT rid
ĠT ols
ĠT ribe
ĠT onight
ĠT AR
ĠT irith
ĠT owashi
Ġu gly
get s
ef ire
ef oot
Ġg ore
Ġg ig
Ġg est
Ġg ames
Ġg loom
Ġg urg
Ġg athered
Ġg otta
ra al
ra ine
ra vity
ic ated
ic ts
ic tly
ic ans
ic iar
ĠH ol
ĠH ak
ĠH op
ĠH ome
ĠH earth
ĠH aze
ĠH aving
ĠH undred
ĠH osp
ĠH ouses
ĠH avens
Ġcon cl
Ġcon vin
Ġcon voked
ĠI nto
ĠI ren
ĠI con
ĠI sper
ĠI ridescent
ĠD a
ĠD i
ĠD ir
ĠD os
ĠD av
ĠD iver
ĠD ia
ĠD oll
ĠD anger
ĠD ared
ĠD ivers
ĠD iamond
Ġin tro
Ġin fer
Ġin scri
Ġn in
Ġn ong
Ġn ail
Ġn ests
Ġn ulls
Ġn uisance
attl ing
Ġbattl ing
Ġbattl ed
ĠF ro
ĠF un
ĠF ates
ĠF resh
ĠF encer
ĠF iends
ĠF ountain
ĠF ixer
ĠF iksdotter
le af
le aters
ut er
ut ely
Ġbe ep
ith es
um ps
um bers
um sy
Ġe tern
as ig
as ova
ol ence
ol isher
ĠE D
ĠE at
ĠE st
ĠE ri
ĠE aster
ĠE ither
Ġent husi
ĠR attl
ĠR ith
ĠR ound
ĠR ide
ĠR aker
ĠR ivers
ĠR asc
ĠR het
ĠR umbling
ĠR onom
ĠR acket
he b
ĠM r
ĠM at
ĠM el
ĠM ed
ĠM and
ĠM ate
ĠM ile
ĠM az
ĠM ists
ĠM ission
ĠM ikaeus
ĠL a
ĠL ed
ĠL ies
ĠL iv
ĠL ist
ĠL ind
ĠL ake
ĠL uck
ĠL itt
ĠL azotep
ĠL accol
ount ing
ĠP ent
ĠP rom
ĠP ho
ĠP ul
ĠP ink
ĠP ick
ĠP atch
ĠP ious
ĠP ug
ĠP aper
ĠP oly
ĠP rin
ĠP hys
ĠP ippin
ĠP ioneer
ĠP rakh
ĠP ummel
ĠP henax
ri ous
ri ana
ri ggan
ĠB ert
ĠB ug
ĠB ob
ĠB oon
ĠB ret
ĠB ounty
ĠB reach
ĠB lossom
ĠB azaar
ĠB ureau
ĠB rago
ĠB urglar
ĠB orborygmos
Ġre ef
Ġre ve
Ġre act
Ġre ject
Ġre vere
ach ery
Ġat one
ĠG orm
ĠG ren
ĠG ather
ĠG eth
ĠG ears
ĠG reet
ĠG ames
ĠG arl
ĠG ont
Ġas so
Ġas cend
ch or
ch ild
Ġfor ty
Ġunt old
Ġde an
Ġpl ag
Ġpl otted
Ġpl entiful
Ġis olation
Ġis olated
lo z
lo pe
lo yed
ain ing
ain ts
ad ors
ad ium
Ġsp at
Ġsp an
ell a
ell er
ell ing
Ġst ore
Ġst amp
Ġst are
Ġst ored
Ġst ared
Ġst eep
Ġst aring
Ġst alks
Ġst retch
Ġst urdy
Ġst reaked
Ġst anza
os is
os ity
ct u
ct ar
ct urn
ion a
ion ist
eg a
ant h
ant o
ant cha
ck ed
ep ing
ep ul
id a
id ote
Ġdamage d
et tered
Ġdeal ing
ap ed
ap ers
ap et
ap ter
ap ede
Ġli ps
Ġli fted
im um
im ens
im ics
im eter
ĠK at
ĠK ot
ĠK id
ĠK et
ĠK ul
ĠK og
ĠK ade
ĠK ab
ĠK arn
ĠK oma
ĠK iora
ĠK ellan
ĠK efnet
ĠK ILL
ken ed
Ġex iling
ĠO dd
ĠO gg
ĠO culus
ĠO ka
ĠO gl
ll ess
Ġgra f
Ġco at
Ġco de
Ġco gs
Ġco astline
amp iric
Ġhand ful
Ġopp ose
ĠV in
ĠV ish
ĠV enture
ĠV oj
ĠV ortex
ĠV armint
ĠV enser
Ġup dra
Ġup ward
br ow
br ic
ho ot
ho ff
ĠSp inn
ĠSp itter
ĠSp inner
ĠSp onge
ĠN el
ĠN eg
ĠN ice
ĠN ab
ĠN ix
ĠN ik
ĠN arn
ĠN ib
ĠN urg
ĠN ashi
ĠN irk
ĠN icol
ĠN ishoba
iz iers
iz oa
ill ance
Ġv ice
Ġv ari
Ġv endor
Ġv iziers
us er
Ġare a
ig y
ig ious
est y
est ion
est us
ĠWar m
Ġdo zens
iv a
iv ion
Ġsh amble
Ġsh riek
Ġsh rines
ble ms
em y
em pered
em bling
ect ives
ul p
ul ist
ul ner
ul ence
ul ane
ul acrum
ĠIt hil
bl ic
Ġper cept
ber n
ĠSh an
ĠSh ell
ĠSh im
ĠSh ould
ĠSh anna
ĠSh riek
ĠSh rieker
ĠSh auku
ist ine
ist ening
ian g
av us
av olver
ere th
un ian
ĠGo st
man ship
Ġab yss
Ġab oard
Ġk id
Ġk ha
ĠZ e
ĠZ ol
th os
th orn
dd y
com ing
Ġbl end
Ġbl ed
Ġbl asp
Ġbl asted
Ġall ied
Ġall iances
Ġse ep
Ġse aw
Ġse asons
Ġunder stood
ĠEl t
ĠEl ven
ĠEl ga
ĠEl imin
ĠEl rond
ĠTh ar
ĠTh us
ĠTh ick
ĠTh ug
ĠTh rone
ĠTh rasher
ĠTh ieves
ĠTh unian
ĠU se
ĠU mara
Ġcol onies
ag u
ag ard
ag bearer
Ġreturn ing
ĠDra ug
ĠSpirit ual
ree ch
Ġsor ry
Ġsor cerer
Ġta x
Ġta vern
are st
are house
ok ed
ok uch
Ġno b
one er
ter ing
ter geist
ĠAn ger
ĠAn ax
ĠAn alyst
ĠAn grath
ĠSc orn
ĠSc ab
ĠSc ulpt
ĠBe y
ĠBe aver
ĠBe hind
chant er
Ġam use
Ġam azing
ĠRe ass
ĠRe ally
ĠRe vered
ĠRe ito
ĠRe ckon
Ġr ate
Ġr ang
Ġr ings
Ġr ites
Ġr itu
Ġr ays
Ġr attle
Ġr uthless
Ġr otted
ĠDe b
ash ima
ak ut
ak ul
ĠSt ill
ĠSt ream
ĠSt eep
ĠSt rax
ĠSt itched
ĠEx ter
ĠEx iled
ĠEx uber
ust rious
ph es
Ġch arg
Ġch asing
Ġch arging
Ġch aotic
hyre sis
ĠDragon born
ĠAr b
ĠAr bor
ĠAr achn
sh a
sh an
sh ield
ound ing
Ġhe aven
se er
se ed
op te
ang led
ĠCh ef
ĠCh all
ĠCh ains
ĠCh ao
ĠCh aser
ĠJ ar
ĠJ an
ĠJ ac
ĠJ as
ĠJ our
ĠJ ew
ĠJ hov
ĠJ ester
ĠJ olrael
ĠJ udith
ĠJ odah
ish ers
ition al
ĠSl inking
ĠSl aan
Ġwe aves
Ġwe eds
Ġval or
ĠFl ailing
ĠFl agbearer
ation al
Ġme adow
Ġfl ag
Ġfl att
Ġfl owed
Ġfl attery
Ġdestroy s
ick kn
Ġun in
Ġun ion
Ġun con
Ġun sc
Ġun guard
Ġun iverse
Ġun worthy
Ġun yielding
Ġunl ike
rot e
rot iq
Ġsc orn
Ġsc ared
Ġsc arecrow
Ġsc attered
Ġsc orpion
Ġsc ulpt
Ġsc aled
Ġsc ulptor
Ġsc reech
Ġj u
Ġj avel
Ġro bbed
ild a
ec ess
ec aster
Ġinstant s
ĠWe athers
ĠEn sl
ĠEn kira
unt eer
ran cer
Ġar rogant
ise um
ĠTre st
ott ers
sp ring
sp ector
ĠAl in
ĠAl los
ult ant
Ġtap s
Ġtap est
ator u
ĠOr ator
ĠOr nith
ĠOr nery
ĠOr dru
ĠPl at
ĠPl ag
ĠPl anar
ĠPl owbeast
ĠPl asma
vent ion
pt or
Ġag reed
ĠHorror s
ĠMy con
ĠNo cturn
It zama
az es
ĠEld raine
esh ot
esh ip
ĠDeath bringer
Ġsk ins
Ġsk aab
raz er
Ġri dden
Ġrest ore
Ġrest rict
Ġwar n
Ġwar ns
Ġexp and
Ġexp anded
ren cy
ĠHe idar
ĠHe ights
Ġcl ut
Ġcl ub
Ġcl atter
Ġcl arity
Ġcl umsy
ĠIns ight
Ġmill ion
ĠFor ces
ĠFor iys
ĠArch druid
Ġru de
ĠOn es
Ġpo pping
Ġpo isons
Ġlast ing
ĠMon astery
Ġind ep
ĠRo om
ĠRo hgah
Ġsw e
Ġsw ine
Ġsw irl
Ġsw ipe
ud ed
Ġtra iner
Ġtra verse
Ġra p
Ġra ider
Ġra vage
Ġra pid
Ġmon k
Ġmon itor
Ġmon ths
Ġmon olith
ors el
ĠY a
ĠY am
ĠY ann
ĠSw eet
Ġfight ers
ĠSer pents
ĠCl one
ĠCl ade
ĠCl ub
ĠCl aim
ĠCl imber
ĠBlood letter
ĠBl inding
ĠBl izzard
ĠIs les
ĠMin ister
Ġgr inding
ĠLe opard
ĠLe otau
Ġres tless
Ġres emble
Ġsl ave
Ġel ven
Ġnew found
ĠTo bias
ĠTo othy
ĠSn ap
ĠSn itch
ĠSn arling
ĠDo ck
ĠDo vin
ĠDestroy er
ail ant
Ġover t
Ġshe ep
ĠAss oc
ĠAss assins
ĠAss ailant
ug u
ĠSe kki
so il
arg o
Ġblood thirst
yr ral
Ġback s
Ġback up
ĠNight s
ĠNight veil
ĠNight scape
Ġdev ice
Ġdev out
Ġfe ature
ars i
ars et
ĠPre server
fin ished
ĠAv izoa
Ġcomp ared
Ġcomp osed
Ġdes ec
Ġdes ires
ane ously
ĠQ arsi
Ġsay eth
Ġim b
Ġpe er
Ġpe ak
Ġgl istening
ĠSky sc
ĠSky rider
ĠSky guard
ĠSky line
ĠSky shark
Ġbel t
Ġac quis
Ġac rob
Ġac comp
Ġac olytes
ĠEqu ip
ĠEqu enaut
af lo
Ġlight s
Ġlight weight
ese eker
Ġpoison ed
ĠSun scape
ĠSun seeker
ai hir
Ġte amm
Ġsu ited
Ġsu preme
Ġmonst rosity
Ġoff ered
Ġoff ense
Ġser ies
Ġser iously
Ġser pents
ĠGl orious
Ġapp end
Ġapp rent
Ġstr ing
Ġstr ictly
Ġkn ives
Ġtr in
Ġtr acking
Ġtr acker
Ġtr icks
Ġdis or
Ġdis gu
air n
ox y
ĠSome how
Ġnat urally
Ġkind ness
Ġcar ves
Ġcar pet
ĠDr owned
ann on
ann ifar
und a
und ra
ĠArm odon
ĠArm orer
ĠArm adillo
ĠMar ang
ĠMar isi
Ġdiffere ntly
Ġexplo de
Ġexplo sion
ract or
ĠCent urion
ax y
ax ing
Ġmut ation
Ġmag ics
Ġmag istrate
ĠMan iac
gu ish
gu ide
Ġlit er
Ġlit tered
gr own
gr ine
Ġint eg
Ġass assin
arm ed
ĠCo astal
Ġev incar
bel gast
ush i
Ġward en
ĠFire walker
ĠFire mane
ĠQu ill
ĠQu illed
ĠQu arry
ĠCom pl
ah n
Ġlet ting
ĠHell raiser
ĠBr others
ĠGh ast
Ġsky hunter
ĠCentaur s
Ġsom eday
ĠShadow cat
Ġdist raction
Ġdist rict
pe aker
Ġwatch ful
ĠTr in
ĠTr ouble
ĠTr acer
Ġmight ier
angel ings
up ine
Ġfa bric
ĠArc an
ĠHar ad
ĠMir acle
ĠAb andon
ĠGr aceful
Ġsnow s
ĠBattl ef
ĠBattl ew
ĠMyr kul
Ġlearn s
Ġstrength s
Ġright s
ress or
ĠGn arr
Ġcle ared
Ġoil y
ĠMag got
ĠMag matic
Ġstand ards
wood s
ĠPer imeter
Ġfore told
Ġfound ry
Ġhelp ing
Ġhelp ed
ĠAven ging
ogg les
ĠSo ot
ĠEmp ress
ĠEmp orium
Ġever lasting
Ġart isans
add ock
oun ced
Ġmer ged
ĠUr ch
Ġwork ers
Ġsun rise
Ġpr ay
Ġpr ison
Ġpr int
Ġpr ince
Ġinvestig ator
ĠEm mara
Ġtem pers
ĠSur si
Ġem power
ĠLook s
ĠDom ri
Ġext reme
Ġext ensive
Ġext remely
Ġdef initely
Ġhard y
Ġhard est
Ġhard ened
Ġsn uff
Ġsn apped
Ġsn akes
Ġsn apping
Ġmet eor
ĠGra ves
ĠGra kmaw
Ġwild ly
Ġecho ing
Ġecho ed
Ġcur ses
Ġcur rency
Ġsusp icious
ĠBarb ed
Ġcru s
Ġdec ent
Ġpur r
ĠDryad s
ib ly
Ġrep ay
iar ies
Ġheal th
Ġheal thy
ĠPlains walk
Ġbelie ving
fl ies
fl owing
Ġmin utes
Ġdisc ern
Ġdisc iples
Ġdisc ipline
su o
Ġsaf er
Ġsaf ely
ĠDisc ipline
ĠAny where
aught y
ĠStorm s
ĠExp ert
ĠDis rupt
aunt ed
ĠInt ruder
Ġcare er
Ġcare less
Ġbo ats
Ġbo ots
ĠCount ers
Ġmove ment
ĠTy var
ĠBal rog
ĠBal shan
Ġpat iently
ĠBen evolent
Ġref er
Ġref uses
ĠJust iciar
Ġtravel ed
Ġimp act
Ġwr ite
ĠTur ntimber
ĠDu ggan
ĠRen ata
ĠRen ewer
ĠGold night
Ġspecial ize
arer s
Ġter ms
Ġter rain
Ġsound ly
ov ian
asc ent
ĠPar ish
Ġins ign
ĠLo athsome
ric ian
Ġob jects
Ġob sess
Ġob vious
ĠWor ks
ĠNe belgast
eng ers
Ġcry ing
ĠAm phin
ĠGru nt
ĠKar fell
ĠRavn icans
ĠBar row
ĠBar renton
ĠBar ricade
Ġz oo
ĠCor pses
Ġmort ar
Ġmort ality
rib ing
rib ed
ĠCar tographer
Ġleg ions
Ġrel ation
Ġrel iable
Ġrel igious
ket t
ĠVe in
ĠVe il
Ġvis ited
erer s
Ġsub ject
Ġsub tlety
Ġdri ed
Ġdri ving
Ġdri pping
Ġdri fts
Ġmo ckery
ĠRed tooth
ĠRed emption
het ic
ĠBro ad
Ġcollect ive
Ġcou riers
Ġact ually
ĠAz ure
ĠTrans cend
ĠIm mer
ĠTyran n
ĠSor in
ĠMonst rous
ĠApp roach
ĠApp raiser
Ġund ers
Ġund one
Ġund ying
ĠMist meadow
Ġresp ected
ĠOb zed
ĠInst ructor
Ġcor al
Ġcor rupt
Ġcor rupted
Ġpain ts
ĠSm all
ĠSm ash
ĠSm oke
ĠSav ai
Ġlegend s
ĠOut fitter
ĠGhoul caller
ĠDread maw
ets ugu
Ġpred ecess
ris ing
Ġge ist
Ġdu el
ĠSwarm s
ĠPriest s
Ġspeak ing
ci us
Ġwis est
ĠTor toise
ĠFore cast
ĠEnt ertain
Ġdep ends
ĠVol atile
ĠCur ious
ĠAff a
hi ro
oot er
Ġcent er
ĠCan al
ĠCan opte
ĠEmb odiment
ĠEmb raal
ĠEmb ereth
Ġprodu ct
ific ent
ĠAut om
umbl er
umbl ings
ĠNew t
ĠThunder cl
Ġpoint y
Ġpoint ing
ĠCou rage
Ġpers pective
ĠAp es
ĠTyr ranax
ĠBush i
Ġowners hip
Ġflame kin
well ers
Ġdr own
ĠFall ing
leg s
leg al
ĠRu iner
ĠShield mage
Ġunp arall
ĠDomin ator
itt y
Ġbur den
ĠWood s
Ġarri ves
Ch adir
Ch andler
Ġsadd le
ĠSec urity
rad le
ĠFer vent
ĠCons ider
ĠCons uming
El f
El adamri
Ġve in
Ġancest or
Ġpair s
Ġmist aken
ĠAst rotorium
ĠProt ean
ĠKjeldor ans
ĠUl t
ĠBee bles
ĠChar ge
ĠBlack sn
ĠSilver back
ock ed
Ġcatch es
Ġsleep s
ĠSand storm
ĠSand ste
ĠTe eg
ĠTe vesh
asion ally
Ġsong s
Ġstun ning
idar ity
ĠVal akut
ĠNim ana
Ġjo ining
Ġwarning s
Ġadv anced
Ġtact ical
ĠTal on
ĠHo key
ĠLore master
ĠPo key
Ġadapt s
Ġche er
ĠSel k
ĠSel vala
ĠSel hoff
iven ess
Ġfoot fall
Ġfriend ship
Ġcontin ent
Ġcontin uous
wh ite
wh ich
rie ve
Ġtrust worthy
Ġaff ected
Ġthunder ous
Ġthunder storm
Ġsav agery
Ġlaw mages
ĠHal berd
ĠMem ory
ĠBel zen
ĠBald ur
Ġdem ands
ĠOver grown
Ġple as
Ġple asant
Ġprom oted
Ġemb ers
ĠEmer ald
ĠLoy alty
ĠUnl ucky
Ġarch mage
Ġarch angel
ĠColoss al
ĠHel m
ĠFar amir
ĠBu ccane
Ġspec imens
Ġstar ving
Ġstar light
ĠSpr outing
ĠInn ov
Ġalong side
Ġprep ar
Ġprov iding
Ġap ocalypse
Ġfoul est
Ġinf ested
ĠPath lighter
ĠGar za
Ġstir s
ĠSpike tail
ĠGrave yard
van ced
Ġide as
Ġfail ing
Ġpar adox
Ġpar adise
ĠRecl usive
ĠEnfor cers
Ġtrib es
ĠHarp oon
aun tlet
Ġcult ures
Ġcapt ured
Ġsick ly
Ġflo at
Ġflo ating
Ġpet ty
ĠAsh mouth
Ġunf ailing
Ġcomb ine
Ġcraft ing
Ġaven ge
Ġocc ur
Ġban ished
Ġban quet
Ġbran ch
Ġloss es
ĠHarb or
ĠEver wise
Ġshort est
Ġabs olute
ĠZeal ous
ĠAnim ist
Ġviol ently
chem ists
ym aker
ĠCal im
Ġdest ined
ĠWraith s
ĠGrim grin
ĠAsp iring
Ġcommit ted
Ġvisit ors
ĠHeart wood
Ġtal ons
ump us
ĠPred ation
Ġrepl acing
ĠSpark mage
Ġgrand mother
Ġclean se
Ġcap ital
ĠCr ack
ĠCr ater
ĠCr ackling
ĠCer odon
Ġsho ot
ism atic
Ġdeterm ine
Ġdeterm ines
Ġridd les
gl ade
gl ass
Ġbreed ing
Ġinter rupt
umb ra
ĠBur renton
Ġspl endid
Ġsmash ing
Ġimm ortality
Ġimm ediately
ĠSar ulf
Ġinvent or
ĠEarth shaker
ĠGen estealer
Ġstri p
Ġdesp ite
Ġperson al
Ġcivil ized
Ġbal oth
Ġfil th
Ġfil thy
Ġwond rous
ĠTel ep
ĠTri ple
Ġspect acular
Ġmanifest ed
ĠInk ling
ĠInk fathom
Ġwilling ly
ĠDesp air
ĠEmber wild
Al ena
sl ide
sl ayer
Ġtor ch
Ġaut omatons
Ġbar riers
ĠCarn ivorous
Ġpun ch
Ġmoon light
ĠSim a
ĠSim ulacrum
ĠSleep ing
ĠHonor able
ĠFound way
ĠBall ista
eren ity
Ġmeasure d
Ġmeasure s
ĠFair grounds
ĠDescend ant
Ġver t
Ġcat apult
Ġbol ts
Ġbell owed
Ġbus y
Ġdim in
Ġfuel ed
ĠSub terranean
ĠTaj ic
ĠHead less
ĠEr d
ĠVoid mage
hod oxy
claim ed
ĠYu an
Ġapproach es
Ġreflect ed
ĠPredator y
reg ulars
Ġsepar ates
Ġlav ish
Ġhon ed
Ġconqu est
ĠDay break
ĠJo iner
ĠWhip tail
Ġassault s
ĠQuicks mith
Ġfright en
Ġfright ening
ĠAcc ord
Ġsystem s
Ġsurpris ed
Ġsurpris ingly
Ġinnoc ence
Ġtechn ique
Ġtechn iques
Ġing red
Ġartif ice
Ġartif icial
ste aler
Ġpen et
Ġlaugh ing
Ġasp ir
Ġasp ects
Ġprop ert
ĠHeav ens
Ġdevour ing
Ġpassion ate
Sp irit
Ur dn
Ġbarg ains
ĠCos i
Ġfrag ment
Ġmot iv
ĠSto p
ĠAre k
ĠTom orrow
ĠTom akul
ĠHyp er
ĠFo ol
ĠMort als
ĠGy re
ĠGix ian
kem ssa
ĠKh alni
ĠInv ader
Ġcompl ex
ĠCondu ctor
Bar on
Bar rin
Or c
Ġfet id
Ġmid way
Ġdet ailed
Ġdece it
Ġdece ased
Ġdece ived
ĠUk kima
Ġscaven gers
Ġzomb ies
Ġcourt s
Ġdirect ed
Ġdirect ions
Ġow ls
Ġsap ling
Ġsust ains
Ġdro pped
Ġproud ly
ĠSho ck
ĠEz rim
Ġrece ived
ĠInform ation
ĠSkul ker
ĠSkul king
Ġexpl oring
ĠClam folk
Ġghost s
ĠEvangel ist
Ġvolcano es
Ġsatisf ying
00 0
Ad miral
fe ather
zon i
Ġcal cul
Ġcrash ing
Ġflood ed
ĠSaw jack
ĠAx gard
Ġconcer ned
ĠDun geon
Ġear ly
ĠEag les
ĠLess er
ĠPill ar
ĠPill ardrop
ĠBrig and
ĠGw yllion
ĠGw aihir
ĠKaz uul
rup ulous
Ġunw ary
Ġpress ed
Ġintellig ent
ĠMagn us
Ġcryst alline
Ġnecrom ancy
ĠTorment ed
ĠSteam flogger
ĠExcav ation
ĠCustod ian
Ġest eemed
Ġcirc ling
ĠCad aver
Ġdiss ol
Ġpal ace
Ġlantern s
ĠTet suo
ĠHier arch
ĠRay ne
ĠMass acre
ĠLar cen
ĠLob elia
ĠPak o
ĠPuppet eer
ĠBeg inning
ĠBeg uiler
ĠBrim az
ĠShore line
Ġrhy thm
ĠStrix haven
ĠYot ia
Ġassist ance
ĠGray water
Ġclos ely
serv ations
serv ience
Ġneigh bors
Ġconstruct s
Ġdemand ing
mun ge
Ã³ rien
Ġerr and
Ġtang led
Ġcro ps
Ġcra ve
Ġsle pt
Ġpush ed
Ġmuff in
Ġhym ns
ĠAy esha
ĠAce rerak
ĠTan azir
Ġgro ves
ĠDiss ident
Ġinev itably
Ġbee bles
ĠEs cap
ĠMoth rider
ĠLan nery
ĠBow masters
ĠGit rog
Ġfors aken
osk un
ĠVig or
ĠSpec imen
ĠShin obi
Ġenfor cer
Ġenfor cers
Ġinstrum ents
Ġlox odons
ĠCharm ed
ĠWeap on
Ġripp le
Ġrapt ors
Ġgrat eful
Ġdevast ation
Ġmerc en
ĠHoard ing
ĠCerat ok
Mer rik
hor se
Ġtur tle
Ġtyr ant
Ġcleric s
Ġcub s
Ġdar kened
Ġant idote
ĠSz at
ĠSak ura
ĠSak ashima
ĠHum ble
ĠMilit ant
ĠPen umbra
ĠBond ed
ĠKro xa
ĠVigilant e
ĠInvent ors
Ġheed less
Ġmyst ics
ĠConqu eror
Ġflour ishes
Ġjew els
Ġmonum ent
Ġbetray al
ĠProgen itus
ĠAbs ol
ĠRaksh a
ĠPeace keeper
Ġexperien ces
Ġrespons ibility
ĠVolcan o
ĠVolcan ic
Ġfortress es
Ġpunish ment
Ġdevelop ed
hel m
Ġtit le
Ġbi omancer
Ġfix ed
Ġtomb s
Ġpoll ute
Ġmour ned
ĠSad istic
ĠAber ration
ĠAber rant
Ġglyph s
Ġcondu ct
ĠDam ned
Ġinvol ved
ĠRain bow
ĠRap acious
ĠPeak s
ĠBlo ated
ĠBreak ing
Ġcann on
ĠKelp ie
ĠVind icator
ĠVind ictive
ĠVenom ous
Ġeng age
Ġeng ulf
ĠBec ause
ĠBec kett
Ġweal th
Ġweal thy
Ġflicker ing
Ġschem e
Ġworsh ipped
azz ling
Ġswall ow
Ġresid ents
Ġslither ing
Ġeleg ant
ĠGris elbrand
Ġlegion naire
Ġweakness es
Ġsucceed ed
Ġchalleng es
Ġaer ial
arter master
Ġbrid ges
ĠCac ophony
Ġsou leaters
ĠWeld er
Ġmater ial
Ġhedron s
ĠHam let
ĠIl harg
ĠDreg scape
Ġinj ury
ĠFac eless
ĠFet ch
Ġearl iest
ĠEff igy
ĠMis chievous
ĠLam ia
ĠLow land
ĠLumin ous
ĠKu kemssa
Ġmane u
Ġwhir rrr
ĠAsk ari
ĠSchem ing
Ġremark able
ĠSlag wurm
Ġgreml ins
Ġeleph ants
ĠDrown er
ĠTrumpet er
evin yrral
Ġtemp est
Ġdecad ence
ĠCryst alline
Ġembalm ing
Ġignor ance
Ġfortun ate
Ġdemonst rate
ĠElectro mancer
Nik ya
pres ervation
wit ted
Ġcull ing
Ġcustom ers
Ġauthor ity
Ġom ens
Ġshop keep
ĠSard ian
ĠSoc ial
ĠTaunt ing
ĠTrost ani
ĠTechn ician
ĠIv ory
Ġinform ation
ĠFur ious
ĠMig loz
ĠMud b
ĠPend elhaven
osqu ito
Ġlimb s
imm ers
ĠOrt hodoxy
Ġvor acious
Ġpermit ted
ĠBeaut y
ĠRevolution ary
ĠJel eva
Ġmyco ids
Ġflu id
ĠSkarr gan
Ġscal p
ĠCatac omb
ĠMyster ious
ĠUnf ortunately
Ġslaught ered
Ġcompar ison
Ġsugg est
Ġeffort s
ĠAttract ions
Ġexplos ive
ĠDeser ts
Ġbuzz ing
ĠGrapp ler
Ġincarn ate
ĠMaj estic
ĠDuerg ar
ĠRaff ine
ĠStrateg ist
ĠBuzz ard
Scar red
Sky shroud
Ġfrequ ently
ĠPrism ari
Ġexhaust ed
Ġenviron ment
Kam ahl
Ob servations
Squ ee
Te zzeret
hs an
rep ared
Ġthrash es
Ġbes ide
Ġbree ze
Ġwra pped
Ġpran ks
Ġpik es
Ġmund ane
ĠSift ers
Ġloft y
Ġlamp s
Ġleth al
Ġhol id
ĠAgon ies
ĠTatter munge
ĠHid etsugu
ĠDer anged
Ġneg lect
Ġnick name
ĠFren etic
ĠRare ly
ĠPere grine
ĠBront odon
Ġreun ited
ĠGib bering
ĠKrus hok
ĠAtrax a
ĠZag oth
Ġcoloss al
ĠStory teller
ĠOrch ard
ĠPlunder ing
Ġindivid ual
ĠBloodsuck er
Ġoverwhel ming
ĠObs idian
Ġdepart ure
Ġirresist ible
Ġgargoy les
ĠOpportun ist
ĠOccult ist
Ġtyran ny
Akir i
Dran a
Fre yalise
Lav inia
Luc ilde
Per isoph
engin eer
ĠCathed ral
Ġseld om
Ġdut ies
Ġmart ial
Ġmumm ies
ĠSesh iro
ĠScho ol
Ġlaz y
ĠTour ach
ĠTrid ent
ĠTols imir
ĠTAR DIS
ĠIsper ia
ĠDos an
ĠDared evil
Ġnong reen
asig ur
ĠRasc al
ĠList en
ĠLitt jara
ĠLaccol ith
ĠPhys ician
ĠPrakh ata
ĠPummel er
ĠBret agard
ĠGont i
Ġasso ci
ĠKul rath
ĠKog la
ĠKade en
ĠOka un
ĠOgl or
ĠVoj a
Ġupdra fts
ĠNix ilis
ĠNarn am
ĠNirk ana
Ġvari ety
ĠIthil ien
Ġblasp hem
ĠElga ud
ĠDraug r
okuch i
Ġritu als
ĠExuber ant
Ġcharg es
ĠSlaan esh
ickkn ack
Ġunguard ed
Ġjavel in
ĠWeathers eed
ĠAllos aurus
ĠOrdru un
ĠRohgah h
ĠYann ik
ĠAssoc iates
Ġteamm ate
ĠObzed at
ĠCanopte k
Ġunparall eled
ĠBlacksn ag
ĠSandste ppe
ĠBelzen lok
ĠEmberwild e
Urdn an
ĠBeginning s
Perisoph ia
' -
* '
. /
0 4
1 3
9 9
; /
A L
A ug
A ev
A dom
A nth
B el
B ri
B aki
B enal
C l
C or
C ol
C all
C hin
C aly
C athar
D ars
D esmer
D evin
D jeru
E D
E N
E k
E le
E yes
E lder
F oot
F ooth
G e
G o
G er
G it
G rand
G annet
G ulist
G addock
H ear
H ist
H orn
I l
I sh
J on
J ur
J olrael
J udith
J estus
J oskun
K a
K er
K al
K ill
K ip
K night
K iku
L at
L ain
L azav
M at
M ar
M al
M aster
M ult
M ann
M omir
M angara
M ayael
N y
N ar
N iv
N icol
O f
O ath
P o
P ar
P ie
P ont
P rayer
P iercer
Q h
R o
R un
R ider
R honas
R iel
R unner
R IC
S T
S m
S ur
S arg
S amil
S ledge
S linger
S ea
T r
T er
T ek
T rad
T ongue
T ishana
T sabo
V y
V er
V II
V raska
W ar
Y on
Y ol
Z omb
Z ek
Z ahr
a ive
a ia
b h
b i
b reat
b ell
b et
b ind
b ag
b ord
b oy
b oon
b its
b ara
b ows
b raid
b alls
b rook
b athing
b ooter
c ile
c our
c ator
c ible
c ence
c ull
c akes
c rest
c reep
c omber
c osy
c annon
d s
d an
d ing
d le
d ell
d ered
d estruct
d Ã»
f ind
f are
f ax
f aced
g il
g le
g ant
g us
g ment
g ust
g ence
g led
g ma
g ae
g Ã»l
g lyph
h t
h eld
h as
h ire
h ance
h rim
h ollow
h ans
h aser
i in
i bl
i eth
i ety
i opl
i wari
j in
j ar
j acks
k t
k y
k ay
k not
l it
l iest
l asher
l ati
m i
m m
m y
m ar
m ber
m ite
m eth
m ates
m ender
m oths
m met
m ission
m iel
n ap
n are
n ine
n ox
o ing
o ver
o ir
o ble
o iled
o ilos
o tlight
p ar
p ill
p here
p are
p tly
p oc
p rint
p redict
p yre
p ool
r k
r ary
r sp
s ower
s ong
s ight
s ue
t r
t il
t os
t ous
t here
t ze
t ics
t ithe
t ford
t empered
u h
u un
u aries
u isher
v or
v ies
v ath
v ance
v ia
v ial
v able
v alt
v als
v amon
w s
w ith
w ig
w ine
w raith
w asp
w inter
w yll
x im
y d
y ra
y ons
y aro
y rial
y bara
z am
z il
z ation
z ans
z hou
Ã ±
Ã ¶
Ġ ?<|
Ġ ich
Ġ oup
Ġ urb
Ġ Â½
Ġ xen
Ħ ages
re le
re nd
re aver
re aper
re ctly
Ġt ic
Ġt ut
Ġt ramp
Ġt aller
Ġt ransp
er c
er o
er il
er as
er ity
at u
at ro
at id
at ue
en es
en ess
en ith
en as
en ced
en ora
ou ps
ou fl
ou bled
Ġc am
Ġc ow
Ġc ell
Ġc ling
Ġc ab
Ġc inder
Ġc ages
Ġc umulative
Ġc athar
Ġc avern
Ġc auldron
Ġc ackle
Ġc argo
Ġa le
Ġa lo
Ġa egis
Ġth us
Ġth wart
Ġth erm
Ġth roats
Ġo p
Ġo x
Ġo pt
Ġo ption
Ġo verseer
Ġo rochi
Ġo kay
in i
in ac
in ore
in qu
in ous
in ator
in ations
ar ol
ar ri
ar ke
es que
an ed
an om
an ies
Ġthe ories
am s
am u
am y
am or
am ma
am ished
am atic
am aro
am inar
it ent
it em
it ator
it ated
it ious
it aph
it lati
on ance
on ious
Ġb in
Ġb ay
Ġb lo
Ġb ould
Ġb alcon
Ġb aby
ĠC ure
ĠC as
ĠC ary
ĠC her
ĠC ant
ĠC his
ĠC ec
ĠC az
ĠC aves
ĠC oy
ĠC aut
ĠC ait
ĠC oun
ĠC utter
ĠC enn
ĠC ards
ĠC irc
ĠC ircuit
ĠC opies
ĠC arah
ot ee
Ġy ester
ow yn
ex ist
ex cept
ex orable
ess ra
ess ity
ess ions
Ġs en
Ġs ow
Ġs ly
Ġs ke
Ġs ag
Ġs ab
Ġs ug
Ġs yn
Ġs umm
Ġs woop
Ġs wooping
Ġs erenity
Ġs ibl
is l
is ela
Ġd ot
Ġd ext
Ġd ol
Ġd amp
Ġd oth
Ġd oll
Ġd ign
Ġd yn
Ġd oun
Ġd angling
Ġd ancing
ac u
ac ar
ac al
ac ell
ac able
ac onda
or og
or se
or ated
or ged
or pe
or vath
Ġf ame
Ġf ever
Ġf are
Ġf ron
Ġf oss
Ġf arth
Ġf iend
Ġf ills
Ġf ruits
Ġf rust
Ġf aded
Ġf ourth
Ġw ri
Ġw ore
Ġw ept
Ġw ren
Ġw aving
Ġw rap
Ġw rought
Ġw ife
Ġw ailing
Ġw asting
Ġw rote
ĠW in
ĠW el
ĠW al
ĠW ombat
ĠW au
ĠW ilt
ĠW right
ĠW aken
ĠW aters
ĠW onder
ĠW isp
ĠW anted
ĠW umpus
el ine
el ud
el los
ro k
ro se
ro ans
ing zhou
Ġan arch
Ġan te
Ġan gered
Ġan nihilator
Ġan urid
Ġan vil
Ġan guish
st en
st ri
st ru
st all
st art
st uff
st urm
st af
st ander
st ract
st ics
st rod
st wh
st alg
Ġto il
Ġto pp
Ġto iled
Ġp in
Ġp ed
Ġp ho
Ġp est
Ġp ter
Ġp ec
Ġp icked
Ġp inn
Ġp ortal
Ġp uppet
Ġp rank
Ġp orter
Ġp oult
Ġp hyresis
Ġm end
Ġm ol
Ġm old
Ġm un
Ġm oth
Ġm urm
Ġm oss
Ġm ines
Ġm elt
Ġm ask
Ġm asked
Ġm ostly
Ġm ilk
Ġm orsel
al en
al anche
Ġ~ <|
ĠS on
ĠS ed
ĠS ir
ĠS lo
ĠS ight
ĠS iv
ĠS ust
ĠS uff
ĠS able
ĠS ign
ĠS uture
ĠS mith
ĠS ages
ĠS onic
ĠS log
ĠS ensei
ĠS epul
ĠS atoru
ĠS acell
Ġl ower
Ġl un
Ġl umber
Ġl uring
Ġl oud
Ġl ions
Ġl ich
Ġl eng
Ġl aun
Ġl ances
Ġl ords
Ġl azotep
ent ing
ent um
ent acle
ent ric
il in
il ar
il ant
il ist
il ence
il iation
Ġh all
Ġh ered
Ġh ail
Ġh ates
Ġh alt
Ġh ones
Ġh ues
Ġh ipp
Ġh anged
Ġh oney
Ġh avoc
Ġh anging
Ġh aul
Ġh ussar
ur f
ur at
ur an
ur sion
if er
ed ience
ĠA M
ĠA tl
ĠA ra
ĠA ct
ĠA rix
ĠA ys
ĠA lert
ĠA ryn
ĠA ethers
ĠT O
ĠT end
ĠT ext
ĠT ol
ĠT rom
ĠT os
ĠT est
ĠT ire
ĠT ect
ĠT all
ĠT own
ĠT orn
ĠT ort
ĠT ab
ĠT ook
ĠT ail
ĠT ale
ĠT aker
ĠT iny
ĠT avern
ĠT abor
ĠT iller
ĠT ithe
ĠT owns
ĠT sabo
ĠT oggo
ĠT entacle
Ġu h
Ġu pper
Ġ1 7
ef an
ef ang
ef orge
Ġg or
Ġg ut
Ġg ust
Ġg ird
Ġg ills
Ġg ently
Ġg utt
Ġg ryff
Ġg ranite
Ġyour selves
ra ble
ra int
ra ined
ra de
ve ka
ic ure
ic it
ic ant
ic eship
ĠH on
ĠH ad
ĠH ill
ĠH art
ĠH ang
ĠH eed
ĠH ook
ĠH ail
ĠH ans
ĠH und
ĠH urk
ĠH anna
ĠH ammers
ĠH akim
ĠH efe
ĠH ivis
ĠH ussar
ĠH enry
ĠH aywire
Ġcon sc
Ġcon vers
Ġcon co
Ġcon spire
ĠI c
ĠI an
ĠI st
ĠI ona
ĠI cing
ĠI lys
ver dell
om p
om on
om et
om ori
om ancy
ĠD in
ĠD or
ĠD al
ĠD ol
ĠD ong
ĠD od
ĠD ie
ĠD ere
ĠD aughter
ĠD urk
ĠD Ãº
ĠD jeru
ĠD reya
ĠD ukh
ĠD iplom
ĠD iaries
ĠD okuchi
trol l
eld on
eld dag
Ġin con
Ġn ic
Ġn od
Ġn ose
Ġn orm
Ġn erve
Ġn acatl
Ġn egot
Ġn ervous
Ġn ascent
Ġbattl ef
ast rider
ĠF ran
ĠF ung
ĠF ears
ĠF aces
ĠF aren
ĠF inding
ĠF rill
ĠF inal
ĠF ester
ĠF rank
ĠF ourth
ĠF ascin
ĠF amished
ĠF omori
ĠF eldon
le as
le able
ut or
ut ish
ut able
Ġbe ck
Ġbe ware
Ġbe acon
ir ler
ir ios
ir aling
ir yx
ith iryx
um on
um ult
um ines
and a
Ġe el
as tl
as is
as ive
as ions
as ali
ol om
ol rac
Ġor ph
ĠE u
ĠE ast
ĠE sp
ĠE ron
Ġ( ~
Ġwith ers
Ġwith ering
Ġent ran
ĠR h
ĠR y
ĠR ough
ĠR or
ĠR um
ĠR uff
ĠR ather
ĠR ory
ĠR ich
ĠR ans
ĠR aze
ĠR idd
ĠR ites
ĠR ambl
ĠR ona
ĠR attle
ĠR yan
he on
he arth
ĠM av
ĠM art
ĠM ust
ĠM ord
ĠM uch
ĠM atter
ĠM ah
ĠM uk
ĠM asc
ĠM izz
ĠM iser
ĠM eddler
ĠM alevol
ĠM elira
ĠM angara
ĠM ayael
ĠM atsu
ĠM eddling
ĠM osquito
ĠL ack
ĠL od
ĠL em
ĠL ash
ĠL aur
ĠL ove
ĠL ions
ĠL ani
ĠL ena
ĠL agon
ĠL augh
ĠL iter
ĠL antern
ĠL ucky
ĠL aboratory
ĠP ard
ĠP hy
ĠP ine
ĠP ia
ĠP oll
ĠP icker
ĠP rid
ĠP ox
ĠP olar
ĠP ont
ĠP ortal
ĠP unch
ĠP rank
ĠP hyl
ĠP ouncer
ĠP seud
ri os
ri vel
ri pper
ri gan
ĠB a
ĠB er
ĠB ess
ĠB ed
ĠB us
ĠB ag
ĠB ass
ĠB red
ĠB ally
ĠB ub
ĠB rash
ĠB utl
ĠB inding
ĠB omber
ĠB aan
ĠB iting
ĠB ouncer
ĠB reya
ĠB amboo
ĠB airn
ĠB olrac
Ġre lo
Ġre lying
Ġre fin
Ġre app
Ġre ading
Ġre jo
Ġre volution
ach an
ach ed
ach ers
ĠG an
ĠG ary
ĠG our
ĠG ull
ĠG ales
ĠG rime
ĠG ada
ĠG ranite
ĠG omazoa
ĠG auntlet
ĠG isela
ack ed
ack les
rom ov
ch ase
ch ings
Ġfor ks
Ġfor cing
Ġfor fe
Ġunt ouchable
Ġde ed
Ġde ter
Ġde tail
Ġend ures
Ġend ured
Ġend urance
Ġpl ate
Ġpl ates
Ġpl ating
Ġpl ots
Ġpl owed
Ġpl aced
lo x
lo re
ad in
Ġsp in
Ġsp ur
Ġsp raw
Ġsp ite
Ġsp ine
Ġsp ins
Ġsp ots
Ġsp eaker
Ġsp itting
Ġsp inal
Ġsp otted
pp y
pp es
pp ings
Ġst al
Ġst ain
Ġst ag
Ġst aff
os er
os al
act ery
ant a
ant ation
Ġplay th
ep er
id or
id ered
id ars
Ġspell craft
et rable
ap ace
Ġli fts
Ġli mits
im i
im ancer
ĠK ard
ĠK ay
ĠK ast
ĠK ad
ĠK ip
ĠK ang
ĠK ord
ĠK ook
ĠK ald
ĠK ari
ĠK aya
ĠK ashi
ĠK iln
ĠK lot
ĠK osei
ĠK oilos
nd ib
nd rsp
rif ic
ĠO th
ĠO read
ĠO kin
ĠO aken
ĠO bor
ĠO ko
Ġgra b
Ġgra vity
Ġco al
Ġco ff
Ġco als
Ġco ales
Ġco ckatrice
Ġco astal
ru b
ru da
Ġhand y
Ġhand ed
Ġhand le
ong love
Ġopp osite
ĠV I
ĠV a
ĠV end
ĠV it
ĠV ap
ĠV ect
ĠV og
ĠV ial
ĠV ale
ĠV int
ĠV olt
ĠV enerated
ĠV rest
ĠV ito
ĠV ampiric
Ġman tle
Ġman gled
Ġup hold
br an
br ine
br ane
ho b
ho g
ho xes
ĠSp ace
ĠSp eak
ĠSp inal
ĠSp heres
ĠSp arring
ĠN od
ĠN ect
ĠN ai
ĠN ah
ĠN ey
ĠN ek
ĠN iam
ĠN eva
ĠN adier
ĠN exus
ĠN arset
ĠN evinyrral
iz ons
iz ations
od ion
od ore
od ai
od ragon
his tic
qu es
qu all
qu atus
to k
to p
to ok
ill ery
Ġv ess
Ġv ir
Ġv ain
Ġv est
Ġv ult
Ġv anguard
Ġv igilant
Ġv itality
Ġv igor
Ġv ulner
old ed
us a
us c
Ġare as
ment ed
ig am
ig oth
ig ation
est rider
est alk
ie tly
ie vers
iv an
Ġsh ot
Ġsh ut
Ġsh un
Ġsh ark
Ġsh akes
Ġsh aring
Ġsh ining
Ġsh rie
Ġsh orter
Ġsh rieking
Ġsh rivel
Ġby gone
Ġcombat ants
ire z
em og
em onic
ul es
ul us
ul ations
bl ast
bl ue
bl aze
bl ades
bl iopl
Ġper ch
Ġper ished
ber us
ĠSh rike
ĠSh ink
ĠSh ort
ĠSh ab
ĠSh aun
ĠSh ige
ĠSh rines
ĠSh ikari
ĠSh alai
rior ity
all ied
ist ador
ist inac
ĠAt zoc
ĠAt iin
Ġpower stones
ath y
ath an
av ite
av ans
ere gon
ere nce
ere kt
ĠX X
ĠX antcha
Ġpay ment
un ed
ker gill
ĠGo b
ĠGo o
Ġab bey
og rap
Ġk ings
Ġk ids
Ġk ras
Ġk irin
Ġk hans
our ishing
ĠZ o
ĠZ il
ĠZ eth
ĠZ arg
ĠZ ev
ĠZ urg
ĠZ enith
ĠZ ndrsp
th a
th on
th or
th ara
th rone
Ġwh im
Ġwh irl
Ġwh ips
Ġwh olen
Ġwh irling
Ġbl ight
Ġbl owing
Ġbl ank
Ġbl ending
Ġall iance
Ġall iter
Ġen su
Ġse at
Ġse wer
Ġunder growth
Ġunder neath
ĠAs m
ĠAs ari
ĠIn former
ĠEl esh
ĠEl enora
blin king
ind a
ind ler
ind eer
ĠTh or
ĠTh ay
ĠTh irst
ĠTh ings
ĠTh une
ĠTh rin
ĠTh run
ĠTh roat
ĠTh rax
ĠTh rill
ĠTh rall
ĠTh icket
ĠU m
ĠU t
ĠU ro
ĠU gl
ĠU ruk
ĠU lder
ĠU top
ag an
ag or
ag ic
ag ree
ag ia
ag ious
ag rat
Ġret ain
ous ing
Ġnot ices
ĠEle gant
Ġwas p
Ġta unt
ive red
ry dle
ok s
Ġno stalg
ĠAn arch
ĠSc ales
ĠSc uzz
ĠBe am
ip ers
ip ation
Ġle aking
Ġle opard
ĠRe in
ĠRe born
ĠRe cyc
ĠRe viv
ĠRe joice
ĠRe birth
ĠElemental ist
Ġr ow
Ġr ite
Ġr isen
Ġr hoxes
Ġr allied
Ġr ousing
art his
estro s
ĠDe acon
ĠDe mentia
ĠDe Pie
ash t
ash buck
ash ivan
Ġal ter
Ġal tern
Ġal tered
Ġal pha
Ġal igned
Ġal chemists
ĠElf hame
ak o
ĠSt ing
ĠSt ra
ĠSt ir
ĠSt out
ĠSt ink
ĠSt ony
ĠSt eady
ĠEx ting
ĠEx quisite
ust in
Ġbut t
Ġbut cher
Ġlo om
Ġlo cks
ph ib
Ġch ip
Ġch ase
Ġch ron
Ġch anging
Ġch apter
Ġch angelings
ĠAr gu
ĠAr isen
ĠAr rester
ĠAr vad
sh aking
sh rieker
Ġhe els
Ġhe eds
op ede
op histic
Ġreveal ing
Ġrem ote
Ġrem oves
Ġrem inders
Ġrem inds
Ġrem oving
ĠCh ill
ĠCh ari
ĠCh up
ĠCh ained
ĠCh orus
ĠCh ampions
ĠJ u
ĠJ um
ĠJ av
ĠJ ub
ĠJ oy
ĠJ aya
ĠJ asm
ĠJ irin
ĠJ uri
ĠJ olen
ĠJ uggler
ĠJ iwari
ĠJ ingzhou
ish a
ish ment
Ġwill s
oth ama
ition er
ĠSl ing
ĠSl ed
ĠSl um
ĠSl aver
ĠSl uge
ĠSl ippery
ew is
ew here
ew right
Ġwe aving
ĠMer ia
ĠFl itter
ĠFl ux
ĠFl ourishing
der a
Ġexc use
ĠCon f
ĠCon fessor
ĠCon spiracy
ade k
ade em
Ġadd ing
Ġadd ed
Ġ* +
Ġun ch
Ġun sh
Ġun se
Ġun ison
Ġun its
Ġun bel
Ġun for
Ġun not
Ġun cle
Ġun ending
Ġun cover
Ġun ruly
Ġun cor
Ġun finished
ĠSk ip
ĠSk ald
ĠSk immer
ĠSk ithiryx
ine c
Ġunl ik
Ġher itage
aw er
Ġsc or
Ġsc ut
Ġsc orp
Ġsc attering
Ġsc orch
Ġsc ene
Ġsc alding
Ġsc enes
Ġj ack
Ġj aws
Ġj oke
Ġj hov
Ġj unk
Ġj agged
Ġro c
Ġro y
Ġro de
ĠRet ainer
ec tro
ec essary
Ġgo b
Ġgo ather
ĠHor izons
ake asy
Ġname less
ĠWe athered
ĠWe eping
ĠEn g
ĠEn erg
ĠEn clave
ĠEn emy
ener ates
unt eers
ia o
Ġar rog
Ġar ises
Ġar gue
ĠTre n
ĠTre es
ĠTre ad
ĠTre va
Ġout we
Ġout cast
Ġout do
Ġplan es
ĠCat ch
ab its
sp l
sp ing
sp ace
sp ine
sp awn
sp itter
ĠAl ex
ĠAl se
ĠAl ms
ĠAl ena
ĠAl loy
ĠAl irios
ult aneously
ĠPl ane
pt ures
Ġag round
ĠMy co
ĠMy stics
ĠNo va
Ġcomm od
az aki
ĠEld ers
yc ophant
ĠDeath bloom
Ġsk ir
Ġsk itter
Ġsk ittering
Ġsk irm
Ġhad n
Ġpro f
Ġpro ven
Ġpro voke
Ġpro fess
Ġpro blems
osaur s
Ġri pped
Ġri ps
Ġri pen
Ġri val
Ġri gging
Ġwar lord
Ġwar ped
ĠAd vent
ĠAd vok
ĠAd vanced
Ġexp endable
ĠHe el
ĠHe aven
Ġcl iff
Ġcl icked
Ġcl othing
Ġcl ique
Ġcl imate
Ġcl amor
Ġcl achan
ĠDem ilich
ron s
ron ch
ron omer
ĠIns idious
ĠDefend ing
ĠFa un
ĠFor ger
ĠFor ager
ĠFor ward
ĠFor agers
ĠUnt amed
ĠUnt ouchable
ĠArch ive
ĠArch itects
Ġru b
Ġru lers
ĠDemon ic
Ġsec ure
Ġsur geon
Ġsur ges
ĠInsect s
Ġpo le
ĠMon tford
ĠUn x
ĠUn able
ĠUn sc
ĠUn cle
ĠUn ravel
ĠUn stoppable
ĠUn stable
ĠUn ruly
ĠUn yielding
ĠUn hallowed
ĠUn predict
ĠUn yaro
Ġind icated
ĠRo ving
ĠRo aring
ĠRo aming
ĠRo alesk
ĠRo xi
Ġsw at
Ġsw am
Ġsw ept
ud ent
ud oka
Ġtra ins
Ġtra itor
Ġtra gedy
Ġra v
Ġra sh
Ġra ged
Ġra ises
Ġra ising
Ġra bble
Ġra gged
Ġmon astery
ĠAll uring
Ġform ing
ĠY ep
ĠY ew
ĠY arg
ĠY ears
ĠSw indler
ĠSw ashbuck
ĠSer ve
ĠSer ver
ĠSer um
ĠReg na
ĠReg isaur
ĠReg ulator
ĠBlood rage
ĠBlood line
ĠBlood chief
ĠBlood seeker
ĠBlood scale
ĠBlood stained
ĠBl aze
ĠBl istering
Ġqu icken
Ġqu arry
Ġqu ietly
Ġtri es
ĠMin thara
aid en
Ġgr own
Ġgr ants
Ġgr oups
Ġpart ies
Ġpart ners
Ġpart isans
Ġres ort
Ġres elect
Ġsl aying
Ġsl ightly
Ġsl umbers
Ġmust er
Ġreach ing
ĠRem nant
ater al
ĠTo ol
ĠTo ymaker
ub horn
ĠSn uff
ĠSn akes
ĠSn ubhorn
Ġdra g
Ġdra gging
pl est
ens or
ens ions
ens eless
Ġshe en
Ġshe pherd
Ġday break
ĠSe as
ĠSe ag
ĠSe ething
ĠSe ism
ĠWurm s
ĠOrc a
Ġcaus ing
be ak
iss ed
iss ors
we eper
Ġph antom
ĠNight watch
Ġad age
Ġad orn
Ġad vocate
Ġad vised
Ġdev ised
Ġfe ud
Ġfe alty
ob il
oc y
oc ol
ĠPre tender
ĠPre pare
ale af
Ġsm ite
Ġsm ok
Ġsm iled
Ġsm aller
Ġsm iling
Ġsm ooth
Ġsm oldering
Ġbr is
Ġbr and
Ġbr ambles
ĠAv id
ĠAv ian
ĠAv alanche
Ġdes cribe
ĠDev otee
Ġhunt master
Ġcreat or
ĠGu ests
ĠQ asali
Ġtru n
Ġim pl
Ġim ps
Ġim pen
Ġpe op
Ġgl ac
Ġgl im
Ġgl ance
Ġgl ides
Ġgl amorous
ich i
Ġey estalk
ĠShap e
alt a
ĠSky ship
ĠSky ward
Ġbel ies
Ġtw itch
ĠImp aler
ĠDog ged
rid ing
ĠBerser kers
ĠSun s
ĠSun sc
ĠSun blade
ĠSun slayer
ĠMount s
ĠMount ed
ai jin
Ġte a
Ġsu it
Ġsu nd
Ġsu icid
ĠPro f
ĠPro per
ĠPro vocate
Ġgu iding
Ġoff ended
Ġhow ling
Ġhow ls
int eg
ĠGl are
ĠGl itter
ĠGl owing
ĠGl ittering
ĠSqu all
ĠSqu eak
ĠHy rax
Ġstr ings
Ġkn ack
Ġkn ots
Ġkn elt
Ġkn eel
Ġkn ees
Ġkn ickknack
Ġtr aces
Ġtr acks
Ġtr oubled
Ġband ed
Ġdis asters
Ġdis pens
Ġdis gust
Ġdis agree
Ġafter noon
ĠCyc lope
inn an
Ġkeep ers
Ġtre achery
ĠGuard s
att ice
att ib
ĠSam ut
ĠSam wise
Ġkind red
Ġkind led
Ġcar avan
Ġcar avans
ĠWard ens
ĠAdvis ors
ĠSil var
ĠSil hana
ĠAtt ended
und s
ĠArm s
ĠArm asaur
alm a
ĠMar it
ĠMar ble
ĠMar ath
ĠMar row
ĠMar ine
ĠMar aleaf
Ġexplo ded
Ġfall ow
ax ias
Ġmag got
ĠNinj as
Ġsoul bond
gu ided
ĠTra ft
ros aur
Ġint ellect
ĠKor oz
arn a
arn el
ĠDes perate
ĠDes olation
Ġass ume
ĠCo il
ĠCo ast
ĠCo ach
ĠCo ff
ĠCo iling
ĠCo atl
ĠCo ckroach
ĠCo valt
Ġev olves
bel ly
Ġward ens
ĠFire beast
ĠFire bird
ĠQu iver
ĠQu iet
ĠCom ing
ĠBo one
ĠBo ars
ĠBr ack
ĠBr other
ĠGh ired
ĠGh ostly
ĠGh astly
ĠGh alta
ĠGh alma
Ġgrow l
Ġgrow ths
Ġgrow ls
Ġkill ers
Ġsom ewhere
pe ak
reak able
eep er
Ġwatch dog
ĠTr acking
ĠTr iskel
Ġsing ular
pent ant
Ġfa ult
Ġfa una
Ġreg ion
Ġreg ions
Ġreg enerates
ĠHar j
ĠHar old
ĠHar sh
ĠMir ko
ĠVi ashivan
ced es
ĠAb ove
ĠAb bot
ĠAb del
ĠGr ÃŃ
ĠGr othama
ĠBattl eg
ĠPh age
ĠPh ilos
ĠPh araoh
ĠPh elddag
Ġste er
Ġste ppes
err ing
Ġdiv ing
Ġright ful
Ġcle ars
Ġcle ans
Ġhere tics
Ġgod toucher
ĠHunt ers
ĠMag ician
ĠMag pie
Ġhead long
ĠPer rie
Ġvict orious
Ġfore ign
ĠTroll s
ĠEvery body
ĠCit adel
ĠSo ph
ĠEmp yrial
for ge
Ġmaster less
Ġmaster pie
Ġcont empl
add i
Ġmer ge
Ġwork ings
ĠSerpent ine
sc out
Ġpr ayed
Ġpr ickly
ĠAc ross
ĠAc rob
ĠEm pty
ĠSur veyor
ĠElder fang
Ġem blem
Ġem otions
ser vant
ĠCol os
ĠCol orless
ĠCol erid
ĠCol iseum
ĠLook ing
zz t
zz io
Ġcyc led
Ġext ension
Ġdef ensive
Ġdef enseless
Ġhuman kind
ĠAk ras
ĠAk roans
As mira
eer less
Ġsn ared
Ġsn arl
Ġmet allic
ĠGra ven
ĠGra fter
ĠGra sping
Ġflip s
Ġwild fire
ĠRes er
ĠRes urg
ĠRes ilient
ira ge
ense eker
ony a
ony m
Ġwind ow
ĠNec rot
ĠNec ros
ĠNec rogen
Ġcons ist
Ġcons idered
ĠGarg adon
Ġcru st
Ġcru cial
alad ins
de ath
Ġren own
ĠKra v
ĠKra gma
Ġresult ed
ĠRav ing
Ġdec ree
Ġdec ide
Ġdec oy
inel ess
ĠDon na
ib a
ib al
ib uster
Ġrep urp
To othl
Ġten acity
aken ed
Ġmin or
Ġmin ers
Ġmin imum
ĠAg rus
back s
ek h
Ġdisc erning
Ġdisc iplined
Ġinc ite
Ġinc iner
ĠUnder stand
ĠUnder dog
ĠUnder cover
ĠUnder neath
ĠUnder dark
su ccess
roling s
ĠInd ul
ĠInd rik
ĠInd omitable
ĠInd ustry
ĠInf ested
Ġsaf ewright
ĠDisc iples
ĠDisc erning
Ġconjure d
ĠStorm front
Ġhalf way
ae ve
ae ologist
arec aster
Ġhistor ical
Ġbo ot
Ġne arest
ĠBal loon
ĠBal thor
Ġdel ay
Ġdel ic
ĠMa ul
ĠMa ulf
ĠMa arika
ĠMa estros
Ġref used
Ġref unds
tra ined
Ġancient s
ĠPat rician
ĠPat agia
Ġrec ord
Ġrec ently
Ġrec ords
Ġimp ending
Ġimp rison
Ġwr angler
Ġwr iting
ĠWind rider
ĠTur g
ĠThopter ist
ĠDu al
ĠGold berry
Ġter rified
ov old
Ġair borne
ĠFrog toss
ĠEcho es
ĠPar an
ĠPar adise
ĠPar apet
ĠPar atro
rag ing
Ġins ect
Ġins ist
Ġins ane
Ġins ides
Ġins anity
ĠLo oming
Ġchar acter
Ġunb reakable
ric ane
Ġob viously
Ġob edience
ĠNe b
ĠNe onate
ĠNe heb
ĠAm iq
ĠGe ists
ĠGe opede
ĠKar ok
ĠKar ona
ĠRavn ican
iner y
ĠDel ver
ĠMet eor
ĠMet allic
ĠBar al
ĠBar one
ĠBar rage
ĠBar rin
Ġexist ed
Ar n
Ar ms
Ar cum
Ar linn
Ġz oologist
ĠCor rosive
Ġfuture s
ĠMind breaker
ĠMind wr
ĠMind leech
rib ution
ĠUnicorn s
Ġbreak fast
ĠCar acal
Ġho verguard
Ġhonor able
ĠAug ury
Ġstud ied
Ġstud ying
ĠVe iled
Ġsub s
Ġsub servience
Ġdri ft
Ġdri ps
Ġmo ans
Ġmo aning
Ġcollect s
Ġact s
amm ar
amm ed
Ġsim ilar
Ġsim ultaneously
Ġsim plest
Ġmod ular
ims y
ĠSor amaro
urg ist
ĠTem pered
ĠTem pting
Ġemer ging
Ġvol ume
Ġvol atile
Ġcr umbling
ĠApp le
ĠTer is
ĠTer ra
ĠTer oh
Ġnec essity
ĠMo ira
ĠMo cking
ĠMist ral
ĠBas alt
ĠAncient s
Ġcloud less
ĠKraken s
An gel
co phagus
guard s
Ġcor rectly
Ġsent ience
ĠSm elt
ĠHow l
ĠHow ler
ĠHost ile
head s
ĠOut caster
ĠUnd Ã³
ern ity
Ġaw ake
Ġaw aits
Ġprec ise
Ġpred ict
Ġge ys
Ġbody guards
Ġdu eling
ĠSwarm lord
ĠRaven gard
ĠPriest ess
ĠOx id
ĠThough ts
Ġfle t
ĠArt ful
ĠArt illery
ĠTor sten
ĠEnt omber
ĠEnt angler
ĠEnt erp
ĠEnt ourage
ĠEnt rancer
Ġdep end
Ġdep loy
Ġdep ravity
ĠSu nl
ĠSu per
ĠSu dden
ĠHigh er
ĠHigh land
ĠHigh born
ĠDream er
ĠRun es
ĠRun away
ĠRiver lands
Ġsupp ose
Ġsupp ressed
Ġtruth s
Ġweapons mith
cle aver
Ġcent ury
ĠCan ker
Ġsqu irm
ĠWitch es
ĠWitch stalker
Ġmar ble
Ġmar row
Ġmar kets
Ġmar riage
ada istinac
Ġspread ing
ĠKam ber
ĠKam bal
ĠCloud s
ĠCloud sk
ĠCloud chaser
Ġweapon ry
cept or
cept ion
ific ant
Ġgener osity
ĠMor an
ĠMor ia
ĠMor kr
ĠMor adin
ĠNew s
ĠNomad s
the on
ĠAp ocalypse
ĠStone horn
Re veka
rin ter
well ing
Ġdr ac
Ġdr um
Ġdr ill
Ġdr owned
Ġdr amatic
ĠTw ice
ĠRu ins
ĠRu ination
Ġunp repared
Ġrock y
Ġclaim s
ipp ing
ipp ers
Ġbur row
Ġbur ial
Ġfun eral
Ġconn ect
Ġconn ive
ĠLi ara
Ġhero ic
Ġarri ving
Ch ulane
Ch itlati
iqu ity
min ate
min ous
Ġsol itude
Ġsol idarity
rush ing
sper ity
El esh
me at
Ġmain ly
Ġmist akes
ĠSusp icious
ĠAst ral
umm ing
ĠMal ice
unn ers
ĠUl asht
ĠBlack guard
ĠBlade hold
Ġteach ers
Ġteach ings
Ġguild master
Ġserv itude
ĠSilver gill
ĠSand bar
ĠIron claw
ĠIron clad
Ġstay ed
ortun ate
ĠLeech es
.. .<|
Ġtreat s
Ġsight s
ĠTru ss
ĠDef ector
ĠRamp ager
ĠVal ent
ĠVal ley
uv an
Ġir ony
Ġir rele
Ġcross ed
Ġcross ways
Ġthreat ened
Ġyoung est
Ġsign ifies
Ġhost ile
ĠTal ion
ĠHo ver
ĠHo pper
ĠPo or
uls ive
Ġadapt able
Ġche ap
Ġche ered
Ġche wing
Ġche etah
Ġbad ly
Ġmiss ed
ĠSag u
ĠAmb itious
ĠPack beast
run ners
Ġshaman ic
ĠLeviath ans
Ġmach inations
Ġmach inery
utter ing
ĠEnd bringer
ĠPur ity
ĠPur ifying
ĠKal itas
izz ards
ĠContra ptions
ĠOrzhov a
Ġtrust s
ĠFleet ing
ns ic
Ġaff ront
Ġaff airs
Ġthunder ing
Ġsav ior
Ġsummon ed
Ġhit ting
Ġhop ed
ĠEv os
ĠEv incar
ĠMem brane
ĠBra ve
ĠBra ids
Ġdem anded
ĠOm ens
ĠOm arthis
Ġsurp ass
ĠGreen widow
ned ain
Ġsuff ers
Ġsuff ered
Ġple ased
Ġple asing
Ġprom ptly
Ġlist ens
ĠRaz er
ĠRaz ia
ĠMe et
ĠMe tropolis
ĠMe zzio
ĠPers onal
ĠStreet wise
Ġarch itect
Ġarch aeologist
Ġbright est
Ġden izen
Ġhapp ens
Ġhapp ened
Ġhaunt ed
ĠHel lo
Ġinn ate
Ġinn ov
Ġinn keeper
Ġinn umer
ĠBu y
ĠBu ilt
Ġspec ific
ĠSpr out
ĠIniti ates
ĠJuggernaut s
rr rr
Ġhom unculus
Ġinf ilt
ĠRep ent
ĠRep eat
ĠMod ified
ĠMod ernity
ĠPr oft
ĠPr ay
ĠPr ison
ĠPr ickly
ĠPath mage
ĠPath finder
Ġsharp est
ĠHarvest tide
Ġsteal thy
ĠGrave born
ĠWorld soul
Ġpar ish
Ġpure st
Ġemp ress
Ġemp eror
Ġemp loy
Ġstat us
Ġdoor way
ĠStar ke
Ġfool ed
Th ief
Th alia
Ġself ish
Ġdawn s
Ġanim al
Ġanim ate
Ġanim ated
Ġpet ting
Ġmess ages
Ġlot us
ĠVor rac
ĠAsh nod
Ġunf ettered
Ġunf ortunate
ĠBloodthirst y
ĠImm ard
ĠImm ol
ĠOctopus es
ĠGhost s
oph on
oph age
Ġban ish
ĠCut pur
ĠCall ed
ĠWander glyph
ĠWander brine
ĠDire ctor
ĠEver flowing
ĠRub y
ĠRub inia
Ġfort une
Ġshort cut
ĠIncub ate
cr ats
rum ar
Ġcas tles
ĠCal igo
ĠCal dera
Ġfill ing
Ġmis d
Ġmis took
Ġmis guided
Ġmouth ful
ĠDri ver
ĠDri ven
ĠDri fting
ĠDri zzt
ĠDrom ar
ĠEvol ved
ĠKill ing
ĠNon basic
ĠNever winter
ĠAsp ect
ĠAsp hod
ĠBlight ed
St ronghold
St arke
ĠÃ Ħages
Ġlab s
Ġlab ors
Ġconf used
Ġrepl ace
ĠGri fter
Ġspark s
Ġens ures
Ġgrand eur
bearer s
Ġimagin e
mo ving
ĠCer ule
ĠCer berus
Ġsho e
Ġhum or
ĠFe aster
ĠRam irez
ĠVod a
ĠImper ious
ĠSyl via
ĠRuin ous
mph ony
Ġbreed s
elest ial
ĠTim in
ĠTim ing
ĠTim eless
Ġinter lopers
ĠLaw bringer
ĠKy odai
ĠKy theon
ĠInquis itors
ĠThought weft
Ġriver b
Ġsmash es
Ġimm ense
Ġimm une
Ġimm aculate
ĠAttend ants
Ġawaken s
ĠPraet ors
ĠCho ir
Ġfish ers
Ġfish tails
Ġfigure d
Ġfigure head
ĠSar uli
Ġhur ricane
ĠTin kerer
ĠHorn beetle
Ġinvent ed
Ġinvent ors
ĠGen tle
ĠGen esis
ĠOh ran
Ġvers a
ĠSkyc aptain
Ġtest ament
Ġcivil izations
Ġbal ancing
Ġbirth right
Ġfil ibuster
Ġpri v
Ġpick y
Ġpick ing
ĠTri umphant
ĠHob bits
ĠDist ortion
Ġinfect ious
ĠPet ting
Ġreward ed
Ġspect ators
ĠOw en
Ġmanifest ation
ĠInk caster
ĠRock slide
ĠAssem bler
ĠSee king
Ġaccept ed
ĠDesp oiler
ĠEmber mage
ĠGreml ins
Al aborn
ca er
hir hok
uld acar
wurm s
Ġer ad
Ġer ror
Ġtask ed
esk it
Ġbar ren
ĠCle aving
ĠCarn ival
ĠAh au
ĠIce wind
Ġinh uman
ĠRho da
ĠMach inist
ipl ied
ipl omat
Ġphilos oph
Ġacc ount
Ġacc ident
Ġappreci ation
Ġartist ry
ĠTransm uter
ĠExplorer s
Ġver d
Ġcoun sel
inter land
ĠClo ak
ĠClo ister
ĠClo aked
ĠClo verdell
ĠCru elty
Ġfruit ful
ĠSub du
ĠSub tlety
Ġgn aw
Ġgn omes
ĠDep uty
ĠEr stwh
ĠLor an
Ġengin e
Ġseed ling
ĠChron ologist
Ġworks hop
Ġadm ired
Ġadm iration
Ġapproach ed
Ġassem ble
Ġevol ve
ĠInter rog
ĠInter ceptor
Ġdelight ed
Ġdelight ful
Ġreflect ions
Ġbow l
Ġbow ls
Ġsepar ate
ĠSol itude
Ġlav amancer
Ġhon ing
Ġhon est
Ġhon ored
ĠTry nn
Ġconqu ers
ĠRef orged
ĠBru na
ĠGal ina
Ġattem pts
ĠKn own
Ġcover ing
Ġopportun ities
Ġenjoy s
ĠScrap yard
ĠScrap work
Ġamb itions
ĠJo ven
Ġpret end
ĠBlad ew
Ġterror s
Ġterror ize
Ġcrack les
gra ss
Ġil legal
Ġcamp a
Ġaim ed
Ġbog s
Ġpen ance
Ġpen alty
Ġlaugh ed
ellig ence
Ġprop hecy
Ġsurve illance
Ġrain bow
Ġdispl aced
Ġdispl ays
ĠTemp oral
Ġpossess es
ĠTrust y
ĠTrust ed
Ġghoul caller
ĠOmn ivore
ĠImperial s
sk y
Ġcorn ers
Ġble ak
ĠCog s
ĠCare ful
ĠWest ern
ĠWest fold
ĠSure shot
ĠSto ker
Ġgle e
Ġgle am
ĠFree booter
Ġevent s
ĠMort ality
ĠMoss dog
ĠGy ruda
Ġlimit ed
ĠKh urz
ĠKh orvath
Ġshift ing
ĠScra ps
Ġcompl iment
ĠStand ing
ĠStand ard
Ġunn ecessary
Ġraven s
Ġsuper st
Ġsuper ior
Ġrefuge e
ĠSupp ly
For ged
blood ed
Ġkey word
Ġachie ved
Ġthri ve
Ġsal vage
ĠWr ithing
ĠTaken uma
ĠFight ing
ĠRust ed
ĠBi ologist
ĠBi omancer
ĠBi bliopl
Ġrevel s
ĠGloom widow
Ġliz ards
Ġseason ed
ĠScor ia
ĠCont ender
abor ate
Ġexpect ations
Ġadvant ages
ĠDrac o
Ġsuns et
Ġcourt esy
Ġstrugg les
ĠOwl bear
Ġattempt ed
Sor in
Sor cerer
Ġow l
Ġbitter ness
ĠCreat ed
Ġsap rolings
Ġsust ain
Ġsust ained
Ġsust enance
Ġann ounce
Ġprim eval
ĠFrenz y
ĠEz io
ĠMold er
ĠMold graf
ĠLun ar
Ġspo ils
Ġspy master
Ġcomfort able
Ġrout es
ĠArchae ologists
Ġmindless ly
ĠSapraz zans
Ġrecruit ed
Ġburst ing
Ġrebu ilt
Ġce ase
Ġce iling
Ġcit izen
Ġcrash ed
Ġfre ely
Ġflock s
ardic adaistinac
Ġmed als
Ġmed ics
ĠSaw tooth
Ġhel ps
Ġhel ms
Ġhel met
ĠArash i
Ġut most
Ġgru dges
ĠHall ar
ĠHall owed
Ġconcer ns
ĠFeed ing
ĠPal ani
ĠPol tergeist
ĠPill ager
ĠBan isher
ĠBound ing
ĠBound less
ĠGard en
imp ort
Ġblink moths
Ġcoll apse
Ġloc ation
Ġunearth ed
Ġunearth ly
Ġclick ing
Ġrust ed
Ġsweet ness
ension al
Ġcryst als
ĠLiber ated
Ġcrowd s
Ġur ge
Ġest abl
Ġcand les
Ġcirc us
Ġoce ans
Ġbark s
ĠCra ig
ĠCra ven
ĠCra ghorn
ĠCad et
Ġsanct uaries
orc ist
ĠTen ured
ĠTho ctar
Ġconfl icts
ĠEp hemer
ĠEp icure
ĠMen agerie
ĠLar ge
ĠLar va
ĠPri vate
ĠGro ff
ĠKins caer
Ġcook ed
ĠNet tle
ĠNet tling
ĠNiv ix
Ġvirt ues
ĠScut tler
Ġmyster ious
Ġweep ing
Ġherald ed
Ġbelief s
Ġsettle ment
Ġsettle ments
ĠTwin blade
Ġconstruct ed
ĠStormc haser
ĠJamura an
ĠImagin ary
Gor gon
bar row
Ã³ in
Ġerr atic
Ġtower ing
Ġcra ving
Ġbarb arian
ĠCross roads
Ġsin ew
Ġsle w
Ġfift een
Ġfashion ed
Ġwicked ness
Ġpush es
Ġmir acle
Ġmant icore
Ġmant ises
ĠSin ister
ĠSin uous
ĠSum mit
Ġgro ff
Ġconver ts
ĠDust speaker
Ġbeat en
ĠRest oration
Ġdebt ors
Ġplant ed
ĠKind ler
ĠOk inec
ĠOk iba
Ġshelter ing
ĠJh ess
Ġvalu ables
ĠPlan et
Ġproper ly
Ġripp ling
Ġrapt or
Ġdevast ating
Ġtrespass ing
Ġtrespass ers
Ġmagn etic
ĠTravel ing
ĠDesec ration
Ġdistract ed
Ġregard ed
Ġrecogn ize
Ġrecogn ized
ĠCoral helm
Ġencount ered
ĠHoard er
Ġmission ary
ĠIgn us
ĠIgn iter
call ed
hor rent
Ġtur f
Ġtyr ranax
Ġcelebr ate
Ġthorn s
ĠCann on
ĠCoward s
Ġslo pes
Ġdar ker
Ġdam ned
Ġdam nation
ĠSyn apse
Ġgri ef
Ġgri pped
Ġgang s
Ġconce als
Ġconce aled
ĠLon is
ĠLon ely
ĠLumber knot
ĠPen itent
ĠBor g
Ġregre ts
ĠGle eful
ĠGle aming
Ġdeb ate
Ġattend ant
Ġcob bles
ĠNest ing
ĠNurt uring
estic ated
Ġshred s
ĠAsc ension
ĠInvent or
ustom ed
Ġheir loom
ĠConqu istador
Ġflour ish
Ġrob ber
Ġrob bers
Ġmillenn ium
ĠCliff haven
ĠAbs olute
ĠGargantu a
Ġrespons ible
Ġpersist ence
ĠNatural ist
Ġcultiv ated
ĠÃī owyn
Ġsharpen ing
Ġzeal ous
HH HH
mor anom
worm s
Ãº k
Ġed ges
Ġtit ans
Ġtitan ic
Ġcage d
ĠCrow d
Ġyield s
Ġstro de
Ġdryad s
Ġfel idar
Ġwreck age
ĠWrath ful
Ġmarch es
ĠSail back
Ġlink s
Ġconv ince
Ġconv iction
Ġcondu it
Ġinvol ve
Ġnurt ures
Ġnurt ured
ĠMac ie
ĠBlo b
ĠBree ches
ĠGrot esque
ĠGalad hrim
Ġspawn ed
Ġstitch es
Ġcann ons
ĠOcc asionally
ĠVirt us
ĠNum ai
ĠNear ly
ĠNear heath
Ġshimmer ing
ĠAshen moor
ĠAnn ex
ĠScal elord
Ġweird s
Ġunleash ed
Ġpref erring
Ġcommun ities
Ġsweep s
ĠYang tze
Ġresid ue
ĠDooms ayer
ĠDooms kar
Ġaccess ory
Ġsunl it
ĠGris tle
ĠDiscord ant
Ġencou rage
Ġencou raged
ĠStrong arm
ĠOmen path
Ġeru pting
Ġchalleng ing
ĠHypnot ic
Ġidi ots
ĠExperiment al
Ġmechan ical
Hal ina
Hal vor
Ku ar
Sam uel
will ow
Ġtent acles
Ġtireless ly
Ġcac he
onom ous
Ġbold er
ĠCapt ivating
ĠCrash ing
ĠWeld fast
Ġpil grim
Ġmater ials
Ġmaj esty
Ġhes itation
Ġhes itate
Ġhang s
Ġharp y
Ġharp ies
Ġconse cr
ĠIr regulars
Ġinj uries
Ġearl ier
ĠRight eous
ĠRul es
ĠRash ida
ĠMesmer ic
ĠMesmer ist
ĠLam bh
ĠLag ac
ĠPash alik
ĠGat eless
ĠKu jar
ĠVult ures
Ġshudd ered
Ġkra ul
Ġblan ket
Ġblan kets
ĠScream ing
ĠScale bane
Ġalley s
ĠConscri pt
ĠConscri pts
Ġhiss ing
Ġgreml in
ĠTrespass ers
Ġprogen y
ĠLey line
Ġslight est
Ġeleph ant
Ġadvent uring
Ġadvent ures
Ġacorn s
ĠGlor ifier
ĠGlor find
ĠDrown yard
ĠTrumpet ing
Ġdecad ent
Ġincorpor ates
Ġincorpor ating
Ġnorth ward
ĠPoison er
Ġignor ant
Ġabsol utely
Ġnavig ating
ĠElectro static
Ġunexpected ly
oi i
ĠCand le
ĠCove ted
ĠCors air
ĠCors airs
Ġfisher man
Ġwest ern
ĠWreck ing
Ġpra et
Ġpuls es
Ġpuzz le
Ġmel odies
Ġmix ed
Ġmotion less
ĠSere ne
ĠSere ndib
ĠSix th
ĠSedge moor
Ġlull mage
ĠAud acious
ĠTransp l
ĠTransp ort
Ġbehemoth s
ĠEar ly
lys m
ĠLath nu
ĠPop ulate
ĠBil bo
ĠBraw lers
Ġpluck ed
Ġstalk ed
ĠOy aminar
ĠVel us
ĠVast wood
ĠVad rik
ĠVant ress
ĠShimmer ing
comple ation
Ġenl ists
ĠThelon ite
ĠDrag oon
ĠReve rent
ĠSlim y
ĠSlim efoot
ĠWhirl pool
ĠSwords mith
ĠDoor keeper
ĠProsper ous
ĠBrand y
Ġtempt ation
ĠResp ect
ĠResp onder
ĠAggress or
ĠDispl acer
Ġobser vers
Ġwatermark s
Ġtranscend s
Ġbenef it
Ġaccord ing
ĠSuppl ier
ĠSuppl icant
Ġutter ly
Ġmirror s
ĠPlaneswal ker
ĠPlaneswal kers
ĠSafe hold
ĠSymbi ote
ĠSymbi otic
ĠThaumat urge
Bo ar
Fl ame
Is ao
hard y
hib ition
zer ai
Ġtranqu ility
erd rix
Ġcre pt
ĠCook book
ĠCraft y
Ġdiver t
Ġfr ame
Ġfurn aces
Ġfig uring
Ġmalevol ent
ĠSeg ovian
ĠSib sig
ĠTao ist
ĠHire ling
Ġconven ient
Ġcondem n
ĠId ris
ĠDestruct ion
Ġinsc ribed
ĠFat eful
ĠFey wild
ĠFreed om
ĠFurt ive
ĠEber hart
ĠMot iv
ĠMom ents
ĠMuld rak
ĠBle ak
Ġrele ased
Ġreinforce ments
ĠGraz ing
ĠKed erekt
ĠKum ena
ĠKud ro
ĠOri q
ĠOch re
ĠVes uvan
Ġupro oted
ĠName less
ĠNaz gÃ»l
ĠUmb ar
Ġleech es
ĠRejuven ator
ĠSlumber ing
Ġunner ving
Ġjud gment
Ġrooft ops
Ġoutm atched
Ġexpans ion
Ġmonkey s
Ġresc ue
Ġaccompl ice
Ġteem s
ĠGlac ial
ĠIllus ory
ĠIllumin ator
Ġboast s
Ġpatroll ing
Ġtransl ated
Ġsentinel s
ĠCurrent s
ĠPyro cl
Ġencroach ing
Ġparaly zation
ĠBetray al
ĠClear cutter
ĠReflect ion
ĠGalvan ic
Ġdomin ion
Ġoutpost s
Ġsacr ilege
Ġappropri ate
Ash iok
En chanted
Gu ide
Mod riss
Nor in
Ot ak
Rak sha
Sach ir
ocl ast
Ġtiss ue
aty ova
Ġcir cles
Ġopin ion
Ġbau ble
Ġbio engineer
ĠCe aseless
ĠCen obite
ĠCros is
ĠCarm en
Ġsitu ation
Ġdod ge
acab ra
Ġfanc ies
Ġwast elands
str ong
Ġpy rom
Ġpru dent
Ġpaus ed
Ġparch ed
Ġpsych ic
Ġmedic ine
ĠSai ba
ĠSapp hire
ĠSaff i
Ġhier arch
ĠArab ian
ĠTot em
ĠHak tos
ĠHaze zon
ĠIcon oclast
ĠDia bol
ĠDivers ion
Ġintro du
Ġinfer ior
Ġinscri ption
Ġnin ety
Ġetern ally
Ġenthusi asm
ĠRacket eer
ĠMel ek
ĠMile va
ĠMission ary
ĠLa quatus
ĠLed ev
ĠPatch work
ĠPoly m
ĠPrin cess
ĠBert ram
Ġreve rence
ĠGather ing
ĠGears mith
Ġplag ued
Ġstamp ede
ĠKab ira
ĠSpinn eret
ĠNurg le
ĠGost ok
ĠZe ppel
Ġseep ed
ĠElt urel
ĠElimin ator
agu ar
Ġnob ility
ĠBey ond
ĠReass embling
ĠReckon er
ĠExter minator
ĠJar ad
ĠJew el
ĠJhov all
Ġflatt en
ĠEnsl aved
ĠOrnith opter
ĠMycon id
Ġskaab s
Ġrestrict ed
Ġswe eter
Ġravage d
Ġmonolith s
ĠYam azaki
ĠSweet tooth
Ġbloodthirst y
Ġimb ued
Ġaccomp anies
aflo or
Ġappend ages
Ġapprent iceship
Ġtrin kets
Ġliter ally
Ġinteg rity
ĠArcan um
ĠUrch in
Ġempower s
ĠWorks hop
Ġrelation ship
ĠTranscend ent
ĠImmer sturm
Ġpredecess or
ĠAutom ated
ĠSelk ie
Ġfootfall s
ĠHalberd ier
ĠBuccane er
Ġvert ical
ĠErd wal
Ġingred ients
Ġaspir ations
Ġpropert y
Orc ish
ĠLarcen ist
ĠEscap ed
Ġmaneu ver
ĠSocial ite
Aev ar
Anth ousa
Benal ish
Caly dd
Desmer a
Footh ill
Ger da
Git axias
Grand mother
Gulist an
Il romov
Jon ald
Jur uk
Ka ervek
Lat ulla
Lain a
Mat oc
Mult ani
Pont ifex
Qh attib
Run o
Riel le
Sur rak
Sarg is
Samil a
Tek ik
Trad itional
Ver vamon
Yol ov
Zomb ie
Zek i
bord ered
cull is
meth es
oir s
pill ar
poc ket
xim ity
Ġich or
Ġoup he
Ġtic kets
oufl age
Ġcam ouflage
Ġcab in
Ġalo of
Ġbould ers
ĠCas tle
ĠCary atid
ĠCaz ur
ĠCoun tless
Ġyester day
exist ence
Ġsibl ings
Ġfarth est
Ġwri gg
ĠWel kin
ĠWau ki
ĠWaken ing
ĠWaters pout
elud ha
stri ker
strod on
Ġpho bias
Ġpinn acle
ĠSlog urk
ĠSacell um
ĠAct ually
ĠArix methes
ĠAys en
ĠAryn x
ĠTire l
ĠTect onic
ĠTort urer
ĠTabor ax
ĠTowns folk
ĠHurk yl
ĠHefe i
Ġconsc ious
Ġconvers ation
ĠDurk wood
ĠDÃº nedain
ĠDukh ara
Ġincon ven
Ġbeck ons
ĠMasc ot
ĠLack ey
ĠLaur ine
ĠLani us
ĠLagon na
ĠLiter ally
ĠPont iff
ĠBass ara
ĠButl er
Ġplayth ings
ĠKook us
ĠKald heim
ĠKlot hys
ĠOkin a
ĠObor o
ĠVect is
ĠVint ara
ĠVolt aic
ĠVrest in
ĠNah iri
ĠNiam bi
Ġshark s
Ġshrie ks
emog oth
ĠShink a
ĠShab raz
ĠShige ki
ĠAtzoc an
eregon d
ograp hy
Ġkras is
ĠZeth i
ĠZarg oth
ĠZurg o
ĠZndrsp lt
Ġwholen ess
Ġalliter ative
ĠThrin ax
ĠUgl Ãºk
Ġnostalg ic
ĠScuzz back
ĠDePie tro
ĠStony brook
ĠExting uisher
ĠArgu el
ĠChup acabra
ĠJasm ine
ĠJirin a
ĠJolen e
ĠSluge ater
Ġunbel ievers
Ġunnot iced
Ġunlik ely
Ġscorp ions
Ġjhov alls
Ġgoather d
Ġarrog ance
Ġoutwe igh
ĠAdvok ist
ĠUnpredict able
ĠYarg le
ĠSwashbuck ler
ĠSeism ic
Ġimpen etrable
Ġsuicid al
ĠProvocate ur
ĠSqueak ing
ĠCyclope an
ĠKoroz da
ĠGrÃŃ ma
ĠPhilos op
ĠPhelddag rif
ĠColerid ge
Toothl icker
success ful
ĠMaulf ist
ĠAmiq at
ĠMindwr ack
ĠUndÃ³ miel
Ġgeys ers
ĠEnterp rising
ĠMorkr ut
Ġirrele vant
Ġinnumer able
ĠCutpur se
ĠAsphod el
ĠÃĦages dotter
ĠCerule an
ĠErstwh ile
ĠKhurz og
ĠBibliopl ex
ardicadaistinac uldacar
moranom ardicadaistinaculdacar
ĠLambh olt
ĠGlorfind el
ĠOyaminar tok
) ,
- *
1 6
1 7
1 8
1 Â½
2 2
8 1
A V
A g
A k
A y
A es
A st
A ut
A ura
A kin
A rab
A untie
A wyll
B r
B en
B ro
B ig
B all
B art
B lood
B ran
B elly
C N
C reature
C lo
C os
C ore
C ap
C ho
C ult
C ob
C hi
C ym
C rimson
C lad
C arol
D a
D e
D en
D an
D ru
D ind
D ec
D inosaur
D ream
D ane
D app
D ov
D ona
D eril
E C
E S
E d
E s
E z
E ight
E ff
E mp
F ar
F ang
F ood
F ah
F urnace
F raid
G r
G ot
G um
G ain
G ore
G ru
G av
G red
G ren
G ins
G eth
G arl
G isa
G rowth
G var
G eor
G imli
H e
H y
H er
H ot
H ound
H ob
H ouse
H anded
H adi
H eru
H aldir
H arak
I N
I T
I m
I v
I x
I ll
I zoni
I hsan
J or
J al
J av
J ae
J ori
J ula
J aby
J adar
J iki
J iang
J efan
K l
K r
K ir
K ad
K ak
K ithkin
K anar
K ellan
K argan
K innan
K eeper
K eskit
L eg
L egend
L est
L ost
L ief
L lan
L uphe
L aboratory
L yd
M a
M i
M w
M an
M ess
M or
M il
M ad
M ire
M em
M ok
M ors
M elet
M ogg
M ishra
M ikaeus
M unda
M urat
M aeve
N e
N ame
N ed
N ad
N ab
N oy
N aim
O W
O g
O j
O m
O ff
O ran
O rim
O men
O ketra
O par
P L
P el
P ol
P alm
P ride
P aul
P ippin
P owered
R y
R an
R ing
R ul
R av
R ite
R ash
R ish
R of
R ana
R une
R iders
R oot
R ona
R azer
R attle
R ouser
R uric
R hirhok
S n
S er
S ed
S le
S ir
S id
S av
S ker
S kin
S ye
S eer
S ana
S arl
S iege
S ister
S ee
S ty
S ynd
S aint
S iona
T i
T w
T re
T ru
T em
T ide
T ome
T oc
T roll
T ah
T itan
T ala
T azri
T oggo
T asigur
U l
U ST
V i
V en
V es
V on
V all
V ampire
V annifar
W ind
W atch
W itch
W isp
Y asova
Z ul
Z ero
a en
a ft
a ire
a ud
a erie
a ug
a bling
a aka
b ig
b ul
b ull
b ears
b ino
b ony
b reath
b rew
b ased
b rie
b bon
b ench
b uc
b ellow
b alanced
b Ã¡
c ure
c el
c he
c age
c us
c isc
c ord
c ase
c atch
c ated
c rag
c olored
c rator
c ursed
c static
c utters
c ribing
c iliation
c ipation
d i
d es
d on
d ro
d ic
d as
d ain
d isc
d are
d ust
d ood
d ens
d ari
d ax
d eep
d ric
d oz
d wen
d weller
d wellers
e b
e j
e z
e ce
e ment
e wal
e ves
e ered
e ens
e ah
e ech
e enth
e asy
e akeasy
f u
f ur
f ed
f rom
f act
f ore
f ree
f ive
f eed
f red
f ather
f ox
f na
f right
f let
f ares
g reat
g ur
g ic
g ol
g od
g iver
g raz
g ift
g ots
g ical
g aze
g azer
g rowing
g iveness
h h
h u
h ro
h ield
h ion
h ave
h aze
h ault
h irl
h ammers
h oles
h umer
h awks
h ammar
i j
i ate
i br
i ber
i osaur
i ated
i bles
i geon
i work
i eter
i ada
i ji
j am
j ur
j un
j orn
j eet
j iri
k l
k an
k ill
k now
k ins
k air
k und
k itter
k ward
l at
l ow
l ex
l oft
l el
l ian
l one
l ak
l orn
l aves
l oud
l iss
l iner
l ora
l ived
l urker
m ed
m ut
m and
m ad
m ath
m ak
m pt
m yr
m iss
m ogg
m iner
m asher
m utt
m aro
m elter
m anta
n am
n or
n el
n ate
n ie
n out
n ok
n ak
n oth
n ger
n ock
n acious
n aph
n ipe
n ican
n bra
n emonic
o ast
o ken
o ire
o ist
o vers
o chs
p re
p ut
p as
p ain
p aw
p icker
p awn
p roud
p itched
p ipe
p iercer
r n
r ink
r ings
r ations
r ants
r ils
r atog
r dan
s or
s ing
s om
s et
s ies
s acrifice
s un
s ite
s aw
s ense
s ized
s dragon
s manship
s weeper
t en
t ar
t ies
t un
t own
t read
t hem
t aking
t enth
t iller
t oday
t hog
u in
u ing
u os
u ct
u ger
u ces
u els
u let
u los
u fact
v id
v ill
v ag
v az
v ald
v ara
v ae
v ault
v ada
v iper
w w
w as
w ear
w ide
w ift
w yr
w ader
w rought
w ife
w isp
w oman
x y
x os
x us
y ar
y le
y our
y red
y line
y body
z y
z im
z old
z ie
z one
z oth
z ec
z wood
z rag
z ka
z oa
Â °
Â ²
â Ī
Ġ &
Ġ ?
Ġ q
Ġ ken
Ġ edd
Ġ urch
Ġ âĪ
re es
re ft
re ef
re ase
re alm
re tooth
re pentant
Ġt ing
Ġt ast
Ġt et
Ġt amp
Ġt ig
Ġt ents
Ġt usk
Ġt ether
Ġt ires
Ġt enth
Ġt inker
Ġt asks
Ġt anner
Ġt icking
Ġt undra
Ġt umult
er on
er ce
er ator
er unning
er unner
at an
at ra
at ri
at ist
at ok
at ah
at oze
at ures
at ongue
at omist
en ish
en ia
en iable
en zie
ou ger
ou stab
Ġc ough
Ġc ed
Ġc her
Ġc os
Ġc lock
Ġc ler
Ġc art
Ġc ust
Ġc ott
Ġc ute
Ġc hem
Ġc reak
Ġc ephal
Ġc rag
Ġc rocodile
Ġc ateg
Ġc rimson
Ġc amar
Ġc ulp
Ġc elestial
Ġa v
Ġa ur
Ġa ver
Ġa ph
Ġa kin
Ġa ils
Ġa urochs
Ġa esthir
Ġa ethers
Ġa rose
Ġa blaze
Ġth ud
Ġth icker
Ġth aws
Ġth rew
Ġth rows
Ġth rum
Ġth rice
Ġth unders
Ġo h
Ġo vers
in um
in ies
in ctiv
in ition
in sp
in als
in tless
in stall
ar f
ar ra
ar im
ar se
ar ial
ar ged
ar ox
ar ov
ar rows
ar cophagus
es ar
es mith
es ka
es cent
es itation
es layer
an er
an or
an se
an ions
an cher
an ches
an ha
an athar
am ge
am al
am ous
am ax
am ba
am let
am oti
end ence
end lyn
it a
it ri
it ance
it ron
it ations
it te
it ical
it aller
it ted
it ering
it inous
tl i
tl an
tl eth
tl ines
tl iner
on ce
on ist
on ator
on ged
on ishing
Ġb er
Ġb on
Ġb ount
Ġb ru
Ġb out
Ġb ath
Ġb ind
Ġb ash
Ġb ab
Ġb ull
Ġb arn
Ġb ony
Ġb ows
Ġb rag
Ġb rib
Ġb unn
Ġb ank
Ġb ribe
Ġb ards
Ġb ump
Ġb attering
Ġb itten
Ġb oggle
Ġb aying
Ġb ulls
Ġb uckle
Ġb itters
Ġb azaar
Ġb ashing
Ġb amboo
Ġb udoka
ĠC i
ĠC ack
ĠC act
ĠC et
ĠC ath
ĠC art
ĠC land
ĠC ass
ĠC aw
ĠC ities
ĠC ott
ĠC orm
ĠC oll
ĠC rim
ĠC ud
ĠC olf
ĠC ald
ĠC alm
ĠC hem
ĠC reak
ĠC rop
ĠC roc
ĠC rime
ĠC anc
ĠC rier
ĠC aler
ĠC ertain
ĠC eremon
ĠC ÃŃ
ĠC ease
ĠC radle
ot yr
ot ai
ot eer
ow u
ow on
ow ders
gh ast
gh em
ex ed
ess er
ess ed
ess ion
Ġs el
Ġs ack
Ġs amp
Ġs ated
Ġs ins
Ġs ung
Ġs ired
Ġs ib
Ġs izes
Ġs outh
Ġs ister
Ġs ank
Ġs ector
Ġs itting
Ġs anity
Ġs cholars
Ġs ophistic
Ġs ycophant
Ġs arcophagus
is is
is ly
is ely
is ms
is pens
Ġd ent
Ġd ed
Ġd rom
Ġd ine
Ġd ict
Ġd uck
Ġd aze
Ġd aught
Ġd ual
Ġd run
Ġd authi
Ġd rought
Ġd wind
Ġd iverse
Ġd ummy
Ġd iary
Ġd arts
Ġd ressed
Ġd rones
Ġd utiful
Ġd iamond
Ġd oused
Ġd iplom
Ġd azzling
Ġd iplomat
ac ons
ac ock
ac ama
ac oast
or u
or ic
or apt
or bs
or ism
oft op
Ġf end
Ġf ra
Ġf ut
Ġf ile
Ġf ath
Ġf ond
Ġf ab
Ġf ens
Ġf ins
Ġf ung
Ġf ans
Ġf its
Ġf usion
Ġf ract
Ġf reak
Ġf ib
Ġf idd
Ġf ades
Ġf ern
Ġf amed
Ġf ading
Ġf oster
Ġf rill
Ġf used
Ġf uss
Ġf owl
Ġf ounder
Ġf ascin
Ġf amine
Ġf uels
Ġf amous
Ġw a
Ġw y
Ġw om
Ġw eld
Ġw id
Ġw ate
Ġw ig
Ġw ag
Ġw ip
Ġw ron
Ġw ider
Ġw icker
Ġw aver
Ġw ager
Ġw ives
Ġw retch
Ġw ails
Ġw arehouse
ĠW il
ĠW id
ĠW yr
ĠW its
ĠW res
ĠW ina
ĠW ilder
ĠW yl
ĠW asp
ĠW ishes
ĠW ailing
ĠW aning
ĠW ielder
ĠW retch
ĠW arehouse
ĠW itty
el le
el os
el id
el ong
el ise
el ting
el rod
el ords
ro i
ro ad
ro ke
ro ken
ro red
ro dden
ing le
ard ing
ard al
ard ed
ard ole
ge ar
ge an
ge ons
ge mon
ge oneer
Ġan nihil
Ġan tic
Ġan kle
Ġan aconda
st a
st on
st ad
st ant
st own
st ory
st reak
st alk
st ances
st itched
st omper
st riders
st inate
st ocked
st udent
st roke
Ġto me
Ġp act
Ġp ant
Ġp ies
Ġp ave
Ġp ace
Ġp ang
Ġp ine
Ġp aw
Ġp ix
Ġp itch
Ġp otion
Ġp ots
Ġp rime
Ġp ae
Ġp ages
Ġp aria
Ġp orc
Ġp rides
Ġp ouncing
Ġp sionic
Ġp antom
Ġp ouring
Ġp ounce
Ġp owder
Ġp apers
Ġp iety
Ġp riority
Ġp aladins
Ġm at
Ġm um
Ġm and
Ġm eg
Ġm ong
Ġm ire
Ġm ew
Ġm aker
Ġm ating
Ġm use
Ġm entor
Ġm ites
Ġm esa
Ġm others
Ġm aul
Ġm ule
Ġm asks
Ġm eddling
Ġm imics
Ġm umblings
Ġm irage
Ġm aaka
Ġm ingle
al ith
al act
al ice
al to
al ities
al ects
al nu
Ġ~ .<|
ĠS ch
ĠS ke
ĠS wo
ĠS ier
ĠS op
ĠS ang
ĠS unt
ĠS ort
ĠS igh
ĠS ung
ĠS aut
ĠS au
ĠS ize
ĠS under
ĠS olar
ĠS umm
ĠS ont
ĠS ainted
ĠS ickle
ĠS isters
ĠS arah
ĠS aints
ĠS EC
Ġl ent
Ġl os
Ġl ag
Ġl ust
Ġl ick
Ġl ark
Ġl ined
Ġl akes
Ġl oun
Ġl ends
Ġl ayers
Ġl ures
Ġl edge
Ġl ament
Ġl ured
Ġl ingers
Ġl ammasu
Ġl otta
Ġl attice
ent er
ent ers
ent ive
ent arim
il an
il ion
il ous
il ation
il ah
il iary
Ġh i
Ġh al
Ġh il
Ġh us
Ġh art
Ġh ob
Ġh inder
Ġh edge
Ġh umbl
Ġh awk
Ġh agg
Ġh ints
Ġh osp
Ġh atched
Ġh oles
Ġh ouses
Ġh awks
Ġh mm
Ġh abits
ur re
ur in
ur ate
ur ik
ur rid
ur geon
ur pers
ur acy
ur dened
ur rk
ur itron
if orm
if ests
if erous
ay ans
hen ni
ed es
ed ary
ed ies
ed ral
ĠA e
ĠA tro
ĠA eg
ĠA ld
ĠA ird
ĠA usp
ĠA rel
ĠA void
ĠA flame
ĠA uthor
ĠA eve
ĠA isha
ĠA uger
ĠT ou
ĠT reat
ĠT ay
ĠT and
ĠT eg
ĠT ore
ĠT ong
ĠT aste
ĠT ade
ĠT row
ĠT ouch
ĠT orm
ĠT esh
ĠT yc
ĠT oll
ĠT apped
ĠT arg
ĠT ears
ĠT ired
ĠT ari
ĠT ey
ĠT ib
ĠT ek
ĠT ori
ĠT iana
ĠT amer
ĠT rogen
ĠT ouched
ĠT rophy
ĠT zu
ĠT icking
ĠT ithes
ĠT angled
ĠT undra
ĠT asigur
ĠT AL
ĠT atyova
Ġu l
Ġu gl
Ġ1 99
ers ea
ef et
ef ies
ef ort
Ġg as
Ġg ul
Ġg all
Ġg un
Ġg our
Ġg oss
Ġg ross
Ġg arb
Ġg ait
Ġg ales
Ġg otten
Ġg rie
Ġg ambl
Ġg lands
Ġg arbage
Ġg azed
Ġg omazoa
ra an
ra ph
ra ved
ra gg
ra per
ra ints
tro ps
ve y
Ġ3 0
ic her
ic us
ic est
ic ip
ic ide
ic ient
ic les
ic ating
ic ada
ic iest
ic ially
urn an
ĠH eld
ĠH ack
ĠH ap
ĠH ight
ĠH em
ĠH aw
ĠH ix
ĠH of
ĠH alt
ĠH ald
ĠH add
ĠH anging
ĠH aldir
ĠH interland
ĠH esitation
Ġcon fin
Ġcon cent
Ġcon dition
Ġcon spiracy
ĠI N
ĠI mb
ĠI mit
ĠI cy
ĠI ym
ĠI roan
ĠI dent
ĠI zoni
ĠI hsan
ver ter
ver ob
ver izer
om aly
om ancers
ĠD and
ĠD im
ĠD ear
ĠD ive
ĠD ry
ĠD ish
ĠD ise
ĠD uch
ĠD iff
ĠD ying
ĠD irt
ĠD run
ĠD enn
ĠD ina
ĠD wyn
ĠD imin
ĠD ormant
ĠD irty
ĠD edicated
ĠD awning
ĠD ouser
ĠD azzling
ĠD urin
ĠD urnan
eld ran
Ġin ad
Ġin her
Ġin here
Ġin vo
Ġin jure
Ġin ward
Ġin cess
Ġin ability
Ġin just
Ġin comple
Ġn u
Ġn oses
Ġn ears
Ġn ations
Ġn ets
Ġn aked
Ġn asty
Ġn oggle
Ġn uts
Ġn ightly
Ġn arrow
Ġn aive
ast os
ast ian
ast master
ĠF ir
ĠF lo
ĠF ile
ĠF ig
ĠF ink
ĠF ens
ĠF ull
ĠF ift
ĠF ired
ĠF right
ĠF avor
ĠF uture
ĠF isher
ĠF ont
ĠF yl
ĠF ruits
ĠF iddle
ĠF urry
ĠF avored
le en
le ge
le aper
le te
Ġbattlefield s
ut a
ut an
ut ions
ut iny
ut zil
Ġbe h
Ġbe ef
Ġbe ak
Ġbe arer
Ġbe gging
Ġbe ckoning
Ġbe gets
Ġbe reft
Ġbe acons
ir ies
ir der
ir riff
ith id
ith ian
ith izon
um es
um br
um pt
um mer
um aro
um stances
and e
and als
and lar
and escent
Ġe ve
Ġe man
Ġe aster
Ġe ons
Ġe els
Ġe go
Ġe pid
Ġe cosy
as i
as ers
as hy
as ai
as ants
as ury
as rin
ol ing
ol ed
ol ate
ol oth
ol ition
ol igan
Ġor b
Ġor ch
Ġor acle
Ġor acles
ĠE y
ĠE lo
ĠE ll
ĠE man
ĠE vent
ĠE cc
ĠE rad
ĠE kem
ĠE esha
ĠE asy
ĠE bony
ĠE kund
ĠE tlan
ly te
Ġent ity
Ġent rust
Ġent rails
Ġent hrall
ĠR er
ĠR ure
ĠR end
ĠR al
ĠR od
ĠR iv
ĠR all
ĠR ite
ĠR ings
ĠR ison
ĠR au
ĠR ai
ĠR und
ĠR ib
ĠR ele
ĠR ender
ĠR ani
ĠR umm
ĠR iding
ĠR ector
ĠR hys
ĠR otted
ĠR arity
ĠR iku
ĠR annet
ĠR ukh
ĠR uric
ĠR umbler
ĠR oustab
ĠR ancher
he en
he ts
he aval
he els
ĠM c
ĠM ack
ĠM os
ĠM ice
ĠM un
ĠM urm
ĠM ull
ĠM iss
ĠM ars
ĠM au
ĠM ans
ĠM ann
ĠM eep
ĠM eless
ĠM ortal
ĠM ux
ĠM oney
ĠM eadow
ĠM ostly
ĠM omir
ĠM isery
ĠM imics
ĠM unda
ĠM nemonic
ĠM amba
ĠM owu
ĠL ay
ĠL ith
ĠL age
ĠL ier
ĠL ust
ĠL atch
ĠL esh
ĠL ater
ĠL ull
ĠL yr
ĠL oss
ĠL ane
ĠL ara
ĠL inger
ĠL ily
ĠL asher
ĠL ancers
ĠL ael
ĠL ungs
ĠL othl
ĠL ila
ĠL upine
ĠL Ã³rien
ĠL ewis
ĠL iao
ount eous
ĠP in
ĠP an
ĠP el
ĠP ond
ĠP yr
ĠP its
ĠP itch
ĠP ike
ĠP uls
ĠP olis
ĠP opl
ĠP avel
ĠP ierce
ĠP uma
ĠP orter
ĠP oult
ĠP iker
ĠP eerless
ary ll
ri end
ri pp
ri pt
ri val
ĠB E
ĠB ir
ĠB lock
ĠB ile
ĠB ry
ĠB less
ĠB ase
ĠB ible
ĠB ron
ĠB igh
ĠB alm
ĠB reed
ĠB ha
ĠB omat
ĠB attered
ĠB ank
ĠB enth
ĠB ont
ĠB onder
ĠB itten
ĠB aba
ĠB ael
ĠB aby
ĠB osh
ĠB attery
ĠB lossoms
ĠB ola
ĠB eregond
ĠB lyte
ĠB ounteous
Ġre ar
Ġre nder
Ġre ins
Ġre born
Ġre vers
Ġre vol
Ġre igned
Ġre vised
Ġre ckoning
Ġre indeer
ach i
ach al
ĠG el
ĠG us
ĠG ish
ĠG ab
ĠG ud
ĠG oss
ĠG iles
ĠG aller
ĠG iving
ĠG het
ĠG ets
ĠG rowth
ĠG ilder
ĠG riffins
ĠG unk
ĠG arna
ĠG iada
ĠG amge
ĠG irder
Ġas hen
Ġas king
Ġas leep
Ġas cent
Ġcount ed
Ġcount ry
rom e
rom orph
ch el
ch ron
ch annel
ch ained
Ġfor ger
Ġfor ging
Ġfor giveness
Ġunt h
Ġunt id
Ġunt rained
Ġde w
Ġde ple
Ġde me
Ġde throne
Ġend e
Ġend uring
Ġpl ow
Ġpl ated
Ġpl umb
Ġpl aza
Ġpl ato
Ġpl acid
lo d
lo gg
lo per
lo ving
lo de
lo ping
ain ers
ad o
ad ach
ad erie
ad oc
ad rab
Ġsp ill
Ġsp here
Ġsp ake
Ġsp ans
Ġsp ike
Ġsp ont
Ġsp elun
Ġsp riggan
Ġsp iraling
Ġsp ineless
Ġsp eech
Ġsp leen
ell s
ell en
ell ant
pp et
her om
her der
her ana
age maro
Ġst em
Ġst out
Ġst ew
Ġst ead
Ġst ake
Ġst ren
Ġst able
Ġst ates
Ġst ony
Ġst ret
Ġst ern
Ġst ock
Ġst alwart
Ġst itched
Ġst ability
Ġst rides
Ġst adium
ke mb
ke te
os i
os ure
os mir
os uri
ct i
ct us
ct ions
rt et
Ġcan al
Ġcan yon
Ġcan yons
ion age
ion ette
eg ana
eg osaurus
act ion
ant i
ant is
ant icore
ant astic
ant ikari
ck o
ck led
ck eries
Ġplay thing
ep l
ep ter
ep ec
id ant
id ons
id io
Ġatt rib
Ġatt ained
Ġatt uned
Ġput rid
et he
et os
et ies
et ter
et hin
et ics
et ops
ore l
ap e
ap ine
ap sed
Ġli ft
Ġli ber
im o
im al
im il
im us
im one
im ator
im bo
im ulus
im agic
ĠK l
ĠK ir
ĠK est
ĠK un
ĠK oth
ĠK ird
ĠK oll
ĠK iss
ĠK air
ĠK ann
ĠK err
ĠK not
ĠK ira
ĠK ib
ĠK app
ĠK ids
ĠK horn
ĠK ha
ĠK ills
ĠK aps
ĠK itt
ĠK uro
ĠK han
ĠK urb
ĠK itten
ĠK eral
ĠK abo
ĠK annah
ĠK anto
ĠK rotiq
ĠK omon
ĠK rydle
ĠK ronch
ĠK aijin
ĠK rumar
ĠK utzil
ĠK agemaro
ken brand
ken fist
Ġex h
Ġex am
Ġex ec
Ġex arch
Ġex otic
Ġex ecutioner
Ġex erc
Ġlif eless
Ġlif elong
ĠO i
ĠO re
ĠO il
ĠO ra
ĠO ll
ĠO ce
ĠO ph
ĠO sp
ĠO rim
ĠO be
ĠO af
ĠO ros
ĠO vers
ĠO val
ĠO oh
ĠO oz
ĠO asis
ĠO minous
ce ress
Ġ5 00
Ġgra ins
Ġgra ze
Ġco ven
Ġco ats
Ġco pper
Ġco ils
Ġco coon
Ġco ckroach
ru ctiv
ru gged
amp ered
Ġhand led
Ġhand iwork
Ġopp osing
Ġopp osition
ĠV at
ĠV ar
ĠV on
ĠV ex
ĠV ent
ĠV est
ĠV ul
ĠV igil
ĠV ines
ĠV oros
ĠV ols
ĠV ern
ĠV ector
ĠV ela
ĠV endor
ĠV itality
ĠV ivis
ĠV alesk
ĠV annifar
ĠV eldran
ĠV ithian
ĠV andals
Ġman ip
Ġman ifests
Ġup side
Ġup held
Ġup heaval
ate ct
ate back
Ġlife blood
ight er
ight ing
ight enment
ho ard
ho ks
ho gs
ĠSp in
ĠSp ot
ĠSp or
ĠSp ies
ĠSp ite
ĠSp here
ĠSp read
ĠSp ears
ĠSp ires
ĠSp iders
ĠSp elun
ĠSp awning
ĠSp arrow
ĠSp oil
ĠSp riggan
ĠSp rinter
ĠSp eakeasy
ld a
ĠN a
ĠN in
ĠN an
ĠN og
ĠN our
ĠN ag
ĠN ick
ĠN eth
ĠN ope
ĠN umb
ĠN inth
ĠN ested
ĠN ael
ĠN evil
ĠN uka
ĠN urse
ĠN oggles
ĠN aughty
ĠN ardole
ĠN asrin
ile Ã±
iz t
iz an
iz ec
Ġany time
od en
od us
od ane
od emon
qu ad
qu ire
qu ist
qu ences
to ck
to ker
to hy
to pl
to gether
ill as
ill iance
Ġv en
Ġv ia
Ġv ase
Ġv oc
Ġv int
Ġv enge
Ġv iper
Ġv owed
Ġv arious
Ġv ortex
Ġv armint
Ġv ipers
old er
us ri
us folk
us ions
Ġare na
ue za
ig ent
ig ning
ig ible
ig arch
gin s
est ine
est rated
ĠWar g
ĠWar p
ĠWar s
ĠWar kite
ĠWar mind
ĠWar hound
ĠWar ped
ĠWar brute
ĠWar beard
ĠWar chanter
ĠWar horse
ĠWar thog
ie m
Ġdo ves
Ġdo oms
Ġdo cum
Ġdo cile
iv ity
iv ious
iv ores
Ġsh ard
Ġsh elves
Ġsh elt
Ġsh owing
Ġsh irt
Ġsh eds
Ġsh ambl
Ġsh rine
Ġsh attering
Ġsh ackled
Ġsh immers
Ġsh ackles
Ġsh rink
Ġsh rugged
ace a
ace an
Ġby stander
ire ction
em ic
em ate
em bl
em pts
em ne
em bow
em bered
ul ates
ul ating
ul iar
ĠIt iner
ĠYou ths
bl im
bl est
bl aster
other ing
other ium
Ġper ce
Ġper man
Ġper ish
Ġper former
Ġper mission
ber t
ĠSh ed
ĠSh ad
ĠSh iz
ĠSh are
ĠSh ine
ĠSh ail
ĠSh ales
ĠSh rew
ĠSh arp
ĠSh ao
ĠSh ards
ĠSh elter
ĠSh agg
ĠSh andal
ĠSh ackle
ĠSh essra
ĠSh agrat
ĠSh efet
ĠSh irriff
ĠSh andlar
all a
all in
ist ener
ist ful
ist air
ist inguish
ist adors
ĠAt om
ian ul
ian na
ath i
ath el
ath ic
ath ari
av a
av ac
av ant
av ory
av ors
av ios
av ileÃ±
isc re
ere x
ere y
ĠX un
ĠX ira
ĠX erex
un os
un ap
un ior
ker ing
ĠGo ose
ĠGo ons
Ġab use
Ġab omination
Ġab stract
Ġab horrent
Ġab road
og en
og ony
og oyf
Ġk ite
Ġk iss
Ġk rus
Ġk han
Ġk itten
Ġk itesail
Ġk odama
Ġk rotiq
Ġk athari
our ner
ĠZ y
ĠZ er
ĠZ an
ĠZ ada
ĠZ oologist
ĠZ areth
ĠZ uo
ĠZ acama
ĠZ alto
ĠZ egana
ĠZ imone
th roats
Ġwh it
Ġbl ur
Ġbl own
Ġbl amed
Ġbl izzard
Ġbl azed
Ġbl ini
Ġbl izzards
Ġall erg
Ġen ig
Ġen comp
Ġen hance
Ġse w
Ġse al
Ġse vent
Ġse vers
Ġse vere
Ġse venth
Ġse astrider
Ġse ethe
cer os
cer ous
cer ned
Ġtop side
Ġtop soil
ĠAs ha
ĠAs yl
Ġown ed
ĠIn qu
ĠIn fl
ĠIn got
ĠIn ga
ĠIn exorable
ĠEl usive
ĠEl adamri
ĠEl sdragon
ind le
ĠTh aw
ĠTh ron
ĠTh inking
ĠTh esp
ĠTh reader
ĠTh reef
ĠU ch
ĠU th
ĠU gly
ĠU user
ĠU dÃ»
Ġcol ony
Ġcol umn
ag en
ag ast
ag ion
ag ator
ag ogue
ag anda
Ġret ire
Ġret race
ite ment
Ġtim eline
ĠDra go
ĠDra fna
Ġnon eth
Ġnon white
Ġnon blue
Ġnon sense
Ġnot orious
ĠSpirit dancer
ĠEle ct
Ġwas hing
Ġcolor ful
Ġsor ts
Ġsor rows
efend ed
Ġinst ruct
Ġinst antly
Ġinst ructor
here r
are nt
ry x
ry ing
ok i
ok u
Ġthan e
Ġsorcer ous
Ġno vel
Ġno body
Ġno bler
Ġno xious
ctiv ity
Ġequal s
Ġupkeep s
one yed
ter fly
ĠAn a
ĠAn em
ĠAn ew
ĠAn ik
ĠAn nihil
ĠAn vil
ĠAn kle
ĠAn chor
ĠAn zrag
ĠAn atomist
ĠAn owon
ĠAn alects
ĠAn omaly
ĠSc our
ĠSc ions
ĠSc ute
ĠSc rab
ĠSc ience
ĠSc alding
ĠSc issors
ĠSc urrid
ĠBe es
ĠBe witch
Ġam ber
Ġam pl
Ġam ple
Ġam using
Ġam azes
Ġcho icest
own ies
ven ile
ip h
ip ly
ip ates
ip stream
Ġle an
Ġle ap
Ġle apt
Ġle yl
Ġle aped
Ġle vies
Ġle yline
ff ic
ĠRe y
ĠRe tro
ĠRe ad
ĠRe ady
ĠRe quis
ĠRe co
ĠRe ki
ĠRe venge
Ġr am
Ġr ay
Ġr ans
Ġr ots
Ġr ouse
Ġr otten
Ġr umbled
Ġr angers
Ġr umbling
Ġr acket
Ġr oused
Ġr attling
Ġr otters
Ġr umblings
art zwood
ĠDe er
ĠDe ft
ĠDe al
ĠDe kat
ĠDe ception
ash u
ash es
ash arn
Ġal ign
Ġal ien
Ġal chemist
Ġal ters
Ġal gae
Ġal together
ak in
ak able
ĠSt raw
ĠSt art
ĠSt ation
ĠSt iff
ĠSt itch
ĠSt atic
ĠSt enn
ĠSt ench
ĠSt olen
ĠSt airs
ĠSt urdy
ĠSt ref
ĠSt atue
ĠEx tra
ĠEx ultant
ĠEx orcist
ĠEx hibition
ĠEx humer
ust a
Ġlo os
Ġlo ck
Ġlo ath
Ġlo osen
Ġlo cate
Ġlo ping
Ġlo cking
Ġlo athsome
Ġlo vely
Ġlo cked
Ġlo vable
ph age
ph ab
Ġch ow
Ġch ef
Ġch ir
Ġch art
Ġch ari
Ġch ained
Ġch ased
Ġch ests
Ġch ittering
Ġch ores
Ġch ump
Ġch aff
Ġch ases
Ġch illing
Ġch arts
Ġch amber
Ġch arted
ĠDragon fire
ĠDragon heart
ĠDragon speaker
ĠAr ise
ĠAr rows
ĠAr ni
ĠAr bal
sh ed
sh ifter
sh ots
sh ank
sh kar
sh ackle
sh aped
Ġhe w
Ġhe ated
Ġhe ckled
se a
se ven
se crator
op ers
op ath
op hod
ang les
ang ely
ang utan
ink able
ink led
Ġrem ake
Ġrem inding
ĠCh a
ĠCh est
ĠCh ub
ĠCh arl
ĠCh illing
ĠCh aotic
ĠCh amber
ĠCh anter
ĠCh arnel
ĠJ er
ĠJ ou
ĠJ on
ĠJ al
ĠJ ue
ĠJ em
ĠJ aw
ĠJ war
ĠJ oc
ĠJ ars
ĠJ ans
ĠJ ared
ĠJ ones
ĠJ eer
ĠJ arl
ĠJ errard
ĠJ iro
ĠJ aded
ĠJ adel
ĠJ agged
ĠJ areth
ĠJ wari
ĠJ iang
ĠJ Ã¶
ĠJ addi
ĠJ aguar
ish ly
Ġwill ow
Ġwill power
oth es
oth ill
oth rall
aman oa
ition ers
ĠBeast caller
ĠBeast breaker
uff s
uff y
uff er
uff oon
ĠSl iv
ĠSl urrk
ĠSl izt
ĠSl ipstream
ew ed
ew all
ew inder
Ġwe aver
Ġwe arer
ept s
Ġval ky
ĠFl am
ĠFl aw
ĠFl icker
ĠFl ens
ĠFl avor
ĠFl ayed
ĠFl amer
ĠFl utters
land er
Ġexc ited
Ġexc itement
ĠCon v
ĠCon trol
ĠCon und
ĠCon fl
ĠCon tain
ĠCon tam
ĠCon dem
ĠCon front
ĠCon ifer
Ġfl ail
Ġfl air
Ġfl ared
Ġfl ush
Ġfl ank
Ġfl inch
Ġfl amma
Ġfl imsy
Ġfl uttering
Ġway ward
yp ony
ĠThis tled
Ġblack ness
Ġblack ened
ick ers
Ġun aut
Ġun gu
Ġun wise
Ġun rel
Ġun ple
Ġun hind
Ġun aff
Ġun kind
Ġun ease
Ġun hallowed
Ġun armed
Ġun claimed
Ġun easy
Ġhis ses
ĠSk ate
ĠSk ill
ĠSk illed
ĠSk itt
ĠSk izz
ĠSk ola
ĠSk orpe
ass es
ass id
ass adors
Ġunl ock
Ġunl ife
Ġunl ucky
Ġher b
Ġher ders
Ġher mits
Ġwhite cover
aw y
aw alli
aw akened
Ġsc an
Ġsc ru
Ġsc ient
Ġsc ute
Ġsc atter
Ġsc aring
Ġsc off
Ġsc ythe
Ġsc reamed
Ġsc ouring
Ġsc ript
Ġsc epter
ead er
Ġj ade
Ġj eal
Ġj uggernaut
Ġj unior
Ġwor m
Ġwor ries
Ġwor ms
Ġtyp ically
ĠAdd er
Ġro le
Ġro ost
Ġro ars
Ġro ving
Ġro gu
Ġro aring
Ġro aming
Ġro amed
Ġro oted
Ġro bot
Ġro pes
Ġro ds
ĠRet ribution
ĠRet ainers
iver ance
Ġpre jud
Ġpre vious
Ġpre late
Ġpre cedes
Ġdown fall
Ġdown right
Ġdown wind
ec law
ec utor
Ġgreen seeker
ĠHor rific
ĠAngel fire
ĠWe e
ĠWe avers
ĠEn gul
ĠEn atu
ĠEn nor
unt ers
ia h
Ġso b
Ġso le
Ġso ared
Ġso aring
Ġso othsayer
Ġso cial
ran ged
ran io
Ġred cap
Ġred eem
Ġred eemed
Ġred emption
Ġar ise
Ġar gu
Ġar range
Ġar rest
Ġar rested
ĠTre buc
ĠTre izec
Ġdeath less
Ġplan ar
Ġplan et
Ġplan ning
Ġplan ets
Ġplan ned
ond o
ond iss
ott vold
touch ed
ort ing
ĠCat ching
ĠCat ti
ĠCat alyst
ĠCat oble
ab ol
ab out
ab az
ab bed
ĠDraw bridge
sp an
sp ike
sp inner
ĠAl i
ĠAl one
ĠAl so
ĠAl icorn
ĠAl tered
ĠAl ela
ĠAl esha
ĠAl istair
Ġwere wolf
ator ies
ĠOr b
ĠOr gan
ĠOr fe
ĠOr angutan
Ġthere by
ĠPl ate
ĠPl ax
ĠPl enty
ĠPl ume
red eemed
Ġplaneswal k
Ġag ile
Ġag itated
ĠNo yan
orest alker
It s
Ġcomm erce
az al
az ol
az eth
az bÃ¡
ura bles
ĠFirst born
esh ell
esh ark
esh ift
esh aker
yc ling
yc aptain
ĠDeath c
ĠDeath cap
ĠDeath keeper
ĠDeath kn
ĠDeath mark
ĠDeath bellow
Ġsk ycaptain
Ġus urpers
Ġpro ves
Ġpro ced
Ġpro vok
Ġpro claim
Ġpro jects
Ġpro ceed
Ġpro found
Ġpro voked
Ġpro ximity
Ġpro cure
Ġri g
Ġri pe
Ġri dge
Ġri pping
Ġri bb
Ġri gged
Ġri gs
Ġri gid
Ġri vals
Ġri bbon
Ġrest s
Ġrest ing
Ġrest ored
vo ir
Ġwar lock
Ġwar ms
Ġwar ships
Ġwar hammer
mp ath
ĠAd el
ĠAd ric
ĠAd rian
ĠAd mire
ĠAd riana
ĠAd anto
ĠAd vance
Ġexp ense
Ġexp ects
Ġexp osed
Ġexp edient
Ġexp anse
ren ous
ren ched
Ġcl ad
Ġcl ues
Ġcl icks
ĠDem olisher
ron ing
ĠIns ide
ĠFa ult
ĠFa bles
Ġmill ions
ĠWh ites
ĠWh irler
ĠFor ged
ĠFor ked
lem aster
ĠArch dem
ĠArch priest
ĠArch elos
Ġru d
Ġru g
Ġru s
Ġru stic
Ġru by
ĠOn yx
ĠOn ulet
ĠHer ring
Ġsec uring
Ġsur rend
Ġpo pped
Ġpo intless
Ġlast ed
ĠMon th
ĠMon ks
ĠMon arch
ĠUn b
ĠUn h
ĠUn it
ĠUn ity
ĠUn sh
ĠUn be
ĠUn ifier
ĠUn blinking
ĠUn successful
ĠUn gol
ĠUn install
ĠUn chained
ĠUn ctus
ĠUn redeemed
Ġind ul
Ġind icate
Ġind rik
Ġind oor
Ġind omitable
Ġind ustry
Ġind ispens
Ġind istinguish
Ġlike wise
ĠRo o
ĠRo ots
ĠRo oftop
apt ic
Ġsw ing
Ġsw orn
Ġsw ings
Ġsw ims
Ġsw itched
ĠScout ing
vel t
cl ed
cl usion
cl aws
cl ank
Ġtra der
Ġtra vers
Ġtra ders
Ġtra ded
Ġtra ding
Ġtra ffic
Ġra id
Ġra ins
Ġra ined
Ġra ided
Ġmon th
ĠAll an
ĠAll ow
ĠAll enal
ors mith
Ġform ula
ĠY i
ĠY ur
ĠY om
ĠY ore
ĠY un
ĠY uk
ĠY idar
ĠY isan
ĠY eva
ĠY OU
ĠY asova
ĠY oked
ĠY eah
ĠY elise
ĠY usri
ĠY asharn
ĠSw orn
ĠSw immer
ĠSw irling
ĠSer f
ĠSer rated
ĠReg athan
ĠCl ass
ĠCl attering
ĠCl arion
ĠBlood bo
ĠBlood shot
ĠBlood sworn
ĠBlood hall
ĠBlood braid
ĠBlood tithe
ĠBlood sky
ĠConstruct ed
ĠConstruct ion
ved ancer
ĠBl ink
ĠBl aster
ĠBl orb
ĠBl urry
ĠBl anch
Ġqu it
Ġqu ell
Ġqu icker
Ġqu ills
Ġqu artermaster
Ġqu eens
Ġqu ieter
Ġqu alities
ĠIs mer
ĠIs amar
Ġtri p
Ġtri vial
ĠMin a
ĠMin ist
Ġcommand o
Ġcommand ing
Ġcommand ed
Ġgr ay
Ġgr ate
Ġgr ind
Ġgr inned
Ġgr isly
Ġpart isan
Ġpart ially
gg y
gg art
gg lers
ĠLe on
ĠLe ering
ĠLe aping
ĠLe ovold
Ġres ilient
Ġsl am
Ġsl ed
Ġsl ash
Ġsl ang
Ġsl ide
Ġsl aves
Ġsl ides
Ġsl iding
Ġsl ashed
Ġsl ippery
Ġel k
Ġel ect
Ġel imin
Ġel ectro
Ġel aborate
ign us
ons ist
ĠRem ains
ĠTo x
ĠTo cat
ĠTo kens
ub a
ub stant
read ers
ĠSn ail
ĠSn idd
ĠSn arl
ĠSn atcher
ĠSn arecaster
ĠPir u
Ġdra ined
Ġdra gged
ĠDo ves
ict is
ict ions
pl ar
pl ay
pl itter
Ġover lo
Ġover night
Ġover ran
Ġover fl
Ġover ride
Ġover run
Ġover world
Ġshe er
Ġday light
ug s
ug rin
ĠSe k
ĠSe v
ĠSe al
ĠSe ah
ĠSe afloor
ĠSe jiri
ĠSe acoast
so aked
walk s
ĠOgre ss
oy ed
ung u
Ġblood witch
Ġdead liest
Ġback side
Ġback bone
be am
be ing
aut s
we et
we ap
we bs
ĠNight blade
ĠNight fire
ĠNight bringer
ĠNight hawk
ief lyn
ĠLif ec
ĠLif esp
Ġad vers
Ġdev ote
per ation
ĠRat ter
Ġfe es
ob ot
oc amp
oc ols
ĠPre t
ĠPre y
ĠPre acher
ĠPre late
ĠPre ston
vis ions
Ġtot em
Ġsm og
Ġsm iles
Ġsm elly
fin ity
ik al
Ġbr utish
Ġbr ownies
Ġsome body
ĠAv iator
Ġcomp rom
Ġdes olation
Ġdes olate
ĠWolf ir
ĠDev kar
ane ous
ĠGu err
ĠGu ilt
Ġbasic s
Ġim min
Ġim itation
Ġim itate
Ġpe asants
Ġgl en
Ġgl are
Ġgl ade
Ġgl itter
Ġgl owed
Ġgl immer
Ġgl anced
ich iko
ĠShap ers
ĠSky ra
ĠSky way
ĠSky sw
ĠSky fire
ĠSky warden
ĠSky diver
ĠSky fisher
ĠSky jek
Ġbel onged
Ġtw ine
Ġtw itched
Ġac adem
ald kin
ĠImp l
ĠImp ers
ĠImp oss
ĠImp osing
ĠImp ulsive
af lora
Ġlight ing
Ġtake over
ans ing
ĠDog meat
rid or
ĠDwarf hold
itch es
ĠBerser k
ĠSun born
ĠSun mane
ĠSun chaser
ĠSun spire
ĠSun seed
ĠSun bathing
ĠSun striker
ĠSun astian
Ġnight fall
ĠMorph ling
ĠSpell blade
ĠSpell breaker
ĠSpell weaver
ĠSpell caster
ĠSpell wild
ĠSpell gorger
ĠSpell thief
ari us
Ġsu ck
Ġsu pper
Ġsu blim
ĠSoul b
ĠSoul sworn
ĠSoul gorger
ĠSoul tender
ĠPro of
ĠPro ctor
ĠPro vin
ĠPro bably
ĠPro vision
ĠPro spector
ĠSearch light
Ġmonst ros
Ġoff icer
Ġoff icers
roll ub
elet on
ze el
Ġser um
Ġser mon
Ġser aph
ĠGl ow
ĠGl urg
ĠGl istener
pet ually
ĠSqu ir
ĠSqu atters
ĠHy enas
ĠHy strodon
ĠHy lda
Ġapp les
Ġapp eal
Ġapp la
Ġapp ease
Ġapp arent
arb a
arb ridge
Ġstr ict
Ġstr ayed
Ġstr anded
Ġstr angers
Ġstr angely
Ġkn it
Ġkn ightly
Ġkn uckle
Ġtr aced
Ġtr itons
Ġdis pen
Ġdis order
Ġdis dain
Ġdis embow
dra ft
ox ed
ĠCyc lone
inn e
inn ea
ĠIll ustrious
ĠIll ithid
ĠMut t
Ġtre k
Ġtre etops
att an
att ic
ĠLand ing
Ġkind ling
Ġcar tographer
Ġcar apace
ĠWard scale
ĠDr ink
ĠDr iller
ĠDr alnu
ĠMerc y
ĠSil v
ĠSil und
ĠSil vers
ĠSil kenfist
ĠAtt ack
ĠAtt ention
ĠAtt entive
usp ex
und ant
ĠArm ada
ĠArm ament
Ġ10 0
ĠMar wyn
ĠMar alen
ĠMar hault
ĠMar ionette
Ġfire ball
Ġfire cannon
ract s
ĠCent er
ĠCent ipede
ax x
ax es
Ġmut tered
Ġmut ton
Ġmag us
Ġmag maw
ĠMan ic
ĠMan aw
ĠMan af
ĠMan agor
Ġsoul shift
res ent
res cent
Ġlit ter
ĠTra d
ĠTra sh
ĠTra pe
ĠTra de
ĠTra ders
ĠTra gedy
ĠTra gic
ĠTra xos
Ġsix teen
Ġint end
Ġint ense
Ġint rus
Ġint rig
Ġpass engers
rab and
rab ber
Ġeffect ively
amil iar
Ġass um
Ġass et
Ġass ets
arm s
arm ored
arm ogoyf
ĠCo ins
ĠCo vert
ĠCo astline
Ġdark steel
Ġev angel
Ġev ades
Ġev ils
wor ker
wor th
Ġactiv ation
ĠFire s
ĠFire blade
ĠFire maw
ĠFire storm
ĠFire fiend
ĠFire slinger
ĠGod tr
ĠQu ake
ĠQu arum
ĠQu esting
ĠQu eller
ĠQu estion
ĠQu artermaster
ĠQu artzwood
ĠLord s
ĠCom mon
ĠCom ple
ĠCom rade
ah ashi
ĠHell hole
ĠBr in
ĠBr ambles
ĠBr allin
ĠBr indle
ĠGh arial
ĠGh azbÃ¡
Ġgrow ling
Ġsky ward
Ġsky ships
Ġsom ethin
hem one
ĠShadow born
Ġdist ances
Ġdist rust
Ġdist orted
Ġdist inguished
pe ople
Ġwatch ers
ĠTr acing
ĠTr itons
up y
ones ome
Ġfew est
Ġreg ain
ĠArc ades
ĠArc avios
ĠPlant s
uck ing
ĠHar ald
ĠHar pers
ĠHar ried
ĠHar uspex
ĠDet erm
ĠDet ectives
rel ated
ĠAnd rios
ĠMir rans
ĠVi olence
ĠVi gean
ev olence
ev ictis
ĠAb omin
ĠAb ilities
ĠAb olisher
ĠGr anger
ĠGr inning
Ġsnow y
Ġsnow dri
Ġfri gid
uth s
ĠBattl et
ĠBattl emaster
ĠSent ries
Ġste pping
ĠDevil thorn
Ġguard rails
Ġright fully
ĠLizard s
ĠGn ats
ĠGn ottvold
ĠMag a
ĠMag es
ĠMag ical
ĠMag ister
ĠMag da
ĠMag gots
Ġhead ed
Ġsurv ives
ĠPer for
ĠPer cher
ĠPer dition
ĠPer fectly
ĠPer ilous
ĠPer petually
Ġprey ed
Ġbu let
Ġbu ilder
Ġfore seen
Ġfound ed
Ġfound ation
Ġfound ations
Ġhelp less
ĠAven gers
ogg y
ien ces
itor a
itor ies
ĠCit izens
ĠEmp ath
ĠEmp yre
for ced
Ġsil ks
Ġsil enced
Ġmaster y
Ġcont end
Ġcont ract
Ġcont enders
Ġcont rary
Ġart isan
add ening
Ġsword play
Ġmer ry
ĠUr b
ĠUr zan
Ġwork bench
Ġrun ners
sc ulptor
Ġsun k
Ġsun ken
Ġpr attle
Ġpr istine
Ġpr ismatic
Ġclo aked
Ġyet is
Ġinvestig ation
ĠEm brace
Ġtem perate
Ġtem pting
ĠSur ve
ĠSur ging
ĠSur tland
ĠSur gical
ĠElder leaf
not ic
orp hist
Ġem br
Ġem pt
Ġem ulating
Ġ9 9
ĠCol lege
Ġmount ing
Ġmount ed
zz ar
rop y
rop ic
ĠDom esticated
Ġnothing ness
Ġext end
Ġext ort
Ġext ends
Ġext ended
Ġext inguished
Ġdef inition
Ġdream t
Ġdream stuff
Ġhard en
ĠAk u
ĠAk iri
ĠAk awalli
Ġwhich ever
Ġheart beats
As moranomardicadaistinaculdacar
Ġsn ack
Ġsn atch
Ġsn eer
Ġsn aps
Ġsn orted
Ġsn orts
ĠGra in
ĠGra ss
ĠGra dy
ĠGra verob
Ġshould ers
Ġsince rest
Ġwild life
ĠGreat horn
ĠGreat wurm
ĠKeep ing
ĠKeep ers
ira ble
Ġcur led
Ġcur io
Ġwind ing
roc ota
Ġeat ers
ĠGre ens
ĠGre edy
ĠGre enseeker
ĠNec ro
ĠNec ra
ĠNec rol
ech ief
Ġwell s
Ġcons ort
Ġcons ult
Ġcons oled
ĠGarg antikari
Ġshield mate
Ġcru elest
Ġcru cible
resh ments
ĠWild born
Ġren ounced
ĠKra j
ĠKra um
ĠRav aging
Ġdec iding
Ġdec aying
Ġpur p
Ġpur ge
Ġpur ity
Ġpur se
Ġpur ses
Ġpur ifying
Ġpur sue
ĠLeg ions
right eous
ib ah
Ġset tled
Ġrep elled
Ġrep rieve
Ġhor rid
ĠAur lock
fl ayer
Ġmin ion
Ġmin eral
ĠAg atha
ĠAg adeem
ĠBand ar
Ġfeel ings
ek a
Ġdisc ou
Ġdisc iple
Ġinc ident
Ġinc urable
Ġinc antation
Ġinc urables
Ġinc onsist
ĠInd enture
ĠInd omin
ĠInd atha
ĠInd orapt
ĠMoon veil
ĠMoon lit
ĠLight bringer
ĠLight foot
ĠLight house
ĠLight shield
ĠGor i
ĠGor o
ĠGor ing
ĠGor ion
ĠGor gers
ĠGor gor
ĠInf esting
Ġflash ed
anc id
Ġsy mphony
Ġsy mpt
Ġsy mpath
Ġsaf est
Ġsaf eguard
ĠDisc iplined
ĠNot e
ĠNot orious
ĠAny a
app y
reath ed
Ġhide out
Ġconjure s
ĠTheir s
ĠStorm wing
ĠExp ect
ĠExp endable
sw ord
Ġwait ed
ĠSy gg
ĠSy mmet
ĠDis owned
ĠDis integ
ĠDis miss
Ġdraft ing
aunt ing
ĠInt et
ĠInt ellect
ĠInt elligence
use i
Ġchild hood
Ġbo ars
Ġbo arded
ĠTy m
Ġne at
ĠBal an
ĠBal or
ĠBal ance
ĠBal efire
ĠInc ursion
ows ing
ows ages
Ġdel ve
Ġdel ights
Ġdel ivered
Ġpat riarch
Ġpat hetic
Ġmem orable
ĠMa urer
ĠMa aka
ĠMa ikal
Ġref reshments
ĠGuild sworn
tra p
ĠCast igator
Ġrec all
Ġrec ite
Ġrec ip
Ġrec ept
Ġrec ounting
Ġrec ycling
Ġtravel ogue
Ġquick est
Ġimp ressed
ĠGargoy les
Ġwr ites
ĠWind ing
ĠWind seeker
ĠWind reader
ĠWind scout
Ġhold ing
ras ios
ĠDu pl
ĠDu plicate
ĠDu plic
ĠRen owned
ĠRen egades
ĠGold warden
Ġter m
Ġter min
Ġter rest
Ġsound ed
ĠFox es
ĠGate way
Ġsoon er
ĠRob o
ĠRob aran
ov able
Ġair ship
ĠPe acock
ĠPar cel
arp an
Ġins isted
Ġins idious
ĠLo ot
ĠLo cks
ĠLo tleth
Ġchar red
Ġchar isma
Ġchar lat
Ġunb idden
Ġunb roken
Ġunb urdened
ĠHalfling s
ric ades
Ġob tain
Ġob nox
ĠWor king
ĠWor thy
Ġwater proof
ĠAm y
ĠAm mit
ĠAm azing
ĠAm phib
Ġearth ly
Ġearth quake
Ġearth shaking
ĠGe ier
ĠGe ology
ĠGe ode
ĠGe ological
ĠGe omet
ĠGe cko
ĠGru nts
ĠGru nn
ĠKar ras
ĠKar umon
ĠKing fisher
ĠZh ong
ĠZh ao
ĠZh uge
ĠZh entarim
ĠDel ighted
ĠDel iverance
ĠMet atect
ĠBar u
ĠBar rity
ĠBar zeel
ĠOur s
Ar m
Ġz ing
Ġtrans fer
Ġtrans late
Ġben ign
Ġben evolence
ĠCor on
ĠCor ps
Ġinsp ector
ĠMind less
ĠMind ful
ĠMind bender
rib ly
Ġcoin c
ĠDeep fathom
ĠComm odore
ĠCar ry
Ġdun es
Ġdun geons
Ġho vel
Ġrel ief
Ġrel ative
Ġrel ishes
Ġrel axing
Ġrel inqu
Ġspend ing
ket ch
Ġdri vers
Ġdri fted
Ġdri fting
Ġfree ze
Ġmo at
Ġmo le
Ġmo ckeries
ĠAether mage
ĠTime bender
ĠDawn ray
Ġcollect ions
rows ing
aj j
hic le
Ġcou ple
Ġcou rier
Ġact ing
amm i
amm ing
ĠWatch ers
Ġmod ification
ĠAz usa
ĠTrans l
ĠTrans figure
ĠIm aryll
ĠIm odane
ĠDusk rider
ask ia
quis her
Ġshroud s
Ġshroud ed
ĠLevel er
Ġwhis k
Ġwhis tle
Ġwhis kergill
Ġmark ing
Ġmark ers
ĠSor row
ĠSor aya
ĠSor rows
ĠSor ceress
ĠSor cerous
ĠTem plar
Ġemer gence
Ġvol unteer
Ġvol unteers
ĠMonst ers
ĠMonst rosaur
ĠBattle ment
ĠBattle ments
ĠBattle hammer
hold en
Ġcr itic
Ġcr umble
Ġcr isis
Ġbra ss
Ġbra ved
Ġbra vely
Ġbreath s
Ġmult iverse
Ġmult iplied
Ġmult iply
ĠTer rible
ĠTer mag
Ġund eniable
Ġund efended
Ġinv olves
Ġinv itations
ĠMo a
ĠMo at
ĠMo ors
ĠMo aning
ĠMo ckery
ĠMo onglove
ĠMist folk
ĠMist fire
ĠBas al
ĠBas her
ĠBas king
ĠBas rel
ĠOb ser
ĠOb struct
ĠOb uun
ĠOb yra
ĠOb stinate
Ġcloud ed
An grath
Ġtoward s
Ġcor rect
Ġcor rosive
Ġborn e
Ġsent ence
Ġsent ient
ĠSm og
ĠSm ok
ĠSm art
ĠSm iling
ĠSm oldering
ĠSm othering
ĠSav ed
ĠSav vy
ĠSav annah
ĠSav aen
ĠTitan ic
ĠFamil y
asm ic
head ed
ĠPrim us
ĠPrim ord
ĠPrim oc
ĠPrim aris
Ġask ari
ĠUnd eath
ĠUnd efe
ĠUnd ersea
ki pper
Ġaw ed
Ġaw ash
Ġaw kward
arl id
ĠDread knight
ĠInfect ed
ĠInfect ious
ĠFlame born
ĠFlame blade
ĠFlame tongue
Ġprec urs
Ġprec isely
Ġprec epts
Ġpred ation
Ġge m
Ġge ography
ĠCaval iers
ĠOx en
ĠThrull s
Ġfle es
Ġfle as
Ġwis er
ĠArt ee
ĠArt iller
ĠArt isans
ĠTor alf
ĠTor rent
ĠTor ga
ĠTor ahn
ĠTor bran
ĠFore ver
ĠFore most
ĠFore sight
ĠFore runners
ĠFore nsic
ĠEnt ire
ĠEnt hrall
ĠEnt ropic
Ġdep loyed
ĠVol unteer
ĠPlot ter
Ġsurviv alist
wing ed
ĠCur ie
ĠCur iosity
Ġfell a
ĠSu it
ĠHigh ly
ĠHigh spire
ĠRiver wheel
Ġshow ed
ĠDead bridge
Ġcommon ers
Ġsupp le
Ġsupp osed
Ġsqu id
Ġsqu all
Ġsqu ab
Ġsqu eak
Ġsqu ads
Ġmar o
Ġmar iner
ĠKam sa
ĠKam achal
ĠSpy master
Ġshap ing
Ġprodu ction
ĠCloud ed
ĠCloud heath
ĠWhere as
ific ance
ific ence
Ġgener ous
ĠMor ning
ĠMor ale
ĠMor gul
ĠMor gue
ĠMor oii
ĠMult i
ĠMult iple
ĠThunder ous
ĠArg ent
the a
ĠCou gar
Ġpers u
Ġpers ists
Ġline ages
ĠRa ul
ĠRa iser
ĠRa ugrin
ĠBush wh
ĠOutl and
ĠStone work
ĠStone brow
ĠComp anions
rin i
ĠCy lian
ĠCy topl
Ġdr owns
Ġdr ums
rov a
ĠSal vation
ĠTw ig
Ġones elf
leg om
ĠRu adach
Ġreal izing
ĠShield s
ĠDesert walk
ĠDomin arian
ĠDomin ating
ĠDomin arians
figure d
itt ars
Ġbur dens
Ġfun k
ĠWill iam
ĠWood wraith
Ġharm onious
Ġconn ects
ĠPy rom
Ġhero ism
Ġmeaning less
ĠTiefling s
Ch any
Ch amber
Ch anter
Ch arged
Ch ammi
iqu ary
Ġsol o
Ġsol ved
Ġwood en
Ġwood ed
Ġposs ibly
ĠSom n
ĠSec uritron
rad esh
Ġconst rict
ĠFer ox
ĠFer ny
ĠPower stones
ĠNat ives
ĠNat urally
Ġenc ased
Ġenc umbr
Ġve hicle
Ġcut s
Ġcut ting
Ġcut throat
Ġcut throats
Ġmain t
Ġmist rust
ĠAst ronomer
umm oxed
ĠEye blight
ĠRad iance
ĠRad agast
ĠMal ach
ĠMal cator
ĠMal ignus
ĠProt ocols
unn ed
ĠUl a
ĠChar ix
ĠChar mer
ĠChar ismatic
ĠBlack blade
Ġteach er
Ġguild ed
Ġguild mage
Ġguild gate
ĠSilver wing
ĠSilver glade
Ġsleep y
Ġsleep less
ĠSand s
ĠSand stone
ĠSand stalker
ĠHand s
ĠIron ically
ĠIron root
ĠIron hoof
Ġstay s
ĠZendik ari
Ġsurf aced
ĠLeech ing
ĠTru dge
ĠTru efire
ĠDef ense
ĠRamp ant
Ġrequ est
ĠVer y
ĠVer azol
ĠScry b
ĠStr anger
ĠStr onger
ĠRoot ing
ĠRoot weaver
Ġadv ice
Ġadv ise
uv ia
Ġir rit
Ġcross bow
Ġthreat ens
Ġsign al
Ġsign aled
Ġsign aling
Ġwelcom es
Ġhost s
ĠAer om
ĠAer osaur
ĠAer athi
ĠTal ara
ĠHo of
ĠHo oligan
ĠHear tless
ĠPo e
ĠPo ol
ĠPo ets
ĠPo acher
ĠPo ppet
ĠBog brew
Ġvi ashino
uls ion
uls ions
Ġadapt ing
Ġadapt ation
ĠGeist catcher
Ġremember ing
Ġterr itories
Ġche eks
Ġche ws
Ġbad ge
Ġbad ger
ĠCry pto
ĠSel Ã»
ĠAmb ition
ĠPack leader
run o
Ġteam work
Ġfoot prints
Ġcontin u
wh ip
rest raint
Ġmach inist
ĠEnd ry
ĠEnd rek
ĠEnd urance
ĠPur ple
ĠPur ifier
ĠKal amax
ĠKal emne
izz ling
izz erdrix
Ġtrust ing
ĠFleet foot
ĠSaddle brute
Ġaff inity
Ġthunder head
ĠCap ybara
Ġhop eless
ĠMem bers
ĠBel ie
ĠBel be
ĠBel ief
ĠBra ggart
ĠBald uvia
Ġdem ise
ĠOl igarch
ĠAdept us
ĠGreen weaver
ĠGreen belt
ĠGreen warden
Ġsuff used
ĠWere bear
Ġprom ises
Ġlar vae
ĠFiend ish
Ġemb odies
ĠEmer gent
ĠRaz ors
ĠMe asure
ĠPers u
ĠThorn s
ĠThorn wind
ĠThorn mantle
Ġpres ents
Ġarch itects
Ġforetell s
ĠSurviv alist
ĠColoss odon
Ġtransform ative
ĠAugment er
Ġou phes
Ġbright er
Ġfer ried
Ġfavor ites
Ġang riest
ĠSet on
ĠSet tle
ĠAnt iquity
ĠAnt imagic
ĠHel vault
ĠFar id
ĠRel iquary
ĠBu ddy
Ġstar ved
Ġstar tling
Ġstar vation
ĠSpr ites
ĠSteel shaper
ĠSteel clad
Ġprep aring
Ġswamp y
ĠNecron s
Ġtown ship
Ġcertain ty
ĠWorm wood
Ġhom ewor
Ġinf using
Ġinf amy
ĠRep ose
ĠPr istine
ĠPath breaker
ĠPath cutter
ĠBurn ished
ĠGar field
Ġsharp ens
Ġweak est
Ġsteal ing
Ġill umin
Ġill icit
Ġill usions
Ġpar as
Ġpar rying
Ġpure ly
Ġemp ires
Ġemp loyed
ĠSpl atter
ĠSpl endor
Ġdoor step
ĠScar red
ĠScar blade
ĠScar zam
Ġswift ness
Ġswift est
Ġresol ute
Ġfool hardy
Ġadvance ment
Th rash
tain ing
Ġcult s
Ġcult ure
Ġcult ist
Ġcapt or
Ġcapt ains
Ġcapt ives
Ġsail s
Ġsail ing
Ġpet al
Ġmess enger
Ġmess engers
Ġeternal ize
Ġlie ge
ĠAsh ur
ĠAsh ling
ĠAsh coat
ĠRev ue
Ġunf illed
Ġunf olded
Ġunf amiliar
ĠPlague bearer
ĠPlague crafter
Ġskin ning
Ġextra planar
ĠImm olation
ney s
ney mage
Ġign ores
Ġcraft smanship
Ġaven ger
Ġocc asions
Ġocc upy
Ġban ks
Ġban ana
Ġbran ching
ĠCall a
ĠCelebr ity
ĠCelebr ants
ĠTree beard
utt ered
ĠEnl ightenment
ĠBell t
ĠBell ows
Ġfort ifications
ĠOld er
Ġvan ity
Ġabs orbs
ĠAnim ar
ĠAnim us
ĠAnim ator
overe igns
bo ar
ym ph
ĠCal c
ĠCal ix
Ġsand storm
Ġsand wurms
Ġdest inies
Ġdest ructiv
Ġmis chievous
ĠTher mal
Ġgen etic
ĠDri ft
ĠDri pping
ĠDri fters
ĠDrom edary
ĠBet ween
ĠBet je
Ġreb irth
ĠGrim oire
ĠNon token
ĠShip s
Ġprefer ably
Ġcommit ment
ĠBlight wing
Ġdeser ter
Ġdeser ts
Ġmountains ide
Ġvisit ation
ĠBrood lord
ĠBrood mother
ĠHeart sto
ĠHeart stab
agh atar
Ġtal on
aro o
aro cti
Ġdust y
Ġdust ed
Ġmatch es
Ġmatch ed
ays a
Ġconf isc
Ġconf ine
Ġconf idence
Ġconf ident
Ġconf essions
Ġnum eral
Ġrepl enish
acks aw
Ġspark ling
ĠSpark s
Ġvenom ous
ulf ur
ĠRec ruits
Ġgrand est
Ġimagin ary
Ġimagin ations
Ġwonder ing
Ġwonder ful
ĠPersist ent
Ġcap ricious
Ġavoid ing
ĠCr oft
Ġsho es
Ġsho ck
Ġsho ps
Ġfur ious
Ġwield ed
Ġwand erer
Ġwand erers
ĠWater deep
Ġmass acre
Ġhum s
Ġhum ility
ĠFe iy
ĠFe asting
ĠFang orn
ĠEt chings
ĠRam ses
ĠRam unap
ĠLong bow
ĠLong tusk
ĠLong legs
ĠPit lord
Ġdeterm ination
ĠExt ractor
ĠSkull s
ĠSkull briar
Ġgrant ing
ĠImper iosaur
Ġappear ing
Ġappear ances
ĠDuel ing
break ing
fort able
gl ow
Ġbound less
Ġbreed er
ote ur
ĠSig rid
ĠTro kin
ĠTro kair
ĠHollow s
ĠHipp ocamp
Ġinter rupted
Ġinter planar
ĠBur ied
ĠBur akos
Ġspl int
Ġspl attered
Ġspl itting
Ġspl ashes
ĠKy ler
ĠKy lem
ĠKy oki
ĠVan ished
ĠVan isher
ĠVan quisher
ĠThought bound
ĠRevel s
ĠRevel ation
ĠStalwart s
Ġheat hen
Ġunsp oken
Ġrad iant
Ġimm obil
Ġquestion ing
ĠForetell ing
go at
oint ment
Ġaether born
ĠChe ap
ĠChe vill
ĠCho ices
Ġdou bled
Ġfigure s
Ġwander ings
Ġmor al
ĠSar inth
ĠSar adoc
Ġhur led
Ġhur ting
Ġhur tling
Ġhur das
ĠTin kering
ĠHorn b
ĠHorn s
ĠHorn crest
ĠHaunt er
ĠHaunt ing
ĠIx idor
Ġinvent ive
ĠEid ren
ĠEgg s
ĠEarth quake
ĠRot priest
ĠGen asi
Ġash ore
Ġsto ic
Ġsto pping
Ġstri ves
Ġvers ions
ĠSkyc laves
Ġtrain ers
ĠProp hecy
ĠProp hets
ĠProp agator
ĠMirror mere
Ph age
Sc out
Sc ale
Sc ourge
ux iliary
Ġtest ed
Ġbal oths
Ġbirth ed
Ġbirth day
Ġdwell s
Ġdwell ed
Ġfil ings
Ġfact ory
Ġpri vate
Ġpri zes
Ġpract ically
Ġpract iced
ĠTel im
ĠTel chor
ĠTri arch
rax is
ĠHob bling
ĠHob net
ĠDen ry
ĠDist inguished
ĠFan atical
ĠPet al
ĠPet ra
Ġreward s
Ġreward ing
Ġforget ful
Ġspect ral
Ġstom p
Ġstom ping
ĠAncest ral
ĠAssem bled
Ġaccept s
ĠProdig al
Ġdiscover ing
Al chemist
Sh ield
Sh adow
Sh aper
sl ick
Ġtor toise
Ġtask master
Ġaut onomous
Ġbar rel
Ġbar rier
Ġbar ricade
Ġbar ricades
ĠCle ansing
Ġdwar ven
Ġfang ren
Ġfront ier
ĠWing steed
Ġpun ishing
Ġmad der
aly zed
ĠSleep less
ĠSiege breaker
Ġlack ed
ĠHunger ing
ĠIce hide
Ġinh osp
ĠSte elf
ĠSte aler
ĠSte ppe
Ġappreci ated
Ġappreci ates
Ġartist ic
ĠPilgrim s
ĠTransm og
ĠTransm utation
ĠJunk yard
ĠRazor fin
ĠRazor back
ĠRazor field
ige ons
Ġtend ency
Ġtend rils
Ġcat ac
Ġbell ies
ĠClo sed
Ġdim ensions
Ġdig est
ĠSub tle
Ġgn ome
Ġgn ats
Ġgn arr
Ġgn ashed
ĠHound master
ĠHead hunter
ĠHead liner
ĠDep th
ĠDep arted
ĠDale ks
ĠEr ne
ĠEr kenbrand
ĠLor ian
ĠLor thos
Ġdemon ic
ĠOt epec
Ġseed lings
Ġmyth ic
azer ider
Ġclaw ing
Ġclaw ed
Ġadm ission
Ġadm irable
ĠInter cessor
ĠInter planar
ĠInter lopers
ĠInter loper
Ġreflect s
Ġimport antly
ĠEngine ers
Ġramp art
reg ard
Ġaf ar
ĠCreep y
ĠCreep ing
ĠCelest ine
Ġfal tering
Ġmen agerie
ĠSol oist
ĠSol aflora
Ġhon our
Ġhon ors
Ġhell ions
ĠTry gon
Ġgard ener
Ġconqu ered
Ġconqu istadors
ĠIg no
Ġinfl ict
Ġinfl icted
ĠBru se
Ġread ily
ĠGal axy
ĠGal loping
Ġstra gglers
ĠKn oll
ĠKn ock
ĠKn uckle
ĠKn acksaw
ĠKen ku
ĠKen rith
ĠOff ender
ĠOff icial
ĠVir us
ĠThousand th
ĠUp ris
ĠUp start
Ġamb ition
ĠJo ining
Ġuns he
Ġuns avory
Ġroot walla
Ġpret ense
ĠWhip tongue
ĠForge born
ĠForge master
ĠRoc ket
ĠRoc co
ĠBlad ed
ĠBlad eg
Ġassault ed
Ġfright ful
ĠAcc ounting
ĠAcc ustomed
Ġcruel er
Ġcrack ling
Ġelemental ist
ĠRiot ers
Gh itu
Mir acles
bb ing
bb ec
gra de
Ġing ress
Ġcamp ed
Ġcamp us
Ġaim ing
Ġbog le
Ġdom est
Ġfair grounds
Ġwo e
Ġwo ol
Ġlaugh s
Ġhair y
ĠMogg lings
ĠPest ilence
ĠGore x
ĠGore horn
ĠGore claw
log ist
Ġspring jack
ĠNull mage
ĠNull stone
Ġblind ed
ĠChrom ium
Ġmeet ing
Ġprop het
Ġprop hec
Ġruin ous
Ġsurve illed
Ġsurve yed
Ġsurve yor
Ġrain bows
Ġadventure r
ĠTruth s
ĠWayf aring
Ġpossess ing
Ġpossess ions
ĠExtort ionist
Sk ull
Sk immer
Ur borg
ugg ing
Ġtear ing
erm ite
Ġble ached
Ġbarg ain
ĠCog n
Ġdare s
ĠWest gate
Ġpost s
Ġmot ive
Ġmot ives
ĠSure ly
Ġhot ter
ĠTom ik
ĠDig ger
ĠDig site
ĠFree blade
ĠFree wind
ĠFree jam
ĠMother lode
ĠMort ipede
ĠMara xus
ĠBig gest
ĠGy el
ĠGy ik
ĠGy rus
Ġspr ings
Ġspr ites
Ġspr outing
Ġstack ed
Ġlimit ations
ĠVill agers
Ġshift s
Ġshift y
ĠInv aders
ĠDec orated
ĠDec imator
ĠYaw ning
ĠSwift blade
Ġdesert ed
Ġrefuge es
Ġjourney s
Ġjourney ed
ĠSupp lies
ĠSupp ressor
ĠRepl icator
Ġsuccess fully
Bar is
Bar row
blood s
Ġkey s
Ġthri ved
Ġthri ving
inc arn
ĠCob bled
Ġwolf ir
ĠWr acked
Ġphys ics
Ġmal ign
Ġmal leable
ĠTomb shell
ĠHex mage
ĠHur ry
ĠHur da
ĠIcat ia
Ġnest ing
Ġnomad s
Ġnomad ic
ĠPsych opath
Ġrevel ed
Ġrevel ation
ĠGloom hunter
Ġdet ect
Ġcool ness
Ġcool ed
ĠScor cher
ĠScor ching
ĠStor vald
ĠStri pped
ĠStri king
ĠStri ped
ĠStud y
ĠCont ractor
ĠCont agious
Ġscaven ged
abor ator
Ġexpect ing
ĠClown s
Ġsmart s
Ġinterest ing
scri pt
Ġconsum ption
Ġbrain less
ĠAeronaut s
Ġstrugg led
ĠProphet ic
how ler
Ġow es
Ġbas in
Ġbas ket
ĠCreat or
Ġdro ps
Ġdro ols
Ġann ual
Ġprim al
Ġprim itive
Ġpatter ned
ĠSho o
ĠSho al
ĠSummon ed
Ġlay ing
ĠAir ship
ĠTide binder
ĠTide hollow
ĠHold er
ĠDid n
ĠDiv a
ĠDiv ine
ĠFin ality
ĠFin isher
Ġet ch
Ġet hereal
ĠMak eshift
ĠMarch es
ĠMech anist
ĠBreath stealer
ĠGet ting
Ġspider webs
ĠKa ho
ĠKa alia
ĠKeen ing
ĠOath keeper
ĠSpring jack
Ġthank ful
Ġrout ine
ashion ed
Ġchampion ed
ĠJam ie
ĠRetri eval
Ġarc s
Ġexpl ained
Ġclim ates
ĠLeaf kin
Ġimpro ved
Ġimpro vised
Ġappet izer
Ġstrateg ies
Ġstrateg ist
ĠSynth esis
Ġrecruit er
Ġburst s
ĠVerd uran
ĠGrizz legom
Ġbusiness es
Ad in
Ad aran
Ad riana
Az naph
Gl Ã³in
clo aker
ias ma
Ġid le
Ġce ased
Ġce aseless
Ġcit adel
Ġcal amity
Ġcal ibr
arant h
Ġbox es
Ġdirt walkers
Ġfre erunning
Ġflood ing
Ġport ent
Ġport ents
Ġport cullis
Ġmed ium
Ġmed itation
ĠSaw blade
Ġlur king
ĠAx elrod
ĠAx urik
Ġgru esome
ĠHenge hammer
ĠDun barrow
ĠDun geoneer
ĠFre estrider
ĠFil th
Ġear ning
Ġorig in
ĠEd itor
ĠEd gar
ĠMad ame
ĠMad ara
ĠMuse um
ĠMamm oths
ĠPol gar
ĠBan ner
ĠBan eslayer
ĠBound ary
ĠBrush strider
ĠBrig adier
ĠGw endlyn
ĠGut sy
ĠGith zerai
Ġdear ly
ĠKaz arov
ĠKels ien
ĠOd um
ĠOd unos
ĠVis itors
Ġvow el
ĠShar key
Ġenlight ened
ĠUs ing
ĠUs her
Ġcoll ateral
Ġcoll apsed
Ġloc als
Ġunw itting
Ġunw avering
Ġpress ure
Ġpreser ved
Ġpreser vation
ĠAlt hemone
ĠAdam aro
ĠSword tooth
Ġslumber ing
ĠDoes n
ĠGlade walker
ĠGlade hart
Ġknock ing
Ġtrem bles
ĠMagn ificent
ĠMagn igoth
ĠHomar ids
ĠOutcast s
ĠSkirm ishers
Ġkeen ly
Ġkeen est
ĠRidge wolf
ĠSteam core
Ġinflu ences
ĠCustod es
Bru enna
ean or
fic ient
rant ic
uc rocota
Ġess ent
Ġess ences
Ġest ates
Ġcraw l
Ġcraw ling
Ġcraw led
Ġcraw ls
Ġcrim inals
Ġcoward s
Ġcoward ly
Ġcoward ice
Ġcirc uit
Ġcirc umstances
Ġsanct ity
Ġdiss enters
Ġtoll s
Ġpal aces
Ġpol es
Ġpol ice
Ġmast s
ĠSaur ian
ĠTet hered
ĠTet rav
ĠTet zim
ĠHammer heim
ĠDro pper
ĠDro oling
ĠDred ger
ĠFollow ing
ĠMass es
ĠLum ra
ĠPri ze
ĠPoss um
ĠBrim s
ĠBright flame
ĠBright spear
ĠBright hearth
ĠGro odion
ĠGro vedancer
ĠGener als
ĠGener ations
Ġplains walk
ĠKr ond
Ġgrasp ing
Ġcook s
ĠSpore back
Ġshar per
Ġperform ed
ĠShore crasher
ĠScut tl
Ġchant ing
Ġmyster iously
Ġherald s
Ġscra pe
Ġjump ing
Ġjump ed
ĠCater pillar
Ġdisp os
Ġdisp atch
Ġdisp osing
ĠRedeem ed
ĠAfflict ion
Ġconstruct ion
ĠShipwreck er
ĠStormc aller
ĠStormc loud
ĠImagin ative
Bra enna
Gor o
Zh osmir
och thon
Ġcro ak
Ġcro aked
Ġbed time
ĠCa esar
ĠCross ing
ĠCross way
Ġsin ister
Ġsell ing
Ġfift y
Ġmant is
Ġmuff led
ĠSou thern
ĠSou lless
ĠSin ew
ĠSum mer
ĠSangu inary
Ġhills ides
ĠAy ara
ĠAren son
ĠTan aka
ĠTan uki
ĠHard y
ĠHard ened
ĠHard bris
ĠHard hearted
ĠFathom less
Ġbee ble
Ġbee tle
Ġbee tles
ĠEs quire
ĠErr atic
ĠRest orer
ĠPup il
ĠBow en
ĠBronze beak
Ġattract ing
Ġattract ed
ĠKrov od
ĠOk ay
ĠOp ulent
ĠVh ati
ĠSpear master
ĠCharm ing
ĠConver t
ĠConver ter
Ġgreed y
Ġscr utiny
abo ons
Ġaggress ion
Ġripp les
Ġrush es
Ġrush ing
Ġrush ed
Ġrapt ure
Ġdevast ated
Ġtwist ing
Ġmagn ificent
Ġmagn ificence
ĠTravel er
Ġdistract s
Ġdistract ions
Ġrecogn ition
Ġinsult s
ĠTrue heart
Ġlabor atory
Ġlabor atories
ĠIgn ore
Ġambush es
Ġambush ing
Ġgargantu an
hor ized
Ġident ities
Ġtur tles
Ġcath edral
Ġcaut ion
Ġcelebr ation
Ġcelebr ated
Ġthr ong
Ġobl ige
Ġobl ivion
Ġobl ivious
ĠCann ibal
ĠâĢĶ~ ,
Ġslo sh
Ġdar ling
Ġfest ers
Ġposition s
ĠSz eras
ĠSz adek
ĠSyn od
ĠSyn chron
ĠTuk nir
Ġgri p
ĠHat red
ĠHat ificer
ĠHum il
ĠHum orless
ĠHive master
Ġconce al
ĠDak ra
ĠFest ival
ĠMul ch
ĠMaw cor
ĠLon ghorn
ĠLot ho
ĠLamp ad
ĠLamp light
ĠPant heon
ĠPale ont
ĠBor ca
ĠBor omir
Ġdeb ts
Ġstronghold s
ĠKath ril
ĠOpp osition
Ġcob ra
Ġcob bler
ĠVr ondiss
ĠNi hil
ĠNem ata
ĠInvestig ate
ĠAng us
Ġheir s
Ġvalley s
ĠFlames peaker
Ġunicorn s
Ġscar red
Ġscar cely
Ġpoor ly
ĠServ ants
ĠCliff side
ĠSneak ing
Ġadop ted
ĠGods ire
ĠBrown ie
Ġskyknight s
ĠGnarl root
Ġhoof prints
Ġexperiment al
ĠMoons ilver
Ġsquad rons
Ġunpredict ability
Ġveter ans
ĠTimber land
goblin s
Ġbrief ly
Ġingen ious
Ġsurround ing
Ġclimb ing
Ġrebuild ing
Ġsharpen ed
Ġdevelop ing
ĠScoundrel s
Con fu
On atah
bug s
cut ive
hel ion
vil le
rek avac
Ġbi ological
ĠCould n
ĠCrag s
ĠCrag flame
Ġstro ve
Ġstro ke
Ġsens ation
Ġsens eless
Ġfel ine
Ġfel idars
Ġfirm ly
Ġwreck ed
Ġwitness es
Ġwitness ed
ĠWings mith
Ġpoll in
Ġmour ning
Ġmour ns
Ġmood s
Ġmarch ed
ĠSad ist
ĠSail or
ĠSail ors
ĠSouth land
Ġhook s
Ġnurt ure
Ġeag le
ĠEight h
ĠRish ada
ĠMol ting
ĠLy ons
ĠLy dari
ĠLy zold
ĠLat ulla
ĠLuk ka
ĠPix ies
ĠPris matic
ĠBay ou
ĠBomb ard
ĠBomb adil
ĠBull ies
ĠGig apede
antic le
Ġliqu efies
ĠVirt ue
ĠVirt uos
ĠNef arox
ĠAnn ie
ĠScal eguard
ĠScri ptures
Ġamid st
ĠSton eforge
ĠStens ian
Ġchannel ing
Ġchannel ed
Ġremn ant
Ġunm oved
Ġschem ing
Ġworsh ippers
Ġcommun ity
Ġexpert ise
Ġswall ows
Ġsweep ing
Ġeleg ance
Ġeleg antly
ĠPres ence
ĠPres ident
ĠPres idio
Ġguarant eed
Ġdism ay
Ġdism issed
ĠTrap finder
ĠTrap jaw
ĠBris tle
ĠBris tling
ĠBris ela
ĠBrutal izer
Ġemotion al
ĠGrey fax
Ġpursu er
Ġreport s
ĠLoam speaker
ĠPilf ering
Ġfellow ship
Ġmarsh al
Ġmarsh aled
ĠOmen port
Ġtowns folk
Ġeru pt
Ġeru ption
Ġtorment ing
Ġidi ot
Ġidi ocy
Ġconflict ing
ĠPossess ion
Ġmechan ism
Ken i
Ken ji
Ken zo
Sam ut
Vol o
Zur di
bird s
dri fter
Ã© oden
Ġcac ophon
Ġceremon y
Ġaval anches
Ġthaw ing
Ġbraw ls
Ġbraw lers
Ġbrid le
ĠCapt ive
Ġsou lless
Ġfac et
Ġfrog s
stab bing
Ġpil ots
Ġmig rate
Ġmig ration
Ġmig rated
Ġmaj or
Ġmaj estic
Ġmurk y
Ġmurk root
ĠSell er
ĠSid ewinder
ĠSalt field
ĠTop an
ĠTop iary
efe ather
ĠHord es
ĠHord echief
Ġconse cutive
ĠDyn asty
ĠDyn amo
ĠDyn astic
ĠDagger tooth
Ġnour ish
Ġnour ished
Ġnour ishes
ĠFac et
ĠFet id
ĠFron tliner
Ġep ic
Ġep itaph
ĠRos ie
ĠRos heen
ĠRul ik
ĠRash ka
ĠRash mi
ĠLag rell
ĠPall adia
ĠPter on
ĠPter odon
ĠPash iri
ĠBold wyr
Ġrend ered
ĠGat staf
ĠGat herer
ĠGang renous
Ġstruct ural
osy nth
ĠOs g
ĠOs wald
ĠVult ure
ĠVult urous
Ġmanage d
ĠSpine woods
ĠSpik es
ĠSpik ed
ĠSpik eshot
Ġshudd ers
Ġkra ken
Ġkra kens
Ġwhir ring
Ġchim era
Ġcharm s
Ġremark ably
ĠSlither ing
Ġweigh s
Ġgreet ing
Ġgreet ed
Ġroof s
ĠTrespass er
ĠTrespass ing
ĠMyc otyr
ĠMyc osynth
Ġprogen itor
Ġprogen itors
Ġpoc ket
ĠYor ion
Ġtriumph s
Ġbloodl ines
Ġbloodchief s
ĠGlass kite
ĠDrill master
ĠKorl ash
ĠGround breaker
ĠGround shaker
ĠSoj ourner
Ġtemp ests
Ġember mage
Ġexter ior
Ġexter minator
Ġexter minate
Ġdecor ation
Ġdecor ated
ĠZhur ong
Ġsubst ances
Ġemergen cies
Ġunderest im
Ġharness es
Ġcheck point
ĠCryst al
Ġfortun es
Ġabsol ution
Ġdemonst ration
Ġsprout s
Ġannoy ing
Ġnavig ate
Ġnavig ational
ĠTunnel er
Be ast
Be arer
Be arers
Nik ou
Pro sperity
Tal on
Tal rand
Tal ibah
Ward en
pres ent
vi ya
Ġast onishing
Ġom n
Ġball ist
Ġbrush wagg
Ġbrush striders
ĠCove tous
ĠCivil ization
ĠCrook claw
ĠCrook shank
Ġfan atic
Ġtoss ed
Ġprot ocol
Ġpuls ating
Ġpuzz les
ĠSan well
ĠSard ia
Ġlog ic
Ġitem s
Ġhyp er
Ġhyp notic
ĠTaunt er
ĠTrost ad
ĠTechn omancer
ĠTusker i
Ġgal axy
ĠHarm onic
ĠIv or
Ġorgan ized
Ġentertain ing
Ġentertain ed
ĠMeg al
ĠPu ca
ĠPu blic
ĠPure steel
ĠPend rell
ĠPop ular
ĠPort yr
ĠBraw l
Ġrecon ciliation
ĠGad get
ĠGad wick
ĠGall ant
Ġspit eful
Ġstab bed
ĠKe imi
ĠKel inore
ĠKel logg
ĠOy ster
ĠObl ivion
ĠObl igation
ĠVast ra
ĠVad mir
ĠVant asaur
Ġvor rac
ĠZur an
ĠThr ong
ĠThr alls
Ġretreat ed
ĠBeaut iful
ĠJel enn
ĠJoh n
Ġmyco id
Ġexcav ate
Ġexcav ation
ĠSkin shifter
ĠSkarr g
Ġscal elords
Ġscroll s
ĠCatac lysm
Ġagree ment
ĠMyster ies
Ġprodig y
Ġprodig ies
Ġprodig ious
ĠWhirl wind
Ġslaught ering
Ġcompar isons
Ġacqu ired
Ġacqu iring
Ġsugg ests
ĠProsper ity
Ġexplos ives
ĠDeser ter
ĠBrand is
ĠGnaw ing
Ġtempt ed
ĠNecrom ancers
ĠAggress ive
Ġincarn ation
ĠDuerg ars
Ġobsc urity
Ġobser ve
Ġbenef its
Ġrespond s
Ġrespond ed
Ġsuppl anted
ĠHobgoblin s
Ġaccord ance
Ġimprove ment
Ġfrequ ent
ĠOpal ine
ĠThaumat urgist
Ġenviron ments
Gre gel
burn ing
hard ened
oe ba
rect ed
Ġtin iest
Ġtin kerer
Ġtranqu il
Ġcrab s
Ġcreep y
Ġcreep ing
Ġoper ating
Ġyawn ed
Ġsad ly
Ġsink holes
Ġdish onored
Ġpu ps
Ġpu blic
Ġpan icked
Ġpan acea
Ġpig s
Ġpaper work
Ġmalevol ence
ĠSeg mented
ĠSab oteur
ĠTa bern
ĠTa igam
ĠTiv it
ĠTiv adar
ĠTrib al
ĠTrib une
raf s
ĠHot shot
ĠHelp ful
ĠHatcher y
Ġcondem nation
ĠIb n
ĠIb ex
ĠId ol
ĠIsh i
ĠIsh kan
ĠIgu ana
ĠIgu anar
ĠIde al
ĠDil oph
ĠDil igent
Ġinquis itive
ĠEber yn
ĠMom entum
ĠMas ako
ĠMas umaro
ĠMid way
ĠMourn ful
ĠLure nbra
ĠLau nd
ĠPorc elain
ĠPorc upine
ĠBot tle
ĠBri arbridge
ĠBart el
ĠBark hide
Ġrev ive
Ġreass emble
char ged
ĠKed iss
ĠKum o
ĠKas imir
ĠOri gin
ĠOch ran
Ġcove t
Ġcove ted
ĠVes per
ĠVisc era
ĠVisc erid
ĠVert an
ĠNaz ahn
hist ories
Ġshout ed
Ġperiod ically
ĠZar ichi
comm end
comm and
ĠUmb ra
ĠScamp ering
ĠRejuven ation
Ġflaw less
Ġblacksmith s
Ġunh oly
Ġunh armed
Ġuncertain ty
Ġjud ged
Ġrooft op
ĠWeak ness
Ġoutn umber
Ġoutn umbered
Ġskul ks
ĠUnw avering
Ġreser ved
Ġadjust ed
Ġteem ing
ĠHyd romorph
Ġappl ied
Ġappl ication
Ġtrumpet ing
ĠIllus ions
Ġfearless ness
ĠManifest ation
ĠQuag mire
ĠHellsp ur
ĠHellsp urs
Ġdistinct ion
ĠTrou pe
Ġdragonlord s
ĠUrs ine
ĠAcid ic
ĠAcquis itor
ĠAcquis itions
ĠAccompl ice
ĠAccompl ished
Ġesc ort
Ġesc hew
Ġsniff ing
ĠGravel gill
Ġcrunch y
ĠSyphon er
ĠDisp el
ĠDisp osal
Ġpatroll ed
ĠLoch mere
Ġtransl ates
iskel ion
ĠSuccess ful
Ġencroach es
ĠInnoc ent
ĠInnoc uous
Ġparaly zing
Ġinterf ering
Ġinterf erence
ĠCosm ic
ĠCosm ogony
ĠMechan ical
Ġpolit ical
Ġpolit ics
Ġhydra s
ĠGigant osaurus
Ġimperfect ion
Ġimperfect ions
Ġsacr ament
Ġthorough ly
Ġthorough fares
ĠFarbog s
Ġappropri ately
Cry pto
End ril
Gn awer
Kro og
Kro shkar
Py leas
Rad ha
Raf iq
Tri vaz
bro ken
bro ker
breed er
car ved
crab s
skin ned
yu u
Ã¢ n
Ġtant rum
Ġtid y
Ġtort ure
Ġtort ured
Ġtren ches
Ġtatto os
enb ock
Ġcer atok
Ġcous in
Ġcous ins
Ġaber rant
Ġaward ed
Ġol ive
Ġooz ing
inf used
Ġbomb s
Ġbub ble
Ġbub bles
Ġbann ed
Ġbann ers
Ġbreach ed
ĠCraw ling
ĠCler k
ĠCler gy
ĠCran e
ĠCull blade
Ġyearn s
Ġsip hon
Ġsavor ing
Ġdivers ity
Ġfates eal
Ġfalt ers
Ġfalt ered
Ġfaint est
Ġpear l
Ġpatch es
Ġpict ure
Ġpict ures
Ġpawn s
Ġphyl actery
Ġment al
Ġmamm oth
Ġmamm als
Ġmartyr s
Ġlux ury
Ġitch y
Ġhatch ing
Ġhatchling s
ĠArtif ice
ĠArtif icers
ĠTak ahashi
Ġgig antic
Ġgest ure
Ġgest ures
Ġgurg ling
ĠHol ga
ĠHop es
ĠHop eful
ĠHundred s
ĠHosp itality
ĠHosp italler
Ġconvin cing
ĠIren crag
ĠIren icus
ĠDa emogoth
ĠDir gur
ĠDanger ous
ĠFro zen
ĠFun ny
ĠFiends layer
ĠEst wald
ĠEri ette
ĠEri ksdotter
ĠEaster n
ĠMaz ar
ĠLies a
ĠLiv onya
ĠLuck ily
ĠPent avite
ĠProm ised
ĠPho ebe
ĠPul verizer
ĠPink ie
ĠPick pocket
ĠPug ilist
ĠPug nacious
ĠBreach ing
ĠBlossom ing
ĠBureau crat
ĠBureau crats
Ġatone ment
ĠGren adier
Ġascend ant
child ren
Ġsteep ed
anth rope
ĠKat aki
ĠKat ilda
ĠKot ose
ĠKid na
ĠOdd ity
Ġgraf s
ĠVin eshaper
ĠVish graz
ĠNeg ator
ĠNeg ative
ĠNab ber
ĠNik ara
ĠNib b
Ġpercept ions
ĠShim ian
ĠShim atsu
Ġseaw ard
Ġsorcerer s
ĠScorn ful
ĠSculpt ure
ĠSculpt ures
Ġamuse ment
Ġruthless ly
ĠDeb aser
ĠStream s
ĠSteep le
ĠArachn us
seed er
ĠChall enge
ĠChall enger
ĠJan jeet
ĠJac ob
ĠJac ques
ĠJas per
ĠJas con
ĠJour nal
ĠJour neymage
Ġmeadow s
Ġunin h
Ġuncon vention
Ġunsc athed
Ġscarecrow s
Ġju iciest
Ġtapest ry
Ġtapest ries
ĠPlat oon
ĠPlat inum
ĠPlowbeast s
ĠNocturn us
Ġclut ch
Ġclut ches
ĠForiys ian
Ġindep endent
Ġindep endence
Ġrap ids
ĠYa henni
ĠClaim ed
ĠSnap dax
ĠDock side
ĠDock hand
Ġovert aken
Ġdesec ration
Ġdesec rates
Ġacquis ition
Ġacquis itions
Ġacrob ats
ĠEquenaut s
Ġstring ent
Ġdisor ient
Ġdisor ients
Ġdisgu ises
ĠCompl iance
ĠGhast bark
ĠTrin ket
ĠTrouble maker
ĠHarad rim
ĠAbandon ing
ĠAbandon ed
ĠBattlew ise
Ġprint ed
Ġsuspicious ly
Ġcrus ade
Ġcrus ader
Ġdiscern ible
ĠDisrupt or
ĠDisrupt ive
Ġinsign ificant
Ġobsess ion
Ġobsess ively
ĠBroad bark
ĠTyrann osaurus
Ġunders ide
Ġcorrupt ing
ĠEntertain er
Ġproduct ive
ĠThundercl ap
ĠThundercl oud
Ġcontinuous ly
ĠInnov ator
Ġprepar ation
Ġprepar ations
Ġparadox es
ĠHarpoon er
ĠCrack shot
Ġstrip ling
ĠTelep athy
ĠTriple ts
Ġdimin ish
ĠAccord ing
Ġpenet rate
Ġmotiv ation
ĠFool ishly
ĠShock er
Ġcalcul ate
Ġdissol ve
Ġmercen ary
Ġmercen aries
ĠAbsol ution
Ġconduct s
Ġcannon ball
ĠMudb rawler
ĠMudb utton
Ġholid ay
Ġholid ays
Ġassoci ates
Ġblasphem y
Aug usta
Bri gone
Call aphe
Ele kh
Foot ed
Go blin
Hear ted
Hist ories
Ish i
Ker in
Kip kemb
Mann o
Ny lea
Po em
Ro bert
RIC K
Tr inda
VII I
breat her
bet ween
destruct ion
uh l
Ġurb an
Ġtramp led
Ġcling ing
Ġtherm al
item ane
Ġbalcon y
ĠCant or
ĠCec ani
ĠCoy ote
Ġske wer
Ġsab ot
Ġsug ar
isl av
Ġdext erity
Ġfron ts
Ġfoss il
Ġfrust rated
Ġwren ch
ĠWal rus
stru ck
Ġtopp le
Ġpec uliar
[...]
