#version: 0.2
Ġ <
r e
Ġ t
e r
a t
e n
o u
Ġ c
Ġ a
Ġt h
Ġ o
i n
a r
re at
e s
u re
reat ure
a n
f t
Ġth e
a m
en d
i t
t l
o n
Ġ b
Ġ C
o t
Ġ y
Ġy ou
o w
â Ģ
g h
âĢ Ķ
e x
Ġ âĢĶ
es s
Ġ s
i s
ow er
Ġ d
ou gh
n l
p ower
am e
ex t
n ess
a c
ough ness
n ame
ĠC reature
Ġo f
o r
o ft
m c
< |
| >
č Ċ
end oft
endoft ext
t oughness
Ġ f
Ġ W
Ġ w
e l
r o
in g
ar d
g e
Ġa n
s t
Ġt o
Ġc reature
Ġ p
Ġ m
a l
Ġ ~
Ġ S
Ġ l
en t
i l
Ġ it
Ġ h
u r
i f
n t
a y
h en
Ġ 2
e d
Ġ A
Ġ T
ĠW hen
Ġ u
ge t
Ġ 1
er s
Ġ g
e f
Ġc ard
Ġyou r
r a
t ro
Ġ 3
v e
i c
ur n
Ġc on
Ġ H
. <|
Ġo n
e v
Ġ I
Ġan d
o m
Ġ D
tro l
Ġcon trol
Ġ in
el d
Ġ n
at tl
i eld
a st
Ġb attl
Ġ F
l e
ef ield
Ġbattl efield
u t
i r
Ġb e
it h
an d
u m
a s
ev er
ar get
Ġt urn
Ġth is
Ġo r
Ġ E
o l
Ġ (
Ġw ith
. )
Ġ e
' s
l y
Ġ +
Ġ ent
Ġ R
Ġ L
/ +
Ġt arget
ou nt
Ġ M
h e
Ġ 4
Ġ P
ar y
Ġ B
r i
Ġent ers
Ġ re
Ġth at
ac h
ĠWhen ever
Ġ at
Ġc ount
Ġa s
Ġ G
ac k
ro m
Ġf or
c h
Ġu nt
Ġ end
Ġp l
Ġf rom
el l
Ġs p
um an
Ġ is
Ġm ay
a in
Ġd e
l o
a d
ĠH uman
p p
h er
ly ing
a ge
k e
Ġs t
o s
> :
' t
c t
r t
Ġc an
i on
e g
Ġunt il
ac t
rt if
an t
Ġc ast
Ġpl ay
c k
i d
e p
Ġ get
Ġat t
Ġe ach
Ġp ut
Ġsp ell
am age
Ġit s
rtif act
Ġd amage
Ġplay er
Ġatt ack
e t
o re
Ġde al
> ,
ĠT he
a p
lo ck
ĠF lying
Ġcount er
ic e
om b
eg end
Ġl i
k en
Ġcreature s
egend ary
i m
Ġg ain
gh t
Ġ K
r if
n d
Ġ ex
Ġb lock
ĠL egendary
Ġ O
Ġl if
Y ou
c e
Ġ 5
l l
Ġc o
Ġg ra
ac rif
y ard
Ġgra ve
Ġh and
Ġgrave yard
r u
i es
am p
on g
Ġo pp
Ġm an
Ġget s
on ent
Ġopp onent
at e
Ġ V
Ġu p
Ġ if
Ġlif e
a ve
i v
i ght
Ġto ken
Ġcard s
l d
h o
acrif ice
b r
i z
ĠI f
ĠS p
Ġon e
Ġdeal s
il e
q u
h is
o d
Ġan y
Ġ N
Ġ v
t o
Ġa rtifact
u s
Ġli br
Ġa re
n ing
Ġlibr ary
m ent
il l
ol d
Ġh ave
u e
Ġthe ir
os e
ra w
e ar
g in
reat e
Ġman a
i g
es t
ĠW ar
Ġd o
w o
omb at
ac e
Ġs h
Ġbe gin
t her
i e
Ġco st
b le
Ġc ombat
nl y
Ġbegin ning
Ġcount ers
Ġb y
i re
Ġin to
ou t
e ct
e m
ĠI t
Ġ You
Ġo nly
u l
Ġm ore
Ġp er
Ġh as
ot her
a v
b er
Ġattack s
Ġt wo
iz ard
b l
ri or
ĠS h
ĠA t
is t
al l
Ġblock ed
Ġ power
i er
Ġl and
Ġc reate
at h
is c
Ġan other
ĠWar rior
Ġgain s
i an
Ġl ong
Ġp ay
Ġ X
nd er
it y
e re
Ġ 6
u n
m an
ĠS acrifice
k er
Ġa b
w n
d d
Ġ~ .
l er
o g
Ġd raw
ĠG o
ĠW izard
Ġ k
ou r
t h
T his
Ġ Z
isc ard
c om
ou ld
um ber
r amp
man ent
Ġw h
Ġb l
Ġ en
ast e
Ġ 0
Ġper manent
Ġa ll
ramp le
ĠS old
ĠA s
Ġn umber
ĠA rtifact
Ġth en
er y
Ġto p
Ġu nder
ĠSold ier
ir st
Ġo ther
Ġbe com
Ġo wn
ke ep
ĠI n
Ġc ol
in d
ĠT h
ĠE l
Ġthe m
Ġthe y
bl in
ir it
Ġd ies
Ġ U
Ġf lying
pp ed
an ce
Ġn on
Ġre t
Ġs e
Ġab il
ou s
Ġt im
it e
Ġret urn
> .
a g
re e
Ġe qu
Ġn ot
Ġcol or
ĠD ra
Ġex ile
Ġst ep
or c
Ġcontrol s
ĠSp irit
ĠE le
Ġw as
Ġl ess
ĠZ omb
Ġbecom es
he re
g on
Ġin st
Ġt a
ri ke
ef end
Ġn o
o k
i ve
r y
ĠGo blin
Ġth an
Ġequ al
Ġs orc
Ġsorc ery
ct iv
a re
Ġa m
ch ant
h y
on e
ĠS c
t er
ĠZomb ie
Ġst rike
ĠA n
Ġup keep
Ġc ho
ĠB e
Ġtim e
f f
ow n
ment al
i p
Ġf ace
Ġ r
ĠEle mental
ĠP ut
e ad
Ġc om
ve al
n ight
ar t
Ġw ould
Ġa l
es tro
estro y
ĠT arget
ig il
o p
Ġs acrifice
ĠEl f
a k
Ġh aste
ĠE x
Ġl o
ĠS t
Ġn ext
u st
ler ic
Ġb ut
ĠR e
ĠC leric
Ġc h
igil ance
Ġd iscard
as h
ctiv ate
Ġf irst
s h
hy re
ou nd
ĠA r
ĠDra gon
hyre x
ol k
Ġth ree
in k
ĠP hyrex
ĠK night
Ġre veal
s e
an g
W hen
Ġown er
a ur
p h
Ġre m
Ġl e
o ve
Ġw here
ĠC h
v er
Ġ J
it ion
ĠR og
or d
ĠPhyrex ian
ĠRog ue
w al
Ġunt ap
Ġv al
is h
Ġw ill
ĠT rample
amp ire
/ -
e w
ot h
at ion
ir d
l and
ĠBe ast
am an
Ġm y
Ġa dd
u ff
Ġw e
ĠF l
ĠM er
ep t
Ġdeal t
ĠS l
d er
Ġex c
Ġ~ :
Ġ .
Ġabil ity
ru ct
Ġh e
as s
Ġm e
Ġval ue
y p
Ġd efend
ĠV ampire
Ġ -
chant ment
Ġta pped
r ow
Ġw ay
ĠC on
Ġf l
ĠT his
ad e
Ġco p
Ġattack ing
id e
ĠSh aman
l ess
Ġcho ose
l ing
Ġbl ack
or n
Ġg reat
Ġ *
nt o
Ġd estroy
Ġo nto
ic k
om e
os es
Ġspell s
Ġu n
ĠA ctivate
ear ch
in e
ĠS k
Ġh is
a w
Ġcop y
Ġg re
ur ing
Ġu nl
Ġam ong
Ġt rample
g el
o st
ĠA dd
Ġh er
r ot
Ġt yp
Ġs c
Ġsh uff
Ġwh ite
Ġ 7
Ġ j
Ġt oughness
ĠEx ile
n ow
Ġw or
Ġexc ept
f olk
ou ch
a ke
Ġwith out
lo od
Ġadd ition
ar k
Ġunl ess
e c
Ġl oses
Ġ( <
v es
i ant
ĠR et
Ġ ro
ĠB ird
Ġshuff le
Ġth ose
Ġp re
Ġd own
ĠThe y
Ġw ho
il d
iv er
Ġg o
Ġgre en
Ġinst ant
ĠH or
ru id
ĠRet urn
ft er
ĠE n
el ink
Ġ name
en ace
ĠD e
Ġtoken s
ĠD iscard
r or
ĠW e
ĠAn gel
en er
Ġd uring
it ies
rot ect
i a
s s
Ġs o
is e
ĠO ther
u nt
Ġde ath
Ġd on
Ġdefend ing
ĠT re
Ġre d
r an
on d
a b
Ġa r
t ouch
ot t
or t
Ġ ever
s p
Ġ out
g er
ou l
Ġpl an
ĠMer folk
ĠD ruid
ĠC at
or m
ĠD raw
v en
ĠE ld
e ed
ev en
Ġman y
or ph
ĠE ach
ast er
Ġabil ities
at or
When ever
Ġ âĢ
ĠA l
ĠâĢ ¢
ra z
ĠV igilance
Ġdo es
u ch
Ġt ap
Ġthe re
Ġw ere
ul t
Ġen chantment
ĠP l
re d
Ġw hen
ĠO r
Ġn an
Ġ~ '
Ġinst ead
Ġa g
Ġlo ok
es wal
as e
il ed
ĠG iant
u ard
p t
ĠFl ash
Ġplan eswal
ĠSl iver
ĠN o
Ġaddition al
ere d
ĠHor ror
Ġ our
ĠM y
ing s
I t
Ġcom m
a z
ore st
ur a
Ġex p
Ġse e
v ent
Ġopponent s
es h
w ay
ĠH aste
at ch
Ġf our
ĠF irst
Ġv igilance
Ġgreat er
Ġnon land
ĠDe ath
ĠA d
y c
Ġh ad
Ġcost s
i ble
Ġre st
Ġu s
ott om
i x
Ġb ottom
Ġs k
Ġs earch
Ġever y
Ġp ro
Ġc l
al ly
Ġon ce
ĠC reate
re n
at ed
ic er
Ġplaneswal ker
Ġ ri
tl e
Ġw ar
I f
m p
os aur
n er
w ar
ĠH e
rotect ion
o od
Ġlif elink
est ruct
Ġdoes n
ĠD em
ĠF a
ĠIn s
raz i
en ce
r on
ĠEld razi
i al
Ġm ill
ĠD efend
ĠU nt
Ġa ble
Ġk now
ain s
ĠCon st
ĠW h
Ġex iled
Ġth ough
ĠDefend er
ef ore
Ġse c
ou ble
i ous
ĠF or
Ġor der
Ġland s
in osaur
av es
Ġm uch
rtif icer
ĠAr ch
g re
ĠW all
le m
ĠSc out
Ġpermanent s
ĠH er
ap t
ĠDem on
Ġ ru
Ġs ur
ĠO n
acrif ic
Ġcolor less
f ect
ĠT ap
as ure
ĠU n
Ġs acrific
Ġl ast
ĠIns ect
Ġp o
Ġin d
ĠRe ach
ĠS n
Ġli ke
ĠR o
Ġl ose
ĠM on
id er
! <|
Ġs w
ur m
ĠD ev
Ġ ra
at her
or y
ri m
ol l
ĠAs s
u d
a pped
Ġ~ ,
ĠA rtificer
Ġn ever
Ġname d
r ough
ĠA ll
and om
Ġr andom
Ġt ra
ad ow
Ġb efore
ic ker
Ġcontrol ler
Ġm on
ĠD inosaur
c l
or s
Ġfor m
' re
Ġc ould
Ġrem ove
a us
Ġblock s
Ġpay ing
ĠC l
ĠS w
ĠS er
Ġunt apped
Ġtyp e
Ġag ain
Ġ Y
ĠGo lem
Ġt ri
Ġf ight
el f
o ok
ĠB lood
ĠM enace
i ed
Ġ 8
ou d
Ġj ust
Ġcomm and
' ve
ĠT urn
ĠI s
ĠR eg
ĠB l
Ġis n
ĠConst ruct
t s
estruct ible
Ġ qu
a ble
Ġg r
Ġwh at
Ġbl ue
g g
Ġtyp es
h in
Ġb oth
ĠM in
a id
v ed
an c
Ġp art
o f
Ġre s
o y
Ġn ew
Ġre ach
er ie
Ġm ost
Ġs l
Ġm ust
Ġblock ing
on s
Ġ el
Ġartifact s
Ġnon c
Ġwor ld
m er
u b
at er
ĠP ir
p l
ig n
Ġle aves
a il
l ed
re ad
ĠR em
er t
al f
f ul
o c
ĠW ol
ĠTh at
ass in
k ing
ion s
Ġth rough
ic t
i gh
ĠD o
ĠD estroy
en s
Ġd ra
ener ate
Ġs he
Ġdiscard s
Ġnonc reature
Ġd ay
ĠCreature s
Ġo ver
ĠT o
T he
u g
Ġ even
Ġd id
ĠR at
as ic
ĠTre asure
ĠReg enerate
ĠT hen
ĠDeath touch
Ġst ill
et h
* <|
ĠAss assin
u ll
re am
if f
i ft
ĠW urm
ĠD war
Ġtarget s
Ġatt ach
Ġdeath touch
Ġind estructible
p ro
tl y
s o
os en
Ġcho ice
ĠRem ove
o on
ĠF orest
ĠOr c
ar g
ick ed
is on
ĠO gre
wal k
ĠPir ate
m b
r ing
Ġd ev
Ġp h
Ġm enace
ĠE v
av en
ĠFa erie
f in
y r
ĠS e
un g
i ent
Ġb lood
ĠEn chantment
b e
Ġc aus
ĠL if
Ġde ad
ĠN ight
' ll
Ġt ot
l es
is s
ith er
ĠL izard
ĠDra ke
Ġtot al
a ut
k in
Ġa d
Ġb ack
w e
Ġh ear
ĠSn ake
ĠIs land
i ef
k s
Ġh im
Ġen ough
o b
p er
os s
Ġal so
oll ow
v is
Ġn eed
Ġch osen
Ġf e
ĠS he
pro of
ar s
ĠS qu
ĠP re
th ing
ang er
? <|
way s
ot aur
Ġs m
ĠA v
ex proof
Ġar m
Ġcom p
at es
a u
i k
an e
Ġs ome
Ġd es
el y
al e
Ġbe t
ho ose
ĠWol f
Ġh unt
Ġattach ed
o ke
ĠSh ap
u ally
ar ch
Ġ Q
Ġd ie
ĠG u
a wn
Ġt ru
Ġturn ed
ĠIt s
c ap
o id
Ġt w
Ġc reat
Ġs ay
Ġp rotection
p s
Ġ im
Ġb asic
ĠE qu
Ġsec ond
Ġp e
Ġg l
Ġe y
ro g
al t
Ġli ght
Ġpay s
v ing
it s
ic h
ĠSw amp
Ġa c
Ġb el
ef olk
ĠI mp
Ġbecom e
Ġal ways
ĠSk y
i fter
al d
ĠWar lock
Ġk icked
Ġta ke
Ġlo st
a ker
Ġ ev
ers er
Ġbattl e
ear s
ĠA ura
ĠD og
ĠB erser
Ġwh ile
ĠAl ly
a f
an s
ri d
ch o
Ġal one
Ġpo ison
in s
es e
it ch
Ġs u
Ġm orph
Ġf ive
ip ment
n al
o x
Ġn ight
ire d
Ġsc ry
ĠDwar f
ĠS un
ĠS oul
ĠM ount
ĠBerser ker
Ġa ctivate
ar i
Ġb ase
chant ed
p et
v est
Ġt e
Ġd ouble
Ġof f
ĠS earch
Ġh ow
ĠM orph
ĠG l
ĠThe re
ĠSp ell
ĠMin otaur
a i
Ġg u
rif fin
z e
ar b
Ġs our
Ġf ind
esh ifter
ĠUnt il
Ġmon st
el et
ent s
ĠP ro
ĠShap eshifter
f orm
in t
Ġs ame
Ġd is
ro ll
ge d
ĠH y
Ġbe en
iz e
ĠTre efolk
ĠC yc
Ġs er
Ġm ake
Ġsh adow
Ġam ount
d ra
Ġt r
Ġd iff
ĠM ar
ct or
Ġk n
at t
in n
ro ss
Ġm ind
Ġg ame
to ken
Ġa pp
Ġb and
Ġent er
ĠL e
Ġa fter
Ġb est
ĠW ard
ĠL and
us ion
Ġnon token
ĠNo ble
ĠLif elink
A t
a ir
Ġs even
ĠI ll
ĠD r
hin x
Ġ ef
ut e
ĠM ut
ĠG uard
Ġst r
ĠSp ider
Ġk ind
r oud
Ġ keep
re l
Ġto o
n y
ĠMer c
ĠAd vis
Ġf ollow
ĠS am
Ġsacrific es
Ġt re
ĠâĢĶ *
ĠS ome
Ġn at
av er
ĠOn e
ĠAdvis or
Ġbe ing
at s
at ar
Ġc ar
in j
Ġgo blin
a x
an n
Ġf orest
ore d
ĠSp hinx
Ġper pet
Ġtim es
ĠUnt ap
u nd
Ġ1 0
ĠAt t
ĠMon k
ĠPre vent
c es
ĠS il
ĠP rotection
us p
and er
ĠP art
Ġplay ers
ĠAv atar
ĠEqu ipment
Ġperpet ually
Ġs ix
Ġf ire
Ġro ll
Ġdiff ere
f all
al m
ĠAr m
Ġexp lo
ĠArch er
g u
m are
v el
Ġf o
Ġf ear
Ġp aid
al ken
Ġdid n
Ġsour ce
m age
ar ian
ĠC hoose
Ġf all
ĠT ra
ĠM an
ist s
op e
sh ip
Ġle ave
r act
re et
ar a
Ġsp ent
ear th
ĠIll usion
ĠC ent
Ġm ut
Ġm ag
ĠF ood
are d
Ġc all
ing er
Ġl egendary
ĠN inj
Ġth ink
Ġs oul
el p
Ġl it
ra b
w ise
re s
am il
al s
Ġh igh
Ġin t
Ġn ow
Ġas s
im e
ĠK or
ĠK icker
Ġen em
ura i
apt ain
er g
Ġc ity
Ġd ark
Ġw ord
ro s
Ġp ass
ĠWh at
at ing
Ġa ctiv
am i
Ġw ard
ith kin
ĠB ut
g th
in ed
ar m
ar n
Ġw on
ev el
ĠD es
us h
Ġef fect
c ient
e y
g r
t ing
ĠC o
ĠG od
amp ion
gg ers
w or
ĠH ell
ĠF ire
ĠB o
Ġtri ggers
ĠQ u
cap e
ĠHy dra
b el
Ġg row
ĠL ord
ph ant
ation s
ran s
anc er
a h
r ous
w here
ĠSam urai
b orn
ot ion
Ġl et
ĠD ouble
Ġpl us
id ed
av u
Ġle ast
ĠSk elet
ĠC om
Ġh exproof
ra ft
ap er
ear n
Ġsh are
Ġrem ains
ren gth
Ġmill s
Ġsacrific ed
p e
ar th
Ġs om
ĠP ay
ĠG h
Ġattack ed
iv ers
Ġsk y
re ak
ed alken
ĠT r
he m
ect ive
ĠSh adow
Ġk ill
ĠCent aur
i ke
u k
Ġ '
at ter
Ġs ing
Ġd ist
iz en
in ce
Ġw ant
ĠH ar
ĠG riffin
Ġab out
ang el
ĠUn earth
ĠMerc en
e ep
o ved
p en
on es
Ġw atch
Ġm ight
ĠA nd
Ġdraw s
Ġgo od
ĠPl ant
ĠPart ner
j inn
Ġf a
Ġf ew
ĠD et
u p
u ck
ĠM ir
ĠP h
ĠAr c
ĠLand fall
Ġlit tle
p ent
Ġre g
ĠG r
Ġcom e
ĠCh ampion
Ġpre vent
Ġey es
at ive
ic ate
Ġcast s
Ġdra gon
Ġf ri
ĠS ent
ĠA b
ut h
ir rel
ĠB attl
Ġdefend er
Ġsec re
i pped
Ġc ame
Ġth ings
Ġd ied
Ġl earn
ĠA fter
ĠB ack
Ġen erg
ĠEle phant
Ġgreat est
ĠMy r
ĠSkelet on
c on
in es
Ġs now
Ġd iv
Ġf ound
Ġst rength
ter nal
ec ial
ĠDev il
Ġcommand ers
Ġmonst rous
' m
j ure
l ight
t e
re ss
ĠC it
Ġh ist
Ġh ere
Ġst e
ĠK avu
th ers
ĠMut ant
a it
k es
Ġg uard
ĠD jinn
ĠM ag
og g
ag er
Ġreveal ed
Ġri ght
ĠDo ctor
l if
re nt
Ġa ge
Ġa way
an ge
it ter
Ġb r
ĠC ol
Ġl ead
Ġh ead
Ġh elp
Ġg ive
ĠE m
ĠM aster
ĠP er
ĠB r
ĠG n
Ġst and
wo od
op le
ĠEv ery
vest ig
ĠMercen ary
ĠDet ective
' d
er r
Ġo il
Ġg od
ĠH unt
le ct
ĠM age
ĠK ithkin
ĠN ow
Ġv ict
ak es
ĠOther wise
Ġsur v
D amage
m on
Ġb u
Ġf ore
il t
ĠA ven
ĠE mp
ĠP row
Ġits elf
od y
Ġpre y
we en
Ġdiffere nt
> .)
i ers
Ġw in
ĠT roll
ĠV edalken
Ġwe ap
ĠDev oid
Ġph ase
h ing
i en
s c
re r
it or
Ġs un
Ġcon t
ĠH is
Ġe ither
ad d
us k
Ġle ft
ĠHer o
Ġsw ord
Ġagain st
Ġdev otion
Ġtru e
i um
ou n
Ġa rt
Ġs il
ac es
Ġf in
Ġm aster
ĠS o
ĠA c
Ġany thing
Ġru n
Ġcaus es
y ing
Ġ 9
al ker
ĠS ur
ĠF rog
Ġany where
ĠU r
ous e
ĠEld er
ĠSer pent
ĠNight mare
Ġbet ween
c end
n a
s ide
w ard
Ġ es
Ġc lo
Ġth ese
Ġm er
Ġh ome
ant s
Ġwor k
Ġpe ople
Ġstr ong
Ġenerg y
o ze
u nder
Ġy et
st er
Ġp r
al es
ĠE ven
Ġsp irit
Ġreveal s
ĠDr one
ĠCit izen
v ish
ĠW ith
Ġp rotect
il es
ay a
Ġin vestig
ol t
Ġe m
Ġup on
Ġactiv ated
Ġt em
Ġc yc
Ġs old
or p
al k
ĠL ook
pp er
et her
ĠYou r
ĠTh ose
Ġr ather
Ġcommand er
ung us
Ġcaus e
gu ise
A ny
e e
n ot
el ves
Ġm ount
ur y
ĠR anger
ri der
Ġli ving
Ġsh ould
ry ad
Ġgr ound
ĠSqu irrel
m aster
s er
u c
en ix
Ġd ream
ro p
Ġe as
ĠB ear
ad ness
ho enix
Ġnot hing
Ġband ing
Ġsing le
e er
z z
Ġ ext
re sh
Ġc le
Ġf ar
Ġm et
ĠD om
ĠG arg
Ġ* <|
Ġhear t
ĠMount ain
ĠCyc ling
Ġnat ure
en se
Ġb ring
Ġd ef
ĠS ap
Ġh ard
ĠA k
Ġcon s
ĠR es
ri est
ho p
Ġsh ield
Ġwh ich
ind er
Ġrem ain
Ġrem oved
Ġthough t
The y
A s
T o
y n
re ed
end s
tl ess
Ġs usp
Ġs ince
or ic
Ġh uman
ĠA ur
Ġbe c
ĠL et
ĠG reat
ĠG ra
ĠO oze
all er
Ġen chanted
Ġfl ip
ĠGuard ian
e ak
i ra
ot s
Ġw ind
Ġw ild
ro c
Ġm ade
al ity
Ġe cho
ĠK eep
iv es
ĠN ec
az e
hin o
P ut
Ġc ur
it i
on y
Ġw ell
Ġh ope
ĠD on
Ġe at
ĠB arb
Ġpl ace
ep h
ous and
Ġsee k
eth ing
Ġinvestig ate
o ice
s elves
Ġc ru
Ġb ro
Ġs n
ĠW ild
ĠP hoenix
ĠG re
Ġst art
Ġgraveyard s
Ġmag ic
Ġhist oric
L ook
a ired
b it
d e
Ġf eed
Ġp ur
al ad
ay er
ef ul
Ġcon jure
ĠH alf
ĠD ryad
ĠF ungus
ĠR av
ĠRe bel
gr ound
e ch
Ġo pen
in el
on or
ay ers
ĠF ear
ĠM oon
ri ght
Ġre n
ĠK ra
Ġcom es
Ġres ult
Ġtw ice
) .
f l
t ed
Ġt en
Ġo thers
ough t
Ġde c
Ġsh all
Ġper fect
Ġbl ess
ĠOn ce
ĠNinj a
c ess
i ar
i ence
l ord
Ġb urn
ĠA g
ĠL eg
Ġre p
ul ar
a im
i b
n ic
v ers
Ġth ing
Ġs et
ic s
ĠR hino
ĠO nly
Ġhe al
Ġfl ash
Ġfl esh
aw s
Ġfe el
b ack
e k
s elf
Ġm in
Ġh or
ve il
Ġbe y
ĠB and
ack ing
bl es
ĠIn f
Ġse a
own ed
ĠRe veal
ĠPl ains
ĠCl ue
Ġmut ate
ĠBo ar
a ken
n g
er ing
an a
or g
ĠS now
Ġh ide
ur al
ra ge
ĠD u
ĠD is
ĠL ight
lo ps
id d
Ġhand s
ĠU nder
Ġcolor s
ĠSt orm
ĠBarb arian
e ath
u es
x ic
z a
ow ard
Ġd isc
ro ling
Ġu se
ĠI nd
im es
You r
bl ade
ĠAn y
Ġme an
read y
ĠArm y
l an
m a
p le
ar ies
an ion
am orph
st one
Ġh alf
ĠD isc
ĠB at
ĠSp ect
Ġse en
ĠEx p
ener al
Ġar ound
rim e
Ġph as
a unt
c est
o v
reat h
an king
Ġs y
Ġs uch
Ġs af
Ġw ings
Ġw ait
Ġp ath
ent or
ic orn
ĠI nt
Ġst op
ĠThe ir
ĠN ot
Ġal ready
Ġwar rior
au ght
a pp
s w
en ge
Ġo ld
Ġy ears
âĢĶ <
Ġthem selves
ĠSc aven
Ġch ild
ĠEn chanted
Ġsom ething
ĠSap roling
a e
c er
d om
ar ing
ĠC aptain
Ġs ize
ac le
ge on
ĠS y
Ġin c
Ġbe aut
ĠE ternal
Ġre c
ĠSp end
us e
Ġbl ade
Ġlo y
war m
Ġdra ft
angel ing
ĠGarg oy
Ġbey ond
s u
am es
Ġb o
Ġb ig
ow s
Ġd el
ro l
ĠF ox
ol y
Ġent ered
ĠM entor
ĠP at
Ġre f
ad es
id es
et imes
ĠV al
iz es
av or
un e
Ġen chant
are c
sh aper
Ġro om
Ġim p
Ġgoblin s
ĠSent inel
t ra
Ġc are
ĠC ount
Ġm od
Ġm em
il y
ĠT y
ĠM a
ĠB al
ĠG or
Ġsp end
ru s
ig ure
ĠIn c
Ġwor th
Ġpart y
Ġel se
alt y
Ġac ross
ĠGargoy le
C reate
t ell
ĠC ast
Ġd anger
Ġf amil
Ġan cient
Ġm ove
ĠT ur
Ġg iant
ĠH exproof
Ġn e
as c
ĠB en
ĠG ate
ĠG old
Ġde ck
un ger
ĠTh resh
Ġequ ipped
ĠJ ust
ĠSer v
ĠGu ild
wor k
ĠBack ground
hop ter
c raft
d u
it an
ĠW ind
Ġp at
il s
Ġh old
ra s
om ad
Ġsp ecial
Ġde ep
eg amorph
ĠN y
ie ve
em an
are r
Ġdiscard ed
Ġtra vel
Ġqu ick
Ġpart ner
Ġbet ter
ĠThresh old
re w
Ġth ousand
Ġm akes
Ġl ater
ic al
le ep
Ġbe h
ĠR en
ri er
ect ed
ĠCh angeling
ish ed
Ġqu est
Ġenem ies
arec row
s ed
Ġt er
Ġt ell
er an
ar p
ĠC rab
Ġs ound
or ies
ĠS ag
ĠT hopter
ra g
ut ure
Ġbe ast
ad y
ke y
ĠO ct
ĠSh ade
Ġse em
Ġdestroy ed
Ġun b
Ġso on
ĠRo b
eman ship
E ach
m ith
o ot
Ġt ouch
Ġa ir
or ce
Ġw r
Ġp ast
Ġin v
ĠE cho
ĠR ak
ĠP e
ĠP ar
id s
Ġput s
ru pt
ĠTh ese
Ġch ar
Ġexc ess
ather light
Ġday s
h ic
i ev
o ck
v oke
at yr
Ġc ry
Ġo b
ĠW or
el s
get her
Ġin s
ĠM ind
ĠK ami
Ġex ert
ĠV e
Ġv ot
av al
op us
Ġarm y
Ġenem y
alad in
ĠHalf ling
m it
r ic
t y
en g
in ation
ft en
Ġb en
ĠC or
Ġw all
Ġw ater
ur g
ĠA m
ri x
Ġcount ered
ĠG e
lo om
ĠK ar
ĠK ing
ĠO ur
ire s
ĠSc arecrow
ip le
Ġsm all
ĠSpell s
ĠCyc lops
Ġword s
ĠProw ess
Ġsold iers
roc od
ĠOct opus
Ġo ften
or i
ro d
Ġp ack
ĠA ug
ĠD el
ĠD ead
ĠF ish
ol ves
Ġe arth
ĠM et
ĠP il
ĠB ar
ĠG ru
ru ll
ĠN e
raw ler
ĠZ h
ĠEl ves
ĠHor se
Ġevery thing
ĠWh ile
ĠUn icorn
Ġcreat es
ĠRav nic
H uman
e ker
i et
k ers
Ġ z
er ate
at ic
Ġb reak
Ġs aw
Ġs aid
ĠT em
Ġg ift
Ġin sp
le y
Ġe mer
ĠB ro
ri b
Ġre l
ke t
Ġcan not
Ġli ves
Ġex ist
iv ing
od on
Ġj our
Ġexp er
ĠHer ald
ĠSpell shaper
ĠMan y
Ġdark ness
ĠCom m
Ġcyc le
ĠCount er
rocod ile
A r
y e
re aker
Ġt rans
er a
in ing
ĠC ar
Ġs ub
or os
Ġf uture
Ġm ort
Ġl eg
Ġl egend
Ġh onor
Ġn ear
ol s
ol og
ĠR ing
he t
ch er
Ġst ud
Ġcast ing
Ġco in
ru it
Ġv is
av ing
ere r
keep er
Ġwas n
Ġrem em
Ġpre c
ĠDe ep
Ġtri g
Ġey e
Ġtre es
ĠArc ane
e el
Ġc ou
in er
in ity
ĠC rocodile
Ġd u
Ġd un
Ġan gel
Ġm adness
Ġh o
ĠA z
ĠA ether
ra k
ĠI m
as k
Ġst orm
Ġex iles
ĠO b
ill ed
row s
Ġad v
Ġbeh ind
E L
a os
b ers
c ul
g uard
Ġc rime
Ġa ct
Ġb ones
Ġs im
Ġd ri
Ġf ree
ĠW atch
Ġw his
Ġm atter
ĠT ime
ĠT rans
ĠH om
ĠD awn
Ġwith in
ĠR ed
ĠP aladin
Ġst one
eg as
im ic
Ġsh roud
Ġcol lect
op y
Ġfight s
ann el
Ġsecre ts
a j
a ult
g an
i end
s ided
Ġc r
am m
it es
is her
st ic
Ġto gether
al ia
ĠS atyr
ĠA pp
ra p
ra sh
ĠD usk
ĠE f
ĠR ab
ĠR aven
ĠL evel
ĠB as
Ġre sp
Ġas k
Ġst icker
lock ed
im s
Ġlong er
ĠIn st
Ġmon arch
aus e
Ġel ves
Ġbel ieve
rid e
Ġlearn ed
lif erate
Ġgod s
Ġren owned
Ġphas es
ĠTy ran
ĠTur tle
A n
e al
i ath
j ect
Ġt ry
Ġt oward
Ġc or
Ġb ra
ow ing
Ġf ield
ĠW hy
Ġp aired
Ġm ark
ĠS m
Ġu nd
Ġg ot
ĠD ark
Ġn ec
ĠF rom
ĠF amil
ol ored
ĠM ist
Ġv ol
ul k
ĠAn cient
ĠCh im
ĠFl ame
Ġcl oud
Ġknow s
ĠMon st
pl icate
Ġkn own
ĠBattl e
ĠLeg ion
egas us
E V
a o
Ġ |
en ed
ar l
end er
Ġb reath
Ġm ult
ĠS av
if ic
ĠT er
ĠT itan
ĠH ost
Ġcontrol led
ol ve
ĠL EV
ĠM ay
he ad
Ġde cl
ĠO ut
qu is
ĠIn sp
ag es
Ġstep s
Ġless er
ound ed
ĠSl ivers
ener ated
Ġra ge
ĠMin ion
ĠRat s
ĠKra ken
ĠRavnic a
ĠLEV EL
_ _
k i
r ath
re t
Ġt ext
on in
Ġb orn
Ġs ent
is k
Ġp ain
ĠA ff
ĠH ow
ĠD read
ut su
as m
Ġturn s
ĠP rim
Ġli ve
ĠSp awn
Ġk ing
Ġwh y
ĠTh ough
ĠEl vish
ĠU nd
oth ing
Ġpre d
pt ion
Ġsur veil
Ġcreat ed
Ġcar ry
ĠGh oul
Ġes cape
ĠSpect er
Ġunb locked
Ġdun geon
W e
b org
c y
c yc
f ire
r is
u tl
er n
Ġa w
it u
Ġb ody
ĠC ur
Ġs ure
Ġf ier
ĠS age
ĠS warm
ĠD ream
Ġn or
ĠM o
ĠB est
ri es
id ence
et s
Ġgain ed
iz ed
Ġare n
Ġab ove
ĠIn fect
ag ing
ag ue
ak ing
Ġlo ve
ron t
ert ain
Ġgl ory
ros ity
Ġweap ons
uc ed
ĠFamil iar
C hoose
d ers
g es
p ose
s cape
Ġ ge
Ġa v
ĠC aval
Ġd one
el com
Ġm ere
ĠA rt
Ġin iti
ĠF ore
as on
ĠE nt
Ġe ight
ĠR iver
ĠP riest
ĠG ol
ch es
Ġsp eak
ĠO x
ĠV ol
ment s
ĠTh rull
ĠZomb ies
ĠSc ion
Ġout side
Ġcomp le
alt ed
ract ion
ĠPh ant
Ġfri ends
Ġfore ver
Ġloy alty
Ġspecial izes
ĠTyran id
c aller
h orn
i pp
r al
w ing
z an
in ct
ow ar
Ġs qu
Ġd estruct
Ġf le
Ġf ell
Ġw is
el t
Ġm o
Ġg old
ĠH igh
um mon
Ġde p
id ers
Ġv ill
Ġreturn ed
ĠPl ot
led ge
ĠSe a
Ġsu pp
Ġser v
Ġtr uth
Ġkn ew
Ġsoul s
Ġreg enerated
ĠGn ome
Ġsurv iv
Ġbu ild
Ġweap on
Ġbless ing
lan owar
ĠDisc iple
h i
h old
Ġc ent
it ed
Ġd ire
el ess
ro st
Ġm ar
Ġm ain
ĠT w
ĠE mb
ol ar
ĠR un
Ġsp ore
ĠSp y
ill s
Ġsh ow
ie ge
Ġta kes
ott en
Ġcomm on
ign s
form er
Ġexplo res
Ġfa ith
Ġdragon s
Ġbec ame
Ġben eath
cul us
ĠEf reet
ĠChim era
We atherlight
cyc ling
h a
k ite
p ers
r in
t wo
an i
it z
ĠC an
ĠC el
ĠW itch
Ġw ish
Ġan sw
st and
Ġto ok
ĠS al
Ġh ar
Ġh unger
ed ge
ĠA p
ĠT or
ĠT yr
um bl
ĠR a
ĠP y
ĠB ard
Ġsp read
ad a
Ġst un
ap s
ĠK am
ĠO utl
Ġsh ap
out h
ĠTh under
ĠEl ite
ĠGoblin s
ip er
op h
ĠPhyrex ia
Ġfl ame
ĠOr der
vent ure
Ġsk ies
ĠCl oud
Ġcomp anion
ĠGu ide
Ġev idence
Ġser ve
Ġbest ow
ĠNinj utsu
ĠHunt er
ĠHero ic
Ġmet al
Ġpur pose
ĠDis guise
ĠInd estructible
ĠExp lo
asc ade
ĠVe hic
c le
f orc
t he
at ely
ou p
Ġd r
or a
or row
ĠW here
ĠS ire
Ġl ine
ed s
ĠA ut
Ġg ener
Ġg riffin
ic es
ic olored
Ġon es
om at
ir in
ol f
ĠL ike
ĠM ult
Ġre al
ack er
rom ancer
ad er
ĠV et
ĠN ew
ĠN omad
ĠU l
Ġcho oses
ĠAr g
ĠCh annel
ĠMy stic
Ġpo int
ĠTo xic
Ġdead ly
Ġdis guise
Ġnat ural
rent ice
ĠUr za
Ġeas y
ĠAur as
Ġstart ing
Ġsy mb
ĠMonst rosity
ĠBest ow
e en
f igure
o ver
Ġ .<|
er m
Ġb ur
ĠC ou
Ġf ury
Ġw alk
Ġp ers
Ġm om
Ġh ors
if ul
Ġcon n
le g
ut ion
ĠR apt
he art
ĠB ush
lo y
im id
Ġv ampire
ian ce
Ġk ami
Ġown ers
ĠSt one
Ġcop ies
Ġcl aim
gre ss
Ġte eth
ĠCom p
Ġste el
Ġdanger ous
ĠVet eran
c c
c ept
d os
f er
n i
w ell
an k
ĠC y
ac red
Ġf un
ĠW ay
ĠW ill
ĠW ood
ro v
al king
ĠS u
ĠS om
Ġl evel
ed ition
ic ore
Ġcon st
ĠF all
as ant
ĠR u
ĠR aid
ĠL lanowar
ĠM al
ĠP egasus
id o
Ġattack er
Ġattack ers
Ġv ery
ĠSh ield
ist er
ist ed
un culus
th s
ĠEl k
ĠRe con
Ġch ange
ĠCh ar
Ġun p
Ġro ck
Ġar ri
pt s
ĠSe er
iss ary
ĠSqu ad
ĠWard en
ĠDes ert
Ġeffect s
ogg art
Ġsurv ive
oun c
ĠDom in
Ġmean ing
Ġbeaut y
Ġquick ly
ĠRak dos
1 0
R e
m e
at ure
Ġs ide
Ġs add
is ed
Ġf ood
ĠW ho
ĠW his
Ġan cest
Ġp oss
Ġm ast
Ġh arm
ĠA pe
ĠT ief
ra d
eld or
ĠF er
um ul
ĠL i
Ġfor ce
ch ed
ĠK eld
ru sh
ĠV i
ho v
Ġen c
ĠIn v
ĠSk ir
Ġher o
sp er
ator s
Ġpro liferate
ĠRo ot
ung le
ĠHell ion
hem oth
Ġvict ims
Ġdream s
Ġrep res
Ġchild ren
Ġjour nal
ĠTief ling
C h
j eldor
Ġ ve
Ġw ood
Ġp ot
al er
ĠS ec
ĠH ag
ĠM ost
ĠP ower
ĠP rot
Ġpl aces
et y
ue en
Ġsh ip
av im
ĠTh ief
Ġr ise
op s
ĠCon s
Ġfl anking
Ġgo ad
Ġwar ning
Ġru le
ĠY avim
ĠBl ack
ĠSwamp walk
und red
ĠSil ver
Ġcle ar
ĠRab bit
Ġwis dom
umul ative
E l
P l
b reaker
c an
e br
g otten
k a
o in
u ro
Ġt ree
Ġc ut
Ġth ird
in o
ure s
an ct
it t
ow ed
Ġs ong
Ġs leep
Ġd ruid
Ġf ull
ge red
Ġm ist
ĠS usp
il ity
ĠA st
ic ious
ĠI ron
ĠD ef
um m
ĠR ev
ĠR ad
ĠR amp
ĠL o
ĠM ant
Ġst ay
im ir
ĠK ob
ĠK jeldor
ĠO t
ul ate
Ġdraw n
ĠBe e
Ġme ans
ĠCon voke
ick s
Ġsc out
ran ge
ab al
ĠArch on
Ġsur f
ĠBl ade
ĠLif e
Ġte ach
Ġgu ild
att ered
Ġtre asure
ĠAtt raction
ĠPer former
Ġspirit s
Ġfamil y
ĠRob ot
Ġdu plicate
ĠTyr ant
ĠRecon figure
ĠYavim aya
ĠKob old
b ound
g ing
l i
n e
r ator
Ġt act
er ial
Ġc old
Ġc atch
end ik
Ġyou ng
Ġp air
ĠS and
ent ure
ĠA mb
ĠH and
ir ium
Ġbe gan
as ion
ĠE ye
ĠM or
Ġre qu
Ġre alm
Ġst reet
im mer
ĠO ff
ĠN othing
Ġv oice
un n
un ning
ĠZ endik
Ġwh ose
ĠSc ry
ĠJ ack
aw a
ort un
ĠAl ien
Ġpro v
ĠSer ra
Ġshadow s
ĠMar sh
ĠLe ech
Ġkeep s
ĠAtt ach
Ġdiv ide
Ġbec ause
ĠGuild mage
ĠHom unculus
Ġsymb ol
ĠRapt or
. .
A rtifact
d own
u v
v iv
Ġ /
re st
Ġt reat
Ġc our
in y
ĠC umulative
Ġs ight
is ion
ac c
ac y
ac ed
Ġl uck
if ied
ĠT ru
ĠH ear
ĠF le
ir t
ĠE mer
id ar
ĠN im
ĠSh roud
Ġk night
Ġreturn s
ĠAn other
Ġr ounded
ĠSt r
ang uard
ĠJ un
ish ing
Ġplaneswal kers
Ġgr oup
Ġad apt
ĠDom ain
ĠKeep er
Ġwarrior s
ĠSag as
Ġbeast s
ĠDel irium
ĠGru ul
Ġmult icolored
Ġdecl ared
Ġdestruct ion
ĠVehic le
ĠSire n
Ġhors emanship
l ine
m s
m ost
o h
s on
t acking
w h
Ġt ied
Ġc ross
Ġth reat
end ed
Ġs ign
Ġw izard
Ġw ake
Ġw elcom
ro ve
st alker
al ion
ĠS add
ent h
Ġh orn
Ġh ost
Ġh undred
ur t
ut y
ol ved
ĠR ider
ĠL ev
ĠL ore
ĠP ra
ĠP ack
ĠB og
ĠB oros
ri be
Ġre ady
ĠG eneral
Ġfor ces
ch ing
ain ed
ĠO m
ru n
iv en
Ġv i
ul s
ash ino
ĠWh ite
Ġra re
ĠOrc s
Ġtru ly
Ġev il
Ġte am
At tacking
Ġfo ot
orp ion
orp se
Ġbro ken
idd en
orce rer
ĠGe ist
Ġremem ber
ĠBush ido
Ġsadd led
Ġrepres ents
Pl ayers
ĠZendik ar
g ar
n ce
n aut
Ġt err
Ġc he
Ġa ff
Ġb ad
Ġb ird
ĠC ry
ac ious
ac tly
ro ach
Ġp rom
Ġm ach
Ġm iss
al a
al con
ĠS el
Ġl aw
ent y
ur ies
ĠT e
ic ian
le ctor
as ed
ĠE nd
Ġe ager
ĠR el
ĠP rotect
Ġst range
eg ade
Ġex actly
ĠO ver
iz z
to oth
Ġsh aman
ter m
ĠBe hemoth
ĠSt alker
ĠDragon s
Ġsc ream
ĠRo le
Ġres earch
iss a
ĠMut ate
Ġfollow ing
Ġcall ed
ĠHell kite
ĠMir rod
Ġfri end
Ġcont in
ĠAg ent
Ġne ither
ĠPe asant
Ġchar ge
Ġlegend aries
ĠApp rentice
ĠRaven ous
imid ate
ĠSusp end
Ġsurf ace
Artifact s
ĠSadd le
ĠLev iath
ĠMirrod in
U nt
b asic
d ay
e aker
i o
n s
n ed
t ide
z hov
Ġ gh
en om
in it
ar ia
ĠC ap
ĠC opy
Ġs av
Ġs ummon
Ġf ly
ro at
al ish
Ġl ist
Ġg one
Ġtarget ed
ĠM ur
he ther
ĠP ur
ĠP ers
ĠB el
ĠB ra
ri ad
ch ief
Ġde m
ad em
ke ts
ct ion
ĠK al
ĠK ros
ĠV oice
br inger
est s
bl ack
ĠTh orn
Ġcom ing
ĠEx alted
ound s
ĠKnight s
ang le
ĠCon tra
Ġshuff les
Ġpre s
ĠWe aver
Ġred uced
Ġenchantment s
ĠOr zhov
Ġag o
ĠAd ept
Ġsur p
cl aw
ug ger
ĠIsland walk
ĠQ ueen
Ġtru st
Ġpe ace
Ġsom etimes
Ġsecre t
Ġvict ory
ĠAven ger
Ġclo se
ĠGre en
Ġwait ing
ĠPat rol
Ġwall s
Ġtrig gered
Ġcloud s
ĠFle et
Unt il
init ely
2 0
c at
i qu
o z
Ġ ir
Ġth under
am mer
ĠC abal
Ġs ol
Ġf ade
Ġw urm
Ġm us
Ġm egamorph
ĠS imic
il isk
Ġh it
Ġh op
ur b
ĠT al
Ġyour self
urn ace
ĠH al
ĠF rost
ut ter
ĠR az
ĠL oy
ĠM od
ĠM em
ĠB ald
ri e
Ġst ar
id ing
ap h
im ent
ĠO l
ies t
ĠV anguard
dd en
th irst
Ġnot es
Ġway s
ĠHor s
ĠEn gin
Ġtra ined
Ġsl ow
Ġfe et
Ġdes ign
Ġhunt er
Ġhunt ing
Ġgu ide
ax im
Ġmut ates
Ġhigh er
wor ld
Ġshare s
ĠHar vest
ĠSent ry
ĠCol oss
Ġlead er
err ard
Ġsil ent
ĠSur viv
Ġtem pts
ĠBand s
aught er
oly te
ĠAug ment
ĠAff inity
omat on
Re veal
ĠJack al
Ġcour se
ugger naut
b t
d ge
f ish
g ari
h an
r r
u ge
Ġ eld
Ġt aste
en tly
am bl
Ġb one
ĠC rus
Ġs uff
Ġd ice
ĠW ere
Ġan g
Ġp le
Ġm axim
ĠS et
Ġl ar
ĠA nt
ast es
ĠF iend
as a
Ġe mb
ĠR ep
ĠM adness
ĠM egamorph
ĠP o
ri on
ri ble
Ġcount s
Ġsp ec
ck less
Ġli es
Ġv enture
our ge
ĠIn n
ĠIn iti
ĠU nl
Ġnon e
Ġnon black
Ġam ass
ĠSc orpion
ĠSt ar
ĠSt reet
ĠSt eel
sh ift
yp e
Ġgre w
Ġher d
Ġar ch
ĠAd apt
Ġknow ledge
Ġru ins
oc us
Ġmonst ers
Ġhigh est
ĠGr and
lif e
itter ing
ĠEm issary
Ġfore tell
ĠMoon folk
ĠLight ning
ĠGor gon
Ġtrans form
Ġcou rage
Ġmere ly
ĠGol gari
Ġvampire s
ĠSom etimes
ĠVi ashino
ĠLeviath an
. '
b ond
b ook
d ig
h il
u al
Ġ ou
en a
en n
Ġc ertain
am ing
am ent
Ġb right
ĠC al
ĠC ao
Ġs ave
Ġs acred
Ġd en
ame d
Ġf er
Ġf avor
ĠW ither
Ġm is
ĠS tro
Ġh aunt
Ġh app
if est
ĠT ower
ĠT ree
om s
Ġin n
ĠF ar
ut en
ir l
ir ation
Ġbe ar
as her
Ġent ire
ĠM e
ĠP ath
Ġend less
ell ation
Ġst ir
ĠSp l
ĠSp r
od ies
ig ator
ect s
ere t
th y
are n
Ġal ong
ĠRe c
Ġch aos
ĠJ uggernaut
Ġun f
Ġro ots
Ġpre p
ĠEn forc
unt er
Ġwere n
Ġpro du
ren z
Ġmill ed
ĠConst ellation
Ġsw amp
ĠDwar ven
ĠEv oke
Ġarm s
Ġarm or
Ġcreat ions
Ġdiffere nce
Ġass igns
Ġsword s
olt ari
Ġmount ain
Ġhuman s
ĠNec ron
Ġcru sh
Ġsaf e
ĠBen alish
Ġz one
ĠComm ander
ĠEmb alm
Ġmom ent
acc oon
ĠProtect or
ĠContra ption
E x
i or
v a
re ck
Ġt own
at ers
en ing
Ġc omb
Ġa p
it ory
on a
Ġs end
Ġf oul
ĠW orm
el ly
ard s
Ġm aking
al an
al ed
Ġl ot
Ġh om
Ġh ung
if act
Ġg ave
ra ith
ĠD imir
Ġin f
um e
ol as
ĠL av
ĠP r
ĠB y
ĠB urn
ĠB one
ĠB att
ĠG ar
ch ange
ch olar
ad ing
ĠHuman s
ĠSp ike
Ġsh arp
ul pt
Ġab s
our s
Ġunder stand
Ġnon basic
ter n
art ifact
wal d
ish ra
Ġwe ak
Ġpre fer
ab ly
Ġlast s
Ġsw ift
ĠDev our
Ġhear ts
ĠIsland s
Ġtw isted
Ġbel ow
Ġfo ol
Ġgrow s
Ġfew er
Ġste al
Ġes cap
Ġpr ice
Ġeas ily
ĠGra ve
Ġwild s
Ġflash back
ĠScaven ge
Ġworth y
ĠWor ld
ĠMet al
rib ute
Ġexper ience
Ġav oid
a un
b s
d a
h unter
k ir
r ict
w art
w olf
y s
y al
Ġ ill
Ġ ide
er on
er ies
Ġc aptain
in a
in ess
ure d
ess ig
Ġs ick
Ġd awn
Ġf lo
Ġf ail
Ġp ar
Ġp ure
Ġp et
Ġm age
al ist
il it
il ing
Ġg iven
ef initely
ĠH el
ĠH arb
ir th
Ġe mp
Ġe ternal
ĠR i
ĠR ig
ĠR ub
ĠL ie
ĠB ell
ĠG ho
Ġsp eed
pp ing
her d
Ġst ru
Ġli e
ight s
iz ier
ig awa
Ġdo or
Ġsh ell
ĠSh iv
ĠAs h
ĠAs cend
Ġnon artifact
ĠSc ar
ĠRe cl
ĠFl anking
Ġhe av
Ġwho le
Ġsk in
Ġind efinitely
ĠY et
Ġsl ivers
ĠForest s
we aver
Ġdes cend
ĠGu est
Ġlight ning
ĠHar p
Ġcru el
ĠServ ant
Ġexert ed
ori us
ĠPil ot
Ġmort al
Ġangel s
Ġadv ance
ĠCaval ry
ĠKam igawa
ounc il
Ġancest ors
ĠStro m
uten ant
ĠGho st
* ,
T h
b a
g m
m l
n ey
r um
s y
Ġ ke
Ġt ro
Ġc ult
Ġc apt
Ġa ven
Ġo gre
Ġb al
ĠC ut
Ġs elf
Ġs ail
is a
is er
is ing
ower s
ĠW ell
ĠW ander
Ġw ield
Ġan im
Ġto xic
Ġm ess
ĠS anct
ed e
ĠT wo
ĠT angle
ic id
ĠH ist
ĠI zz
ut t
and ra
Ġe arn
ĠR accoon
ĠL ur
ĠM ark
ĠM ouse
ĠM ishra
ĠB u
Ġfor gotten
ong ue
ĠV or
iv il
ĠSp ecial
Ġany one
ĠN on
ĠN or
ĠN eph
Ġbegin s
Ġpower ful
ian a
Ġk icker
ĠZ eal
Ġse es
ok a
ĠAn im
Ġr ats
ang u
ord e
ĠFl esh
Ġhe ard
ĠVampire s
ost er
Ġj ungle
Ġro se
Ġred u
ĠPl ague
Ġus ed
Ġri de
rough t
Ġtri b
Ġfight ing
ĠBlood thirst
Ġpart s
oy f
aut hi
Ġneed s
Ġmind s
ĠCol lector
Ġbu ilt
ĠAc olyte
ĠUr borg
Ġext ra
Ġhor ror
ĠInf ilt
Ġpat rol
ĠNy x
Ġvot es
ĠBro od
olog ist
Ġstud y
ĠIm m
ĠRa ider
loy ee
Ġmast ers
uv ian
Ġterr itory
Ġou tl
ĠLie utenant
ĠIzz et
R ather
b ane
i os
i ok
k n
p herd
u ber
w ater
y a
Ġ ign
Ġt ales
Ġc raft
Ġo cc
am ander
on t
Ġb an
Ġb ran
ĠC all
ĠC ult
ot ed
ot ype
is es
Ġd est
Ġd ance
ac eful
Ġf ill
Ġf elt
Ġw hether
ge ant
Ġp row
Ġm outh
al ian
ĠS orcerer
Ġl oss
ed d
Ġ1 2
Ġg en
Ġcon f
ĠD ri
ĠD ire
ĠF orm
ir ing
and on
um b
ĠE nl
ĠE ver
ĠL ead
ĠB efore
Ġre ally
Ġre pl
ĠG rim
Ġfor t
Ġde t
ad ian
Ġst ory
ĠK essig
ĠO j
ĠO ld
ĠN ever
Ġv an
ath om
Ġbl ades
ind ing
ag a
ĠSc ourge
Ġal most
sh roud
ove re
ĠJ und
ĠPhyrexian s
wal ker
Ġfl avor
aw k
Ġgo ing
pt y
Ġexp end
Ġexp ress
atch er
Ġevery one
Ġru les
ud e
cl ave
anc es
ĠForest walk
be ast
Ġfe ast
Ġcomp an
Ġsome one
Ġsay ing
Ġev oke
rid ge
Ġsu c
ĠSoul shift
Ġexplo its
ĠBack up
ĠMage craft
ĠEmp loyee
ĠProw ler
Ġmount ains
Ġdef ense
Ġbeaut iful
ĠInc ub
ĠInc arn
ĠServ o
rupt ed
ĠBas ilisk
ific ations
ĠPhant om
ĠCel ebr
ĠCou rier
ĠComp anion
Ġpot ent
ĠPower stone
ĠHear t
Ġvi ol
ĠPers ist
ĠLoy al
ĠIniti ate
Ex ile
ĠBatt alion
ĠInfilt rator
A ctivate
E qu
S t
T K
a ab
b on
c i
c ore
c hem
h aps
k night
l v
l ic
o j
r ay
u el
w ind
re ep
Ġt al
Ġt ide
er or
Ġc as
Ġc rew
in ner
it ness
it ting
tl ing
Ġs and
is m
Ġd uty
Ġf ate
Ġf ears
ĠW raith
Ġp ie
al wart
il os
il iana
Ġh ive
ur k
ĠT her
Ġg ives
ĠH ope
ĠH ouse
ĠD ar
ĠD rom
ĠD ash
ĠD uring
ĠD authi
ĠF ew
le t
ol ly
ĠR age
ĠL ong
ĠL ost
ĠB et
Ġre b
Ġfor ge
ore s
omb er
ĠK ill
Ġman ifest
ĠSp ark
ĠN ature
Ġsh ort
ect or
ĠSh ip
Ġpower s
Ġen s
ĠAs p
ag g
Ġno ble
Ġr an
art es
sp ring
Ġlook ed
ĠFa ith
ĠFor ce
ĠMon key
ĠBl ight
Ġgr and
Ġel e
Ġdes er
Ġhunt ers
ps es
ĠEqu ipped
att ers
Ġfo es
uk o
Ġmight y
up he
Ġcle an
Ġmin otaur
enge ance
ĠScaven ger
Ġvis it
ĠAether born
ĠExplo it
Ġunp aired
ĠProt otype
ĠAst artes
ĠMant icore
Ġtact ics
ĠBald uvian
ĠHors emanship
Ġmaxim um
ĠEnforc er
ĠMetal craft
Equ ipment
G eneral
a gh
a gin
b o
c r
c ent
c ast
c ity
f or
f ang
g l
i am
m ph
o ker
p ered
r one
r ise
u ous
z en
Ġ Ã
Ġt ale
ar o
ot e
ow stone
Ġs ho
Ġs ense
Ġd ust
Ġd ash
Ġf ast
ard u
Ġp ri
Ġm ass
Ġm atch
Ġl ab
il er
ay s
ay ed
Ġ2 0
ĠH a
om ination
ĠF ang
um p
ĠE t
ĠE sper
ol arian
ĠR ip
ĠL icid
ĠM ardu
ĠP it
ĠP red
ĠB oggart
ri g
ĠG ri
ĠG ain
ack s
Ġsp ark
Ġde term
os ing
id ent
Ġspell book
Ġv enom
ig er
Ġdo g
ul f
ere st
Ġall ies
ĠTh ought
hy s
Ġal ive
ĠSt rider
Ġme al
Ġj oin
Ġwor se
ĠWe ird
ab it
ĠOr acle
Ġcomm it
Ġcl ash
Ġcl aws
Ġwar m
ĠHe aler
ron gh
ĠWh ale
Ġgr ant
ens es
fin ite
be arer
au gh
Ġim m
Ġim agin
ĠSoul bond
ĠPro p
ĠLe onin
ĠSil ent
Ġwon der
Ġlet ter
Ġfin al
Ġsold ier
Ġsusp ected
eph al
Ġsaf ety
ĠEternal ize
Ġmem ory
ĠGold en
Ġsim p
Ġvol can
ĠInsp ired
ĠUnd ying
Ġcent uries
ĠOutl ast
ĠKeld on
Ġstreet s
ĠColoss us
Ġang ry
overe ign
a ff
c o
c aster
e et
e ash
g en
i ac
i us
l s
l ers
m o
m ir
m aw
y ed
Ġ ice
Ġt all
er d
Ġc ap
on ic
Ġb ite
Ġb ound
Ġb odies
ĠC r
ĠC er
ĠC ome
ĠC ascade
is an
Ġd inosaur
Ġf ur
Ġf ine
ĠW u
ĠW ater
Ġw and
Ġw ear
Ġto ld
Ġto day
Ġp ir
Ġp ride
ĠS ig
Ġh um
ed ic
ve red
ĠH o
ĠH aunt
om ancer
Ġin cl
Ġn um
ĠF e
um i
ol ution
ĠR am
ĠR ath
ĠR evel
ĠM ast
ĠB ur
ĠB rawler
ri ed
ĠG en
Ġsp l
ant uko
id night
ĠO uphe
ĠV an
ĠV od
Ġv ast
ĠSh ambl
ĠWarrior s
man e
our n
ag on
ĠEx t
ĠSt alwart
Ġch ose
ang ler
ĠCh aos
row th
ĠCon clave
Ġun sp
ĠSk yc
ĠSk ull
Ġar rows
ort al
Ġwhen ever
ĠAd venture
Ġri dd
Ġri ver
Ġtra ining
Ġjust ice
Ġqu ite
Ġqu iet
ĠWol ver
ĠSe eker
ĠShe pherd
Ġtw enty
Ġbel ong
Ġapp ear
Ġfall en
Ġpass es
ĠCo al
ĠMag us
ĠEm ber
Ġem pty
ĠDu el
ĠUnder world
ĠSy lv
Ġmod ified
Ġmod ifications
Ġwr ong
Ġemer ge
ĠComm and
Ġresp ect
Ġmark s
Ġgener ations
erm in
ni hil
ĠRu in
ĠChar ger
ĠDomin aria
ĠOt ter
ĠMarsh al
Ġwelcom e
ĠCry pt
ĠMod ular
ĠYet i
Ġexpress ion
rongh old
Ġsimp ly
E nt
P ay
a ud
b y
b reak
c ed
e em
f ort
f orce
g rim
o int
r am
r ate
r ine
t ime
u x
Ã »
er i
at eg
Ġc aught
Ġa ether
Ġb reed
ĠC ity
ĠC ephal
Ġd rop
or ious
Ġf ought
st rike
Ġm or
Ġm ine
ĠS oltari
ĠS cholar
ĠS overeign
Ġh ur
Ġh ers
ĠT ro
ĠT im
ĠH ollow
ĠH ipp
Ġin ter
Ġn ames
ĠF an
ĠF urnace
ir c
um gar
as ing
Ġe ars
ĠR ot
ĠR id
ĠL ion
ĠL aw
ĠL iving
ĠM elet
ĠB ring
ĠB ody
Ġas h
ĠG ae
Ġst ri
rt h
lock work
ĠK y
ong er
to g
em ere
ĠSh u
ath ers
Ġab andon
ĠGo at
Ġbl itz
ĠIn quis
sh ot
ord s
ord er
Ġhe at
Ġfl ames
ide on
ĠEn rage
ia ble
ĠPl ayers
Ġlook s
Ġexp edition
ĠAd v
Ġsk ull
Ġsacrific ing
Ġra d
Ġra ised
Ġtra in
Ġgr ace
anc ed
ĠOrc ish
Ġsm ash
Ġbel iev
itch er
Ġnight mare
ĠMount ains
Ġgu ess
Ġsour ces
Ġforest walk
ĠAtt end
Ġdist urb
ĠAb zan
Ġmer folk
ĠAur iok
Ġbo oster
ĠBal oth
Ġgiant s
ĠRen egade
Ġquest ion
Ġtrig ger
ĠAz orius
Ġaw aken
ĠFore tell
ĠSal amander
ĠAut omaton
ĠPra et
Ġrare ly
ĠKros an
iqu e
ĠSet ess
ĠRec ruit
ĠHarp y
Ġtrib ute
ĠIncub ator
ĠWolver ine
Ent er
ĠGae a
emere f
V ec
b ut
e ous
f oot
g o
i ator
s a
t ers
w all
y m
at ural
at li
en ch
Ġc ascade
es a
an tly
am er
Ġb ri
ĠC omb
ĠC ho
ĠC inder
ĠC ouncil
Ġd ou
ac yn
Ġf ish
Ġf aces
Ġf igure
Ġw ing
Ġw aste
Ġw aves
Ġw ander
st orm
Ġp ile
Ġm oon
al ks
ĠS ar
Ġl ow
il der
Ġh at
ĠT in
ĠT el
Ġ1 1
ĠH orn
ĠI x
ĠD en
Ġin vent
ĠF alcon
as p
ĠE id
ĠE gg
ĠE arth
ĠE scape
ol is
Ġent ry
ĠM ore
ĠP et
ĠB ant
Ġde mon
Ġst o
Ġst at
ant u
ant ry
ĠK en
ĠK in
ĠO f
ĠO h
ho k
ho od
iz on
Ġv ers
ill a
Ġk in
Ġk or
th roat
ĠSold iers
Ġinst inct
ĠAn cest
ip s
Ġr ich
ak ed
ĠJ elly
Ġwe ight
less ed
ĠSk aab
Ġwor ry
ĠSer aph
ĠBl itz
Ġqu een
Ġres ist
ĠWol ves
Ġdra kes
ĠEv olve
Ġad venture
ĠAv acyn
Ġarm ies
Ġdes p
its une
Ġac c
ĠSky shroud
Ġsu dden
Ġoff er
ĠPro dig
ĠSil umgar
Ġmag es
ĠTr acker
ĠMir ror
Ġreg ular
Ġdiv ided
Ġbr ings
ĠEm rak
ĠEmp ire
Ġwin ter
olt en
Ġdef e
ĠInt imidate
ras her
ĠAug ur
ĠNe uro
ĠZh alf
Ġleg s
Ġwhis pers
ĠTrans form
ĠOut rider
Ġpred ators
Ġiniti ative
Ġvill age
Ġhar vest
ĠArg oth
Ġpers on
Ġconn ives
ĠCons ulate
ĠOff spring
Ġeld er
ĠWere wolf
Ġfer oc
ĠZeal ot
chem ist
ĠEmrak ul
ĠNeuro k
A N
P h
S c
S h
b ly
g est
h ide
h ort
p ur
s l
u ght
v ation
w olves
x e
z ed
Ġt or
Ġt est
Ġt roll
at a
Ġc ivil
Ġb ar
Ġb us
Ġb irth
is i
Ġd well
Ġf il
Ġf act
Ġf olk
ĠW ing
Ġw ond
st em
Ġp ick
Ġp riest
Ġm al
al y
ĠS im
ĠS iege
il ess
Ġh ate
nt h
ĠA h
ĠT ri
ef eri
ra x
ra id
ra fter
ĠH ead
ĠH ob
ĠD ist
Ġin h
Ġin fect
Ġin side
le ase
ut ai
um n
as er
ol ute
ĠR im
ĠL ox
ount y
ĠM ill
ĠP ain
Ġre ward
Ġfor get
Ġsp ect
ad s
Ġst om
Ġst ick
ep ar
Ġget ting
Ġput ting
et ic
im ate
ĠK irin
Ġex amp
ĠO w
ĠV oid
iv ien
br and
br ace
Ġv engeance
all i
ĠWizard s
Ġk ithkin
ĠZ uber
ĠIn k
ĠTh ass
ĠTh rab
Ġta king
one y
Ġwould n
ĠRe aper
ĠRe ckless
Ġch all
Ġch ance
ove red
Ġwill ing
Ġmy r
Ġfl ight
Ġun att
Ġro ar
Ġgo es
ĠEn core
sp eaker
ĠAl ab
ĠMy riad
az ing
Ġus ing
ĠRo ck
ĠMon ster
ĠAss em
ud ge
Ġform er
Ġel vish
ĠPir ates
ful ly
ĠSe e
Ġhim self
Ġsm ell
Ġsay s
Ġac cept
Ġfollow s
Ġfire s
Ġcall s
Ġint ens
ĠDes p
ĠArc bound
ĠAb omination
Ġhead s
Ġfin ality
Ġsusp ect
Ġwind s
Ġcur rent
ĠGre ml
Ġdisc over
ĠRen own
ĠTrans m
ĠPhant asm
Ġansw er
ĠWhis per
ĠJun k
Ġsummon ing
ĠBurn ing
ulpt or
ĠHarb inger
ĠRig ger
ĠMark ov
Ġbran ches
ĠIncarn ation
ĠSig ard
ĠDuel ist
ĠThass a
ĠThrab en
A l
C aptain
T arget
b ow
b ur
c ing
h ir
h urg
i od
j oy
o ves
s ion
u pp
u ld
u atli
v y
w urm
y l
z umi
Ġ er
Ġ edge
re ci
Ġt ask
Ġt unn
en tless
Ġc orpse
Ġa ut
Ġa wo
Ġo dd
in th
es k
es ny
ft ain
am a
am og
end ing
Ġb ond
Ġb oon
Ġb rought
ĠC ru
ĠC arn
ĠC aller
ĠC rawler
is ay
Ġd war
or ian
or ous
Ġf ang
Ġf reed
Ġf ruit
Ġf illed
Ġf ront
Ġw ise
Ġw aters
Ġto m
Ġp un
Ġp ract
Ġm ad
ĠS or
ĠS ub
ĠS yr
ĠS leep
ĠS eng
Ġl ack
Ġl ines
ent ion
Ġh ell
Ġh aven
ĠT iger
ic ken
ĠH ound
ĠH aven
ĠH onor
ĠH unger
ĠI ce
ĠD ep
ĠF ound
ĠF ort
ir m
and ed
ol on
Ġe gg
ĠR ho
ĠR oll
ĠL ancer
ĠM ach
ĠB ad
ĠB all
Ġre ality
ĠG er
ĠG ive
ĠG rix
Ġis land
Ġst ood
ĠK ol
ĠK her
Ġco ver
ru k
ru its
ĠV old
ĠV ision
ho d
old red
ther ium
ie ftain
ble m
bl ed
all id
ere n
ĠTh ree
ag ger
Ġnot ed
ĠSpirit s
Ġta ught
ip l
se eker
ĠSl ug
Ġme asure
ĠCon jure
Ġj ob
ĠWe i
ĠAngel ic
unt ie
raz en
atch ling
Ġpro cess
Ġcl an
Ġcl aw
ĠFa ir
ĠWall s
Ġra in
ĠAss ist
Ġreach es
oc ate
ĠDo om
Ġph ilos
ĠNight stalker
Ġad m
au der
ik a
rog en
Ġte ch
ĠMar auder
Ġapp reci
aver n
ĠAtt acking
Ġfo e
ĠBut cher
ĠDes cend
ey e
ĠCo ven
ĠCo hort
Ġkill ed
Ġdist ance
Ġprevent ed
Ġfri ght
Ġart ist
Ġsil ence
ĠAc c
Ġclo ser
Ġcons ists
ĠRes tless
vers eer
Ġbig ger
Ġimp ort
Ġhold s
ĠNy mph
Ġseem s
Ġvot e
ĠPil grim
ĠTem p
Ġprec ious
ĠWatch er
ĠInst ant
Ġcor pses
Ġcomple ted
Ġfle e
Ġgold en
Ġdep ths
Ġserv ice
ĠExplo rer
ĠUl amog
ĠCy borg
ĠKjeldor an
ĠBee tle
ĠSel esny
ĠSpr ite
ĠCut throat
ĠSpecial ize
Ġhorror s
ĠLead er
ĠVod alian
ĠCoal ition
nihil ator
ĠEid olon
ĠProdig y
AN G
ĠLox odon
Ġexamp le
ĠZuber a
Ġunatt ach
Target ing
hurg oyf
ĠSeng ir
ĠGrix is
ĠVold aren
ĠSelesny a
C lan
D uring
T a
g rowth
i ge
k ki
m aker
r ation
t i
t am
t ail
Ġt end
en ger
Ġc at
Ġc oun
Ġa rtificer
Ġa head
an ar
an ged
end ary
it ude
tl es
Ġb ol
Ġb ell
ĠC he
ĠC lo
Ġs at
Ġs ought
Ġs warm
Ġs epar
Ġd im
Ġd ig
Ġf al
Ġf ocus
Ġf uel
ĠW and
Ġw ent
Ġw ave
el ee
ro an
Ġm ilit
ĠS ol
Ġl augh
Ġh eld
Ġh aving
ur ch
ĠT act
ĠT ry
ĠT ales
ĠT aj
Ġg n
Ġg ard
Ġyour s
ĠH az
ĠD ale
Ġin fl
ast ed
ĠF ury
ir cle
and s
um in
ĠE r
ĠR ef
ĠL hurgoyf
he el
ĠB ru
ĠB razen
ri k
ach er
ĠG al
Ġst ories
id ian
id able
Ġex change
iv ia
ĠN ull
ĠN aya
ig an
ĠWar lord
ie w
em age
ul er
ĠSh ark
all s
ath ar
Ġen gin
Ġse ed
Ġnot e
Ġta ken
ĠBe arer
ĠBe hold
Ġr ot
op l
ak os
ĠSt e
Ġle aving
ĠCh ain
ĠCh ron
oth ers
Ġmy th
Ġmy self
ick ster
Ġun s
Ġwor ks
Ġro am
Ġro ot
Ġpre t
Ġlook ing
Ġsk ill
Ġthough ts
ĠAll iance
cl aim
ĠY u
Ġres olved
Ġsl iver
arg ing
be y
Ġoff ering
Ġapp roach
ara oh
Ġass em
Ġpass ed
Ġactiv ating
ey sa
ĠBo ast
bel t
Ġgrow th
ĠTr ickster
Ġdiv inity
ĠDevil s
Ġhist ory
ĠAc adem
Ġstrong est
ĠNec romancer
Ġfeed ing
Ġheal ing
Ġphas ed
ĠInt er
Ġinc ub
Ġdel ight
Ġref lect
Ġmem ories
Ġtravel ers
ĠSag a
Ġsim ple
Ġking dom
Ġfier ce
Ġshap e
Ġgriffin s
Ġreal ized
leg endary
ĠInv oker
Ġrequ ires
Ġtreat ed
Ġknight s
Ġbird s
ĠRaz or
ĠEngin e
ĠHarvest er
Ġtransform s
Ġhung ry
ĠRi ot
ĠRub ble
sy ch
ĠOj utai
ĠDrom oka
agh an
ĠRip tide
ĠPred ator
mo or
Ġridd le
ĠInquis itor
ĠAttend ant
ĠPraet or
ĠComb ine
Ġawo ke
Ġtom orrow
ĠGer alf
ĠKol aghan
ĠVision ary
G errard
T ail
c utter
d en
d og
f ast
k o
l ave
m ate
n o
n arch
o a
v al
y ll
Ġ ramp
Ġ elf
re g
ou m
Ġc alm
Ġa f
Ġa id
Ġa im
Ġb ow
Ġb ug
Ġb oggart
ĠC ave
ĠC reep
ess ian
Ġw olves
Ġw alks
el ter
Ġan ger
Ġp ost
Ġm en
Ġl ate
Ġl av
Ġl aws
Ġh on
ur ity
ur sed
ĠT olarian
Ġg ather
Ġcon v
Ġcon qu
ĠI g
ĠD ay
ĠD ec
attl e
ĠF in
ĠF ri
ĠF alken
Ġbe ings
Ġbe ars
ĠE z
ĠL ady
ĠM ogg
ĠB olas
ĠB lessed
ĠB ANG
Ġre ad
Ġre pe
Ġfor th
lo g
Ġst ra
Ġst eed
Ġst ars
Ġst ones
os ition
Ġatt em
Ġli z
ĠK n
ĠO thers
Ġopp ortun
ĠV ess
ĠV ir
ĠV enge
ĠV izier
ho ira
br icate
ĠN antuko
est ial
Ġsh ift
ther n
Ġhas n
av igator
ĠSh rine
Ġen joy
ĠTh ousand
ĠTh allid
ĠU p
Ġnon legendary
ĠDra ft
Ġam b
ĠSc ient
ĠSc rap
ead y
ash i
se en
ĠCh ild
ĠCh andra
oth s
ĠSl ith
Ġme et
Ġsc rap
Ġar row
sp ass
Ġplan e
az er
Ġsee king
Ġsee ks
Ġpro p
ĠWh ip
ĠFor ge
ĠArch angel
Ġform s
ĠBl ad
anc y
Ġdev our
per ate
Ġneed ed
ĠImp erial
Ġsu per
Ġafter life
At a
Ġroll ed
Ġass ault
ĠQu icks
ah ng
ivers e
Ġwatch es
uth less
ĠMag ic
ĠBr ute
Ġstand s
itor ial
Ġmer chant
Ġem brace
ĠLook out
ĠMountain walk
ĠAk ki
ĠAk oum
Ġsusp end
Ġcur se
Ġbro od
bit er
Ġresult s
Ġbless ed
Ġburn s
ĠDu o
Ġdisc overed
Ġsy stem
ĠVal iant
ĠBen alia
Ġter ror
Ġter rible
ĠCor rupted
ĠTem ur
Ġmort als
Ġstorm s
Ġcr ack
ĠInst ead
ĠCaval ier
Ġsupp ort
umbl ed
Ġdr ink
ĠFall en
Ġrock s
Ġdruid s
Ġmist ake
Ġmach ines
Ġsurp ris
ĠCrus ader
Ġinn oc
Ġescap es
Ġsick ness
ĠRecl use
Ġdescend ed
ĠHist ory
Ġcompan ions
Ġele mental
Ġincl ud
Ġhers elf
ĠAncest or
ĠJelly fish
ĠGreml in
ĠWand erer
ĠTact ician
ĠAcadem y
Ġincub ate
ĠFalken rath
ahng arth
G h
M ir
b b
b loom
f ess
f iend
g ra
h on
l ict
m ing
m ind
m ark
r ill
s mith
t ered
u ed
w are
Ġ ing
Ġ il
ou red
ou rer
ou rth
Ġc amp
Ġa rtif
Ġth row
Ġo ath
in force
es is
ft s
it er
it ation
Ġb it
Ġb og
Ġb ounty
ĠC os
ĠC old
ĠC orpse
Ġy es
Ġy ear
Ġs oft
Ġd om
Ġd ying
or us
Ġf re
Ġf ather
Ġf air
Ġf rag
ĠW alker
ĠW itness
Ġw o
Ġw itch
ing ers
st eel
Ġp en
Ġp ull
Ġm iles
al akos
ĠS a
ĠS ure
ĠS to
ĠS ult
Ġl ed
Ġl ord
il ver
Ġh ot
Ġh our
Ġh air
Ġh ouse
ur i
ur s
if e
if ier
ed ron
ĠA untie
ĠT ell
ĠT enth
Ġg arg
ev i
ev ol
ĠD ran
Ġin finite
ĠF o
ĠF el
ĠF ield
le ader
Ġor ders
ĠE dge
ol en
Ġe ats
Ġe ating
ĠR aging
ĠL ich
ĠL iliana
ĠM eph
he im
ĠP est
ĠP ride
Ġas p
ĠG ore
ch s
ell ig
Ġsp r
Ġsp ear
Ġsp ring
lo ss
ĠK een
ĠK oz
rif ying
ĠO verseer
ĠV ill
ile k
ĠN ak
ĠN orn
us her
ire less
em pl
av oc
ĠGo ad
th ough
th ree
Ġwh om
Ġbl ind
Ġown s
ĠSc ra
art yr
ĠEx c
Ġch ain
ang ers
ph a
Ġle onin
ĠCh rom
ĠCh ief
ĠCon t
ĠCon du
Ġso c
ond or
Ġexp ect
Ġus ually
Ġsk ills
ĠHe av
ĠFa bricate
Ġru in
Ġsur r
Ġsur ve
Ġsw eet
rim son
Ġtra pped
anc ers
iff s
Ġsecond s
itch ed
Ġdis pl
Ġtr ick
Ġexplo rer
ĠMan a
Ġpass ion
ĠGh ira
ĠTr uth
Ġdist ribute
Ġguard ian
Ġlead s
Ġlead ers
ĠPer haps
ĠEmp ires
ĠEmp eror
Ġstrong er
Ġground s
Ġfeed s
cess or
Ġburn ed
ĠInf antry
ĠExp edition
sw orn
Ġref uge
arp adian
Ġtouch ing
ĠPar agon
iet y
Ġinsp ire
Ġinsp iration
Ġjour ney
Ġho oves
Ġask ed
Ġfield s
ĠTer ror
Ġfier y
ĠWay f
Ġposs ess
Ġposs ible
Ġve ins
Ġgoad ed
El vish
Ġguild s
ĠTru st
ĠOm n
Ġgh oul
ĠMur asa
Ġpres ence
Ġir on
ĠMem narch
Ġlar ge
Ġcomb ination
eron aut
Ġtro ops
ĠWander ing
ĠNeph alia
Ġocc asion
ĠProp het
Ġdinosaur s
Ġnum bers
ĠVan ishing
ĠExt ort
ĠCephal id
Ġdou bt
Ġstom ach
esk ai
Ġfreed om
ĠRho x
Ġphilos op
tam un
ĠScient ist
ĠSult ai
ĠKoz ilek
ĠGhira pur
1 9
D raw
L e
S k
S p
S arpadian
U r
b ot
b id
b lood
b ody
c a
d ent
d uced
f ist
g ot
g ers
i ally
j o
l t
p ens
s k
u gg
w yn
y ss
Ã ©
re b
Ġt ear
at l
Ġc row
Ġc orn
Ġc reed
Ġth ri
Ġth irst
in cl
it ive
it able
on ian
on der
Ġb reat
Ġb le
Ġb arg
ĠC ame
ĠC og
ĠC are
ĠC lockwork
Ġd ue
Ġd are
ac les
or b
or ker
Ġf lood
ĠW r
ĠW est
ĠW ire
Ġw ins
Ġw astes
Ġm ot
Ġm ists
ĠS ho
ĠS eed
Ġl angu
Ġh idden
ĠA ctiv
ĠT om
ĠT id
Ġg le
Ġg aze
Ġg iving
ĠH ex
ĠH yp
ĠH orde
ĠH awk
ĠH atchling
Ġon i
ev a
ev al
om a
ĠD id
ĠD ig
Ġn et
Ġn est
ĠF re
ĠF ree
le a
as ons
ĠR ose
ĠR ust
ĠR ally
ĠR iders
ĠL iege
ĠM other
ĠM og
ĠM ite
ĠM ort
ĠM oss
ĠP ass
ĠB i
ĠB ig
ĠB ane
ri v
ĠG y
ĠG ix
ke m
Ġst ack
rt ai
id ross
Ġli mit
ĠK h
iz ation
ĠSp it
ĠSp ire
Ġv edalken
Ġv iew
us ed
Ġdo om
ul ly
Ġper il
av an
av el
bl er
bl ing
ĠAt ark
ist rad
un ch
ĠSold evi
ind ers
ĠTh alakos
Ġequ ip
here d
ok ed
ĠSc or
ead ow
Ġcom pl
ĠSt or
ĠSt and
ĠSt ew
ph oros
ĠJ eskai
Ġval ues
ish es
ĠFl owstone
ĠSl ayer
Ġme ant
ling er
Ġun n
ĠSk ulk
Ġsc ent
Ġgo lem
ĠReturn ed
ĠEn chant
ĠDe ce
ĠWe atherlight
ond a
ott ed
az ot
Ġpro gress
Ġri d
Ġknow ing
ious ly
ĠArch ers
Ġpo et
ĠRo c
ĠDev ourer
Ġra ven
Ġcould n
ĠCl an
ĠSw ift
ĠSer geant
ĠY aw
Ġres olves
Ġel ite
ub born
ail ing
Ġdes ert
ĠShap er
ĠSwamp s
ĠSoul s
ĠLand s
Ġkind s
Ġfollow ed
Ġcar rion
Ġforest s
ĠArm ored
rab ras
Ġass ign
Ġgrow ing
atter ing
Ġwatch ed
Ġfa iled
Ġdiv ine
Ġbr other
ĠEvery thing
Ġfin est
ĠWith in
ser v
ĠAk roan
Ġcons um
Ġshield s
Ġsusp ended
Ġeat en
Ġbro ke
Ġdec ided
Ġperfect ion
Ġburn ing
Ġloy al
ĠVal ley
ĠGor ger
ject s
Ġtry ing
ĠPrim al
Ġpred ator
ĠGol iath
Ġspeak s
Ġserv ants
Ġdire ct
Ġansw ers
ĠCy ber
ĠWill ow
ĠSu pp
ĠRaid ers
Ġarri ved
Ġhero es
itt en
Ġtreasure s
Ġluck y
ĠEmer ge
Ġhorn s
run ner
Ġsav ed
ĠPur phoros
Ġmus ic
Ġhop ing
Ġspec ies
ĠInn istrad
ĠUnl eash
Ġhom es
ĠLav a
Ġflo or
ĠShiv an
Ġmess age
Ġredu ces
ĠNyx born
kn own
ĠEnl ist
Ġsuc cess
Ã» l
ĠMelet is
Ph araoh
ĠAssem bly
Ġimport ant
ĠRubble belt
ĠVenge ful
ĠMeph idross
ĠNak tamun
Ġlangu age
ĠActiv ated
ĠMog is
ĠAtark a
rabras k
+ *
B l
B ar
E ye
F or
I I
O r
T ap
T ales
W orker
b ably
c ane
d ition
g ald
h ip
i ad
j ack
l a
m os
m onger
o en
p id
s es
t ec
v ar
v age
v oy
y es
Ġ key
Ġt ongue
at og
at iable
en na
Ġc ase
Ġc ries
Ġa ch
in ts
ar ika
an y
an ic
an ist
am ble
it o
Ġb are
ĠC reat
ĠC le
ĠC ob
ess ary
Ġs al
is f
is en
Ġd ro
Ġf ed
Ġf et
Ġf aster
ĠW alking
Ġw olf
el ope
ing u
Ġp roud
Ġp hys
Ġm id
ĠS omber
ur d
ur u
ĠA mp
ĠA erial
ĠA tog
ĠA eronaut
ĠT omb
ĠT ide
ĠT err
ĠT aken
Ġ1 3
ic ult
ic ally
ĠH ur
ĠH ulk
ĠI ch
ĠI cat
ĠD ancer
Ġn omad
ĠF ight
ĠF emeref
ut al
ĠE d
Ġe t
ĠL or
ĠL un
ĠL ab
ĠM ight
ĠM ine
ĠM ob
ĠM arch
ĠM aze
ĠM ech
ĠM idnight
ĠP ear
ĠP sych
ĠB reaker
Ġre vel
Ġre ason
Ġas ide
ĠG raft
ĠG loom
ĠG ondor
Ġsp o
Ġsp roc
ain t
Ġde ce
ad i
Ġst uff
Ġst ench
os ed
ct ic
ant ern
et urn
Ġli ved
ĠK a
ĠK now
rif f
ĠO ath
ĠO ak
Ġco ol
ĠV ault
iv ed
iz ens
ĠSp ring
ig ree
est er
est ed
ĠYou ng
Ġk avu
ĠIn form
ĠTh rough
ĠU k
Ġse ason
Ġse eds
ag ers
ree ching
Ġta il
hy r
ĠSc ulptor
Ġr out
Ġlo c
ĠSt ri
ĠSt ud
ĠRe aver
ĠAr biter
ĠAr ctic
ĠJ or
ĠJ uk
ew er
ew ing
Ġmy st
ĠMer row
Ġme at
Ġun st
Ġun known
ĠSk ul
Ġsc aven
Ġj o
ec ution
ott ing
ĠAl though
Ġus eful
Ġpro blem
Ġcl ass
Ġri der
ĠFa eries
ron ze
ĠRo il
ĠMon itor
Ġtra p
ĠCl own
Ġtri ed
ĠReg ent
Ġnonc ombat
ign ed
ĠDo es
ĠTreasure s
ĠEv angel
ĠSqu id
Ġsm art
Ġcomp et
Ġhunt s
Ġpe aceful
ĠGl ider
ĠGl ory
ĠPro ject
Ġtr ouble
Ġdiff icult
Ġenter ing
air s
ĠDr ac
ĠSam ite
ann a
Ġfo ols
ĠTra ined
Ġint ru
Ġint erest
Ġpass age
ĠGh itu
Ġwant ed
ĠBattl emage
Ġsecre tly
Ġright eous
sc ri
Ġsun s
Ġrun ning
ward en
ser ver
Ġcons ider
Ġcons ume
ĠRes earch
Ġremain ed
Ġdec ayed
ĠBand ing
idd le
Ġsound s
rag orn
oot er
rod o
Ġz omb
Ġgift s
Ġemer ged
Ar rim
ĠCar rion
Ġsub tle
Ġcou rt
Ġadv ant
Ġbra in
Ġund ead
__ __
ĠVol rath
Ġcomple t
Ġmo ves
Ġsurviv al
ĠRun ner
ĠCel estial
Ġhar sh
umbl ing
ĠChannel er
rov ax
Ġconst ant
Ġharm ony
ĠDef iler
umm y
ĠRamp aging
ĠMor bid
Ġwizard s
Ġscream s
Ġlist en
ĠOl tec
ĠEngin eer
ĠRep lic
Ġprep are
Ġprodu ce
tern ity
kir k
Ġstru gg
ĠStrom gald
ĠStrom kirk
Ġke pt
Ġogre s
Ġanim als
Ġearn ed
ĠImm ortal
Ġpotent ial
Ġminotaur s
Ġmor ning
ĠFan atic
ĠSetess an
ĠRecruit er
Ġferoc ity
Ġbus iness
ĠOw l
Ġintens ity
upp et
ĠBad ger
ĠTemp est
Ġcoun tless
Ġrepe at
Ġattem pt
Ġliz ard
ĠStew ard
Ġsproc kets
ĠJuk ai
! '
D isa
E yed
G l
J il
K in
M ana
R eturn
V ivien
b or
f it
f ly
f ec
g y
h ow
h art
i ary
j ani
k ind
m en
m ore
m other
r s
r ac
r ated
r int
t aker
u zz
w ord
w atch
w reck
re me
er v
er ve
at ile
en cer
en cy
Ġc al
Ġc unning
Ġa kki
Ġo w
in c
in ter
in ia
in ator
ar r
ar um
ar ant
an os
am ity
it on
tl ed
Ġb as
Ġb ook
Ġb its
Ġb itter
Ġb loom
ĠC ust
ĠC ub
ĠC unning
Ġs ever
Ġs ap
Ġs ust
Ġs cho
ac ing
Ġf resh
ĠW o
Ġw ounds
Ġw ilder
el st
ro ot
Ġan n
st e
st ep
Ġp it
Ġp rim
Ġp atter
Ġm oney
al ing
ĠS en
ĠS ong
ĠS aw
ĠS ummon
Ġl ay
Ġh iding
ĠA re
ĠA ir
ĠA ragorn
ĠT ake
ĠT ark
ĠT eferi
ĠT eysa
ra gon
ic ial
ĠH old
ĠH ere
ĠH idden
om er
ĠD amage
ĠD iv
Ġn ine
ast y
ĠF renz
ĠF rodo
ir ion
and alf
as hen
Ġor c
ĠE ag
ĠE reb
ly ph
ĠR uthless
ĠL ast
ĠM old
ĠM ak
ĠP al
ĠP ang
ĠP oss
ĠB ound
ĠB oss
ĠB right
ĠB reath
ĠB rush
Ġre ce
Ġre lease
Ġat e
ĠG et
ĠG av
ĠG errard
Ġfor ged
Ġfor ward
Ġsp y
Ġsp ies
Ġsp ider
ain ted
Ġde ar
Ġde eds
Ġst age
Ġst ubborn
ĠO per
ru st
ĠV ict
ĠV uls
ĠV erd
iv al
iv ator
iz er
us ive
ill er
ĠSh ore
ier ce
og n
ĠGo od
Ġall ow
Ġunder city
ĠEl end
here s
Ġthan k
ip e
Ġcom fort
Ġal ly
op er
ĠSt inger
ĠRe id
ĠRe alm
Ġch ampion
Ġch orus
ash ion
ang ing
ĠCh osen
ĠCh ieftain
ĠCh arging
ĠJ am
ĠJ ungle
ĠJ hoira
ĠRog ues
ew ind
land s
Ġwe b
ĠMer chant
ĠSl inger
Ġfl ow
Ġun c
Ġun w
ĠSk anos
Ġsc ars
Ġwor st
ĠRet ri
Ġro ad
ab ility
ĠAl pha
Ġwere wolves
Ġexp l
Ġsearch es
Ġpro duced
Ġcl ever
Ġcl im
ĠHe ir
ĠArch mage
ĠArch ae
ĠAll ies
Ġtra il
ĠCl am
ĠSw ord
ĠY es
ĠBlood rush
ĠIs le
Ġreach ed
Ġworld s
assin s
ĠTo o
ĠAssassin s
ĠDwar ves
ĠSqu ee
ik icker
Ġim pro
Ġgl ad
ĠImp rov
ĠDog s
Ġoff ers
Ġmonst er
ĠPro cessor
Ġtr ack
ĠMar aud
Ġkn ock
Ġmind less
Ġapp et
ĠLe af
Ġstr ateg
Ġtre efolk
Ġfall s
ĠTra ining
Ġint imidate
ĠWhat ever
ĠHell b
Ġkill ing
Ġwatch ing
Ġfa erie
Ġguard s
Ġguard ed
ogg le
ĠEvery one
sc ale
Ġmer cy
Ġcyc lops
ĠSquirrel s
ĠSap raz
Ġhard er
ĠRav ager
Ġhor izon
ĠSpect ral
ĠSy nth
Ġinc re
Ġrec ruit
ĠPat ron
ĠVal or
Ġpat ience
ĠNy lea
Ġquest ions
Ġchar ged
Ġstud ents
Ġvis ions
Ġremem bers
Ġprec ision
ĠIm oen
Ġbra ins
Ġnec rom
ĠSav age
ĠUnd ead
Ġge ists
Ġmo ving
Ġsurviv ed
ĠMult ikicker
Ġbur st
Ġbur ied
ĠFer al
ĠSkir k
ĠSec ret
Ġship s
uro chs
ĠRad iant
Ġprov ide
rest ed
Ġprom ise
Ġgh ost
ĠBra ss
Ġpres ent
ĠSurviv or
ĠCrus her
ĠAnt elope
Ġfavor ite
alan x
ĠHel iod
Ġstru ck
gm oth
Ġke en
utt on
ĠVor acious
Ġprow l
Ġgen tle
Ġfears ome
Ġpie ces
ĠTher iad
Ġreb u
Ġmass ive
ĠGri zz
Ġdeterm ined
Ġvolcan o
ĠShambl er
ĠSkyc lave
ĠCommand o
ĠBring er
ĠAdv ocate
Ġnightmare s
Ġdesp air
Ġcurrent s
Ġfang s
Ġpract ice
Ġbol ster
Ġsat isf
Ġinfl u
ĠBehold er
Ġassem bles
Ġaf raid
ĠCreep er
ĠQuicks ilver
Mir ri
hon as
Ġsoc iety
Le af
incl ex
ĠWire wood
ĠYaw gmoth
ĠSomber wald
Ġintru ders
Ġcomplet ely
fec tly
elst rom
ĠTark ir
ĠVuls hok
ĠImprov ise
0 0
A d
A z
D al
D Ã»l
H ead
H uatli
M izz
N issa
R ief
S u
T ribe
W all
a iled
c lo
e ks
f e
f ield
g or
h ound
h aven
i as
i gin
p act
r ant
r all
s ess
s is
u ary
y nd
z on
¼ d
Ã ¼d
Ġ id
re ach
re ts
Ġt read
Ġt alk
en ment
Ġc e
Ġc it
Ġc el
Ġc raw
Ġc rash
Ġa ud
Ġa ug
Ġa xe
Ġth op
ure r
am o
it al
it ors
on ight
Ġb ark
Ġb ox
ĠC rimson
ot ic
ot ter
gh tly
Ġs ort
Ġd read
ac on
Ġf lock
Ġf arm
Ġf ourth
ĠW ave
el a
ing ly
ard ic
Ġto ols
Ġp op
Ġp ort
Ġp ets
Ġm ed
Ġm other
al g
ĠS uch
Ġl ur
Ġh ammer
ĠA x
ĠA ge
ĠA rash
ĠT en
ĠT ho
ĠT ask
ĠT ribute
Ġu t
Ġu lt
Ġg ri
Ġg ru
ra vel
ic ed
ic ers
Ġcon cer
ĠH all
ĠH enge
ev ic
ĠD un
ĠD ross
Ġn im
ĠF il
ĠF ist
ĠF eed
ĠF ading
Ġbe g
and al
and rix
um a
um pet
Ġor igin
Ġe ar
ĠR ag
ĠR even
ĠR ift
ĠL ar
ĠL ess
ĠL ocus
ĠM ad
ĠM use
ĠM amm
ĠM artyr
ĠP ol
ĠP ill
ĠB an
ĠB ent
ĠB rig
ri a
ri arch
Ġre v
Ġre claim
ĠG w
ĠG ard
ĠG ed
ĠG ut
ĠG ith
ĠG ear
ĠG ideon
Ġfor age
Ġend s
Ġsp oke
ad ers
ad ox
ep hyr
ore al
ap he
im p
ĠK az
ĠK els
ĠK itsune
ĠK onda
Ġex alted
ĠO d
ce ed
ru p
ĠV is
ĠV ine
iv ore
ho ot
od iac
ĠN ar
ĠN et
Ġv ow
Ġv icious
us s
bl azer
ĠSh ar
ĠAt h
Ġland walk
ath ran
ler t
ĠZ odiac
Ġbl ow
Ġbl ink
Ġen light
ĠArtifact s
Ġcol l
ĠTh ran
ĠTh iev
ĠU s
ry ff
ĠAn nihilator
Ġcho ices
ĠBe ware
Ġr hy
Ġr ising
igil ant
op ing
ak s
ak ir
ĠEx empl
ĠSt arn
ĠSt rength
Ġch anged
ink ing
ph in
ĠJ ark
ĠJ ura
ord ial
Ġwe ave
Ġun earth
Ġun ique
Ġj oy
Ġro pe
Ġpre ss
ĠEn voy
Ġso il
ran k
sp eth
ĠAl t
red ict
Ġag ent
ĠMy c
ĠMy ra
ĠAd am
Ġcl ick
Ġri vers
ner Ã¼d
ĠFa e
ĠWh elp
Ġru st
ud evic
ĠCl aw
ĠSw itch
ĠBl adem
Ġres olve
Ġsl ain
Ġsl umber
ens ion
vis a
Ġfe athers
ĠShe oldred
Ġdes perate
Ġcreat ion
alt ies
ĠSky knight
Ġev ent
ĠGl ade
ĠPro liferate
Ġtre m
Ġcar ries
Ġfall ing
ĠFood s
Ġthink s
Ġthink ing
Ġint ellig
Ġdark est
ĠQu irion
ĠQu andrix
ĠMir ran
ĠPh alanx
ĠGr ace
ĠMag n
Ġsil ver
Ġfin ally
Ġclo sed
Ġprotect s
Ġeas ier
Ġdef enses
Ġren egade
fl ame
Ġheal ers
Ġmin us
Ġhor se
ĠBand it
ĠUnder growth
Ġdraft ed
ĠMa elstrom
ĠBal a
Ġfamil iar
Ġcry st
ĠWor ker
ĠDead eye
ĠBar on
ĠNe zumi
ĠAz ra
ask ed
Ġdri ven
ĠHom ar
aj i
ĠSav ant
Ġdecl are
ĠOut cast
ret ched
ĠCur sed
ĠArt ist
ĠArt isan
Ġiniti ate
Ġiniti ates
Ġcomple te
Ġfle et
Ġsurviv ors
Ġbuild ing
Ġdire ction
Ġmar ket
ĠTw in
ĠTor ment
ĠOutl aw
Ġshap es
Ġmom ents
ĠMal akir
ĠFer oc
ĠLi br
ĠLi ber
ĠSkir m
Ġwood s
ĠRev ane
ĠRev olt
ĠRad ha
Ġteach ing
ĠAmb ush
ĠAmb usher
ortun ately
ĠEmer ia
ĠNim ble
ĠRel ic
ĠRel entless
ĠOver lord
Ġshaman s
Ġcontin ue
ĠCap ashen
ĠKal onian
Ġsurp rise
Ġwurm s
Ġhop es
ĠTal as
Ġdesign ed
Ġlar ger
Ġmis chief
Ġhapp y
Ġswamp walk
Ġide a
Ġheav y
ĠLur king
Ġredu ce
ĠForm idable
Ġtal ent
Ġens ure
Ġbelong s
Ġappear ance
ĠSylv an
ĠRid ge
Ġstri kes
Ġabandon ed
Ġbeliev ed
ĠKen nerÃ¼d
ĠKin ship
Ġsudden ly
ĠZhalf ir
Ġinh abit
ĠTransm ute
ĠWhisper ing
Ġappreci ate
ĠTaj uru
ĠDale k
igan jo
ĠSte am
Ġbug s
Ġboggart s
Ġopportun ity
Ġinnoc ent
fess or
ĠExc av
ĠCondu it
ĠHeav y
Ġcrow d
ĠCame l
ĠStor mc
ĠTerr itorial
ĠIcat ian
ĠPear l
Jil ad
ĠCust od
ĠEreb os
ĠGav ony
ĠOper ative
ĠHellb ent
ĠJark eld
* -
B ru
K or
O l
S ong
S acrifice
a its
b ble
c ombat
d em
e an
e ur
e ared
f ar
f ic
g ard
g ling
h or
i q
i y
j ust
k ar
l ies
m eadow
n ith
n ch
r ice
r iss
t ic
t ain
u er
u it
u dd
Ġ ess
Ġ ur
Ġ est
Ġ ____
Ġt ides
er ous
er nal
Ġc ro
Ġc and
Ġc rim
Ġc oward
Ġc irc
Ġo ce
in ary
es mer
ure l
tl ine
on ored
ĠC ra
ĠC ad
ĠC ombat
ĠC our
ot he
ess enger
Ġs anct
is p
Ġd iss
Ġd usk
Ġd iet
Ġd irt
or ator
Ġf ro
Ġf av
Ġf ert
ĠW ren
ĠW icked
ĠW ait
Ġw ide
el m
el ed
el and
Ġto ol
Ġto ll
Ġp al
Ġp ol
Ġp ush
Ġp osition
Ġm ur
Ġm ap
Ġm ob
Ġm ourn
Ġm olten
ĠS aur
ĠS acred
ĠS isay
Ġl ore
Ġl antern
Ġh oly
Ġh urt
Ġh abit
ay ing
ĠA w
ĠA ce
ĠA urochs
ĠT et
Ġg eneral
ra v
ra iser
Ġcon fl
ĠH an
ĠH ier
ĠH ammer
ĠI ma
om es
ĠD ro
ĠD red
Ġin ner
ast ing
ĠF ollow
ĠF ada
ut s
ir ant
ir ling
as es
ĠE p
ĠE ss
ĠE sc
ĠE bon
ĠE yes
ĠE iganjo
ol ation
Ġe therium
ĠR ay
ĠR une
ĠR ank
ĠL y
ĠL um
ĠL ob
ĠM en
ĠM us
ĠM ass
ĠM essenger
he w
ĠP ak
ĠP uppet
ĠB eg
ĠB rim
ĠB ats
ĠB ones
ri ar
Ġre ckless
ĠG ro
ĠG ener
ĠG ale
ĠG ilt
ĠG isa
ch a
ch i
Ġpl ains
Ġpl ague
Ġsp awn
lo on
ad or
pp el
Ġst ream
Ġst eady
os p
Ġcan opy
ck on
Ġatt ention
ore t
Ġli k
Ġli kes
ken zan
im en
im ents
ĠK r
ĠK ind
ĠK ins
ĠO nd
ĠO ran
ĠO ona
Ġgra sp
ĠV iper
ld ron
ĠSp ore
ĠSp ear
od ay
ĠN iv
ĠN em
ĠN ala
ĠN avigator
Ġv ile
Ġv irt
Ġv izier
ill ing
ĠWar ren
Ġdo ing
Ġsh ar
ect ion
ul a
Ġper form
Ġper fectly
man tle
th at
ĠZ ephyr
ĠIn vent
ĠU rabrask
Ġnon att
ĠSc ut
ĠBe i
Ġr um
Ġr itu
art s
ak ers
Ġlo ose
Ġlo ved
ĠSt eed
ĠSt rix
ĠSt ronghold
ĠCleric s
Ġch ant
ĠAr son
ĠJ o
ĠJ ace
oth a
ĠBeast s
Ġmy riad
uff le
Ġwe ep
Ġ. ..
Ġhe ights
Ġun ity
Ġun ited
ĠSk itter
Ġher ald
Ġsc r
Ġsc ra
Ġsc ales
Ġj ump
Ġpre ser
ĠWe ap
ven wald
ĠAl chemist
ĠNo v
esh a
Ġsk ip
Ġpro bably
Ġri pp
Ġmon ks
ĠY ot
Ġcommand s
Ġpart ic
Ġnew s
igh tly
Ġover head
ĠSe ek
be ats
Ġad ept
ĠPre c
Ġsm ith
au ldron
Ġgl orious
Ġbel ief
ĠSky s
Ġhow ever
ĠGl utton
Ġfind ing
Ġdis p
ĠMar ket
Ġapp ly
arian s
ĠTra il
Ġcall ing
Ġass ist
Ġpass ing
Ġeffect ive
ey es
ĠFire brand
ah r
ĠTr iton
ĠShadow moor
uk arum
Ġdist ant
Ġwant s
ĠMercen aries
Ġmight iest
Ġfa e
ĠPh arika
ĠGr ay
ĠAb yss
ĠAfter life
Ġenerg ies
ress ed
Ġbr others
ĠPer manent
Ġcont ent
Ġsil ently
ĠSo kenzan
Ġrun s
ĠSur veil
ĠSur rak
Ġclo s
Ġprotect ing
Ġtem ple
Ġhuman ity
Ġsn ake
Ġmagic al
Ġopen ed
ib ility
Ġset s
Ġset tle
Ġhor rible
Ġpath s
Ġrec ruits
Ġrec ogn
Ġdel icate
Ġref use
ĠMa uler
Ġne igh
ĠGuild pact
ras ka
Ġtravel er
Ġseem ed
ĠDel ve
ĠMet athran
Ġleg acy
Ġnear ly
Ġprec ombat
Ġwhis per
ĠRed eem
eal er
Ġcor rupt
Ġnec essary
ĠMist form
quis ite
ĠAff lict
ĠMo le
elcom e
Ġsqu irrel
Ġshap ed
ĠUl venwald
Ġconst ruct
Ġenc ount
ĠSec rets
.. .
ĠJun iper
Ġadapt ed
Ġscream ing
Ġdem and
Ġslow ly
Ġsuff er
Ġhaunt ing
ĠFar mer
Ġstir red
ĠSpl it
Ġap art
Ġescap ed
Ġcapt ure
ĠSanct um
ĠLur ker
Ġoutl aws
ios ity
ĠCult ivator
Ġprow ess
ĠCelebr ation
Ġviol ence
Ġcas u
Ġpie ce
ĠShip wreck
Ġran ks
Ġdog s
Ġclash ing
Ġvolcan ic
Ġpir ates
ĠMast icore
oint ed
ĠHipp o
ĠBody guard
wall a
Ġbri ef
ĠIx alan
Ġdefe at
Ġcivil ization
Ġwond ers
ĠRim ewind
ĠAlab aster
ĠSigard a
bur st
ĠCru el
ĠFound ry
Ġisland walk
Ġmilit ary
Ġpret ty
Ġkingdom s
Ġpost combat
ĠVir idian
ĠCold eyes
Ġfrag ile
evol ent
Ġcorn er
Ġunn atural
Bl ade
Ġphys ical
ĠAmp lif
ĠKnow ledge
Ġadvant age
ĠReplic a
Ġsever al
Ġwilder ness
ĠJam ura
ĠRetri ever
Mizz et
Su q
ĠStarn heim
ĠBladem aster
Ġmur der
ĠIma gin
ĠEss ence
ĠNala ar
Ġnonatt acking
ukarum el
1 2
B ra
D iscard
D ragon
G or
G ideon
L o
R ukarumel
S or
W h
Z h
b ar
b al
b ear
b ered
c hen
c tly
c atcher
c rafter
d ag
d otter
g ged
h end
h us
i ro
i ora
j a
k u
l ain
l aw
m un
m ara
m ages
n ers
o le
o ch
o pp
o ices
p in
p ed
p erer
r ayer
v ala
w en
w ild
w right
w agg
x ious
y rie
Ã ³
Ġ ze
Ġ err
re os
re nder
re hend
Ġt ower
Ġt ur
Ġt ang
Ġt owers
er al
at ron
at hered
Ġc ra
Ġc leric
Ġc aves
Ġth in
Ġth ir
Ġth ick
Ġth read
Ġth rull
an ity
it ary
it ect
it tle
tl er
Ġb ed
Ġb ord
Ġb arb
Ġb olt
ĠC a
ĠC ross
ĠC ircle
ĠC athar
ow l
Ġs in
Ġs le
Ġs ell
Ġs orrow
is aur
Ġd ry
Ġd rew
ac er
ac atl
or ium
Ġf og
Ġf oll
Ġf ift
Ġf rog
Ġf ingers
Ġf ashion
ĠW oj
Ġw icked
Ġw oke
Ġw ears
el ing
el un
ro as
ro chi
ge ist
Ġan ew
Ġto ler
Ġp egasus
Ġm ir
Ġm ant
Ġm oved
Ġm aze
Ġm atters
ĠS ou
ĠS in
ĠS um
ĠS ly
ĠS igil
ĠS elf
ĠS inger
ĠS angu
Ġl ion
il im
Ġh ook
Ġh ills
Ġh ym
ur id
if ies
ed ing
ed gling
ĠA y
ĠA ber
ĠA ren
ĠT an
ĠT az
Ġ1 6
Ġg ro
ra ged
ic a
ic ator
Ġcon ver
Ġcon voke
ĠH u
ĠH ard
ĠH oly
ĠI roas
om in
om an
om per
ĠD ust
ĠD iss
ĠD ari
ĠD aring
ĠD aun
Ġin ev
ast ers
ĠF ind
ĠF oul
ĠF athom
ir i
Ġbe e
Ġbe at
ith ing
um ph
ĠE s
ĠE ater
ĠE rr
ol in
Ġwith stand
ĠR est
ĠR itu
ĠR honas
ĠL u
ĠL im
ĠL ooter
ĠM ong
ĠM ove
ĠM oth
ĠM aw
ĠM ori
ĠM olten
ĠM elee
ĠM ummy
ĠP act
ĠP ara
ĠP up
ĠP heres
ĠB ow
ĠB ay
ĠB oth
ĠB ook
ĠB ronze
ri ers
ĠG it
ĠG ust
ĠG amer
ĠG oma
ack ling
Ġfor s
ch aser
Ġpl ant
ell ow
Ġsp are
Ġde bt
ad ed
os k
id ow
Ġatt ract
et ime
ap ult
im a
im ar
ĠK ong
ĠK rov
Ġex ists
ĠO k
ĠO p
ĠO pen
Ġgra ves
ĠV h
ĠV ig
ĠV alk
iv ian
ight ened
ho of
ĠSp ec
ĠN i
ĠN essian
Ġv ines
Ġv oices
Ġtheir s
ear ning
ig a
est ic
Ġsh ore
Ġsh elter
out ing
em ber
ul i
ĠSh in
ist ic
all ids
un k
man cer
Ġk i
com e
com pl
Ġbl aze
Ġen forc
ĠIn gest
ind i
Ġse as
ĠEle c
here al
Ġinst rum
ĠAn g
Ġr ound
Ġr ises
ead fast
Ġal ike
Ġal leg
ĠEx per
Ġlo x
ĠSt amp
ĠSt alking
ĠRe inforce
Ġch urch
sh ell
Ġrem inder
Ġle ap
ĠCh ap
ĠCh arm
ĠCh ange
ĠJ h
Ġval u
Ġadd s
Ġwe bs
ĠFl ip
ĠSl aughter
Ġhe ir
ĠCon ver
Ġfl ows
ling s
orn s
ick le
Ġgre ed
Ġwor ship
ark han
ĠBird s
ss on
Ġdeath s
ab o
Ġplan s
ĠAl ley
raz ed
ĠPl an
ĠPl ay
Ġag es
Ġag ents
Ġag gress
Ġour s
ĠMy oj
az a
az av
Ġpro per
Ġri p
Ġri ders
ial s
ĠFor gotten
Ġlands cape
ĠArch fiend
ĠHer d
ĠHer mit
Ġru sh
ĠOn i
Ġpo ints
ĠSn eak
ĠRo yal
Ġsw im
Ġra pt
cl es
ĠCl iff
ĠBl ue
Ġgr at
pl us
ens ive
Ġdra ke
Ġdev ast
yr inth
ĠSe ason
iss ion
we ft
oss ible
vis ible
Ġfe ather
Ġfe ared
ĠSqu ire
Ġsm ile
Ġcomp rehend
Ġtw ist
Ġim age
Ġgl ass
rog ant
rid es
Ġnight s
ĠGl int
arb age
Ġdis app
Ġser geant
dra gon
Ġtre spass
Ġcar ve
ĠPart y
ĠTra vel
ĠTra pper
ĠTra iner
Ġmag n
Ġnow here
ĠDes ec
wor thy
ĠQu ick
ah l
Ġlet ters
ĠShadow heart
Ġdist ract
Ġfa eries
uck y
ĠPh asing
Ġreg ard
ecial izes
te ers
Ġstand ing
ĠHunt ed
Ġvict im
Ġsil k
na ire
Ġmer c
Ġpr ayer
ĠWith out
Ġprotect ors
Ġem issary
zz eret
Ġext inct
ĠGarg antu
Ġbring ing
ĠAk ros
yn x
ĠAur ora
ĠGreat er
Ġecho es
ĠWild s
Ġstart ed
ĠFear less
Ġbless ings
ĠAg ents
ĠInf ernal
Ġstop s
Ġcare s
Ġmem bers
ĠRob ber
Ġtouch ed
Ġinv asion
Ġinv aders
Ġob st
Ġins ult
Ġins ects
ĠCor al
ĠAm ong
Ġsmall est
ĠZh ang
ĠHerald s
Ar na
olog y
Ġact ion
Ġwhis pered
amm ers
Ġmark ed
ĠSav ior
ĠTer isi
ĠTitan ia
ĠMay be
ĠInsp iring
Ġsent ry
ĠPrim ordial
Ġcarry ing
Ġdestruct ive
Ġbuild ings
Ġcent aur
Ġwish es
ĠPy romancer
ĠThunder ing
ĠAut umn
ĠArg ivian
ĠCou rt
Ġconst antly
Ġarri val
ĠSquad ron
ĠLi u
ĠRoot water
ĠRamp age
ĠKobold s
Ġrealm s
ĠTru e
Ġmiss ion
ĠTe am
ĠBel eren
ĠBra in
ĠKros a
ĠHal o
ĠOl ivia
ĠCal amity
Ġhaunt s
Ġprep ared
ĠPr ince
yal ise
ĠNeph ilim
ĠAnim a
ĠCall aphe
Ġdest iny
edd ler
ĠCelebr ant
bon der
ĠDar u
ĠAsp irant
mir al
Ġcap able
ĠCer at
Ġfur ther
Ġwear ing
Ġpir ate
ĠHo ard
ĠRath i
Ġunsp ent
Ġunsp ecializes
ĠAdventure r
Ġsto pped
Ġstat ues
Ġresist ance
Ġchall enge
ĠDesp ite
Ġtunn els
Ġdwar ves
ĠAssist ant
Ġflee ing
Ġsepar ately
Ġgard en
Ġlav a
ĠIg n
Ġstra ight
Ġamb ush
Ġinclud es
ĠSa ber
Ġgarg antu
loss om
Ġexplorer s
Ġphilosop her
ugg ler
Ġbreat he
Ġnet work
Ġach ieve
ĠMarch esa
ĠJor aga
ecution er
ĠSummon er
ĠFrenz ied
ĠMak indi
ĠSapraz zan
Ġcel ebr
Ġaud ience
Ġlur ks
ĠReven ant
ĠMamm oth
ĠBent hic
ĠAth reos
Ġenlight enment
ĠExempl ar
ĠAdam ant
ĠHomar id
ĠFeroc ious
ĠSkirm isher
Ġ____ _
ĠAw aken
ĠEsc ort
Ġlik ely
ĠOnd u
ĠArson ist
Ġpartic ular
ĠPermanent s
Lo visa
hus i
opp able
Ġbord ers
Ġfoll owers
ĠWoj ek
ĠDari en
ĠDaun tless
ĠMori ok
ĠPara bles
ĠMyoj in
ĠTerisi are
, '
B and
J ace
L y
L iliana
M age
P hyrex
T ahngarth
a ul
a pper
b ed
b ug
b inder
b ender
b ridge
c ary
c all
e or
e ers
h v
h ouse
h ulk
i el
i ends
j e
j ud
j oice
k ull
n ation
p ing
v in
w ark
w idow
y re
y on
z el
Ġ ident
re m
Ġt ough
Ġt yr
Ġt ears
Ġt itan
Ġt astes
er unning
at o
at est
en ces
Ġc ath
Ġc ub
Ġc aut
Ġc rop
Ġa lert
Ġth r
Ġth roat
Ġth allids
Ġo bl
in al
in ch
ar ry
es p
an ing
am orous
end or
end ent
it ing
it chen
on ia
Ġb i
Ġb at
Ġb red
Ġb orrow
Ġb order
ĠC ann
ĠC oward
ĠC rew
ĠC rag
ĠC rasher
ex ing
ĠâĢĶ ~
Ġs um
Ġs lo
Ġs igil
Ġs alt
Ġs ides
Ġs enses
is ans
Ġd a
Ġd ar
Ġd am
Ġd ive
Ġd rove
Ġd inner
or v
or al
or ter
Ġf est
Ġf aced
Ġf renz
ĠW ise
ĠW ils
el ia
ro b
ro ok
ing ing
ard an
Ġan t
st ones
Ġp ul
Ġp ity
Ġm uff
ĠS z
ĠS ak
ĠS af
ĠS yn
Ġl arg
Ġl earning
Ġh y
Ġh ollow
Ġh int
Ġh ours
ur ry
nt s
ĠT oc
ĠT uk
ĠT olar
ĠT oday
Ġg ang
Ġg ates
ve re
ic y
Ġcon ce
ĠH at
ĠH um
ĠH ul
ĠH ive
ĠH eret
ĠH ours
ĠH edron
ev il
ĠD ak
ĠD eth
Ġin visible
Ġn av
ield er
ast ic
ĠF r
ĠF est
ĠF ug
ĠF ract
ut in
as u
as ia
ĠE rtai
ol ith
Ġwith er
ĠR ow
ĠR os
ĠR ap
ĠR ive
ĠR ush
ĠR ager
ĠR onin
ĠR asp
ĠL in
ĠL on
ĠL ot
ĠL amp
ĠL umber
ĠL ine
ĠL ynx
ĠM is
ĠM ul
ĠM ade
ĠM ilit
ĠM edic
ĠP en
ĠP ant
ĠP ale
ĠP roud
ĠP iper
ĠP rogen
ĠP ardic
ĠB on
ĠB orn
ĠB ond
ĠB arg
ĠB ears
ĠB oreal
ri ek
Ġre ven
Ġre gre
Ġre plicate
Ġas ks
ĠG ot
ĠG le
ĠG em
ĠG ryff
Ġend ure
Ġend ed
Ġpl ants
ell or
Ġsp ears
Ġsp hinx
Ġsp iders
Ġde b
ad ia
age d
ke tra
Ġst ate
Ġst ronghold
os tly
eg ot
eg uard
Ġplay s
Ġatt end
et ery
et te
im li
ĠK ro
ĠK ru
ĠK ath
ĠK uld
ĠO pp
ĠO raz
Ġco b
Ġco vered
ĠV r
ĠV er
ĠV ass
ĠV arch
ĠV ermin
ĠV igilant
br is
iz ing
ĠSp eaker
qu e
od e
od iment
ĠN est
ĠN eed
ĠN urt
ĠN atural
Ġv ault
Ġlibr aries
ment ia
ill iant
ig ma
ĠWar chief
Ġdo ors
Ġsh red
Ġsh attered
Ġsh immer
em on
em etery
ul ator
ul wark
Ġper haps
ĠSh ow
ĠSh uffle
ist ers
ist rate
ĠX en
ere mon
un ner
man ce
dd er
Ġdraw ing
Ġk itsune
ĠAs c
ĠIn vestig
ĠTh ird
ĠTh rash
Ġinst ance
Ġta ils
Ġam id
ĠSc ound
ĠSc reeching
ĠBe ing
Ġr ace
ĠElemental s
art ing
ak im
Ġlo ck
ĠSt rike
ust om
sh a
ink o
ph ies
Ġwhere ver
ĠCh anc
ver b
ĠJ et
ition s
Ġval ley
ew or
Ġwe ary
ĠFl ayer
ĠFl ames
ĠSl ick
Ġhe ed
Ġme ch
Ġme als
Ġdefend ers
ĠCon qu
Ġfl ies
Ġfl our
Ġun h
Ġun m
Ġun icorn
Ġun seen
ĠSk ittering
aw ay
Ġsc ar
Ġj ew
Ġro b
ild ed
ĠWe b
ĠAngel s
Ġso ar
Ġso ars
ran sp
ab a
ab i
Ġar cane
Ġout p
ĠPl ated
pt ing
pt ers
Ġcomm un
atch ed
Ġsearch ed
Ġevery where
Ġpro ve
Ġpro of
ĠHe k
Ġmill enn
ĠConst rict
Ġsec urity
Ġpo or
Ġsw eep
Ġtra dition
Ġmon um
ĠDinosaur s
ĠSw ine
Ġfight er
Ġwhat ever
gg an
gg ing
Ġsl ight
pl ic
ail er
read er
ĠRem ember
oc al
Ġthrough out
ĠDo oms
Ġeven ing
Ġdev el
Ġdev oted
Ġdev oured
ĠEv il
be at
Ġad op
ob ite
vis ed
Ġdes ire
Ġbet ray
Ġcreat ing
Ġgl owing
ĠImp rint
ĠWarlock s
rid ers
Ġgu ilt
Ġgu arant
Ġfind s
ĠPro gress
Ġdis aster
Ġser ved
Ġapp ears
ĠLe ave
Ġef fic
Ġkeep ing
Ġcar ved
und erer
ĠSil ence
ĠSil encer
Ġexplo it
ship s
res her
ĠCo pper
ĠGod s
Ġsky knight
ĠHar rier
ĠArc anist
ĠGr is
ĠAb s
ĠCol ony
ĠBr own
ĠBr amble
ĠGn arl
Ġstand ard
Ġcont ain
Ġcont ains
oun cer
Ġpr ayers
Ġtem per
Ġfar mer
ĠRes c
ĠRes olute
Ġcur iosity
Ġopen ing
ĠInf ern
ĠDu ke
ĠDisc ord
ĠSy nd
ĠSy mb
ĠEternal s
ĠVal eron
Ġimp ossible
Ġcare ful
Ġmem ber
ĠGor illa
rus her
Ġelse where
tell er
ĠGate keeper
Ġthousand s
Ġter rifying
ĠPe ace
ĠAm ber
ĠKar plus
Ġpack s
ĠBar rier
Ġinsp ired
ĠBro ker
Ġexper ien
Ġexper iment
ĠCar rier
Ġsub jects
het to
Ġvis ion
Ġho ard
Ġho of
ĠOb server
Ġcollect ion
amm asu
ites ail
Ġresp ons
An other
Ġbra v
Ġbra ve
ĠDark steel
ĠPrim eval
ĠCur se
ĠMo or
ĠMo ons
ĠVol can
Ġsqu ad
Ġmar sh
rin ker
Ġansw ered
ĠAp ex
ĠAp hetto
oph ant
the y
Ġpers ist
Ġfun ction
ĠWay s
ĠWood land
ĠFall aji
Ġunp redict
ounc ing
ĠWhis perer
Ġharm less
Ġve ter
ĠDef iant
Ġrequ ired
Ġthreat en
ĠLore hold
ĠPra hv
ĠBog ardan
Ġmach in
Ġresearch er
Ġsav age
Ġdem ons
Ġsol id
ĠHal imar
rie king
Ġsuff ering
Ġple asure
Ġarch ers
Ġprodu ces
ĠGar ruk
Ġprefer red
Ġswift ly
Ġemp ire
ĠAscend ant
Ġheav ens
Ġcruel ty
Ġtro phies
Ġcult iv
Ġbal ance
ĠHist orian
Ġfort ress
Ġsuc ceed
Ġviol ent
ĠDar iga
Ġreb ell
ĠKill bot
ĠFaith ful
for mance
ĠÃ Ĩ
ĠÃ ī
Ġgrant ed
Ġwand ers
ĠRam os
ĠShambl ing
eem ed
ĠTim ber
go blin
Ġwing ed
Ġhat red
ĠZhalf irin
Ġtor ment
Ġtroll s
ĠDist rict
Ġspect acle
ĠAlab orn
ĠPhantasm al
ĠSigard ian
sion ic
Ġbond s
Ġpun ish
ĠMach ines
Ġswarm ed
ĠBru iser
Ġreflect ion
ĠFri end
oths ayer
gra f
Ġing en
Ġwo ven
ĠDran a
ĠScra pper
Ġsurr ound
Ġdispl ay
ĠOmn ath
Ġbarg ained
ĠDece iver
Ġraven ous
ĠCyber man
ĠCreat ion
ĠCob ra
Ġfet ch
ĠTaken o
ĠIch or
ĠLab yrinth
Ġrout e
Ġjo ined
ĠResearch er
Ġzomb ie
ĠEag le
ĠPang olin
ĠPoss ess
ĠVerd ant
Ġglad ly
Ġappet ite
Ġrebu ild
Ġinflu ence
Head ed
Ġaug ment
ĠArash in
ĠKels inko
Ġevent ually
Ġinhabit ants
Ġcrim es
ĠCour ser
othe cary
Ġfro zen
Ġfert ile
ĠSaur on
ĠDred ge
ĠRank le
ĠKr ark
Ġshar pen
Ġscra ps
ĠAbyss al
ĠAmplif y
Wh ile
Ġze al
ĠRitu alist
ĠKong ming
ĠValk yrie
ĠElec tro
ĠSeason ed
Phyrex ian
ĠWils on
Ġlarg est
ĠTolar ia
ĠHeret ic
ĠDeth rone
ĠRasp utin
ĠBarg ain
Ġreven ge
ĠKuld otha
ĠOraz ca
ĠVass al
ĠVarch ild
ĠScound rel
ĠChanc ellor
ĠDariga az
+ *<|
A f
C on
F emeref
H H
M er
O n
O ne
S isay
a an
a um
a bles
b ird
b ark
b rid
c reature
c ut
c ons
c ely
d or
d ri
e a
e at
f ell
f inder
g s
g ill
g ul
h ammer
j i
j u
k h
k os
k wood
k het
m or
m atic
o o
o ff
p ine
p ents
p oint
r ou
r il
r and
r ance
r ison
s ome
t es
t abi
v old
v ok
v ale
w ain
w orm
w itch
y an
y the
z awa
Ã º
Ġ ed
re k
re y
re ster
re amed
re pid
Ġt it
Ġt ight
Ġt ireless
Ġt onight
er u
at ami
at rice
ou nder
Ġc ities
Ġc ats
Ġc aval
Ġth iev
in ate
in ker
an es
ft ed
am ri
it ality
on na
Ġb end
Ġb ot
Ġb ent
Ġb ait
ĠC ould
ĠC row
ĠC apt
ĠC rafter
ĠC emetery
Ġy ield
ex p
Ġs am
Ġs it
Ġs tro
Ġs ang
Ġs ens
Ġs iege
is se
is ons
is ma
Ġd ise
Ġd jinn
Ġd ryad
Ġd agger
ame tra
Ġf it
Ġf el
Ġf ix
Ġf inger
Ġf ungus
Ġf use
Ġf alcon
Ġf urnace
Ġf irm
ĠW y
ĠW ould
ĠW ings
ĠW rath
ĠW elcome
Ġw reck
Ġw itness
Ġw aits
Ġto oth
Ġto mb
Ġp ier
Ġp oll
Ġp olis
Ġm our
Ġm ood
Ġm ater
Ġm arch
Ġm ogg
Ġm idnight
al anc
ĠS ower
ĠS le
ĠS ad
ĠS are
ĠS even
ĠS ix
ĠS ail
ĠS oon
ĠS outh
ĠS ister
Ġl ink
Ġl osing
Ġl atest
il on
il ight
il us
Ġh ides
ur ist
ur per
if y
if ying
hen ge
ed ient
ĠA er
ĠA cl
ĠA erie
ĠA mon
ĠA xe
ĠA jani
ĠT usk
ĠT aze
ĠT arl
ĠT unn
ĠT ahngarth
ĠT ireless
Ġ1 5
Ġg ale
Ġg lyph
Ġcon du
ĠH am
ĠH over
ĠH opl
ĠH onored
ĠD an
ĠD am
ĠD agger
Ġin ch
Ġn urt
ast ria
Ġbattl es
ĠF en
ĠF ac
ĠF al
ĠF ell
ĠF et
ĠF our
ĠF ive
ĠF olk
ĠF lood
ĠF ront
le ment
ut ation
ir k
ith e
as aur
Ġturn ing
ĠE ight
ĠE therium
ol es
ol ut
Ġe ag
Ġe ase
Ġe ternity
ĠR ain
ĠR ish
ĠL at
ĠL uk
ĠL ock
ĠL ittle
ĠM ac
ĠM ol
ĠM ap
ĠM imic
ĠM esa
ĠM asked
ĠP ri
ĠP ter
ĠP ix
ĠP eak
ĠP ony
ĠP rime
ĠP ris
ĠB lo
ĠB omb
ĠB ree
ĠB ull
ĠB ann
ĠB reak
ĠB ridge
ĠB order
ri age
ĠG ig
ĠG ang
ĠG rot
ĠG ates
ĠG alad
ĠG rove
ĠG andalf
ack le
rom a
Ġfor b
Ġfor ges
ell an
ell ent
Ġsp ot
Ġmay hem
lo s
lo ve
ad il
ad ier
Ġst ing
Ġst itch
Ġst uck
Ġst olen
Ġcan n
eg is
ant ic
ck atrice
et ah
Ġli qu
im ber
ĠK elp
ĠK alad
ĠK itchen
ĠO cc
Ġlif etime
Ġco ok
Ġgra ss
ru um
amp ions
Ġman e
ĠV ind
ĠV irt
ĠV enom
ĠV andal
ĠV raska
ave ti
iv ely
br ute
ĠSp itting
qu ill
od ons
Ġany more
ĠN ef
ĠN um
ĠN ear
ĠN ine
ĠN aga
ĠN oggle
us ing
us ker
Ġsh ows
Ġsh ores
em ble
Ġper formance
av ed
ĠSh ire
ĠSh attered
ist a
all ine
og riff
Ġk ick
com p
ould er
Ġen g
ĠAs hen
ĠIn finite
Ġcol ored
ind s
ĠTh alia
ĠU gin
ĠU me
Ġnot ice
ĠDra z
Ġinst ances
ok ers
Ġequal ly
hy l
ĠSc al
ĠSc ream
ĠSc ribe
ĠAn n
ĠBe c
ip les
ip line
Ġr at
Ġr ing
Ġr ange
op ard
ak i
ĠEx change
ĠEx ecutioner
ĠSt on
ĠSt ens
ĠSt eadfast
Ġch ains
Ġch annel
sh ark
ĠAr dent
ĠAr wen
ph ix
Ġrem n
ĠCh icken
ver n
ĠJ a
ĠJ ab
ĠJ avel
ish ana
Ġwe al
Ġwe ird
Ġwe ather
Ġwe eks
ĠFl int
ĠFl aming
ĠMer ry
ass ion
Ġfl icker
Ġfl att
Ġfl owstone
Ġun ravel
Ġun exp
ine er
Ġunl eash
Ġher bs
Ġsc ale
Ġsc hem
Ġwor sh
ec ially
Ġro yal
Ġpre v
ener gy
ab y
Ġar cher
sp ire
Ġout s
ĠCat s
ĠCat eran
orm ant
ĠPl underer
pt ions
Ġour selves
az i
az z
Ġexp ert
ĠAd vers
Ġsk illed
Ġsk ips
Ġsearch ing
Ġpro verb
Ġcl ans
ren ce
osaur us
ron es
ĠFor get
ĠHer on
ĠDemon s
Ġru led
Ġsur ge
ĠRo ad
ĠMon s
Ġsw ear
Ġsw all
Ġsw itch
ĠDev ast
ĠDev oted
Ġra ging
cl ad
Ġform ed
ĠY ar
ĠY an
ĠY ang
ĠReg al
ĠBl ind
ĠBl ades
Ġqu ality
Ġres id
Ġres our
Ġsl ith
Ġsl ither
Ġel eg
Ġel even
oc i
Ġover come
arg an
Ġdev ours
ung s
ient s
ĠPre s
Ġsm oke
oke y
ĠGu ul
Ġim per
Ġgl imp
Ġac cess
Ġbel ly
Ġev olution
Ġsu nl
ĠSun burst
Ġgu ided
Ġgu ests
ĠPro voke
Ġdis m
ĠHy ena
Ġtr ace
Ġapp rentice
Ġapp eared
ĠLe ft
ĠLe ague
ĠDr ill
ĠDr own
Ġstr ay
ĠMerc adian
ĠMerc iless
Ġcar ried
und ers
vel s
ĠTra p
ĠMan or
ĠDes igned
ush ro
ĠQu an
Ġkill s
ĠHar per
ĠMir ari
ĠMir kwood
Ġreg enerate
uth or
rent on
Ġbr ute
Ġbr illiant
ĠCol lect
ĠBr is
ĠBr utal
ĠGn oll
ien tly
sc ura
ĠSur ge
ĠNightmare s
Ġmer row
Ġmer rows
Ġwork ed
Ġem otion
Ġtem pl
Ġcyc les
Ġmount s
uc cess
ense i
ĠNec rop
Ġcur sed
ĠDon key
Ġbro ad
ĠGre y
Ġstart s
Ġpur su
ĠKra ul
ĠLeg ate
ĠLeg olas
Ġrep ort
Ġset ting
Ġmin ions
Ġmin ute
ĠPlains cycling
Ġhide ous
idd ing
ĠAny thing
ĠInt repid
app ing
Ġbig gest
ĠPat riarch
ĠSentinel s
ĠWind s
Ġdeep est
ĠKar ametra
ĠPil f
ĠGru b
ĠZh ou
Ġbreak ing
ĠTem ple
ĠBro ken
Ġrel ics
Ġexist ence
Ġexper iments
Ġsub st
Ġleg ion
Ġnear by
olog ical
ĠDeep wood
ĠOb scura
ĠDawn hart
rap her
ĠInst igator
Ġund erest
Ġnec ro
Ġnec romancer
ĠFlame kin
ĠInsp iration
ĠInsp ector
ret ch
Ġfier cest
ĠDream s
Ġge ms
ĠFore runner
ĠEnt ity
Ġfell ow
Ġvill agers
ĠTw ins
ĠAp othecary
ĠPy re
ĠVehic les
Ġline age
Ġgener ation
ĠMult ani
ĠMult iverse
Ġnatural ist
Ġwalk ed
Ġconn ected
ĠComp any
ĠShield mate
Ġarri ve
Ġenc ou
ĠSkir ge
ĠSec ond
ĠLo am
ĠMant is
Ġscout s
ĠStr ong
Ġthreat s
ĠLore weaver
ĠOm en
Ġfoot step
Ġche ck
Ġmach ine
Ġmiss ing
izz ard
ĠKal astria
Ġmus cle
ĠTal ruum
ĠSurviv al
ĠSurviv ors
Ġeld ers
ĠPo ison
ĠStar fish
Ġcertain ly
ament al
ĠTower ing
ĠSpl icer
renz o
Ġcrush ed
Ġtown s
Ġweak ness
Ġfool ish
Ġfail ure
Ġshell s
Ġsail ors
ĠSpecial ist
ĠNon creature
ĠNor th
Ġoutl aw
Ġign ore
Ġban ner
Ġdest ination
Ġgen ius
ĠDri ft
ĠEnl ightened
Ġcompan y
Ġcas tle
Ġcrew s
ĠBet ter
Ġdeser ve
Ġpri ze
Ġpri zed
ĠEt hereal
co at
Ġwand ered
ĠHaunt ed
ĠRevel ers
Ġspl it
ĠSylv ok
ĠTro ops
ĠHollow henge
ĠHipp ogriff
irc uit
ĠSetess a
ĠDen izen
Ġinvent ion
Ġdemon st
Ġrich es
Ġadventure rs
Ġdefe ated
ĠArgoth ian
Ġmal ice
Ġchall eng
ĠSee ing
Ġer u
Ġodd s
ĠHaven wood
ĠFort ress
ĠFort une
Ġegg s
ĠBall ard
Ġadm ire
Ġtech ni
Ġfright ened
Ta aveti
ĠHaz oret
Ġengin es
ĠFri ends
Ġsurpris ing
Ġartif icers
Ġdom ain
Ġspr out
Ġguardian s
ĠCog work
ĠCare taker
ĠTid al
ĠHyp not
kem far
ĠSpit eful
ĠEnchant er
azot z
Ġsuccess ful
Or acle
ingu ish
ĠLor wyn
ĠPsych ic
ĠInform ant
ĠUk tabi
ĠStri ker
Ġcompet e
Ġstrugg le
erve k
Ġbook s
Ġscho ol
ste in
Ġrece ive
ĠVict ory
Ġclim b
ĠMaraud ing
Ġstrateg y
clo ak
gor ger
ynd horn
Ġid i
alg am
ĠTho pters
ĠTask master
ĠFil igree
Ġbeg un
ĠGard ener
hoot er
Ġvow els
ĠThiev ing
Ġintellig ence
Ġfleet ing
ĠLiber ator
Ġoce an
urel ia
Ġconfl ict
ĠNem esis
Ġrum ors
ĠNov ice
ĠTrail blazer
ĠSurrak ar
ĠRedeem er
ĠJamura a
Ġtoler ate
ĠSelf less
ĠSangu ine
ĠTaz ri
Ġalleg iance
ĠExper iment
ĠChap lain
Ġobst acles
ĠSaber tooth
ĠAwaken er
Ġborrow ed
Ġfrenz y
ĠFract al
ĠRive teers
ĠKru phix
Ġmech an
ĠHek ma
ĠConstrict or
ĠResc uer
ĠInfern o
ĠSynd icate
ĠKarplus an
Af ari
Ġcaval ry
Ġthiev es
alanc he
ĠSare vok
ĠAcl azotz
ĠAmon khet
ĠTaze em
ĠHopl ite
ĠBann eret
ĠKalad esh
ĠUme zawa
ĠJab ari
Ġglimp se
* .<|
, /
1 1
A ss
A ven
C om
C rop
C rovax
E ater
F ur
G ar
H al
I C
K u
K en
K ing
K ara
L im
L ove
L ord
L udevic
O ld
P riest
S am
S he
S hin
S yr
T ree
T olarian
T eferi
V ol
b us
b one
b alist
b ias
c rusher
d o
d inary
d rinker
e ase
f old
f ound
g ate
h orde
h awk
j aw
l ar
l ach
l ate
l ash
m et
m ag
m arch
m outh
n et
o ose
o oth
p ie
p ort
r at
r ines
r oun
r owned
s uck
s linger
s dag
t on
t ai
t usk
t ongue
u is
u le
u ity
v il
v ir
w r
w er
w ill
x es
y or
y ield
z ing
Ã Ń
Ġ raz
Ġ icy
re dder
Ġt ent
Ġt ender
at i
Ġc ac
Ġc ouncil
Ġc ried
Ġc lockwork
Ġc eremon
Ġa st
Ġa gon
Ġth y
Ġth aw
Ġo m
Ġo be
Ġo we
Ġo pens
in ning
ar an
ar ity
ar ter
ar ition
am ar
am bles
it ate
it us
tl ety
on om
Ġb old
Ġb raw
Ġb other
Ġb rid
Ġb rew
ĠC ac
ĠC rash
ĠC avern
ĠC rovax
ĠC rested
ĠC auldron
Ġyou th
Ġs ou
Ġs ac
Ġs or
Ġs way
Ġs atyr
Ġs ites
Ġs cholar
is hop
ough s
ame t
ac ity
or ing
or ch
Ġf an
Ġf ac
Ġf ist
ĠW eld
ĠW as
ĠW ight
ĠW aves
ĠW inn
ĠW hether
ĠW astes
ĠW reck
ĠW yll
Ġw ary
Ġw reak
Ġw akes
Ġw alking
el on
el ion
el ira
Ġan nihilator
st ab
Ġp il
Ġp are
Ġp its
Ġp up
Ġp aws
Ġm ig
Ġm ud
Ġm ock
Ġm imic
Ġm aj
Ġm aps
Ġm urk
Ġm elee
Ġm ushro
ĠS ay
ĠS ell
ĠS id
ĠS ter
ĠS alt
ĠS ince
ĠS aint
ĠS ewer
ĠS kemfar
Ġl en
Ġl est
Ġl one
il n
il is
il ent
Ġit em
Ġh es
Ġh el
Ġh ang
Ġh arp
Ġh edron
ur ous
ur ial
hen ra
ed it
ĠA ud
ĠA urelia
ĠT op
ĠT ome
ĠT ech
ĠT ilon
ĠT usker
Ġg irl
Ġg onna
ef e
ra in
ra el
ra va
ic ol
ic ke
ic eless
ic onia
Ġcon se
ĠH ord
ĠH ood
ĠH ung
ĠH edge
ĠH olly
ĠH uatli
ĠH avoc
ev in
ĠI k
ĠI l
ĠI r
ĠI II
om ir
ĠD own
ĠD uty
ĠD reg
Ġcontrol lers
Ġin j
Ġn ice
Ġn our
ast al
ast ion
ast ery
ĠF ast
ĠF ut
ĠF lock
ĠF ace
ĠF og
ĠF ron
ĠF ather
ĠF ierce
ĠF ortunately
ĠF yndhorn
le on
le ater
ut iful
ut stein
Ġbe aring
um ing
as y
as ite
as ks
ĠE ff
ĠE ager
ol m
ol ver
ol rael
Ġe p
Ġe arl
ĠR ex
ĠR ight
ĠR ul
ĠR ash
ĠR asa
ĠR isen
ĠR utstein
ĠL am
ĠL ow
ĠL ul
ĠL ag
ĠL ae
ĠL ux
ĠL umin
ĠL azav
ĠL ammasu
ĠM are
ĠM ake
ĠM eng
ĠM ender
ĠM esmer
he e
he ira
ĠP all
ĠP un
ĠP op
ĠP ash
ĠP ort
ĠP lease
ĠB old
ĠB ark
ĠB ran
ĠB loom
ri eker
Ġre nd
Ġre bel
Ġre asons
ĠG at
ĠG ad
ĠG all
ĠG ift
ĠG arbage
ĠG imli
ĠG ilded
ĠG renzo
ch ol
Ġsp aces
ain ous
Ġde em
Ġde af
lo k
lo v
ad ar
ad el
ad ise
ad amri
Ġst ruct
Ġst ature
os h
os y
eg ades
ant ed
Ġcast e
id ance
et er
ore r
ap se
ĠK u
ĠK os
ĠK eran
ĠK itesail
ĠK henra
rif e
Ġex act
Ġex quisite
ĠO s
ĠO rochi
ĠO ketra
Ġgra in
ru ly
ĠV ile
ĠV ult
ĠV oy
ĠV itu
ĠV icious
ĠV ivien
ĠV exing
ĠV iconia
iv id
iv ist
iv orous
ho le
br ink
ĠSp ine
ĠSp ik
ĠSp ara
ĠSp ined
ĠSp ores
qu es
od ama
ĠN ext
ĠN one
ĠN aut
ĠN ether
ĠN issa
Ġv igil
Ġv ine
Ġv ermin
us es
ear ing
ig o
ig od
ĠWar leader
Ġdo zen
wo oping
Ġsh ame
Ġsh ed
Ġsh own
Ġsh ade
Ġsh ines
Ġsh iny
Ġsh udd
ect ing
ul ous
ber ing
ĠSh el
ath ing
ath ed
og ue
Ġk ra
our ing
com ple
Ġwh ir
Ġbl an
Ġbl ast
ĠAs k
ĠAs hi
keep ers
ĠIn gen
ĠTh row
ĠTh aum
Ġse ize
ous es
ous ly
ag ged
Ġwas h
Ġless on
gon e
Ġta ble
Ġno ise
are s
are t
Ġam bit
ĠSc ale
ĠSc hem
ĠSc roun
ĠAn urid
Ġr anger
Ġr isk
Ġr otting
ĠPut rid
Ġal ley
ak u
Ġlo ves
ĠSt ay
ĠSt ep
ĠSt ag
ĠSt ars
ĠSt itcher
ust er
Ġch im
Ġch arm
Ġdiscard ing
sh ade
sh aker
ĠDragon lord
ang ling
ph on
Ġrem ark
Ġle ather
ĠCh ittering
ĠJ en
ĠJ ac
ĠJ udge
Ġmy c
Ġwe igh
ĠFl edgling
ĠSl ag
ĠSl ime
ĠSl asher
Ġexc ellent
ruct or
ass ador
yp se
ĠCon no
ĠCon scri
Ġfl ed
Ġun able
Ġhis s
Ġgre et
Ġgre ml
gel ess
Ġsc en
Ġro of
Ġro ads
Ġgo at
ĠEn igma
ĠTre spass
ran ite
ran ax
ab or
sp ear
oul caller
orm ous
ĠAl ways
ĠAl ora
ĠOr gg
ĠGiant s
ĠNo xious
az da
Ġexp ected
esh aper
ĠDeath less
ĠAd jud
Ġus eless
Ġpro ved
Ġpro gen
Ġcl iffs
ren ko
ĠHe aling
ĠDem igod
ĠIns atiable
ĠArch itect
ĠArch ivist
lem n
ĠDemon lord
Ġru ined
Ġru bble
ĠUn f
Ġpo c
Ġind eed
ĠSn ail
ĠSn iper
ĠSn apper
ĠRo han
oll um
ĠAss ault
ud ith
Ġtra pper
Ġtra de
icker y
ĠGolem s
Ġtri be
Ġtri als
Ġtri umph
ĠBlood fire
ĠIs eng
ĠBl ast
ĠBl azing
ĠMin amo
anc ing
Ġsl ime
Ġel eph
pl anar
ail s
ail able
alf irin
Ġover l
ĠTo ad
ull s
ift ing
Ġdev ices
Ġblood l
Ġblood chief
be ard
Ġcaus ed
ĠNight shade
Ġad mit
Ġhear s
vis ion
ĠShe ep
Ġarm ed
ik o
ik u
Ġdes igns
Ġhunt ed
awn os
Ġgl ow
Ġgl int
ĠSky hunter
Ġpoison ous
ĠSoul blade
Ġhow l
ĠGl en
ĠGl or
ĠGl ass
ĠGl immer
ĠGl issa
Ġgu ides
Ġgu idance
ĠPro sper
ĠPro fessor
ĠHy brid
Ġser pent
ĠLe y
Ġexplo s
Ġexplo re
ĠTra der
ĠIllusion ist
Ġass assins
gr is
gr ace
ĠTr umpet
uck le
ĠGr ound
ĠBattl es
ĠBattl efield
te en
Ġste pped
ĠEm in
ĠBr other
ĠBr ine
ĠGn omes
ĠHunt master
Ġvict ories
Ġsurv iving
Ġbu y
Ġfin ished
ĠSo j
ĠSo othsayer
ster ious
Ġprotect ed
Ġem ber
Ġtem p
Ġcyc ling
orp or
Ġshould n
Ġshould er
Ġext ract
ĠMountain cycling
Ġremain ing
ĠKra sis
Ġdec or
Ġdec ad
Ġperfect ed
ĠAg ency
Ġheal er
Ġheal ed
Ġfeel ing
ĠBand its
ĠUnder city
ĠSpect acle
ov a
ov ery
Ġold est
ĠScaven gers
Ġinc orpor
Ġdel icious
Ġimp ress
Ġfamil ies
ĠGold meadow
ĠJust ice
ĠWind grace
Ġdeep er
Ġtouch es
Ġwr ath
ĠRak ish
ĠPar ley
ĠPar adox
Ġob v
Ġins atiable
ric ious
ĠAm algam
ĠKar lach
ĠNe ither
ĠZh ur
Ġbreak s
Ġinsp iring
Ġemer gen
Ġrel ic
Ġrel entless
ĠCar avan
Ġstud ent
Ġremem bered
Ġact ive
Ġact ions
Ġdri ve
ĠWatch dog
ĠRed cap
ĠApp arition
ĠEf rava
Ġund eath
Ġmult iple
ific ation
ĠCur ator
Ġnor th
Ġav ailable
Ġserv ant
Ġdire ctly
ĠTw ilight
Ġfaith ful
ĠCan opy
ĠCan yon
ĠSal v
ĠSal vage
Ġhar ness
ĠTor ch
ĠPy gm
Ġspread s
ĠWhere ver
ĠMult icolored
ĠArg ive
Ġpoint ed
well er
Ġfun ny
ĠWay ward
ĠSom ething
ĠMal c
Ġancest ral
Ġmast ered
Ġenc ore
ĠInv okers
ĠSkir sdag
ĠRoot walla
ĠCons ul
El speth
ĠOt aria
ĠBee ble
Ġrequ ire
ĠOff icer
Ġprov ided
Ġprov ides
ĠNim bus
wh at
Ġhundred s
Ġvi br
ĠCry st
Ġprom ised
ĠTe acher
ĠEnd less
Ġfriend ly
ĠCap enna
Ġsummon er
Ġlist ening
ĠMur der
Ġemb alm
Ġemb ody
Ġspec imen
Ġherd s
Ġden y
ĠWither bloom
Ġswamp s
ĠWorm fang
Ġinf est
Ġsteal th
ĠRi pper
ĠBell owing
ĠBell ige
Ġheav ily
Th at
ba ile
Ġwield s
ĠSanct ifier
ĠVor inclex
ĠNor thern
Ġign or
ĠCult ist
umb ered
Ġrepl ied
Ġfort un
Ġdet ain
Ġvan ish
St itcher
Ġsand s
ĠTher os
Ġele ments
Ġdeser ves
cr at
ĠHa azda
ĠEt ched
Ġwarm th
Ġhum ble
edic ated
ĠGen ius
ĠTro oper
ĠMelet ian
Ġash es
tog rapher
Ġguess es
Ġsto le
Ġstat ue
Ġvers e
Ġinstinct s
Ġdwell ers
Ġpriest s
aly st
Ġtunn el
Ġaut omaton
Ġdwar f
ĠSor atami
Ġhell ion
ĠDep ths
ĠMach ine
ĠAcc ursed
Ġfal se
Ġfal cons
Ġmilit ia
ĠChron ic
Ġramp age
ĠDec oy
ĠEz io
ĠBlad ewing
Gh azi
Gh oulcaller
ĠCos mos
ĠTell er
ĠDran nith
ĠFo ols
ĠFel idar
ĠEdge wall
ĠVill age
Ġleaders hip
ĠExpedition ary
ĠWayf inder
ĠWayf arer
Ġthri ves
ĠWr angler
ĠFre yalise
ĠScor ch
Ġgolem s
azot ep
Ġconsum ed
ĠLava brink
Ġsal vation
Ġmid st
ĠHur loon
ĠLun arch
ĠOath sworn
Ġunst oppable
inc ar
Ġann oy
ĠDiv iner
ĠPal ace
ĠBrush wagg
ĠElend ra
Ġincre ase
Az ewor
Ġcit izens
Ġthop ters
Ġfarm ers
Ġult imate
ĠLess on
rup ter
ĠUs urper
Ġtrem ble
Ol ivia
Ġess ence
orator y
ĠKins baile
Ġvirt ue
Ġritu al
Ġscr atch
ĠWeap ons
ĠYot ian
ĠPrec inct
ĠGlutton ous
Ġneigh bor
Bra ids
Zh alfirin
ĠSigil ed
ĠErr ant
ĠVh al
ĠAng ler
ĠJh essian
Ġvalu able
Ġaggress ive
Ġcentaur s
Ġgargantu ans
Ly na
Ġcath ars
Ġpul se
ĠToc asia
ĠHul king
Ġnav ig
ĠFr illed
ĠFug itive
ĠRush wood
ĠPant her
ĠGot cha
Ġsphinx es
ĠVr ist
ĠSlick shot
ocal ypse
Ġdevel op
Ġeffic ient
ĠAmber gris
Ġveter an
Ġrebell ion
ĠÃĨ ther
ĠRamos ian
Ġingen uity
Ġsam urai
isse ur
Ġdise ase
ĠSle uth
ĠTunn el
ĠJa heira
ĠJavel ineer
Ġunexp ected
ĠAdvers ary
Ġtempl es
Ġfootstep s
She oldred
yield ing
ĠSter ling
ĠTilon alli
icke red
ĠHolly phant
ĠRasa ad
ĠLul u
ĠPun isher
ĠKeran os
ĠAshi ok
ĠIngen ious
Ġambit ious
ĠConno isseur
ĠIseng ard
ĠPygm y
ĠBellige rent
Azewor ai
. âĢĶ
A R
A v
B e
B ey
C abal
C rowned
D o
D war
D emon
E rtai
G ang
G uls
H anna
H akim
I L
I S
J aya
L it
N am
N ik
N omad
N othing
P ro
Q ueen
S un
S now
S imic
T al
T aj
V or
W ard
a el
a otic
b ra
b all
b ones
b rig
c ies
c ale
c rop
c over
c rasher
d ess
d el
d ed
d ancer
f i
f isher
f ront
f athom
g a
g ent
g ly
h all
h wain
i ars
j eru
k op
l ot
l ad
l ayer
m its
m ander
n n
n tly
n ought
n eath
o i
o ard
o ologist
p ack
p res
p riest
p ecially
r it
r ith
r ace
r ity
r ite
r ich
r ata
s abo
t hen
t old
t uk
t ender
u ul
v an
v ine
w it
w ire
w orn
w ick
w heel
w ielder
x a
y x
y ou
Â ½
Ã ¡
Ġ raw
re en
re ct
re ll
re th
re ya
Ġt y
Ġt amed
Ġt asty
er p
er ning
er ful
er horn
at ur
ou der
Ġc ure
Ġc ower
Ġc red
Ġc ull
Ġc rows
Ġc ircle
Ġc ustom
Ġa uthor
Ġth or
Ġth orn
Ġo per
Ġo bey
in ous
in ok
in ating
ar ious
es kir
ure au
an en
an ks
am ber
am ina
am bo
it ects
tl et
on se
Ġb all
Ġb rush
Ġb ridge
Ġb idding
ĠC ard
ĠC and
ĠC ove
ĠC ors
ĠC raft
ĠC arth
ĠC ivil
ot i
ess e
Ġs ev
Ġs ings
Ġs hop
Ġs ends
Ġs ailed
is to
Ġd row
Ġd ull
Ġd angers
Ġd reamed
Ġd ormant
ac re
or ge
or ist
or less
or ia
or able
Ġf r
Ġf ox
Ġf ists
Ġf isher
Ġf rost
Ġf olly
Ġf ulf
Ġf ully
Ġf ickle
ĠW ary
ĠW ake
ĠW izen
ĠW hew
Ġw est
Ġw ounded
Ġw edd
Ġw retched
Ġw oman
el ve
ro ck
st eed
Ġto y
Ġto re
Ġto ss
Ġp ra
Ġp rot
Ġp iles
Ġp hoenix
Ġp aladin
Ġp ause
Ġp uls
Ġp uzz
Ġm el
Ġm ix
Ġm otion
Ġm ouse
Ġm iddle
al i
al lying
al chemist
ĠS an
ĠS ard
ĠS ere
ĠS ink
ĠS oc
ĠS app
ĠS edge
ĠS arkhan
ĠS isma
Ġl on
Ġl og
Ġl aid
Ġl eth
Ġl ull
Ġl air
Ġl aughter
Ġl urk
Ġl unch
Ġl ungs
Ġl ouder
il k
il ica
il obite
Ġh ord
Ġh ated
Ġh ounds
ur p
ed i
ĠA geless
ĠT own
ĠT aunt
ĠT rawler
ĠT ender
ĠT rost
ĠT attered
ĠT ransp
ĠT awnos
Ġg al
Ġg ate
Ġg rim
Ġg uts
tro p
ic ket
ic ators
Ġcon cept
ĠH ot
ĠH ate
ĠH av
ĠH our
ĠH ired
ĠH arm
ĠH ush
ĠH ada
ĠI V
ĠI b
ĠI v
ĠI de
ĠI vy
ĠD ir
ĠD ru
ĠD est
ĠD ag
ĠD aya
ĠD yn
Ġin form
eld s
Ġn aga
Ġn avigator
ast eland
ĠF ur
ĠF ly
ĠF ate
ĠF bl
ĠF arm
ĠF oot
le ech
ut es
ut ed
ir ith
Ġbe ating
Ġbe hemoth
ith a
and ers
as tline
ever y
Ġor n
Ġor gan
Ġor dinary
ĠE ar
ĠE ph
ĠE thers
ĠE ternity
ol us
ly n
ly s
Ġent ertain
Ġent rance
ĠR ime
ĠR angers
ĠR otting
ĠL a
ĠL egend
ĠL ath
ĠL air
ĠL earn
ĠL ys
ount ain
ĠM eg
ĠM ig
ĠM ud
ĠM ox
ĠM ock
ĠM atron
ĠP ure
ĠP end
ĠP ig
ĠP ie
ĠP alian
ĠP eddler
ĠP ouncing
ĠP sionic
ĠB il
ĠB ol
ĠB raw
ĠB art
ĠB ans
ĠB itter
ĠB olt
ĠB ully
ĠB ishop
ĠB astion
ĠB eskir
ri en
ri an
ri el
ri al
ri ving
Ġre ly
Ġre ign
Ġre con
Ġre inforce
Ġre joice
Ġat op
ĠG raz
ĠG urm
ĠG aren
ĠG ollum
ack et
ack led
ch iev
Ġend ing
Ġpl uck
ell ed
Ġsp it
Ġsp ace
Ġsp illed
ain er
ain ing
Ġde mentia
ad an
ad on
ad ir
pp e
Ġst ab
Ġst oke
Ġst alk
Ġst alking
Ġst icks
os qu
os tle
ct hwain
Ġcan to
act er
ant er
ant om
Ġplay ing
Ġplay ful
id ious
et op
et uous
Ġli mb
Ġli ghtly
im m
im ately
ĠK e
ĠK em
ĠK ud
ĠK inj
ĠK ey
ĠK ange
ĠK lement
ĠK renko
Ġex ha
Ġblock ers
ĠO y
ĠO bl
ĠO res
Ġco ve
Ġco ins
Ġman age
Ġman ner
ĠV es
ĠV el
ĠV ast
ĠV ad
ĠV ant
iv is
iv ic
ld er
od erm
ĠN ath
ĠN ashi
ĠN acatl
Ġv or
Ġv oid
Ġv ials
to ise
ill iam
est hir
Ġsh ake
Ġsh ared
Ġsh ards
em aster
em ption
ul ent
ul ars
Ġper ils
Ġper mit
av ored
ber d
ber ry
bl ights
ĠSh immer
ĠSh atters
ĠSh rieking
all ic
ier cer
ath some
ĠX ander
un a
Ġab und
Ġab omin
th p
ĠZ ur
Ġwh ip
Ġbl ame
Ġbl ows
Ġbl inding
Ġen l
Ġen vir
Ġen ormous
Ġall owing
Ġall owed
Ġunder ground
Ġunder foot
Ġother wise
Ġbecom ing
Ġcol lector
ĠTh r
ĠTh ane
ĠTh resher
ĠTh unders
ĠTh elon
ĠTh riving
Ġret reat
ag os
ĠDra g
ĠDra kes
ry n
are th
ĠSc aled
ĠSc riv
ĠAn ointed
ĠAn je
ĠAn aba
Ġcho ke
ĠBe aut
ĠBe acon
Ġr hino
Ġr ank
Ġr allying
Ġcom rad
art ed
Ġal oft
ak a
ak on
ak ke
ak ram
ĠEx ert
ĠEx arch
Ġlo ot
ĠSt omper
ĠSt inging
ĠSt arting
ust ic
ĠRe ef
ĠRe ve
ĠRe ality
Ġch est
Ġch ang
Ġch ase
Ġch icken
Ġch ieftain
sh asa
ĠAr den
ĠAr rogant
ang ara
Ġle af
ĠCh all
ĠCh akram
ver t
ĠJ el
ĠJ ade
ĠJ oin
ĠJ oh
ĠJ ailer
ĠJ edit
Ġuntap s
aman cer
Ġmy stic
ĠFl ower
ĠFl ight
ĠSl ow
ĠSl im
ĠSl ither
Ġexc av
Ġhe ight
ĠCon dor
Ġfl u
Ġfl owing
ick ly
Ġun aw
ine e
ĠSk in
ĠSk arr
aw ning
rot orium
Ġsc al
Ġsc roll
Ġj ung
Ġwor king
ouch ed
ouch able
ark ar
Ġgo al
Ġgo ats
ĠHor izon
ĠEn raged
ss erhorn
unt il
ĠTre nch
ĠTre etop
ĠTre sserhorn
ran os
ran qu
ond en
ott a
ort ex
ort ed
ĠDruid s
ĠCat ac
ĠCat apult
ĠAl ex
ĠAl ara
ĠOr ch
Ġag ree
ura ble
Ġsee ing
ĠAd miral
ĠAd arkar
Ġsk elet
Ġsk ulk
Ġpro ject
Ġpro dig
Ġpro fit
Ġri ft
Ġri ot
Ġwar s
Ġwar ren
ĠHe y
ĠConst able
ĠWh irl
ĠHer balist
Ġsur render
ĠOn akke
ĠUn st
ĠUn seen
Ġpo ol
ĠSn o
ĠSn apping
ĠRo ar
ĠRo hir
Ġsw ore
Ġra ids
Ġra iders
Ġtra vers
Ġmon oc
Ġform idable
ĠCl ay
ĠCl ever
ĠSw ords
ĠY ellow
ĠBlood c
ĠBl aring
Ġqu ill
Ġgr aceful
ĠMin er
Ġsl ay
Ġsl ag
Ġsl ip
Ġsl aught
pl ate
ĠDo or
eth or
ĠForest cycling
Ġdev ils
Ġblood line
Ġad just
we ir
Ġhear ing
ks dotter
ob i
Ġarm ored
Ġcomp ar
Ġcomp assion
ik i
ik an
ik ari
ik ae
Ġsome how
ĠQ al
ps hooter
Ġpe aks
Ġgl ittering
ĠSwamp cycling
Ġac qu
Ġbel oved
ĠImp etuous
ĠSky march
Ġev olved
Ġsu gg
Ġoff icial
ĠGl ad
ĠMinotaur s
int orius
Ġdis rupt
Ġser ves
Ġtr in
Ġtr ickery
ĠMar vels
Ġkn ife
Ġband s
Ġband its
ĠDr inker
Ġef reet
Ġef fort
ĠMerc adia
ĠMerc urial
Ġnat ive
ax os
ax ian
ann et
ĠAtt ract
usp ecting
ĠArm ory
Ġexplo ited
ĠTra itor
ĠTra inee
ĠMan ip
Ġint ent
Ġint ended
Ġword y
Ġward s
arm int
ĠDes er
ey ser
gr ath
wor ks
ĠBo a
ĠQu est
ĠQu intorius
born e
ĠSkelet al
ĠSkelet ons
ĠTr ilobite
ĠShadow s
Ġkill er
uk ranos
Ġ' <
Ġdist ric
ĠMir ri
ĠAb bey
Ġhere tic
ĠMag ma
Ġbr icks
Ġbr utal
ĠBr and
ĠGn aw
ĠHunt ing
Ġbu zz
ĠProw ling
ĠHero es
Ġart s
Ġart ists
ĠSo aring
ĠSo lemn
Ġrun es
ĠSur geon
ĠUr s
na pper
Ġes pecially
Ġclo ak
Ġpr iceless
Ġprotect or
aya el
Ġtem pt
Ġtem pered
rop hy
Ġfar ther
Ġmet hod
Ġheart beat
ĠRes p
ĠRes ist
Ġthought weft
ĠGra f
ĠGra pp
ĠGuardian s
ĠNec rom
Ġcur ious
Ġsn eak
ĠWild wood
ĠWild fire
ĠWild speaker
ĠHalf heart
ground s
ĠAg gress
ĠLeg acy
Ġrep utation
aim er
nic ian
Ġfeel s
ĠDu erg
ĠDis p
ĠDis pl
idd a
ĠStorm s
ĠAny one
ĠInt imid
ĠScaven ging
Ġinc arn
Ġbo ar
Ġdel iver
Ġcare fully
ĠMa j
ĠBal eful
Ġfamil iars
Ġne ck
Ġne zumi
ĠBen eath
ĠGold mane
Ġtravel ing
Ġbeh old
Ġtell ing
Ġwr itten
Ġwr ithing
Ġinv ading
ĠPar asite
Ġob sc
Ġob ser
Ġob ject
Ġins ight
Ġvot ing
ric ade
eng rid
Ġben ef
ĠCor rupt
ĠCor rupter
Ġwater fall
Ġwater mark
ĠAm rou
ĠKar lov
ĠKar olus
ĠKing pin
ĠBro kers
Ġtrans cend
olog ists
Ġdu plic
ĠOb sess
Ġcollect ed
Ġcr own
Ġcr umbled
ĠBas ilica
Ġresp ond
Ġresp onse
ĠSm asher
ĠSm uggler
ĠDark ness
ĠLegion naire
Ġbreath es
Ġpain t
ĠHow ling
ĠDread horde
ĠPrim arch
Ġaw are
Ġge ars
ĠEnt husi
ĠOx idda
ipp in
Ġvill ages
Ġvill ainous
Ġsupp ly
Ġmain tain
ĠTw isted
Ġspore s
rin ts
ĠAp ostle
ĠTor re
ĠRa ff
ĠOutl ander
Ġdr own
Ġgener als
Ġsymb ols
heart ed
Ġclaim ed
ĠSu q
ĠMal amet
ĠDomin us
ĠWhis pers
ĠInv asion
Ġve get
Ġpot ions
ĠProt e
ĠBlack smith
ĠSilver quill
itt ers
ĠRev olution
ĠRamp art
ĠLo cthwain
ĠBee tles
Ġteach es
ĠEmer ald
ĠStr ateg
Ġcross ing
Ġaff ord
ĠTe zzeret
ĠEnd uring
Ġcontin ues
ĠMur k
Ġtrust ed
Ġsol itary
Ġmus cles
world ly
rr r
ĠWere wolves
Ġple ase
ĠUnl ike
ĠAdapt ive
ĠGrand eur
Ġentire ly
Ġcrush ing
Ġcomb ined
Ġap es
Ġap ex
ĠLav inia
ĠBone yard
ĠGar riss
Ġabs ence
Ġabs olute
ĠDevour ing
Ġill usion
Ġide al
Ġide als
ĠScar ves
ĠScar ab
ĠRecl aimer
Ġcult ists
Ġbal anced
ĠSanct uary
ĠBu ild
ĠBu zz
Ġpatrol s
Ġmouth s
ĠDri fter
ĠDire graf
ĠOj anen
ĠIncarn ate
ĠBet rayer
agg ers
cr own
iam ond
Ġlab or
ĠHa akon
ĠPit iless
ĠBoggart s
Ġimagin ation
co il
Ġtall est
Ġincl ude
ĠFe ather
ĠRevel er
ĠCrypt ic
break ers
Ġbeliev es
Ġguess ed
Ġdisturb ing
Ġawaken ed
Ġwander ing
ĠHorn ed
Ġacc ord
Ġharvest ed
Sc ar
ĠWing ed
ĠHob bit
ĠHob goblin
Ġstick ers
ĠCarn age
ĠHaven gul
Ġtech n
ĠChe erful
heel i
Ġengin eer
Ġuns uspecting
Ġroam s
Ġramp aging
ĠEz uri
log ger
Ġsteed s
ĠUp on
Ġmerchant s
Ġelemental s
Ġinclud ing
bb ed
mind ed
Ġfre qu
Ġfre erunning
Ġwitch es
ĠSa heeli
ĠSto ic
ĠField s
loss oms
ĠVill ain
ĠChrom e
Ġsurr ounded
Ġphilosop hy
Sk y
Ur za
Ġble ed
Ġmot to
Ġgle aming
ĠPass age
Ġperil ous
ĠEnchant ress
Ġrid ing
Ġbare ly
ingu ished
urd y
Ġet ched
ĠMech anic
Ġspo ken
Ġunst able
ĠSkul kin
Ġscaven ge
ĠDrac onic
Gl issa
Ġbas ilisk
Ġbloom s
Ġpatter ns
ĠElend a
ĠArchae ologist
Ġimpro ve
Ġnecrom ancers
ĠGrizz ly
Ġsatisf y
Ġpop ulate
Ġut ter
ĠPol ukranos
ĠOd ric
uss ar
Ġrhy me
ĠAlt isaur
ĠLibr arian
ĠRelic bane
ĠExcav ator
ĠCustod i
Bru se
Ġfav ors
Ġhabit at
ĠHan weir
ĠHier ophant
ĠDro ver
ĠLum engrid
ĠMus cle
ĠPak al
ĠGener ous
Ġstream s
Ġpreser ve
Ġsmith s
ĠSkys ail
Ġcorrupt ion
Ġencount er
Ġcasu alties
Sor ine
mun ition
Ġthrull s
Ġmir ror
Ġhym n
ĠAber ration
Ġinev itable
ĠGit axian
ĠGust cloak
ĠKrov ikan
ĠOp al
ĠSpec ies
Ġinstrum ent
Ġlox odon
ĠConver ge
ĠPlan eswal
aza ar
rides cent
Ġdisapp ear
ĠCerat ops
call ers
Ġcaut ious
Ġthr own
Ġsum mer
orv o
ĠSaf e
ĠTuk tuk
ĠFest ering
ĠRow an
ĠLin vala
ĠLot us
Ġregre t
ĠKath ari
ĠNurt urer
Ġmillenn ia
Ġadop ts
Ġguilt y
Ġguarant ee
ĠSymb i
Ġbrav ery
ĠMoor land
Ġunpredict able
ĠÃī omer
One an
ju ven
Ġbot tle
Ġpier cing
ĠAxe bane
ĠFront ier
Ġeag les
ĠLuk amina
ĠPix ie
ĠPris m
Ġliqu id
ĠStens ia
Ġremn ants
Ġouts iders
ĠDevast ator
ĠYar ok
Ġresour ces
oci ates
ĠPilf erer
Ġunderest imate
Ass assins
Aven ant
Gar ruk
Shin tai
Ġagon y
Ġmushro oms
Ġlen gth
ĠHood ed
ĠHung ry
ĠFut urist
ĠLux a
chol ars
ĠVoy ager
ĠNaut ilus
ĠScroun ger
Ġmyc oid
ĠAdjud icators
Ġoverl ay
ĠEmin ence
ĠBrother hood
ĠSalv ager
Ġvibr ant
Ġinfest ation
ĠChronic ler
Av ram
Bey ond
Guls en
Taj ic
Vor inclex
Ġcred it
ĠWizen ed
ĠDest iny
ĠFbl thp
ĠEph ara
ĠEthers worn
ĠPalian o
ĠBans hee
ĠGurm ag
ĠGaren brig
chiev ous
ĠKinj alli
ĠKange e
Ġexha ust
ĠOres kos
ĠShatters kull
Ġenvir on
ĠScriv ener
Ġcomrad es
Ġchang es
Ġjung les
ĠRohir rim
Ġmonoc olored
ikae us
Ġdistric ts
ĠIntimid ator
ĠGarriss on
' .
* .
* ?
A m
A sh
A jani
B o
B en
C ursed
C ircuit
D om
F l
G re
G andalf
H av
H alf
I b
I n
I s
K am
K iora
L ady
L lanowar
L ament
N antuko
O b
P s
R em
R ise
R az
S qu
S idar
S word
T e
T eysa
W illiam
Z ur
b ing
b urn
b ol
b ad
b its
b riar
c um
c ass
d y
d ark
d iver
d ruid
d ges
e ve
e tle
f ers
f our
f ord
f itter
g anger
g ans
h s
h ou
h ot
h ame
h ard
h and
h ire
h ind
h ome
h ana
h anded
i ation
k at
k ed
k ul
l u
l is
l or
l ong
l ich
l asting
m ade
m ira
m ma
m akers
m asters
n u
n ant
n od
o e
o or
o il
o ir
o ol
p es
p od
p out
p ath
p alm
r ound
r ond
r ates
r icate
s n
s ig
s aken
t a
t end
t his
u z
u bl
v i
v ity
v uli
w on
w ake
w aker
z u
z er
z ens
Ġ veil
re f
re p
re rak
Ġt in
Ġt ame
Ġt ies
Ġt ong
Ġt ill
Ġt ire
Ġt ired
Ġt iny
Ġt ainted
Ġt ranqu
er id
er able
at to
at us
en aut
en za
Ġc re
Ġc age
Ġc ore
Ġc ave
Ġc rab
Ġc reep
Ġa we
Ġa erial
Ġth ief
Ġth rash
Ġth erm
Ġth rone
ar is
ar ion
ar row
ar led
an ul
an ner
Ġthe ory
am ir
am ine
end ers
it ic
tl ight
on ly
on ies
Ġb es
Ġb ef
Ġb ore
Ġb ree
Ġb row
Ġb oss
Ġb ats
Ġb ored
Ġb ush
Ġb ought
Ġb ites
Ġb ulk
Ġb ased
Ġb unch
Ġb lossom
Ġb inds
Ġb oughs
ĠC ore
ĠC od
ĠC ab
ĠC ook
ĠC oy
ĠC ull
ĠC rook
ĠC ivic
ot au
Ġy a
Ġy awn
Ġy earn
Ġyou ths
ow ered
ow beast
ow ashi
Ġs ad
Ġs ink
Ġs elves
Ġs aving
Ġs olve
is ho
is dom
Ġd ile
Ġd ish
Ġd iver
Ġd ail
Ġd ress
Ġd aring
Ġd aughter
Ġd aggers
ame leon
ac rum
Ġf at
Ġf urn
Ġf ig
Ġf athom
Ġf ray
Ġf ancy
Ġf iends
ĠW ombat
ĠW ort
ĠW icker
ĠW ords
ĠW retched
ĠW asteland
ĠW isdom
Ġw ra
Ġw ound
Ġw ine
Ġw aking
Ġw asted
el ry
el lect
el ands
ro ats
ro pe
ard rop
Ġan ts
st ar
st ers
st ruct
st ood
st ream
st atic
st ained
Ġto ad
Ġto ys
Ġp an
Ġp age
Ġp ig
Ġp ark
Ġp ran
Ġp ond
Ġp ik
Ġp ale
Ġp aper
Ġp ests
Ġp oured
Ġp anic
Ġp inch
Ġm eld
Ġm ice
Ġm ate
Ġm ile
Ġm aw
Ġm ail
Ġm und
ĠS end
ĠS it
ĠS eg
ĠS ab
ĠS ift
ĠS up
ĠS ib
ĠS tern
ĠS vy
ĠS uccess
Ġl oft
Ġl amp
Ġl ance
Ġl ake
Ġl ush
Ġl ayer
ent ch
il ities
il ient
Ġh ol
Ġh id
Ġh ound
Ġh yp
Ġh ood
Ġh its
Ġh usk
Ġh orde
Ġh alls
Ġh ammers
ur ance
ur red
if ex
Ġ2 5
ed es
ed ay
ĠA qu
ĠA gon
ĠA egis
ĠA inok
ĠT a
ĠT ar
ĠT iv
ĠT oy
ĠT ze
ĠT ah
ĠT atter
ĠT ides
ĠT rib
ĠT ao
ĠT rove
ĠT iam
ĠT avoc
ĠT ainted
ĠT ishana
ĠT owashi
Ġg urg
Ġg rove
Ġg athers
Ġg athered
ef net
ra f
ra se
ra ils
ve yor
ic tly
Ġcon ven
Ġcon dem
ĠH ay
ĠH id
ĠH ave
ĠH ire
ĠH ull
ĠH earth
ĠH elp
ĠH acker
ĠH ounds
ĠH onden
ev esh
ĠI I
ĠI d
ĠI name
ĠI sh
ĠI gu
ĠI mage
ĠI ridescent
om ing
om ist
om az
om aro
om itable
ĠD il
ĠD iver
ĠD estruct
ĠD oll
ĠD rog
ĠD une
ĠD ays
ĠD utiful
ĠD axos
Ġin sc
Ġin quis
Ġn eg
Ġn ation
Ġn ick
Ġn inj
Ġn uis
ast ric
ĠF at
ĠF orc
ĠF ry
ĠF ren
ĠF arb
ĠF ey
ĠF reed
ĠF urt
ĠF ounder
ĠF ountain
ir ic
ir acy
Ġbe ach
Ġbe ats
and u
and ler
um s
um ble
um phant
as tly
as ma
as eless
Ġor gans
ĠE el
ĠE os
ĠE ber
ol ated
Ġwith ered
Ġe erie
ĠR us
ĠR are
ĠR ade
ĠR ise
ĠR ix
ĠR ising
ĠL ure
ĠL one
ĠL oc
ĠL au
ĠL ily
ĠL udevic
ĠL anes
ĠM i
ĠM r
ĠM ot
ĠM om
ĠM as
ĠM id
ĠM ice
ĠM ire
ĠM our
ĠM aus
ĠM aver
ĠM ime
ĠM uck
ĠM ourn
ĠM angler
ĠM onger
ĠM uld
ĠM tend
ĠM won
he ath
he mer
he cy
ĠP ere
ĠP orc
ĠP ark
ĠP oly
ĠB ot
ĠB le
ĠB ri
ĠB ill
ĠB asic
ĠB ront
ĠB io
ĠB attering
ĠB riar
ĠB ulwark
ĠB oulder
ĠB aku
ĠB ureau
ri ver
Ġre un
Ġre ass
Ġre roll
Ġre vered
ach n
ĠG ame
ĠG inger
ĠG ib
ĠG org
ĠG utter
ĠG irl
ĠG eyser
Ġfor ced
Ġfor got
ch ar
Ġunt amed
Ġpl ot
Ġpl ain
Ġpl under
Ġpl enty
ell ing
Ġsp ire
Ġsp ort
Ġsp ines
Ġsp ires
uman o
ain ts
Ġde bris
lo c
lo pers
pp ers
ke rer
Ġst ored
Ġst up
Ġst ride
Ġst itcher
Ġst umbled
Ġst rife
Ġst ickered
os ite
ion ist
ion eer
Ġplay ed
ck roach
ĠThe orist
ap ort
Ġli ber
ken s
im ited
ĠK ed
ĠK um
ĠK as
ĠK rus
ĠK iy
ĠK argan
ĠK odama
ĠK umano
rif ied
ĠO ri
ĠO ch
ĠO dd
ru der
ĠV in
ĠV iz
ĠV isc
ĠV ener
ĠV ert
ĠV engeance
Ġup ro
iv ating
ight ed
ile ge
qu et
qu ake
qu ished
his t
od ah
Ġany way
ĠN ame
ĠN az
ĠN aj
ĠN egot
Ġv ents
Ġv ital
us ual
old ering
ose i
ear ling
ig or
ig ger
est us
est one
est ealer
ĠWar caller
ĠWar monger
Ġsh out
Ġsh ine
Ġsh atter
Ġsh riek
em a
em illa
ĠYou th
ul ation
ul acrum
ul aport
Ġper iod
av ers
ber y
bl is
bl ight
ĠSh ard
ĠSh ould
ĠSh akes
ĠSh redder
ĠSh ifting
ĠAt rax
ist ering
all ower
Ġland cycling
ath a
ath rid
ian ces
Ġlong est
ĠX athrid
th m
th ief
ĠZ ar
ĠZ ag
ĠZ iator
ĠZ ulaport
com m
Ġwh ims
Ġbl ight
Ġbl unt
Ġbl azing
Ġen force
Ġen vy
Ġall ied
Ġall ows
Ġother worldly
ĠIn ner
Ġcol oss
ĠTh rasher
ĠTh anks
ĠEl speth
ĠU mb
Ġse aled
Ġse asons
ous a
ous er
ous ed
ag us
ag ery
ag erie
ree cher
Ġnot iced
ĠDra k
ĠDra in
ĠEle ments
Ġless ons
Ġthan ks
Ġam phin
Ġam munition
ĠSc amp
ĠSc roll
ĠSc ythe
ĠSc reecher
ter ran
ĠAn af
ĠAn oin
Ġcho osing
ip tide
ip ede
Ġr ate
Ġr aces
Ġal arm
op ies
op od
op ter
ĠEx term
ĠEx uber
ĠSt age
ĠSt ang
ĠSt ory
ĠSt aun
ust ry
ĠRe b
ĠRe ason
ĠRe juven
Ġch ill
Ġch ief
Ġch ann
Ġch angeling
Ġch ampions
ash ing
ash ed
ĠAr isto
ĠDragon claw
ĠDragon fly
se er
se ud
aur us
Ġrem ind
Ġle ech
ĠCh ains
ĠCh asm
ĠCh urch
ĠCh ameleon
ĠJ in
oth l
ĠBeast master
Ġwe ek
ĠSl umber
ĠSl oth
ĠSl udge
Ġexc el
Ġme ek
Ġme ets
row ing
Ġfl at
Ġfl ower
Ġfl aw
Ġfl aming
Ġfl owers
less ly
Ġblack smith
Ġgreat ness
Ġdestroy ing
ick ing
Ġun it
Ġun ite
Ġun ner
Ġun usual
ĠSk oph
Ġhis sed
aw ks
Ġunl imited
ost or
Ġher mit
Ġsc um
Ġsc are
Ġsc ared
Ġsc ience
Ġsc reeching
Ġj ud
Ġj udge
Ġexcept ion
Ġro oft
Ġro ared
Ġpre fers
ild e
ĠDe an
ĠDe aler
ĠDe bt
ĠWe ak
ss a
ĠTre acher
ran cer
ab orn
touch er
ort s
ort ality
sp ore
sp iracy
Ġout m
Ġout n
Ġout fit
oul t
ĠAl ana
ĠAl pine
raz y
ĠPl under
ĠPl edge
ĠOr n
ĠOr ator
Ġag reed
ĠNo body
ĠMy th
az ed
az ir
Ġexp ans
Ġus es
ix er
Ġsk ul
Ġcl ay
Ġri fts
war i
ĠWh ich
ĠFor ager
ĠFor saken
ĠArch lich
ĠScout s
ĠHer der
ĠUn w
Ġind ivid
ĠSn are
Ġsw ath
Ġsw irling
ĠDev out
Ġra ise
Ġra ges
ory gm
ĠAss ail
Ġtra sh
Ġtra ps
Ġtra ils
Ġmon key
Ġform ation
ĠCl ues
ĠCl ique
ĠCl iffs
ĠSw eet
ĠSw allower
ĠY orvo
ĠY earling
Ġtri al
ĠBlood lord
ĠBlood suck
ĠIs n
ĠBl ister
ĠBl asted
ĠMin as
Ġres c
Ġnew ly
Ġsl ayers
Ġsl aughter
Ġsl ips
Ġel usive
pl asm
pl endent
ict ed
ict ion
ict ive
ĠDo ppel
ens er
Ġover wh
ĠTo gether
Ġstill ness
eth ers
ull a
walk ers
Ġdev il
Ġdev ious
Ġph rase
Ġblood y
Ġblood thirst
be etle
ĠNight s
we b
we ight
ĠIsland cycling
Ġcomp ared
au ku
Ġdes cent
ĠGu an
Ġtw in
Ġtw ists
Ġtw elve
Ġcreat ive
ĠEqu ip
Ġgl ide
Ġac id
Ġac olyte
Ġac compl
ĠImp s
ĠImp ostor
ald ing
ald ir
Ġsu p
Ġscry ing
ĠSun rise
ĠSun home
Ġte em
Ġoff ense
ĠGl ac
ĠGl amorous
Ġgu y
ged y
ĠHy d
Ġser ving
Ġtr umpet
ĠMar o
ĠMar iner
inn ed
Ġapp l
Ġapp rop
ĠLe ap
ĠLe aves
ĠIll us
ĠIll umin
Ġstr anger
Ġstr ands
Ġstr ictly
ĠSome one
aver ing
aver ns
ats u
Ġcar n
Ġcar cass
ann ah
ĠSil k
ĠPart isan
Ġroll s
gu ide
mare t
Ġfear less
ĠMan ifest
ara h
ĠIllusion ary
ĠCent uries
Ġmut ation
Ġmut ated
res ist
Ġhigh ly
Ġint act
Ġint ricate
ĠKor vold
ĠKor lis
ros ive
Ġactiv ity
Ġactiv ates
ey ed
gr in
ĠCo ckatrice
ĠGod o
ĠHell sp
ĠHell hound
ĠFire cat
ĠFire fist
ĠQu ag
Ġlet s
pe are
ĠGh or
reak ed
ĠTr ou
uk a
uk h
uk i
Ġdist raction
Ġdist inct
Ġgood s
ĠArc het
ĠGr ant
ĠGr inder
Ġdragon lord
light er
ĠCit anul
Ġste am
Ġste als
Ġguard ing
ĠMag istrate
ogg o
Ġlead ing
ĠMaster mind
ĠPer fect
ĠGn at
ĠGn arled
wood s
Ġgod dess
ĠProw l
Ġwin ning
sc out
Ġcont ained
ĠHis oka
oun ce
Ġfin ish
Ġfin esse
ĠAc id
ĠAc quis
ĠAc compl
na pping
Ġes c
ales k
Ġspirit ual
alk a
Ġext ermin
Ġext inguish
Ġcle aring
Ġdef iance
Ġhard ly
ĠAk roma
Ġcons iders
ĠRes plendent
Ġsusp icious
ĠGra ves
ĠGra vel
Ġwind ows
Ġcru c
Ġcru nch
Ġsn ap
Ġsn are
Ġsn iff
Ġsn acks
ĠGre ven
Ġren egades
Ġdec ay
Ġdec ades
Ġshall ows
ĠAg es
Ġrep ay
ib ly
Ġheal thy
Ġhor rifying
ĠStorm scape
ĠBarbarian s
Ġdisc overy
Ġold er
ĠSaproling s
ĠSy phon
Ġloy alties
Ġbo at
Ġbo ast
Ġbo iling
oly tes
ĠPat ient
Ġmod e
Ġmod el
ĠTy maret
ĠMa adi
ĠInc iner
ĠGate keepers
ĠServ itor
Ġpat ient
Ġpat roll
Ġtravel s
Ġtell s
rag o
Ġseem ingly
ĠRob ots
Ġinv ade
Ġinv itation
ĠRak shasa
ĠPe ople
ĠPe ema
Ġcry pt
Ġob sess
Ġob edient
ĠWor k
Ġvot ed
urg lar
ĠDead ly
ĠMet amorph
ĠBar row
Ġgift ed
Ġinsp ires
Ġemer ges
Ar rester
Ġtrans l
ĠCar riage
ĠCar tographer
ĠRing leader
ĠDeep root
Ġeye blights
Ġangel ic
Ġho le
ĠAz ure
ĠAz or
ĠAz ami
rak h
ĠOb s
guard s
Ġdri ft
Ġdri ves
ĠWatch ful
ĠDawn bringer
Ġcr acks
ĠDusk mantle
ĠRab id
ĠRab ble
ĠBas ri
Ġnec rogen
ĠChim ney
ĠMay or
ĠMay hem
Ġsent inel
Ġsent ries
Ġpain ful
ĠDread nought
ĠGhoul s
Ġaw ait
ĠCur ious
ĠCur rent
Ġsure ly
Ġfier cely
Ġnor thern
Ġge ar
Ġav alanche
ĠVol o
ĠVol ver
ĠVol atile
ipp ery
Ġsqu are
Ġfle w
Ġfell ed
Ġdep art
Ġdep loy
Ġvill ager
Ġsupp lies
Ġsurviv or
Ġcent er
ĠKam ahl
oph ia
oph ony
oph agus
omat ons
Ġreal ize
Ġhors es
Ġconn ection
ĠRapt ors
Ġlevel ers
ĠChar ge
Ġposs ibility
ĠKeld ons
Ġenc roach
Ġrepres ent
Ch andra
Ġwood land
ĠHag ra
Ġclear ly
Ġsleep ing
umm el
ĠLo ch
ĠMant a
ne ous
Ġtact ician
ĠAmb assador
ĠStr ay
ĠStr angler
Ġwelcom ing
Ġwelcom ed
Ġterr itorial
Ġaff ect
Ġaff ected
Ġaff lict
Ġeager ly
Ġcontin ued
ĠCap ricious
ĠBel oved
ĠThorn scape
Ġir resist
Ġsol ace
ĠHal ana
ĠMod ified
ĠMem ories
rie ve
Ġstar ving
ĠHors es
ĠAnt s
Ġemb odiment
ĠPo et
ĠInn oc
ĠInn keeper
ĠUnl ess
Ġtransform ed
Ġden ied
Ġden izens
Ġfer al
Ġhapp en
Ġhapp ily
ĠFar rel
ĠMe anders
Ġendless ly
Ġstir ring
Ġunf athom
Ġmountain walk
Ġcrush es
Ġsend ing
Ġhom eland
Ġhung ers
Ġinf antry
ĠGar rison
Ġabs orb
Ġabs olut
Ġunderstand ing
Ġavoid ed
Ġill ness
Ġflo at
Ġfail s
Ġpar aly
Ġemp loy
ĠRub y
ĠScar wood
Ġdescend ants
Ġsail or
utt ers
ĠNor wood
Ġoutl ast
Ġign ored
Ġcraft ed
ĠCall ous
edd ling
Ġconf ront
Ġrepl aced
Ġdet ective
Ġstory teller
Ġvan ished
Ġvan ishing
Ġvan quished
Ġtal ents
let ter
ĠBet ray
ĠKill er
Ġmanifest ed
Ġshort cutter
Ġens uring
ĠForce mage
Ġdeser ving
gl ass
Ġsho ok
Ġpri v
ĠHa uler
ĠFang ren
ump us
ĠEt rata
ĠGri ef
Ġimagin ing
Ġimagin ed
ĠCr own
Ġnum erous
ĠFe i
ĠMast iff
ĠMast odon
ĠBur st
ourn ers
ĠCommand ers
ĠCephal ids
Ġmor ale
Ġhur ts
Ġinter f
ĠRid ges
ĠKy ren
Ġexpedition s
Ġskull s
Ġsmash ed
Ġawaken ing
Ġbri ghtly
Ġbri bery
ĠSar uman
Ġlow est
ĠHorn et
ĠIx alli
ĠDen ethor
ĠFalcon er
Ġvers atile
Ġferoc ious
Sc roll
Ġtor ches
Ġfil igree
Ġfolk s
Ġwond ered
ĠSim ian
ĠSim ple
ĠSim ulacrum
ĠAh n
ĠTri al
Ġinfect ion
ĠPain ter
upp ets
Ġaut umn
ĠSleep er
ĠKher u
ipl om
ipl ined
ĠConjure r
ĠDoom ed
Ta a
tail s
Ġbell ow
ĠChe etah
Ġdig ging
Ġfocus ed
Ġlaugh ing
Ġgard ens
ĠRef lect
opl asm
ĠChain er
Tail s
yll ion
Ġgather ing
Ġconqu er
ĠIg neous
ĠFin ally
ĠChild ren
ĠCos m
Ġdom in
Ġgarg oy
evol ence
ĠFo ol
ĠFel hide
ĠPest ilent
Ġasp ire
ĠChrom a
Ġsurve y
Ġghoul s
Ġghoul callers
Ġoccasion al
Ġoccasion ally
Ġstomach s
sk ol
Ġbreat hing
orb orygm
ĠSpit fire
Ġdoom ed
ĠDece it
Ġrid es
Ġconsum es
Ġdirect ed
ĠCle ar
Ġproud ly
ĠAerial ist
ĠFight er
ĠMight y
ĠMech an
ĠKa ervek
ĠInform ation
Ġloc al
ĠStud ent
ĠStud ents
Ġmyst ery
Ġmyst ical
Ġcompet ition
Ġinterest ed
Ġscho ols
ĠWo e
ĠWo olly
Ġpatter n
ĠSen ate
Ġorc s
Ġorc ish
ĠShore line
Ġunc ertain
Ġexpl ains
ĠMaraud ers
Ġincre ased
Ġnecrom ancy
ĠGrizz led
Ġthop ter
Ġdread ful
Ġpop ular
ĠTen acious
Ġult imately
Ġgru dge
Ġconcer n
Ġnim ble
ĠFeed er
Ġorigin s
Ġorigin al
ĠRag avan
ĠBrig ade
ĠGear hulk
ĠKaz andu
ĠVis itor
ĠNar fi
ĠShar pshooter
Ġcryst al
ĠTorment or
ĠLibr ary
Ġtalent ed
Ġcand le
Ġsanct uary
Ġfav ored
Ġpol it
Ġmob ile
Ġmourn ful
ĠLob ster
ĠBrim stone
ckon ing
ĠKind ly
ĠInvent or
ĠScut tling
Ġripp le
ĠSeek ers
Ġassist ant
Ġclos est
Ġsquirrel s
Ġcasu alty
ĠImagin e
ole um
Ġtur tle
Ġtang ible
Ġcleric s
Ġthir ty
Ġthir teen
Ġthread s
Ġbarb arians
ĠCa ustic
Ġfift h
ĠSou leater
ĠSum ala
ĠAren a
Ġ16 7
Ġconver ted
ĠHu o
ĠMong rel
ĠMong oose
Ġfors ake
ĠNi blis
ĠShin en
ĠStamp ede
ĠStamp eding
ĠReinforce ments
Ġleap ing
Ġgrat itude
ĠTravel ers
ĠDesec rator
Ġmerc iless
Ġextinct ion
ĠGargantu an
ĠBrain iac
ĠCallaphe ia
Ġparticular ly
Ġident ity
rem ely
ĠâĢĶ~ <|
Ġsigil s
Ġfest ival
Ġhy dra
ĠDak mor
ĠLumber ing
ĠMilit ia
ĠProgen itor
ĠGem palm
Ġattend ants
ĠKro og
ĠOpp ortun
ĠVer ge
ĠNeed le
ĠXen agos
ĠAsc etic
ĠInvestig ator
ĠThrash ing
ĠJet mir
Ġjew elry
Ġoutp ost
Ġmonum ents
Ġslight est
ĠGnarl id
Ġexperien ced
Ġhoof beats
Ġcultiv ate
Ġsurround ings
ĠPossess ed
ĠElectro mancer
Con trol
On na
ĠWy vern
Ġmater ial
ĠHover guard
ĠDan itha
ĠFal se
ĠRish adan
ĠMol och
ĠPri zed
ĠBorder land
ĠGig ant
ĠGrot ag
ĠGalad riel
Ġforb idden
adil lo
Ġstitch ers
ĠOcc ult
Ġmane u
Ġprev ail
ĠYan ling
ĠYang gu
Ġimper fect
Ġsunl ight
ĠMercadian s
ĠNecrop olis
Ġpursu it
Ġsubst ance
Ġdemonst rate
ĠHypnot ist
Com mander
Vol rath
Ġceremon ial
Ġobe yed
Ġsac r
ĠWinn ower
Ġpare nts
ĠSid isi
ĠIk oria
ĠFron tline
ĠBran ch
Ġrebel s
Ġdeem ed
Ġdeaf ening
Ġstruct ure
ĠShel ob
aret ti
ĠJen ny
ĠJac ob
Ġpoc kets
Ġbloodl ust
ĠSoj ourners
Ġimpress ive
Ġemergen cy
ĠMalc olm
ĠWeapons mith
Ġneighbor hood
Dwar ven
IL L
kop a
reth ren
Ġty ran
Ġthor ough
ambo o
ĠCarth alion
Ġdrow ning
Ġfulf ill
Ġwedd ing
ĠSapp hire
Ġlon ely
Ġleth al
Ġhord es
edi ately
trop olis
ĠDru dge
ĠDag sson
Ġorn amental
ĠKem ba
Ġabund ance
Ġabomin ations
ĠThunders cape
ĠArden vale
Ġunaw are
Ġskelet ons
ĠSno op
ĠBloodc razed
ĠSkymarch er
ĠGlad iator
ĠManip ulator
Ġmethod s
ĠResist ance
Ġduplic ates
ĠObsess ive
ĠEnthusi ast
ĠTorre zon
ĠProte ge
Ġtechn ology
Dom ri
Hav va
Ps emilla
Raz ia
Ġtong ues
Ġbush ido
ĠCab aretti
isho ba
Ġdile mma
Ġdail y
ĠSup reme
ĠSvy elun
ĠTze entch
ĠTiam at
omaz oa
ĠDrog skol
Ġninj utsu
ĠFry e
ĠFarb og
ĠRus alka
ĠLoc ust
ĠMour ning
ĠMaus oleum
ĠMaver ick
ĠMtend a
ĠMwon vuli
Ġstup id
ĠKiy omaro
ĠViz kopa
ĠVener able
ĠNegot iator
ĠYouth ful
ĠShakes peare
ĠZiator a
terran ean
ĠAnaf enza
ĠAnoin ter
ĠExuber ant
ĠStang g
ĠStaun ch
Ġchann els
ĠAristo crat
ĠSkoph os
ĠTreacher ous
ĠPledge mage
ĠAssail ant
ĠDoppel ganger
Ġapprop ri
ĠArchet ype
ĠInciner ator
Ġunfathom able
orborygm os
) <|
1 4
? '
A kir
B ot
B ound
B lessed
C ol
C ry
D ran
D rones
D weller
D IS
E E
E R
E n
E r
E nd
E ternal
F ield
F ist
F aced
F avored
G n
G u
G reat
G uard
H astric
J an
J hoira
K ro
K arn
L av
L uc
M od
M elira
M elds
N or
O U
O t
O gre
P y
P er
P it
R ad
R ak
R af
R aff
R iptide
S ach
S oltari
S arkhan
S ensei
T reat
T or
U rabrask
W ing
a ic
a bl
a ive
b ro
b ind
b red
b ors
b ox
b uck
b reed
b bit
b raid
c en
c ar
c ers
c rab
c rawler
c ribe
d n
d ru
e es
e be
f logger
g ast
g id
g ah
g aud
h am
h arg
h ai
h ib
h rall
h elm
h gah
i ker
i pper
i ys
i ksdotter
j ara
j ek
k r
k ay
k le
k ira
k maw
k ima
l ier
l inn
l ike
m in
m al
m ire
m ist
m ere
m oon
n ir
n oon
o cl
o ving
o iler
p to
p ective
p rints
s i
s el
s oul
s kin
t r
t w
t oss
t rans
u o
u ke
u iler
w eed
w inder
w atcher
x i
x en
y u
z es
z oc
z ama
Ã ¢
Ã ¶
Ġ [
Ġ era
Ġt ar
Ġt ant
Ġt id
Ġt orn
Ġt ort
Ġt ren
Ġt iss
Ġt une
Ġt alking
Ġt angle
Ġt iger
Ġt avern
Ġt ightly
Ġt rophy
Ġt atto
er ation
er ious
er vation
at y
at he
at ics
at ical
en b
en or
en gin
en ance
en ry
ou fl
ou rage
Ġc er
Ġc am
Ġc ir
Ġc ous
Ġc rest
Ġc enn
Ġc inders
Ġc razy
Ġc averns
Ġa ber
Ġa ward
Ġa xes
Ġth rill
Ġo i
Ġo l
Ġo oze
Ġo oz
Ġo men
Ġo pin
Ġo kay
in f
in ar
ar u
ar all
ar ak
ar ling
ar ring
ar ily
es y
es ome
an ch
an im
an za
am on
end id
it as
it age
it ons
it ty
it ably
tl and
on ge
on al
on ate
Ġb ard
Ġb omb
Ġb oy
Ġb ub
Ġb ars
Ġb au
Ġb ann
Ġb alm
Ġb ury
Ġb ids
Ġb eds
Ġb owed
Ġb attered
Ġb onder
Ġb ronze
Ġb reach
Ġb ulwark
Ġb lossoms
Ġb rethren
ĠC e
ĠC en
ĠC ow
ĠC lock
ĠC raw
ĠC ler
ĠC one
ĠC ran
ĠC ase
ĠC ros
ĠC arm
ĠC inders
ĠC owl
ĠC ackling
ĠC razed
ĠC athed
ot a
ot hy
ot ions
Ġy e
gh orn
âĢĶ <|
ex us
Ġs on
Ġs ow
Ġs eld
Ġs age
Ġs ite
Ġs ip
Ġs igh
Ġs avor
Ġs itu
Ġs igns
Ġs orcerer
Ġs oltari
Ġs isters
Ġs earing
Ġs napping
is ophia
Ġd ut
Ġd od
Ġd ared
Ġd ivers
Ġd umb
Ġd edicated
ac id
ac ab
ac ular
ac ulate
or o
or ation
Ġf old
Ġf able
Ġf anc
Ġf oss
Ġf ates
Ġf alt
Ġf ired
Ġf und
Ġf aint
Ġf acing
ĠW ord
ĠW ish
ĠW ick
ĠW aker
ĠW alk
ĠW inder
ĠW ily
ĠW ounds
ĠW aters
ĠW inter
ĠW umpus
Ġw ast
Ġw et
Ġw orn
Ġw its
Ġw ished
Ġw heel
el ain
el ect
el ord
el ine
el brand
el ming
el haven
ro ads
ard er
Ġan ointed
st r
st oke
st rider
st ealer
Ġp y
Ġp ow
Ġp ru
Ġp ill
Ġp ear
Ġp atch
Ġp aus
Ġp ict
Ġp arch
Ġp awn
Ġp sych
Ġp ierce
Ġp hyl
Ġp uppets
Ġm ent
Ġm ace
Ġm art
Ġm uck
Ġm amm
Ġm umm
Ġm edic
Ġm ention
Ġm artyr
Ġm atron
al ik
al ai
al ni
ĠS ing
ĠS ev
ĠS ave
ĠS op
ĠS esh
ĠS ifter
ĠS cho
ĠS ai
ĠS idar
ĠS aff
ĠS ahr
ĠS anity
ĠS wooping
ĠS cholars
Ġl ure
Ġl end
Ġl ash
Ġl az
Ġl oud
Ġl inger
Ġl ying
Ġl ots
Ġl acks
Ġl ux
Ġl airs
ent iful
il a
il ich
il eva
Ġit ch
Ġh ack
Ġh ill
Ġh ire
Ġh ier
Ġh atch
Ġh ats
Ġh uge
Ġh oney
Ġh atchling
Ġh avoc
Ġh elm
ur z
ur ic
ur ion
ur ker
ur se
ur ally
if ar
if icer
nt imber
hen g
hen ax
ed ged
ĠA rtif
ĠA im
ĠA rab
ĠA idar
ĠA esthir
ĠT ot
ĠT our
ĠT ak
ĠT oth
ĠT rid
ĠT ols
ĠT ribe
ĠT onight
ĠT AR
ĠT irith
ĠT evesh
Ġu gly
get s
Ġg ut
Ġg ore
Ġg ig
Ġg est
Ġg ames
Ġg loom
Ġg ranite
Ġg otta
ef ire
ef oot
ra al
ra ine
ra ss
ic ation
ic ated
ic ts
ic iar
Ġcon cl
ĠH op
ĠH ak
ĠH ome
ĠH ook
ĠH aze
ĠH aving
ĠH undred
ĠH osp
ĠH okey
ĠH ouses
ĠI nto
ĠI ren
ĠI con
ĠI sper
ĠD a
ĠD i
ĠD os
ĠD im
ĠD av
ĠD ia
ĠD anger
ĠD ared
ĠD ivers
ĠD eran
ĠD iamond
Ġin tro
Ġin fer
Ġin scri
Ġn in
Ġn ic
Ġn ong
Ġn ail
Ġn ests
Ġn ulls
attl ing
Ġbattl ing
Ġbattl ed
ĠF ro
ĠF un
ĠF ates
ĠF resh
ĠF asc
ĠF encer
ĠF iends
ĠF ixer
ĠF iksdotter
le able
le af
le aters
ut er
Ġbe ep
ith es
um ps
um bers
um sy
as ig
as ova
ĠE D
ĠE u
ĠE at
ĠE st
ĠE ri
ĠE aster
ĠE ither
ol ving
ol isher
Ġwith ers
Ġe tern
Ġent ran
Ġent husi
ĠR attl
ĠR ith
ĠR ead
ĠR ound
ĠR ide
ĠR aker
ĠR ivers
ĠR asc
ĠR het
ĠR umbling
ĠR onom
ĠR acket
ĠL ed
ĠL ies
ĠL iv
ĠL ist
ĠL ind
ĠL ake
ĠL ann
ĠL uck
ĠL itt
ĠL acc
ĠL augh
ĠL azotep
ount ing
ĠM at
ĠM el
ĠM ed
ĠM and
ĠM ate
ĠM az
ĠM ists
ĠM ah
ĠM org
ĠM asc
ĠM ission
ĠM eddler
ĠM ikaeus
he b
ĠP ent
ĠP rom
ĠP ho
ĠP ul
ĠP ink
ĠP ick
ĠP atch
ĠP ious
ĠP ug
ĠP aper
ĠP rin
ĠP hys
ĠP okey
ĠP ippin
ĠP ioneer
ĠP rakh
ĠP ummel
ĠP henax
ĠB or
ĠB us
ĠB ert
ĠB ug
ĠB oon
ĠB ob
ĠB uc
ĠB rash
ĠB ret
ĠB ounty
ĠB reach
ĠB lossom
ĠB azaar
ĠB rago
ĠB urglar
ĠB orborygmos
ri ous
ri pt
ri ana
ri ggan
Ġre ef
Ġre ve
Ġre le
Ġre act
Ġre ject
Ġre vere
ach ery
Ġat one
Ġas cend
Ġas leep
ĠG orm
ĠG ren
ĠG ather
ĠG eth
ĠG ears
ĠG reet
ĠG ames
ĠG arl
ĠG ont
ack les
Ġfor ty
ch or
ch ild
ch ase
Ġunt old
Ġpl ag
Ġpl otted
Ġpl entiful
ell a
ell er
Ġsp at
Ġsp an
Ġis olation
Ġis olated
Ġde an
lo z
lo pe
ad ors
ad ium
Ġst ore
Ġst amp
Ġst are
Ġst ring
Ġst ared
Ġst eep
Ġst aring
Ġst alks
Ġst retch
Ġst urdy
Ġst reaked
Ġst anza
os er
os is
os ity
ct u
ct ar
ct urn
rt hod
ion a
eg a
ant h
ant o
ant cha
ck ing
id a
id ered
id ote
ep ing
ep ul
Ġdamage d
et tling
et tered
Ġdeal ing
ap ers
ap et
ap ter
ap ede
Ġli ps
Ġli fted
ken ed
im um
im ens
im ics
im inator
im eter
ĠK at
ĠK ot
ĠK el
ĠK ast
ĠK id
ĠK et
ĠK ul
ĠK og
ĠK ade
ĠK ab
ĠK arn
ĠK oma
ĠK iora
ĠK ellan
ĠK efnet
ĠK ILL
Ġex iling
ĠO gg
ĠO culus
ĠO ka
ĠO gl
ĠO rthod
ll ess
Ġco at
Ġco de
Ġco gs
Ġco astline
Ġgra f
Ġhand ful
amp iric
Ġopp ose
ĠV ish
ĠV olt
ĠV enture
ĠV oj
ĠV ortex
ĠV armint
ĠV enser
Ġup dra
Ġup side
Ġup ward
iv a
iv ion
ho ff
br ow
br ic
iz iers
iz oa
ĠSp inn
ĠSp itter
ĠSp inner
ĠSp onge
ĠN el
ĠN eg
ĠN ice
ĠN ab
ĠN ix
ĠN ik
ĠN arn
ĠN ib
ĠN urg
ĠN irk
ĠN icol
ĠN ishoba
Ġv er
Ġv ice
Ġv est
Ġv ert
Ġv ari
Ġv endor
Ġv iziers
us c
us er
Ġare a
ill ance
ig y
ig ious
est y
est ine
ĠWar m
Ġdo zens
Ġsh amble
Ġsh rines
ie tly
ble ms
ect ives
em y
em pered
em bling
ĠIt hil
ul p
ul ist
ul ner
ul ence
ul ane
Ġper cept
av us
av olver
ber n
bl ades
ĠSh an
ĠSh ell
ĠSh im
ĠSh rike
ĠSh aun
ĠSh anna
ĠSh riek
ĠSh rieker
ĠSh auku
ist ine
ist ence
ist ening
ian g
ere th
un ian
man ship
Ġab yss
Ġab oard
dd y
ĠGo st
Ġk id
Ġk ha
th os
th orn
ĠZ e
ĠZ ol
com ing
Ġbl end
Ġbl ed
Ġbl asp
Ġbl asted
Ġall iances
Ġunder stood
Ġcol onies
ĠTh ar
ĠTh us
ĠTh irst
ĠTh ick
ĠTh ug
ĠTh rin
ĠTh rone
ĠTh unian
ĠEl t
ĠEl ven
ĠEl rond
ĠEl gaud
ĠU se
ĠU mara
Ġse ep
Ġse aw
Ġreturn ing
ag u
ag ard
ag bearer
ree ch
ĠDra ug
ĠSpirit ual
Ġta x
Ġno b
ok uch
are st
are house
Ġam use
Ġam azing
chant er
one er
ĠSc orn
ĠSc ab
ĠSc ulpt
ter ing
ter geist
ĠAn ger
ĠAn ax
ĠAn alyst
ĠAn grath
ĠBe y
ĠBe aver
ĠBe hind
Ġr ite
Ġr ang
Ġr ings
Ġr ites
Ġr ays
Ġr attle
Ġr uthless
Ġr otted
op te
ak ut
ak ul
ĠEx iled
Ġlo v
Ġlo om
ĠSt ill
ĠSt ream
ĠSt eep
ĠSt rax
ĠSt itched
ust rious
ĠRe ass
ĠRe ally
ĠRe vered
ĠRe ito
ĠRe ckon
Ġch arg
Ġch asing
Ġch arging
Ġch aotic
ash ima
sh an
sh ield
sh ap
hyre sis
ound ing
ĠAr b
ĠAr v
ĠAr bor
ĠAr achn
ĠDragon born
se ed
ang led
ph es
ĠCh ef
ĠCh ao
ĠCh aser
ĠJ ar
ĠJ an
ĠJ as
ĠJ our
ĠJ ew
ĠJ hov
ĠJ ester
ĠJ olrael
ĠJ udith
ĠJ odah
ition al
Ġval or
ish ers
ew here
ation al
Ġwe aves
Ġwe eds
ĠFl ailing
ĠFl agbearer
ĠSl inking
ĠSl aan
Ġexc use
Ġhe aven
ĠCon c
Ġfl ag
Ġfl owed
Ġdestroy s
ick kn
Ġun in
Ġun ion
Ġun con
Ġun sc
Ġun guard
Ġun iverse
Ġun worthy
Ġun yielding
Ġunl ike
rot e
rot iq
Ġsc arecrow
Ġsc attered
Ġsc orpion
Ġsc aled
Ġsc ulpt
Ġsc ulptor
Ġsc reech
Ġj u
Ġj avel
ec ess
ec aster
Ġro bbed
ild a
Ġinstant s
ĠEn sl
ĠEn kira
ĠDe b
ĠWe athers
ise um
unt eer
ĠTre st
Ġar c
Ġar rogant
ott ers
ort ion
Ġever lasting
sp l
sp ine
sp ector
Ġout er
ĠCat ch
ĠEld raine
ator u
ĠAl in
ĠAl an
ĠAl los
raz er
Ġtap s
Ġtap est
ult ant
ĠPl at
ĠPl ag
ĠPl anar
ĠPl owbeast
ĠPl asma
ĠOr nith
ĠOr dru
pt or
ĠNo cturn
ĠHorror s
ĠMy con
ĠMy sterious
It zama
az es
Ġexp and
Ġexp anded
vent ion
vent uring
esh ot
esh ip
ĠDeath bringer
Ġrest ore
Ġrest rict
Ġsk ins
Ġsk aab
Ġcl ut
Ġcl ub
Ġcl atter
Ġcl arity
Ġcl umsy
ren cy
Ġri dden
Ġwar n
Ġwar ns
ĠHe idar
ĠHe ights
ĠIns ight
Ġmill ion
Ġsec ure
ĠFor ward
ĠFor iys
ĠArch druid
Ġru de
ĠOn es
ĠUn s
Ġlast ing
Ġpo pping
Ġpo isons
Ġind ep
ĠSn ap
ĠSn itch
ĠSn arling
ĠRo om
ĠRo aring
ĠRo hgah
ĠMon astery
Ġsw ine
Ġsw irl
Ġsw ipe
Ġra p
Ġra ider
Ġra pid
Ġra vage
Ġra bbit
ĠAss ociates
Ġtra iner
Ġmon k
Ġmon itor
Ġmon ths
Ġmon olith
ors el
ĠCl one
ĠCl ade
ĠCl ub
ĠCl aim
ĠCl imber
ĠSer um
ĠSer pents
ĠY a
ĠY am
ĠY ann
Ġfight ers
ĠBlood letter
ĠIs les
ĠBl inding
ĠBl izzard
Ġqu ietly
Ġgr own
Ġgr inding
ĠMin ister
Ġres er
Ġres tless
Ġres emble
Ġnew found
Ġsl ave
Ġel ven
ĠDo ck
ĠDo vin
ĠDestroy er
Ġshe ep
Ġover t
ĠTo bias
ĠTo othy
ug u
so il
arg o
Ġdev ice
Ġdev out
fin ished
yr ral
ĠSe as
ĠSe kki
ĠNight veil
ĠNight scape
iss ed
ĠLizard s
Ġback s
Ġback up
Ġfe ature
ars i
ars et
ĠPre server
Ġsm aller
Ġsm iling
ĠAv izoa
Ġcomp osed
ane ously
Ġdes ec
Ġdes ires
ĠQ arsi
Ġtw itch
Ġsay eth
Ġim b
ĠEqu enaut
Ġpe er
Ġpe ak
Ġgl istening
Ġlight s
Ġlight weight
Ġac orn
Ġac quis
Ġac orns
Ġac rob
Ġac comp
Ġac olytes
Ġbel t
ĠSky rider
ĠSky guard
ĠSky line
ĠSky shark
Ġev olve
Ġev incar
af lo
Ġpoison ed
ese eker
Ġsu ited
ox y
ĠSun s
ĠSun scape
ĠSun seeker
Ġte amm
Ġoff ered
ĠGl orious
ai hir
Ġmonst rosity
Ġdis or
Ġdis gu
Ġser ies
Ġser iously
Ġser pents
Ġtr acking
Ġtr acker
Ġtr icks
ĠMar ang
ĠMar isi
Ġkn ives
Ġapp end
Ġapp rent
ĠLe opard
ĠLe otau
air n
ĠDr owned
Ġkind ness
Ġkind red
ĠSome how
Ġnat urally
Ġcar ves
Ġcar pet
ax y
ax ing
ann on
ann ifar
und a
und ra
Ġdiffere ntly
ĠArm or
ĠArm odon
ĠArm orer
ĠArm adillo
Ġexplo de
Ġexplo sion
gu ish
ĠMan iac
ract or
ĠCent urion
Ġmag istrate
Ġlit er
Ġlit tered
Ġint eg
Ġass assin
Ġward en
arm ed
ush i
gr own
gr ine
ĠCo atl
ĠCo astal
ĠHell raiser
ĠFire walker
ĠFire mane
ĠQu ill
ĠQu illed
ĠQu arry
bel gast
ah n
Ġlet ting
ĠCom pl
pe aker
Ġsom eday
Ġsom ewhere
ĠGh ast
Ġsky hunter
ĠTr in
ĠTr ouble
ĠTr isk
ĠTr acer
ĠShadow cat
ĠCentaur s
Ġdist rict
ĠHar ad
angel ings
Ġwatch ful
Ġmight ier
Ġfa bric
up ine
ĠMir acle
ĠArc an
ĠGr aceful
ĠAb andon
ĠBattl ef
ĠBattl ew
Ġlearn s
ĠMyr kul
Ġsnow s
Ġfound ry
Ġstrength s
ress or
ĠMag got
ĠMag matic
ogg les
Ġright s
Ġhelp ing
Ġhelp ed
ĠEm mara
ĠPer imeter
ĠBr others
ĠGn arr
Ġstand ards
Ġoil y
Ġfore told
ĠAven ging
ĠEmp ress
ĠEmp orium
Ġsun rise
add ock
Ġart isans
ĠSo ot
ĠSur si
ĠUr ch
Ġmer ged
Ġwork ers
Ġpr ay
Ġpr ison
Ġpr int
Ġpr ince
Ġinvestig ator
Ġem power
Ġem blem
Ġtem pers
ĠLook s
Ġext reme
Ġext ensive
Ġext remely
Ġcle ared
Ġmet eor
ĠDom ri
Ġdef initely
Ġhard y
Ġhard est
Ġhard ened
Ġcons idered
ĠGra kmaw
Ġwild ly
Ġecho ing
Ġecho ed
Ġcur ses
Ġcur rency
ĠBarb ed
Ġcru s
Ġcru st
Ġsn uff
Ġsn apped
Ġsn akes
Ġmagic s
Ġpur r
ĠDryad s
fl ies
fl owing
Ġdec ent
iar ies
Ġheal th
Ġmin utes
ĠInf ested
ĠPlains walk
ĠDu ggan
ĠDis rupt
Ġdisc ern
Ġdisc iples
Ġdisc ipline
ĠAny where
ĠDisc ipline
ĠExp ert
aunt ed
ov ian
Ġsaf er
Ġsaf ely
ĠInt ruder
aught y
su o
Ġbo ats
Ġbo ots
Ġdel ic
Ġref er
Ġref uses
ĠVal akut
Ġimp act
Ġimp ending
Ġcare er
Ġcare less
ĠCount ers
ĠTy var
ĠBal rog
ĠBal shan
Ġmove ment
Ġmove ments
ĠTur ntimber
asc ent
ĠBen evolent
ĠGold night
ĠJust iciar
Ġpat iently
Ġspecial ize
arer s
Ġtravel ed
ĠRen ata
ĠRen ewer
Ġter ms
Ġter rain
Ġsound ly
Ġwr ite
Ġinv olved
ĠRak sha
ĠPar ish
Ġchar acter
iev ed
ock ed
Ġcry ing
Ġob jects
ĠWor ks
Ġins ign
ĠVe in
ĠVe il
ric ian
eng ers
ĠCor pses
ĠAm phin
ĠKar fell
ĠBar renton
ĠBar ricade
ĠGru nt
ĠNe belgast
ĠRavnic ans
Ġz oo
ĠBro ad
rib ing
rib ed
Ġrel ation
Ġrel iable
Ġrel igious
ket t
Ġsub ject
Ġsub tlety
Ġmort ar
Ġmort ality
Ġleg ions
Ġlegend s
het ic
Ġvis ited
erer s
Ġcou riers
Ġdu el
Ġho ver
ĠIm mer
ĠOb zed
Ġadv anced
Ġact ually
Ġdri ed
Ġdri ving
Ġdri pping
Ġdri fts
ĠTrans cend
ĠRed tooth
ĠRed emption
Ġcollect ive
ĠApp roach
ĠApp raiser
Ġresp ected
ĠInst ructor
Ġcor al
Ġcor rupted
ĠSm all
ĠSm ash
ĠSm oke
Ġund ers
Ġund one
Ġund ying
ĠMist meadow
ĠMonst rous
ĠSav ai
ific ent
ĠOut fitter
Ġpain ts
ĠAff a
ĠDread maw
Ġpred ict
Ġpred ecess
ĠGhoul caller
ris ing
ĠSwarm s
ets ugu
Ġge ist
ĠFore cast
ĠEnt ertain
ĠEnt rancer
ĠPriest s
Ġspeak ing
ipp ing
Ġwis est
Ġdep end
Ġdep ends
Ġsupp l
Ġtruth s
hi ro
ĠEmb odiment
ĠEmb raal
ĠEmb ereth
ĠCan al
ĠCan opte
ĠSal vation
ĠAp es
ĠTor toise
ĠTyr ranax
umbl er
umbl ings
ĠPy ro
Ġstun ning
ĠThunder cl
Ġflame kin
ĠAut om
ĠNew t
ĠUl t
Ġpoint y
Ġpoint ing
Ġbur row
Ġbur den
ĠCou rage
Ġpers pective
leg s
leg al
ĠBush i
Ġowners hip
well ers
ĠWood s
ĠSu per
ĠFall ing
ĠRu iner
ĠShield mage
Ġunp arall
Ġarri ves
ounc ed
ĠDomin ator
Ġsadd le
Ġancest or
rad le
ĠFer vent
ĠInv ader
Ch adir
Ch andler
Ġve in
ĠSec urity
ĠProt ean
ĠCons ider
ĠCons uming
Ġwarning s
ĠBlack sn
ĠSilver back
El f
El adamri
Ġsong s
Ġsleep s
Ġmist aken
ĠAst rotorium
ĠRamp ager
ĠLo athsome
Ġstay ed
ĠKjeldor ans
ĠBee bles
Ġtact ical
Ġcatch es
ĠSand storm
ĠSand ste
asion ally
Ġprov iding
idar ity
ĠNim ana
Ġadapt s
wh ite
wh ich
ĠLore master
iven ess
Ġfoot fall
Ġche er
Ġprom oted
ĠSel k
ĠSel vala
ĠSel hoff
Ġlaw mages
ĠTe eg
ĠOver grown
Ġfriend ship
Ġcontin ent
Ġcontin uous
Ġsav agery
ĠBel zen
ĠBra ve
Ġdem anded
Ġdem ands
Ġsurp ass
Ġtrust worthy
Ġthunder ous
Ġthunder storm
ĠTal on
ĠHal berd
ĠLoy alty
ĠMem ory
ĠBald ur
Ġstar light
ĠColoss al
Ġple as
Ġple asant
Ġemb ers
Ġspec imens
ĠInn ov
ĠUnl ucky
Ġarch mage
Ġarch angel
ĠCal im
Ġmis ery
ĠFar amir
ĠPath lighter
Ġstir s
ĠSpr outing
Ġalong side
Ġunf ailing
Ġprep ar
ĠEnforc ers
Ġprodu ct
Ġcomb ine
Ġap ocalypse
Ġfoul est
Ġinf ested
ĠGar za
ĠSpike tail
ĠGrave yard
aun tlet
Ġide as
Ġsick ly
Ġflo ating
Ġfail ing
Ġpar adox
Ġpar adise
Ġpet ty
ĠHel m
ĠHarb or
ĠAsh mouth
ĠRecl usive
ĠHarp oon
Ġcult ures
Ġcapt ured
Ġaven ge
Ġbal oth
ĠBu ilt
ĠNon basic
ĠZeal ous
ĠAnim ist
Ġtrib es
Ġcraft ing
Ġocc ur
Ġban ished
Ġban quet
Ġbran ch
Ġdest ined
Ġfill ing
Ġloss es
Ġconf ess
umb ra
ĠEver wise
Ġrepl acing
ĠGrim grin
Ġdet ailed
ĠHeart wood
Ġviol ently
chem ists
Ġtal ons
ism atic
ĠWraith s
ĠSpark mage
Ġshort est
ĠAsp iring
Ġgrand mother
Ġgrand eur
Ġclean se
Ġvisit ors
gl ade
Ġsho ot
ĠPred ation
Ġdeterm ine
Ġdeterm ines
Ġcommit ted
Ġimm ortality
Ġimm ediately
Ġcap ital
ĠCr ack
ĠCr ater
ĠCr ackling
ĠCer odon
ĠBur renton
ĠGen estealer
Ġspl endid
ĠSkyc aptain
Ġridd les
ĠEmber mage
ĠEmber wild
Ġbreed ing
Ġinter rupt
Ġstri p
Ġsmash ing
Ġbeliev ing
Ġmoon light
ĠSar ulf
ĠTel ep
Ġinvent or
ĠEarth shaker
Ġdesp ite
Ġacc ident
Ġperson al
sl ide
sl ayer
Ġtor ch
Ġcivil ized
Ġbar riers
Ġbus y
Ġfil th
Ġfil thy
Ġwond rous
ĠSim a
ĠTri ple
ĠHead less
Ġinh uman
Ġspect acular
ĠVoid mage
ĠInk ling
ĠInk fathom
Ġwilling ly
Ġintens ifies
ĠDesp air
Al ena
Ġaut omatons
ĠCarn ivorous
Ġpun ch
ĠSor in
ĠSub terranean
ĠSleep ing
ĠHonor able
ĠFound way
ĠBall ista
eren ity
Ġmeasure d
Ġmeasure s
ĠFair grounds
ĠDescend ant
Ġfright en
Ġfright ening
ĠAcc ord
Ġcat apult
Ġbol ts
Ġbell owed
Ġsepar ates
Ġdim in
Ġfuel ed
Ġlaugh ed
ĠTaj ic
ĠEr d
Ġuns ettling
claim ed
ĠYu an
Ġapproach es
Ġreflect ed
ĠPredator y
reg ulars
Ġlav ish
Ġhon ed
Ġconv in
Ġconv oked
Ġconqu est
ĠDay break
ĠEz rim
Ġprop ert
ĠWhip tail
Ġdevour ing
Ġassault s
ĠQuicks mith
Ġsystem s
Ġsurpris ed
Ġsurpris ingly
Ġinnoc ence
Ġing red
Ġartif ice
Ġartif icial
ĠCos i
Ġfrag ment
Ġpen et
ĠSto p
Ġasp ir
Ġasp ects
ĠCondu ctor
ĠHeav ens
Ġpassion ate
Sp irit
Ur dn
blood ed
Ġthri ve
Ġbarg ains
Ġflood ed
ĠWr ithing
Ġmot iv
ĠSho ck
ĠTom orrow
ĠTom akul
ĠHyp er
ĠMort als
ĠGy re
ĠGix ian
kem ssa
ĠKh alni
Ġcompl ex
Ġcompl ain
serv ations
serv ience
Ġdirect ions
Bar on
Bar rin
Or c
Ġdro pped
Ġfet id
Ġmid way
ĠLun ar
Ġdece it
Ġdece ased
Ġdece ived
ĠUk kima
Ġmyst ics
ĠSkul ker
ĠSkul king
Ġscaven gers
Ġjo ining
ĠEvangel ist
Ġzomb ies
Ġcourt s
erv ous
Ġcal cul
Ġow ls
Ġsap ling
Ġsust ains
ĠSaw jack
ĠEag les
ĠBound ing
Ġrece ived
Ġunw ary
Ġexpl oring
ĠClam folk
Ġghost s
Ġvolcano es
Ġsatisf ying
00 0
Ad miral
fe ather
zon i
Ġcrash ing
ĠAx gard
Ġconcer ned
ĠDun geon
Ġear ly
ĠLar va
ĠLar cen
ĠLess er
ĠPill ar
ĠPill ardrop
ĠBrig and
ĠGw yllion
ĠGw aihir
ĠKaz uul
rup ulous
ĠNet tle
ĠThiev es
Ġrhy thm
Ġpress ed
Ġintellig ent
ĠMagn us
Ġcryst alline
ĠTorment ed
ĠSteam flogger
ĠExcav ation
ĠCustod ian
hor se
Ġest eemed
Ġcro ps
Ġcirc ling
ĠCad aver
Ġpal ace
Ġpush es
Ġpush ed
Ġlantern s
ĠAce rerak
ĠTet suo
rav ity
ĠHier arch
ĠRay ne
ĠLob elia
ĠMass acre
ĠPak o
ĠPuppet eer
ĠBeg inning
ĠBeg uiler
ĠBrim az
ĠInvent ors
Ġritu als
ĠStrix haven
ĠJo iner
ĠWeap on
ĠYot ia
Ġassist ance
ĠGray water
Ġclos ely
Ġrecogn ize
Ġneigh bors
Ġconstruct s
Ġdemand ing
Sor in
mun ge
Ã³ rien
Ġerr and
Ġtang led
Ġcra ve
Ġsle pt
Ġhym ns
ĠAy esha
ĠAber rant
ĠTan azir
Ġgro ves
ĠDiss ident
Ġinev itably
Ġbee bles
ĠEs cap
ĠMoth rider
ĠBow masters
ĠGit rog
Ġfors aken
osk un
ĠVig or
ĠSpec imen
ĠShin obi
Ġenforc er
Ġenforc ers
Ġinstrum ents
Ġlox odons
ĠCharm ed
Ġrapt ors
Ġgrat eful
Ġdevast ation
Ġmerc en
ĠGargantu a
ĠCerat ok
ĠHoard ing
Ġtyr ant
Ġcub s
Ġbi omancer
Ġdar kened
Ġant idote
Ġmuff in
ĠSz at
ĠSak ura
ĠSak ashima
ĠHum ble
ĠRap acious
ĠMis chievous
ĠMilit ant
ĠPen umbra
ĠProgen itus
ĠBond ed
ĠKro xa
ĠVigilant e
Ġshimmer ing
Ġheed less
ĠConqu eror
Ġflour ishes
Ġjew els
Ġmonum ent
Ġbetray al
ĠGris elbrand
ĠPeace keeper
Ġexperien ces
Ġrespons ibility
ĠVolcan o
ĠVolcan ic
Ġmachin ery
Ġfortress es
Ġsucceed ed
Ġpunish ment
Mer rik
Ġtit le
Ġtireless ly
Ġfix ed
Ġtomb s
Ġpoll ute
Ġmour ned
ĠSad istic
ĠSix th
Ġglyph s
Ġcondu ct
ĠHam let
ĠDam ned
ĠFac eless
ĠFet ch
ĠRain bow
ĠPeak s
ĠBlo ated
ĠBreak ing
Ġcann on
ĠKelp ie
ĠVind icator
ĠVind ictive
ĠVenom ous
Ġeng ulf
ĠScream ing
ĠBec ause
ĠBec kett
Ġweal th
Ġweal thy
Ġflicker ing
Ġflatt ery
Ġschem e
Ġworsh ipped
azz ling
Ġswall ow
Ġresid ents
Ġslither ing
Ġeleg ant
ĠDrown er
ĠDrown yard
Ġlegion naire
Ġweakness es
Ġchalleng es
Ġtechni que
Ġtechni ques
Ġom ens
arter master
Ġbrid ges
ĠCac ophony
Ġsou leaters
Ġsor ry
ĠWeld er
Ġmock ery
Ġhedron s
ĠTech nician
evin yrral
ĠIl harg
ĠDreg scape
Ġinj ury
ĠEff igy
Ġearl iest
ĠLam ia
ĠLow land
ĠLumin ous
ĠPop ulate
ĠKu kemssa
comple ation
Ġwhir rrr
ĠAsk ari
ĠSchem ing
Ġremark able
ĠSlag wurm
Ġgreml ins
ĠUnf ortunately
Ġeleph ants
ĠProsper ous
Ġexplos ive
ĠTrumpet er
Ġtemp est
Ġdecad ence
Ġobv ious
ĠCryst alline
Ġembalm ing
Ġignor ance
Ġfortun ate
Ġdevelop ed
Nik ya
pres ervation
wit ted
atur ge
Ġcull ing
Ġcustom ers
Ġauthor ity
Ġshop keep
ĠSard ian
ĠSoc ial
ĠTaunt ing
ĠTrost ani
ĠHav ens
ĠIv ory
Ġinform ation
ĠFur ious
ĠMig loz
ĠMud b
ĠMock ing
ĠPend elhaven
Ġreinforce ments
osqu ito
Ġlimb s
imm ers
ĠVes uv
Ġvor acious
Ġpermit ted
ĠBeaut y
ĠChall enger
ĠJel eva
Ġflu id
ĠSkarr gan
Ġscal p
ĠCatac omb
ĠOrch ard
Ġtravers e
Ġslaught ered
Ġcompar ison
Ġsugg est
Ġeffort s
ĠAttract ions
ĠDeser ts
Ġbuzz ing
ĠGrapp ler
ĠDuerg ar
Ġincarn ate
ĠMaj estic
ĠRaff ine
ĠRevolution ary
ĠStrateg ist
ĠBuzz ard
Scar red
Ġfrequ ently
Sky shroud
ĠPrism ari
Ġmycoid s
Ġexhaust ed
Ġenviron ment
Kam ahl
Ob servations
Squ ee
Te zzeret
hs an
ubl ic
rep ared
Ġthrash es
Ġtherm al
Ġbes ide
Ġbree ze
ĠCoy ote
Ġfat al
Ġwra pped
Ġpran ks
Ġpik es
Ġmund ane
ĠSift ers
Ġloft y
Ġlamp s
Ġhol id
ĠAgon ies
ĠTatter munge
ĠHid etsugu
Ġneg lect
Ġnick name
Ġnuis ance
ĠForc es
ĠFren etic
ĠRare ly
ĠPere grine
ĠBront odon
Ġreun ited
ĠGib bering
ĠKrus hok
ĠAtrax a
ĠZag oth
Ġcoloss al
ĠExterm inator
ĠStory teller
ĠPlunder ing
ĠOrn ery
Ġindivid ual
ĠSweet tooth
ĠBloodsuck er
Ġoverwh elming
Ġsup reme
ĠObs idian
Ġdepart ure
Ġirresist ible
Ġabsolut ely
Ġgargoy les
ĠOpportun ist
ĠOccult ist
Ġtyran ny
Akir i
Dran a
Lav inia
Luc ilde
Per isophia
engin eer
Ġcam oufl
ĠCathed ral
Ġseld om
Ġdut ies
ĠWaters pout
Ġmart ial
Ġmumm ies
ĠSesh iro
ĠScho ol
Ġlaz y
ĠTour ach
ĠTrid ent
ĠTols imir
ĠTAR DIS
ĠIsper ia
ĠDos an
ĠDared evil
ĠDeran ged
Ġnong reen
asig ur
ĠRasc al
ĠList en
ĠLann ery
ĠLitt jara
ĠLacc olith
ĠMasc ot
ĠPhys ician
ĠPrakh ata
ĠPummel er
ĠBuc cane
ĠBret agard
ĠGont i
ĠKul rath
ĠKog la
ĠKade en
ĠOka un
ĠOgl or
ĠOrthod oxy
ĠVoj a
Ġupdra fts
ĠNix ilis
ĠNarn am
ĠNirk ana
Ġvari ety
ĠIthil ien
Ġblasp hem
ĠThrin ax
ĠDraug r
okuch i
Ġcharg es
ĠSlaan esh
ickkn ack
Ġunguard ed
Ġjavel in
ĠWeathers eed
ĠAllos aurus
ĠOrdru un
ĠRohgah h
ĠYann ik
Ġteamm ate
ĠObzed at
ĠCanopte k
Ġunparall eled
ĠBlacksn ag
ĠSandste ppe
ĠBelzen lok
ĠEmberwild e
Urdn an
ĠBeginning s
' -
) ,
* '
. /
0 4
1 3
9 9
; /
? !
A L
A ev
A ura
A ug
A dom
A nth
B el
B ri
B aki
C l
C or
C all
C hin
C aly
C athar
D ars
D esmer
D evin
D jeru
E D
E N
E k
E le
E yes
E lder
F re
F oot
F ooth
G e
G o
G er
G it
G rand
G annet
G ulist
G addock
H ear
H ist
H orn
I l
I sh
J on
J ur
J olrael
J udith
J estus
J oskun
K a
K er
K al
K ill
K ip
K night
K ithkin
K iku
L at
L ain
L azav
M at
M ar
M aster
M ult
M ann
M omir
M angara
M ayael
N y
N ar
N iv
N icol
O f
O ath
P o
P ar
P ie
P ont
P rayer
P iercer
Q h
R o
R un
R ider
R honas
R iel
R unner
R IC
S T
S m
S ur
S arg
S amil
S ledge
S orcerer
S linger
S ea
T r
T er
T ah
T ek
T rad
T ongue
T ishana
T sabo
V y
V II
V erv
V raska
W ar
Y on
Y ol
Z omb
Z ek
Z ahr
a ar
a ia
b h
b i
b reat
b et
b ag
b ord
b oy
b oon
b ara
b reath
b ows
b alls
b ooter
b rook
b athing
c el
c ile
c ence
c ull
c akes
c eful
c rest
c reep
c omber
c ophagus
c annon
d s
d an
d ing
d le
d ell
d ia
d estruct
d ened
d Ã»
e b
f ind
f are
f ax
f aced
g n
g il
g le
g ant
g ment
g ue
g ust
g ence
g led
g ma
g ae
g iving
g oyf
g Ã»l
g lyph
h t
h eld
h as
h ance
h rim
h ollow
h ans
h aser
i in
i bl
i eth
i opl
i wari
j in
j ar
j acks
k t
k y
k now
k not
l en
l it
l age
l iest
l asher
l ati
m i
m m
m y
m ar
m ber
m ite
m eth
m yr
m ates
m ender
m oths
m ission
m iel
m met
n ap
n are
n ine
n ox
n omancer
o ing
o ble
o iled
o vers
o ilos
o tlight
p ar
p here
p are
p oc
p tly
p rint
p redict
p yre
p ool
r k
r ary
r sp
s ower
s ight
s ue
s folk
t ar
t il
t os
t un
t ous
t here
t ze
t ics
t enth
t ithe
t ford
t empered
u f
u h
u un
u ps
u aries
u isher
v or
v ial
v alt
v als
v ault
v ocate
v anic
w ith
w ig
w ine
w raith
w asp
w yll
w inter
x im
y o
y ra
y ons
y aro
y rial
y bara
z o
z am
z il
z ation
z ec
z ans
z oa
z hou
Ã ±
Ġ &
Ġ ?<|
Ġ ich
Ġ irrel
Ġ oup
Ġ urb
Ġ Â½
Ġ xen
Ħ ages
re nd
re aver
re aper
re ctly
Ġt ic
Ġt ut
Ġt ramp
Ġt aller
Ġt enth
Ġt ransp
er c
er o
er il
er as
er ity
er ior
at u
at ro
at id
at ue
at urg
en al
en ith
en as
en ora
en ced
ou rt
ou ps
ou bled
Ġc ow
Ġc ell
Ġc her
Ġc os
Ġc ling
Ġc ab
Ġc inder
Ġc ages
Ġc umulative
Ġc avern
Ġc athar
Ġc auldron
Ġc aged
Ġc ackle
Ġc argo
Ġa le
Ġa lo
Ġa ver
Ġa egis
Ġth us
Ġth wart
Ġth orns
Ġth roats
Ġo p
Ġo x
Ġo pt
Ġo ption
Ġo verseer
Ġo rochi
in i
in ac
in ent
in ore
in qu
in ist
in ated
ar ol
ar ri
ar ke
es que
an ed
an om
an ies
Ġthe ories
am s
am u
am y
am or
am ous
am ma
am ished
am atic
am aro
am inar
it ent
it em
it ator
it ated
it ious
it aph
it lati
tl i
on ance
on ious
Ġb in
Ġb ay
Ġb ount
Ġb lo
Ġb ould
Ġb alcon
Ġb io
Ġb aby
ĠC ure
ĠC ro
ĠC as
ĠC ary
ĠC her
ĠC age
ĠC act
ĠC ant
ĠC his
ĠC ec
ĠC orm
ĠC az
ĠC aves
ĠC aut
ĠC ait
ĠC oun
ĠC rier
ĠC utter
ĠC enn
ĠC ards
ĠC irc
ĠC ircuit
ĠC opies
ĠC arah
ot ee
Ġy ester
ow yn
ex cept
ex orable
ex istence
ess ra
ess ity
Ġs en
Ġs ly
Ġs ke
Ġs wo
Ġs ag
Ġs ab
Ġs ug
Ġs yn
Ġs umm
Ġs wooping
Ġs erenity
Ġs ibl
is l
is ela
Ġd ot
Ġd ext
Ġd ol
Ġd amp
Ġd oth
Ġd oll
Ġd ign
Ġd oun
Ġd yn
Ġd angling
Ġd ancing
ac u
ac ar
ac al
ac he
ac ell
ac able
ac onda
or og
or se
or oth
or ated
or ged
or pe
Ġf ame
Ġf ever
Ġf are
Ġf ron
Ġf arth
Ġf asc
Ġf iend
Ġf ills
Ġf ruits
Ġf rust
Ġf aded
ĠW in
ĠW el
ĠW al
ĠW au
ĠW ilt
ĠW right
ĠW aken
ĠW onder
ĠW isp
ĠW anted
Ġw ri
Ġw age
Ġw ore
Ġw ept
Ġw ren
Ġw ron
Ġw aving
Ġw rap
Ġw rought
Ġw ife
Ġw ailing
Ġw asting
Ġw rote
el ud
ro k
ro se
ro ans
ing zhou
ard o
Ġan arch
Ġan te
Ġan gered
Ġan urid
Ġan vil
Ġan guish
st en
st ri
st ru
st all
st art
st uff
st urm
st af
st ander
st ract
st ics
st rod
st wh
st alg
st inate
Ġto il
Ġto pp
Ġto iled
Ġp in
Ġp ed
Ġp ho
Ġp est
Ġp ter
Ġp ine
Ġp aw
Ġp ec
Ġp icked
Ġp inn
Ġp ortal
Ġp uppet
Ġp rank
Ġp orter
Ġp oult
Ġp hyresis
Ġm end
Ġm ol
Ġm old
Ġm un
Ġm ead
Ġm oth
Ġm urm
Ġm oss
Ġm ines
Ġm entor
Ġm ask
Ġm elt
Ġm asked
Ġm ostly
Ġm ilk
Ġm orsel
al en
Ġ~ <|
ĠS i
ĠS on
ĠS ed
ĠS ir
ĠS lo
ĠS iv
ĠS ight
ĠS ust
ĠS uff
ĠS able
ĠS ign
ĠS uture
ĠS mith
ĠS onic
ĠS log
ĠS ensei
ĠS epul
ĠS atoru
ĠS acell
Ġl ower
Ġl ev
Ġl un
Ġl umber
Ġl uring
Ġl ions
Ġl ich
Ġl eng
Ġl aun
Ġl ances
Ġl ords
Ġl azotep
ent ing
ent um
ent acle
ent ric
il in
il ar
il ant
il ist
il ence
il iary
il iation
Ġh all
Ġh ered
Ġh ail
Ġh ates
Ġh alt
Ġh ones
Ġh ues
Ġh ipp
Ġh anged
Ġh anging
Ġh aul
Ġh ussar
ur f
ur at
ur an
ur acy
ur sion
if er
if ling
ay la
ed y
ed ience
ĠA M
ĠA tl
ĠA ra
ĠA tro
ĠA ct
ĠA rix
ĠA ys
ĠA lert
ĠA ryn
ĠA ethers
ĠT O
ĠT end
ĠT ext
ĠT ol
ĠT rom
ĠT os
ĠT est
ĠT ire
ĠT ect
ĠT all
ĠT orn
ĠT ab
ĠT ort
ĠT ook
ĠT ail
ĠT ale
ĠT aker
ĠT ax
ĠT iny
ĠT alion
ĠT avern
ĠT iller
ĠT ithe
ĠT abor
ĠT sabo
ĠT oggo
ĠT entacle
Ġu h
Ġu pper
Ġ1 7
Ġg or
Ġg all
Ġg ust
Ġg ird
Ġg ills
Ġg ently
Ġg utt
Ġg ryff
Ġg arbage
ef an
ef ang
ef orge
Ġyour selves
ra ble
ra int
ra ined
ra de
Ġ3 0
ve ka
ic ure
ic an
ic eship
Ġcon sc
Ġcon vers
Ġcon co
Ġcon spire
ĠH on
ĠH ol
ĠH ad
ĠH ill
ĠH art
ĠH ang
ĠH ide
ĠH eed
ĠH ail
ĠH ans
ĠH und
ĠH atcher
ĠH urk
ĠH anna
ĠH ammers
ĠH akim
ĠH efe
ĠH ivis
ĠH ussar
ĠH enry
ev es
ev ant
ev enth
ĠI c
ĠI an
ĠI st
ĠI ona
ĠI cing
ĠI lys
om p
om on
om et
om ori
om aly
om ancy
ĠD in
ĠD or
ĠD ol
ĠD ong
ĠD od
ĠD ie
ĠD ere
ĠD aughter
ĠD urk
ĠD Ãº
ĠD jeru
ĠD reya
ĠD ukh
ĠD iplom
ĠD iaries
ĠD okuchi
trol l
Ġin here
Ġin con
eld on
eld dag
Ġn od
Ġn ose
Ġn orm
Ġn erve
Ġn acatl
Ġn egot
Ġn ascent
Ġn ervous
ast rider
Ġbattl ef
ĠF ran
ĠF ung
ĠF ears
ĠF aces
ĠF uture
ĠF aren
ĠF inding
ĠF rill
ĠF ourth
ĠF ester
ĠF rank
ĠF amished
ĠF omori
ĠF eldon
le as
ut or
ut ish
ut able
ut iny
ir ler
ir ios
ir aling
ir yx
Ġbe ck
Ġbe ware
Ġbe acon
ith iryx
and a
um on
um ult
um ines
um erable
as tl
as is
as el
as ive
as hy
as ions
as ali
Ġor ph
ĠE y
ĠE ast
ĠE sp
ĠE ron
ol ed
ol om
ol oth
Ġ( ~
Ġwith ering
Ġe c
Ġe el
Ġent rust
ĠR h
ĠR y
ĠR um
ĠR all
ĠR uff
ĠR ather
ĠR ory
ĠR ich
ĠR ans
ĠR aze
ĠR idd
ĠR ites
ĠR ambl
ĠR ona
ĠR attle
ĠR iddle
ĠR yan
ĠL ack
ĠL od
ĠL em
ĠL ash
ĠL aur
ĠL ove
ĠL ions
ĠL uc
ĠL oot
ĠL ani
ĠL ena
ĠL asher
ĠL agon
ĠL orian
ĠL iter
ĠL antern
ĠL ucky
ĠM av
ĠM art
ĠM ust
ĠM ord
ĠM uch
ĠM iss
ĠM uk
ĠM atter
ĠM izz
ĠM iser
ĠM elira
ĠM angara
ĠM ayael
ĠM atsu
ĠM eddling
ĠM ileva
ĠM osquito
he en
he on
he arth
ĠP hy
ĠP ine
ĠP ia
ĠP ond
ĠP oll
ĠP icker
ĠP rid
ĠP ox
ĠP olar
ĠP ont
ĠP ortal
ĠP riv
ĠP unch
ĠP rank
ĠP ouncer
ĠP hyl
ĠP seud
ĠB a
ĠB er
ĠB ess
ĠB ed
ĠB ag
ĠB ass
ĠB red
ĠB ally
ĠB ub
ĠB org
ĠB utl
ĠB inding
ĠB omber
ĠB iting
ĠB ouncer
ĠB aan
ĠB reya
ĠB amboo
ĠB airn
ri os
ri vel
ri pper
ri gan
Ġre lying
Ġre fin
Ġre vers
Ġre app
Ġre viv
Ġre ading
Ġre loc
ach es
ach an
ach ed
ach ers
ĠG an
ĠG ary
ĠG our
ĠG ull
ĠG ales
ĠG reed
ĠG rime
ĠG ada
ĠG ranite
ĠG omazoa
ĠG auntlet
ĠG isela
ack ed
rom ov
Ġfor ks
Ġfor cing
Ġfor fe
ch ings
Ġunt ouchable
Ġend ures
Ġend ured
Ġend urance
Ġpl ate
Ġpl ates
Ġpl ating
Ġpl ots
Ġpl owed
Ġpl aced
Ġsp in
Ġsp ur
Ġsp raw
Ġsp ite
Ġsp ine
Ġsp ins
Ġsp ots
Ġsp eaker
Ġsp itting
Ġsp otted
Ġsp inal
Ġde ed
Ġde ter
lo x
lo re
ad o
ad in
pp y
pp es
pp ings
Ġst al
Ġst ain
Ġst ag
Ġst ren
Ġst aff
Ġst ifling
os al
ion ette
act ery
ant a
ant ation
Ġplay th
ck o
id or
id ars
ep er
Ġspell craft
et rable
ap ace
Ġli ft
Ġli fts
Ġli mits
im i
im ancer
ĠK ard
ĠK ad
ĠK ip
ĠK ang
ĠK ord
ĠK ass
ĠK ook
ĠK ald
ĠK ari
ĠK aya
ĠK ashi
ĠK iln
ĠK lot
ĠK osei
ĠK oilos
rif ic
nd ib
nd rsp
ĠO th
ĠO read
ĠO kin
ĠO aken
ĠO oz
ĠO ko
Ġco al
Ġco ff
Ġco als
Ġco ales
Ġco oked
Ġco ckatrice
Ġco astal
Ġgra b
Ġgra vity
Ġhand y
Ġhand ed
Ġhand le
ru b
ru da
ong love
Ġopp osite
Ġman tle
Ġman gled
ĠV I
ĠV a
ĠV end
ĠV it
ĠV ap
ĠV ect
ĠV og
ĠV ial
ĠV ale
ĠV int
ĠV enerated
ĠV rest
ĠV ona
ĠV ito
ĠV ampiric
Ġup hold
iv an
iv or
ho b
ho g
ho xes
br ine
br ane
iz ons
iz ations
ĠSp ace
ĠSp eak
ĠSp rin
ĠSp heres
ĠSp inal
ĠSp arring
qu all
qu atus
his tic
od ion
od ore
od ai
od ragon
ĠN at
ĠN od
ĠN ect
ĠN ag
ĠN ai
ĠN ey
ĠN ah
ĠN ek
ĠN iam
ĠN eva
ĠN adier
ĠN exus
ĠN arset
ĠN evinyrral
Ġv ess
Ġv ir
Ġv ain
Ġv ult
Ġv anguard
Ġv erd
Ġv igilant
Ġv itality
Ġv igor
Ġv ulner
to k
to p
to ok
us a
us folk
Ġare as
ment ed
ill ar
ill ery
old ed
ig am
ig oth
ig ation
est ing
est alk
est rider
ĠWar s
ĠWar t
ĠWar ped
Ġsh ot
Ġsh ut
Ġsh un
Ġsh ark
Ġsh akes
Ġsh aring
Ġsh ining
Ġsh elt
Ġsh rie
Ġsh orter
Ġsh rieking
Ġsh ackles
Ġsh rivel
Ġcombat ants
Ġby gone
ire z
em og
em onic
ul es
ul us
ul ations
Ġper ch
Ġper man
Ġper ished
av ite
av ans
ber us
bl ast
bl ue
bl aze
bl iopl
rior ity
ĠSh ink
ĠSh ab
ĠSh ort
ĠSh ao
ĠSh ige
ĠSh rines
ĠSh ikari
ĠSh alai
ĠAt zoc
ĠAt iin
ist ador
ist inac
all ied
Ġpower stones
ath y
ath an
ian s
Ġpay ment
ĠX X
ĠX antcha
ere gon
ere nce
ere kt
un ed
ker gill
Ġab bey
og rap
og oyf
ĠGo b
ĠGo o
Ġk ings
Ġk ras
Ġk ids
Ġk irin
Ġk hans
our ishing
th a
th on
th or
th rone
ĠZ o
ĠZ il
ĠZ ev
ĠZ eth
ĠZ arg
ĠZ urg
ĠZ enith
ĠZ ndrsp
Ġwh im
Ġwh irl
Ġwh ips
Ġwh olen
Ġwh irling
Ġbl owing
Ġbl ank
Ġbl ending
Ġbl izzard
Ġall iance
Ġall iter
ĠAs m
ĠAs ari
Ġunder growth
Ġunder neath
ĠIn former
ind a
ind ler
ind eer
ĠTh or
ĠTh ay
ĠTh ings
ĠTh une
ĠTh run
ĠTh roat
ĠTh rax
ĠTh rill
ĠTh rall
ĠTh icket
ĠEl esh
ĠEl uge
ĠEl adamri
ĠEl iminator
ĠEl enora
blin king
ĠU m
ĠU t
ĠU ro
ĠU gl
ĠU ruk
ĠU lder
ĠU top
Ġret ain
Ġret race
Ġse at
Ġse wer
ous ing
ag an
ag or
ag ic
ag ree
ag ia
ag ator
ag ious
ag rat
Ġnot ices
orc ist
orc law
ĠEle gant
Ġwas p
Ġinst ruct
Ġta unt
Ġno stalg
ok s
ok es
ok ist
ive red
ry dle
ĠSc ur
ĠSc ions
ĠSc ales
ĠSc uzz
ĠAn arch
ĠAn omaly
ĠBe am
ip ers
ip ation
Ġr ow
Ġr isen
Ġr hoxes
Ġr allied
Ġr ousing
ĠElemental ist
art his
Ġal ter
Ġal tern
Ġal tered
Ġal pha
Ġal igned
Ġal chemists
estro s
op ede
op histic
ĠElf hame
ak o
ĠEx ting
ĠEx quisite
ĠSt ing
ĠSt ra
ĠSt ir
ĠSt out
ĠSt ink
ĠSt ony
ĠSt eady
ust in
Ġbut t
Ġbut cher
ĠRe in
ĠRe tro
ĠRe born
ĠRe cyc
ĠRe joice
Ġch ip
Ġch ron
Ġch anging
Ġch apter
Ġch angelings
ash t
ash buck
ash ivan
sh aking
sh rieker
ĠAr gu
ĠAr isen
ĠAr rester
ĠDragon hawk
Ġreveal ing
ph ib
Ġrem ote
Ġrem oves
Ġrem inders
Ġrem inds
Ġrem oving
Ġle aking
Ġle opard
ĠCh ill
ĠCh ari
ĠCh up
ĠCh ained
ĠCh orus
ĠCh ampions
ver dell
ĠJ u
ĠJ av
ĠJ oy
ĠJ ub
ĠJ aya
ĠJ arl
ĠJ asm
ĠJ irin
ĠJ uri
ĠJ olen
ĠJ uggler
ĠJ Ã¶
ĠJ iwari
ĠJ ingzhou
ition er
wal Ã©
ish a
ish ment
Ġwill s
ew is
ew ed
ew right
oth ama
Ġmy ster
Ġmy sterious
Ġadd ing
Ġadd ed
Ġwe aving
ĠFl itter
ĠFl ux
ĠFl ourishing
ĠMer ia
ept ion
ĠSl ing
ĠSl ed
ĠSl um
ĠSl aver
ĠSl uge
ĠSl ippery
der a
Ġhe ist
Ġhe els
Ġhe eds
ĠCon f
ĠCon fessor
ĠCon spiracy
Ġfl edgling
ĠThis tled
ade k
ade em
orn ed
Ġ* +
Ġun ch
Ġun sh
Ġun se
Ġun ison
Ġun its
Ġun bel
Ġun not
Ġun cle
Ġun ending
Ġun ruly
Ġun finished
ine c
ĠSk ip
ĠSk ald
ĠSk itt
ĠSk immer
ĠSk ithiryx
aw er
Ġunl ik
Ġher itage
Ġsc or
Ġsc ut
Ġsc orp
Ġsc attering
Ġsc orch
Ġsc alding
Ġj ack
Ġj oke
Ġj aws
Ġj hov
Ġj unk
Ġj agged
Ġwor m
ake asy
ec tro
ec reed
ec essary
ĠRet ainer
Ġro c
Ġro y
Ġro de
Ġgo b
Ġgo ather
ĠHor izons
ĠEn g
ĠEn erg
ĠEn clave
ĠEn emy
Ġname less
ĠDe acon
ĠDe mentia
ĠDe Pie
ĠWe athered
ĠWe eping
ĠWe asel
ener ates
ia o
unt eers
ĠTre n
ĠTre es
ĠTre ad
ĠTre va
ab its
Ġar rog
Ġar ises
Ġar rested
Ġar gue
sp an
sp ing
sp ace
sp awn
sp itter
sp inner
Ġout we
Ġout cast
Ġout do
Ġplan es
ĠEld ers
ĠAl se
ĠAl loy
ĠAl ms
ĠAl ena
ĠAl irios
ult aneously
ĠPl um
ĠPl ane
Ġag round
ĠNo va
ĠMy stics
Ġcomm od
az aki
vent urous
ĠDeath bloom
ĠAd Ã©
Ġhad n
Ġrest s
Ġsk ir
Ġsk itter
Ġsk ittering
Ġsk irm
Ġpro f
Ġpro ven
Ġpro voke
Ġpro fess
Ġpro blems
Ġcl iff
Ġcl icked
Ġcl othing
Ġcl ique
Ġcl imate
Ġcl amor
Ġcl achan
Ġri pped
Ġri ps
Ġri pen
Ġri val
Ġri gging
Ġwar lord
Ġwar ped
osaur s
ĠHe el
ĠHe aven
ĠDem ilich
ĠFa un
ĠIns idious
ron s
ron ch
ron omer
ĠDefend ing
ĠUnt amed
ĠUnt ouchable
ĠFor ger
ĠFor agers
ĠArch ive
ĠArch itects
ĠDemon ic
Ġru b
Ġru lers
Ġsur geon
Ġsur ges
ĠUn x
ĠUn able
ĠUn sc
ĠUn cle
ĠUn ravel
ĠUn ruly
ĠUn yielding
ĠUn hall
ĠUn predict
ĠUn yaro
ĠInsect s
Ġpo le
Ġind icated
ĠSn uff
ĠSn ub
ĠSn akes
ĠRo ving
ĠRo aming
ĠRo alesk
ĠRo xi
ĠMon tford
Ġsw at
Ġsw am
Ġsw ept
ĠDev otee
Ġra v
Ġra sh
Ġra ged
Ġra ising
Ġra ises
Ġra bble
Ġra gged
ud ent
ud ed
ud oka
ĠAll uring
Ġtra ins
Ġtra itor
Ġtra gedy
Ġmon astery
Ġform ing
ĠSw indler
ĠSw ashbuck
ĠSer ve
ĠSer ver
ĠY ep
ĠY ew
ĠY arg
ĠY ears
Ġtri es
ĠBlood rage
ĠBlood line
ĠBlood chief
ĠBlood seeker
ĠBlood scale
ĠBlood stained
ĠBlood braid
Ġcommand ing
ĠReg na
ĠReg isaur
ĠReg ulator
ĠBl ink
ĠBl aster
ĠBl aze
ĠBl istering
Ġqu icken
Ġqu arry
Ġgr ants
Ġgr oups
aid en
Ġpart ies
Ġpart ners
Ġpart isans
Ġres ort
Ġres elect
Ġreach ing
Ġsl aying
Ġsl ightly
Ġsl umbers
Ġmust er
ater al
pl ar
pl ay
pl est
ĠRem nant
oc y
oc ol
oc ation
ens or
ens ions
ens eless
Ġdra g
Ġdra gging
Ġshe en
Ġshe pherd
Ġday light
Ġday break
ĠTo ol
ug s
ĠWurm s
ĠOrc a
Ġdev ised
Ġph antom
ĠEv os
ĠEv ie
ĠEv olved
ĠEv incar
ĠSe ag
ĠSe ething
ĠSe ism
be ak
Ġcaus ing
ĠNight watch
iss ors
Ġad age
Ġad vised
Ġad venturing
we eper
ob il
Ġfe ud
Ġfe alty
ĠSqu all
ĠSqu eak
ĠPre tender
ĠPre pare
Ġsm ite
Ġsm ok
Ġsm iled
Ġsm ooth
Ġsm oldering
ĠAv id
ĠAv ian
ĠAv alanche
Ġdes cribe
ale af
Ġhunt master
ĠShap e
ĠQ asali
ĠGu ests
Ġtru n
Ġcreat or
Ġim pl
Ġim ps
Ġim pen
Ġpe op
Ġgl ac
Ġgl im
Ġgl ance
Ġgl are
Ġgl ides
Ġgl amorous
Ġey estalk
alt a
ich i
Ġbel ies
ĠImp aler
ĠImp erious
ĠSky ship
ĠSky sc
ĠSky ward
Ġev ents
Ġev olves
ĠDog ged
ĠBerser kers
rid ing
Ġsu it
Ġsu ck
Ġsu nd
Ġsu icid
ĠSun sc
ĠSun blade
ĠSun slayer
ĠMount s
ĠMount ed
Ġte a
Ġoff ended
Ġhow ling
Ġhow ls
ĠGl are
ĠGl itter
ĠGl owing
ĠGl ittering
ai jin
Ġgu iding
ĠPro f
ĠPro per
ĠPro vision
ĠPro vocate
int eg
Ġdis pens
Ġdis asters
Ġdis gust
Ġdis agree
ĠHy rax
ĠCyc lope
Ġtr aces
Ġtr acks
Ġtr oubled
ĠMar it
ĠMar ble
ĠMar ath
ĠMar row
ĠMar ine
ĠMar ionette
ĠMar aleaf
Ġkn ack
Ġkn ots
Ġkn eel
Ġkn elt
Ġkn ees
Ġkn ickknack
att ice
att ib
inn e
inn an
Ġband ed
ĠLe on
Ġafter noon
ĠWard ens
ĠGuard s
Ġstr ings
Ġkind ling
Ġkind led
Ġkeep ers
ĠAdvis ors
ĠSam ut
ĠSam wise
Ġtre achery
Ġcar avan
Ġcar avans
ax ias
und s
Ġ10 0
ĠAtt ended
ĠSil v
ĠSil var
ĠSil hana
alm a
ĠArm s
ĠArm asaur
Ġexplo ded
gu ided
Ġfall ow
ĠTra ft
ĠTra sh
Ġmag got
ĠNinj as
Ġsoul bond
Ġint end
Ġint ellect
Ġass ume
ĠKor oz
ros aur
Ġward ens
arm ogoyf
arn a
arn el
ĠDes perate
ĠDes olation
ĠCo il
ĠCo ast
ĠCo ach
ĠCo ff
ĠCo iling
ĠCo ckroach
ĠCo valt
ĠHell o
ĠFire s
ĠFire beast
ĠFire bird
ĠBo one
ĠBo ars
ĠQu ake
ĠQu iver
ĠQu iet
bel ly
Ġgrow l
Ġgrow ths
Ġgrow ls
pe ak
ĠGh ired
ĠGh ostly
ĠGh astly
ĠGh alta
ĠGh alma
reak able
ĠTr acking
Ġkill ers
Ġsing ular
ĠHar j
ĠHar old
ĠHar sh
eep er
Ġwatch dog
Ġfa ult
Ġfa una
ĠMir ko
ĠPh age
ĠPh ilos
ĠPh araoh
ĠPh lage
ĠPh elddag
pent ant
Ġreg ion
Ġreg ions
Ġreg enerates
ĠGr ÃŃ
ĠGr othama
ĠSent ries
ĠAb ove
ĠAb bot
ĠAb del
ĠBattl eg
Ġdiv ing
ĠCit adel
Ġhere tics
Ġste er
Ġste ppes
ĠMag ister
ĠMag ician
ĠMag pie
Ġright ful
Ġbr is
Ġbr and
Ġbr ambles
ĠCol os
ĠCol orless
ĠCol erid
ĠCol iseum
Ġhead long
ĠEm pty
ĠEm brace
ĠPer rie
ĠBr ack
ĠBr ambles
ĠEvery body
Ġgod toucher
ĠHunt ers
Ġvict orious
Ġfore ign
ĠEmp yrial
ĠTroll s
Ġcont empl
add i
Ġmaster less
Ġmaster pie
ĠAc ross
ĠAc rob
ĠSur veyor
ĠFrog s
ĠFrog toss
ĠElder fang
ĠSerpent ine
Ġmer ge
Ġwork ings
Ġpr ayed
Ġpr ickly
Ġem pt
Ġem otions
Ġcyc led
ĠLook ing
ee ch
uc a
eer less
zz t
zz io
Ġext ension
Ġext erior
Ġcle ars
Ġcle ans
Ġmet allic
ĠGarg adon
ense eker
Ġdef ensive
Ġdef enseless
ĠAk ras
ĠAk roans
Ġcons ist
ĠRes urg
ĠRes ilient
As mira
To othl
Ġhuman kind
ĠGra fter
ĠGra ven
ĠGra sping
Ġflip s
ira ge
Ġwind ow
Ġwild fire
ĠNec ro
ĠNec rot
ĠNec ros
ĠNec rogen
ony a
ony m
ĠDon na
Ġsn ared
Ġsn arl
Ġhistoric al
de ath
alad ins
Ġconjure d
ĠRav ing
ech ief
inel ess
ĠMoon stone
Ġren own
ĠKra v
ĠKra gma
Ġresult ed
Ġten acity
Ġdec ree
Ġdec ide
Ġdec oy
ĠAg rus
Ġrep urp
ib a
ib al
ib uster
back s
ek h
Ġmin or
Ġmin ers
Ġmin imum
aken ed
org iving
ĠDu al
ĠDu plic
ĠUnder stand
ĠUnder dog
ĠUnder cover
ĠUnder neath
ĠUnder dark
ĠStorm front
Ġdisc erning
Ġdisc iplined
roling s
ĠInd ul
ĠInd rik
ĠInd omitable
ĠInd ustry
Ġhalf way
ĠDisc iples
ĠDisc erning
ov old
Ġsaf ewright
ae ve
ae ologist
Ġinc ite
Ġrec ord
Ġrec ently
Ġrec ords
Ġbo ot
Ġdel ay
ĠPat rician
ĠPat agia
Ġref used
Ġref unds
ĠVal ent
arec aster
Ġimp rison
tra p
tra ined
Ġmod ular
ĠMa ul
ĠMa ulf
ĠMa arika
ĠMa estros
ĠBal loon
ĠBal thor
Ġancient s
ĠTur g
Ġne arest
ĠGold berry
ĠWind rider
Ġter m
Ġter rified
ĠSag u
ĠSag es
ĠThopter ist
rag ing
Ġunb reakable
Ġair borne
Ġwr angler
Ġwr iting
Ġinv olve
ĠEcho es
ĠPar an
ĠPar adise
ĠPar apet
ĠPar atro
iev ers
Ġob edience
Ġins ect
Ġins ist
Ġins ane
Ġins ides
Ġins anity
ĠMind s
ĠMind breaker
ĠMind wr
ĠMind leech
ĠVe iled
ric ane
ĠCor rosive
ĠAm iq
ĠGe ists
ĠGe cko
ĠGe opede
ĠKar ok
ĠKar ona
ĠOctopus es
ĠAug ury
ĠDel ver
ĠMet eor
ĠMet allic
ĠBar al
ĠBar one
ĠBar rage
ĠBar rin
ĠNe b
ĠNe onate
ĠNe heb
ĠUnicorn s
ĠRavnic an
Ġz oologist
Ġbreak fast
ĠTem pered
ĠTem pting
ĠTem plar
Ġemer ging
rib ution
Ġexist ed
Ar n
Ar ms
Ar cum
Ar linn
ĠCar acal
Ġsub s
Ġsub servience
Ġfuture s
Ġhonor able
Ġstud ied
Ġstud ying
Ġprec ise
Ġdu eling
ĠOb oro
ĠOb stinate
Ġadv ocate
Ġact s
Ġsim ilar
Ġsim ultaneously
Ġsim plest
Ġdri ps
Ġcollect s
Ġcr umbling
amm ar
amm ed
ĠApp le
ĠRaven gard
ĠBas king
ĠBas alt
ims y
ĠTyran n
An gel
Ġcor rectly
ĠSm elt
Ġnec essity
ĠMist ral
Ġvol ume
Ġvol atile
ĠAncient s
Ġcloud less
ific ant
ĠTer is
ĠTer ra
ĠTer oh
ĠHost ile
head s
ĠOut caster
ĠKraken s
ki pper
Ġsent ience
ĠHow l
ĠHow ler
ĠThough ts
ĠUnd Ã³
ern ity
Ġaw ake
Ġaw aits
Ġbody guards
ĠSwarm lord
ĠDream er
ĠMo ira
Ġweapons mith
Ġge ys
ĠArt ful
ĠArt illery
ĠEnt omber
ĠEnt angler
ĠEnt erp
ĠEnt ourage
ĠRiver lands
ĠPriest ess
ĠOx id
ipp ers
Ġsqu irm
Ġfle t
Ġmo ans
Ġmo aning
ĠHigh er
ĠHigh land
ĠHigh born
Ġdep ravity
Ġsupp ose
Ġsupp ressed
Ġserv itude
Ġweapon ry
Ġcent ury
Ġmar ble
Ġmar row
Ġmar kets
Ġmar riage
Ġmain t
Ġmain ly
ĠTw ice
ĠRun es
ĠRun away
ĠCan ker
ĠWitch es
ĠWitch stalker
ĠAp ocalypse
ĠTor sten
Ġspread ing
ada istinac
ĠKam ber
ĠKam bal
oph on
oph age
oph ants
ĠCloud s
ĠCloud sk
ĠCloud chaser
cle aver
the on
Ġdr ac
Ġdr um
Ġdr ill
Ġdr owned
Ġdr amatic
Ġline ages
Ġgener osity
ĠNew s
ĠNomad s
ĠUl asht
Ġbur ial
Ġconn ect
Ġconn ive
ĠStone horn
Ġclaim s
cept or
well ing
Ġfun eral
ĠSu nl
ĠSu dden
ĠRu ins
ĠRu ination
ĠMal ice
Ġunp repared
Ġrock y
Ġarri ving
Re veka
me at
Ġposs ibly
ĠLi ara
rush ing
ĠVi ol
ĠVi ashivan
Ġhero ic
sper ity
ĠRoot weaver
Ch ulane
Ch itlati
ĠBlack guard
ĠSilver gill
El esh
Ġmist akes
ĠSusp icious
ĠAst ral
ĠIron claw
ĠIron clad
ĠDef ector
umm ing
ĠRamp ant
ĠLo oming
ĠBlade hold
Ġteach ers
Ġteach ings
Ġguild master
Ġyoung est
Ġpair s
ĠSand bar
ĠAmb itious
ĠMor an
ĠMor ia
ĠMor kr
ĠMor adin
unn ers
ortun ate
ĠLeech es
.. .<|
Ġtreat s
Ġsight s
ĠTru ss
Ġadapt able
Ġcross ed
Ġcross ways
Ġthreat ened
Ġsign ifies
Ġhost ile
ĠPack beast
ĠOm ens
ĠOm arthis
run ners
uls ive
Ġche ap
Ġche ered
Ġche wing
Ġche etah
Ġaff inity
Ġaff ront
Ġaff airs
Ġbad ly
Ġprom ptly
Ġmiss ed
ĠEnd bringer
ĠRel iqu
izz ards
Ġshaman ic
ĠLeviath ans
ns ic
ned ain
Ġsav ior
Ġsummon ed
Ġlist ens
ĠPur ity
ĠPur ifying
ĠPers onal
ĠBra ids
ĠKal itas
ĠContra ptions
ĠOrzhov a
Ġtrust s
ĠGreen widow
ĠFleet ing
iqu ity
Ġir ony
Ġthunder ing
Ġsol itude
Ġsol idarity
Ġhit ting
Ġhop ed
utter ing
ĠRaz er
ĠRaz ia
ĠMod ernity
ĠMem brane
ĠHarvest tide
ĠSurviv alist
ĠAugment er
rr rr
Ġsuff ers
Ġsuff ered
Ġple ased
Ġple asing
ĠSet tle
ĠRep ent
ĠRep eat
ĠPo or
Ġspec ific
ĠIniti ates
ĠStar ke
ĠStreet wise
Ġarch itect
Ġarch aeologist
Ġbright est
ĠCal igo
ĠCal dera
Ġden izen
Ġmis d
Ġmis took
Ġmis guided
Ġhaunt ed
Ġhapp ens
Ġhapp ened
Ġinn ate
Ġinn ov
Ġinn keeper
Ġinn umerable
ĠMe et
ĠMe tropolis
ĠMe zzio
ĠPath mage
ĠPath finder
ĠSpr out
ĠJuggernaut s
Ġunf ettered
Ġunf ortunate
Ġlot us
Ġhom unculus
Ġinf ilt
ĠPr oft
ĠPr ay
ĠPr ison
ĠPr ickly
Ġsharp est
Ġprefer ring
Ġfool ed
Ġsteal thy
ĠGrave born
ĠWorld soul
Ġdawn s
Ġpar ish
Ġpure st
Ġpet ting
Ġemp ress
Ġemp eror
ĠRub inia
Ġdoor way
ĠAsh ling
ĠAsh nod
ĠGhost s
Th ief
Th alia
rum ar
Ġbal ancing
ĠCut pur
Ġself ish
ĠWander glyph
ĠWander brine
Ġanim al
Ġanim ate
Ġanim ated
Ġmess ages
ĠBu y
ĠVor rac
ĠAnim us
ĠBloodthirst y
ĠImm ard
ĠImm ol
Ġban ish
ĠCall ed
Ġmouth ful
Ġconf used
ĠDri ver
ĠDri ven
ĠDri zzt
ĠDire ctor
ĠEver flowing
Ġrepl ace
Ġfort une
Ġdet ail
ĠNever winter
Ġexpend able
ĠIncub ate
ĠPersist ent
St ronghold
St arke
lic ant
lic ation
Ġtal on
Ġcas tles
ĠDrom ar
ĠKill ing
Ġmanifest ation
ĠSpark s
Ġshort cut
Ġens ures
ĠAsp ect
ĠAsp hod
ĠBlight ed
cr ats
mph ony
ĠÃ Ħages
Ġsho e
Ġsho ck
Ġlab s
Ġlab ors
ĠGri fter
Ġspark s
ĠThought weft
bearer s
Ġimm ense
Ġimm une
Ġimm aculate
Ġimagin e
ĠProp agator
mo ving
erd rix
ĠCer ule
ĠCer berus
Ġhum or
ĠHo pper
ĠFe aster
ĠRam irez
ĠRevel ation
ĠGen tle
ĠGen esis
ĠVod a
Ġriver b
ĠSylv ia
ĠRuin ous
ux iliary
Ġbreed s
Ġhur ting
Ġhur ricane
ĠTim in
ĠTim ing
ĠTim eless
Ġinter lopers
ĠLaw bringer
ĠKy odai
ĠKy theon
ĠInquis itors
ĠAdv anced
ĠAdv okist
Ġsmash es
ĠAttend ants
Ġawaken s
ĠPraet ors
ĠCho ir
Ġfish ers
Ġfish tails
Ġfigure d
Ġfigure head
ĠSar uli
ĠTin kerer
ĠHorn beetle
Ġinvent ed
Ġinvent ors
ĠPet ting
Ġdemon ic
Ġstat us
ĠKen rith
ĠOh ran
Ġvers a
Ġadventure r
Ġadventure s
Ġacc ount
Sh ield
Ġtest ament
Ġcivil izations
Ġbar ren
Ġbar rel
Ġbirth right
Ġfil ibuster
Ġpick y
Ġpick ing
Ġmal evolent
Ġmal leable
ĠAh au
ĠTri umphant
ĠHob bits
ĠDist ortion
Ġinfect ious
Ġreward ed
Ġspect ators
ĠOw en
ĠInk caster
ĠRock slide
ĠAssem bler
ĠSee king
Ġaccept ed
ĠDesp oiler
ĠGreml ins
ĠTransm og
ĠTransm uter
Al aborn
hir hok
uld acar
wurm s
Ġer ad
Ġer ror
Ġtask ed
esk it
ĠCarn ival
Ġfruit ful
ĠSor amaro
ĠSub du
ĠSub tlety
ĠIce wind
ĠDep th
ĠDep uty
ĠRho da
ĠMach inist
Ġcover ing
ipl ied
ipl omat
Ġrain bow
Ġphilos oph
Ġadm ired
Ġadm iration
Ġappreci ation
Ġfright ful
Ġartist ry
Ġimport antly
ĠTemp oral
ĠExplorer s
Ġcoun sel
ĠClo ak
ĠClo ister
ĠClo aked
ĠClo verdell
Ġsepar ate
Ġdig est
ĠSol itude
ĠTry nn
Ġgn aw
Ġgn omes
ĠEr stwh
ĠRef orged
ĠBru na
ĠGal ina
ĠGal vanic
Ġengin e
Ġseed ling
ĠChron ologist
Ġworks hop
Ġpret end
Ġapproach ed
Ġassem ble
ĠInter rog
ĠInter ceptor
Ġdelight ed
Ġdelight ful
Ġreflect ions
ĠRazor field
Ġaim ed
Ġbow l
Ġbow ls
Ġlav amancer
Ġhon ing
Ġhon est
Ġhon ored
Ġconv ince
Ġconv iction
Ġconqu ers
ĠFin al
log ist
Ġattem pts
Ġliz ards
ĠKn own
Ġopportun ities
Ġshift s
Ġshift ing
Ġenjoy s
Ġamb itions
ĠScrap yard
ĠScrap work
Ġprop ag
Ġprop hecy
ĠBlad ew
ĠImperial s
Ġsuper st
Ġsuper ior
Ġterror s
Ġterror ize
Ġcrack les
Ġil legal
Ġcamp a
Ġbog s
Ġfre ely
Ġpen ance
Ġpen alty
ĠSure shot
ĠSto ker
urs or
ellig ence
ĠScra ps
ĠCont ender
Ġexpect ations
Ġsurve illance
Ġsweet er
Ġsweet ness
Ġdispl aced
Ġdispl ays
Ġrefuge e
Ġrefuge es
Ġpossess es
ĠTrust y
ĠTrust ed
ĠOmn ivore
Ġghoul caller
ca er
sk y
Ġcorn ers
Ġble ak
ĠCog s
ĠCare ful
ĠWest ern
ĠWest fold
ĠSho ot
Ġgle e
Ġgle am
ĠFre erunning
ĠFree booter
ĠRust ed
ĠMort ality
ĠMoss dog
ĠBi ologist
ĠBi omancer
ĠBi bliopl
ĠGy ruda
Ġlimit ed
ĠKh orv
ĠKh urz
ĠScor ia
Ġcompl iment
ĠStand ing
ĠStand ard
Ġunn ecessary
Ġraven s
serv ant
ĠSupp ly
ĠSupp lier
ĠSupp licant
For ged
Ġkey word
Ġach ieved
ĠCreat ed
ĠCle aving
Ġsal vage
ĠTaken uma
ĠFight ing
ĠLor an
ĠLab oratory
ĠMech anist
Ġrevel s
ĠGloom widow
Ġspo ils
ĠKa alia
Ġseason ed
Ġrout es
Ġloc ation
ĠDrac o
Ġsuns et
Ġcourt esy
Ġadvant ages
Ġstrugg les
ĠOwl bear
Ġattempt ed
Ġcal amity
Ġow l
inter land
Ġbitter ness
Ġsap rolings
Ġsust ain
Ġsust ained
Ġsust enance
Ġann ounce
Ġprim eval
ĠSen u
ĠSaw tooth
ĠFrenz y
ĠMold er
ĠMold graf
ĠPal ani
ĠPoss um
ĠBound less
Ġspy master
Ġcomfort able
Ġunc or
Ġunc over
ĠArchae ologists
Ġknock ing
Ġmindless ly
ĠSapraz zans
Ġrecruit ed
Ġburst ing
Ġrebu ilt
Ġinflu ences
Ġce ase
Ġce iling
Ġcit izen
Ġcraw ls
Ġcrash ed
Ġbark s
Ġflock s
ardic adaistinac
Ġmed als
Ġmed ics
ĠArash i
ĠTen ured
ĠTho ctar
Ġut most
Ġgri ef
Ġgri pped
Ġgru dges
Ġconcer ns
ĠHall ar
ĠHall owed
ĠFeed ing
ĠLar ge
ĠPol tergeist
ĠPill ager
ĠBan isher
Ġrev olution
ĠGard en
imp ort
ĠNet tling
Ġblink moths
Ġcoll apse
Ġunearth ed
Ġunearth ly
ĠMyc oid
Ġclick ing
Ġrust ed
ension al
Ġcryst als
ĠTwin blade
ĠLiber ated
Ġcrowd s
ĠStormc haser
hor rent
Ġur ge
Ġest abl
Ġcro aked
Ġcand les
Ġcirc us
Ġoce ans
ĠCra ig
ĠCra ven
ĠCad et
Ġsanct uaries
Ġconfl icts
ĠEp hemer
ĠEp icure
ĠMen agerie
ĠGro ff
Ġspawn ed
ĠKind ler
ĠKins caer
ĠNiv ix
Ġvirt ues
ĠScut tler
ĠJo ven
Ġweep ing
Ġherald ed
Ġscr utiny
Ġripp ling
Ġbelief s
Ġsettle ment
Ġsettle ments
Ġrecogn ized
Ġcorrupt ing
Ġconstruct ed
Ġencount ered
ĠCruel ty
ĠJamura an
ĠImagin ary
Gor gon
bar row
Ã³ in
Ġerr atic
Ġtower ing
Ġtur f
Ġcra ving
Ġbarb arian
ĠCross roads
Ġsin ew
Ġsle w
Ġfift een
Ġfashion ed
Ġwicked ness
Ġmir acle
Ġmant icore
Ġmant ises
ĠSin ister
ĠSin uous
ĠSum mit
Ġgro ff
Ġconver ts
ĠDust speaker
Ġbeat en
ĠRest oration
Ġplant ed
Ġdebt ors
ĠOk inec
ĠOk iba
estic ated
Ġshelter ing
ĠJh ess
Ġvalu ables
Ġheir loom
ĠPlan et
Ġproper ly
Ġrapt or
ĠCliff haven
Ġdevast ating
Ġtrespass ing
Ġtrespass ers
ĠTravel ing
Ġmagn etic
ĠDesec ration
Ġdistract ed
Ġregard ed
ĠCoral helm
Ġmission ary
ĠHoard er
ĠIgn us
ĠIgn iter
Ġcelebr ate
call ed
Ġtyr ranax
Ġtitan ic
ĠCann on
ĠCoward s
ĠCrag flame
Ġslo pes
Ġdar ker
Ġdam ned
Ġdam nation
ĠSyn apse
Ġgang s
Ġconce als
Ġconce aled
ĠRos heen
ĠLon is
ĠLon ely
ĠLumber knot
ĠPen itent
ĠBon ny
Ġregre ts
ĠGle eful
ĠGle aming
Ġdeb ate
Ġattend ant
Ġcob bles
ĠNest ing
ĠNurt uring
ĠNatural ist
Ġshred s
ĠAsc ension
Ġlock s
ustom ed
ĠConqu istador
Ġflour ish
Ġrob ber
Ġrob bers
Ġcommun ities
Ġmillenn ium
Ġsweep s
ĠDooms ayer
ĠDooms kar
ĠGris tle
ĠAbs olute
ĠDiscord ant
Ġrespons ible
Ġpersist ence
Ġmachin ations
Ġcultiv ated
ĠÃī owyn
ĠPossess ion
Ġsharpen ing
Ġzeal ous
ĠElectro static
HH HH
dri fter
mor anom
worm s
Ãº k
Ġed ges
Ġtit ans
ĠCrow d
ĠCapt ivating
Ġyield s
Ġstro de
Ġdryad s
Ġfel idar
ĠWrath ful
Ġwreck age
Ġmater ials
Ġmarch es
ĠSail back
Ġlink s
Ġcondu it
Ġnurt ures
Ġnurt ured
ĠFet id
ĠMac ie
ĠBlo b
ĠBree ches
ĠGrot esque
ĠGalad hrim
Ġstitch es
Ġcann ons
ĠOcc asionally
ĠVirt us
ĠNum ai
ĠNear ly
ĠNear heath
Ġeng age
ĠAshen moor
ĠScal elord
ĠAnn ex
Ġweird s
Ġflatt en
Ġunleash ed
ĠYang tze
Ġresid ue
Ġaccess ory
Ġsunl it
uccess ful
Ġencou rage
Ġencou raged
ĠStrong arm
ĠOmen path
ĠPoison er
ĠDrift ing
Ġchalleng ing
Ġeru pting
Ġsprout s
ĠHypnot ic
Ġidi ots
ĠExperiment al
Ġmechan ical
Hal ina
Hal vor
Ku ar
Sam uel
will ow
Ġraz or
Ġtent acles
Ġcac he
onom ous
Ġbold er
ĠCrash ing
Ġfan atic
ĠWeld fast
ĠWreck ing
Ġpil grim
Ġmaj esty
Ġhes itation
Ġhes itate
Ġhel ps
Ġhel ms
Ġhang s
Ġharp y
Ġharp ies
ĠAud acious
Ġconse cr
ĠIr regulars
Ġinj uries
Ġearl ier
ĠRight eous
ĠRul es
ĠRash ida
ĠLam bh
ĠLag ac
ĠMesmer ic
ĠMesmer ist
ĠPash alik
ĠGat eless
ĠGad get
osy stem
osy nth
ĠKu jar
ĠVult ures
Ġshudd ered
Ġkra ul
Ġblan ket
Ġblan kets
ĠThaum aturge
ĠThaum aturg
ĠScale bane
Ġalley s
ĠConscri pt
ĠConscri pts
Ġhiss ing
Ġgreml in
Ġscen e
Ġscen es
ĠTrespass ers
abor ate
Ġprogen y
Ġeleph ant
ĠGlor ifier
ĠGlor find
ĠLey line
Ġexplos ives
ĠTrumpet ing
Ġdecad ent
Ġincorpor ates
Ġincorpor ating
Ġobv iously
Ġnorth ward
Ġignor ant
Ġnavig ating
Ġunexpected ly
oi i
ĠCand le
ĠCove ted
ĠCors air
ĠCors airs
ĠCraft y
Ġfr ame
Ġfisher man
Ġwest ern
Ġpra et
Ġpuls es
Ġpuzz le
Ġmel odies
Ġmix ed
Ġmotion less
ĠSere ne
ĠSere ndib
ĠSedge moor
Ġlull mage
ĠTown sfolk
ĠTransp l
ĠTransp ort
ĠIb n
Ġbehemoth s
ĠEar ly
lys m
ĠLa quatus
ĠLath nu
ĠBil bo
ĠBol rac
ĠBraw lers
ĠGraz ing
Ġpluck ed
Ġstalk ed
ĠKud ro
ĠOy aminar
Ġcove ted
ĠVel us
ĠVast wood
ĠVad rik
ĠVant ress
ĠShimmer ing
Ġenl ists
ĠThelon ite
ĠDrag oon
ĠReve rent
ĠSlim y
ĠSlim efoot
ĠWhirl pool
ĠUnst able
ĠUnst oppable
ĠSwords mith
ĠDoor keeper
Ġtrin ket
Ġtrin kets
ĠBrand y
ĠUrs ine
Ġtempt ation
ĠResp ect
ĠResp onder
ĠAggress or
ĠDispl acer
Ġobser vers
Ġbenef it
Ġwatermark s
Ġtranscend s
Ġaccord ing
Ġutter ly
Ġmirror s
ĠPlaneswal ker
ĠPlaneswal kers
ĠSafe hold
ĠSymbi ote
ĠSymbi otic
Ash iok
Bo ar
Ben alish
Fl ame
Is ao
hard y
oir s
zer ai
Ġtranqu ility
Ġcre pt
ĠCook book
Ġdiver t
Ġfurn aces
Ġfig uring
ĠSeg ovian
ĠSib sig
ĠToy maker
ĠTao ist
Ġconven ient
Ġcondem n
ĠHay wire
ĠHire ling
ĠId ris
ĠDestruct ion
Ġinsc ribed
ĠFat eful
ĠFey wild
ĠFreed om
ĠFurt ive
ĠEber hart
ĠMot iv
ĠMom ents
ĠMuld rak
ĠPoly m
ĠBle ak
Ġliber ty
ĠKed erekt
ĠKum ena
ĠOri q
ĠOch re
Ġupro oted
ĠName less
ĠNaz gÃ»l
ĠUmb ar
ĠReb irth
ĠRejuven ator
Ġleech es
ĠSlumber ing
Ġunner ving
Ġjud gment
Ġrooft ops
Ġoutm atched
Ġexpans ion
Ġmonkey s
Ġresc ue
Ġbloodthirst y
Ġaccompl ice
Ġteem s
ĠGlac ial
ĠIllus ory
ĠIllumin ator
Ġcruc ial
Ġboast s
Ġpatroll ing
Ġobsess ion
Ġtransl ated
Ġsentinel s
ĠCurrent s
Ġencroach ing
Ġparaly zation
ĠBetray al
ĠReflect ion
Ġdomin ion
ĠClear cutter
Ġoutpost s
Ġmaneu ver
Ġsacr ilege
Ġappropri ate
En chanted
Gu ide
Mod riss
Nor in
Ot ak
Rak sha
Sach ir
hib ition
ocl ast
Ġtiss ue
aty ova
Ġcir cles
Ġopin ion
Ġbau ble
ĠCe aseless
ĠCen obite
ĠCros is
ĠCarm en
Ġsitu ation
Ġdod ge
acab ra
Ġfanc ies
Ġwast elands
str ong
Ġpy rom
Ġpru dent
Ġpaus ed
Ġparch ed
Ġpsych ic
Ġmedic ine
ĠSai ba
ĠSaff i
Ġhier arch
Ġhelm et
ĠArab ian
ĠTot em
ĠHak tos
ĠHaze zon
ĠIcon oclast
ĠDia bol
ĠDivers ion
Ġinfer ior
Ġinscri ption
Ġnin ety
ĠEu logist
Ġetern ally
Ġenthusi asm
ĠRacket eer
ĠLed ev
ĠLaugh ing
ĠMel ek
ĠMission ary
ĠPatch work
ĠPrin cess
ĠBert ram
Ġreve rence
Ġrele ased
ĠGather ing
ĠGears mith
Ġplag ued
Ġstamp ede
ĠKab ira
ĠVolt aic
ĠSpinn eret
ĠNurg le
Ġvest ig
Ġvert ical
ĠGost ok
ĠZe ppel
ĠElt urel
Ġseep ed
agu ar
Ġnob ility
ĠBey ond
ĠReass embling
ĠReckon er
ĠArv ad
ĠJar ad
ĠJew el
ĠJhov all
ĠEnsl aved
ĠAlan ia
ĠOrnith opter
ĠMycon id
Ġrestrict ed
Ġskaab s
Ġravage d
Ġmonolith s
ĠYam azaki
Ġimb ued
Ġaccomp anies
aflo or
Ġappend ages
Ġapprent iceship
Ġliter ally
Ġinteg rity
ĠArcan um
ĠUrch in
Ġempower s
Ġdelic acy
ĠWorks hop
Ġrelation ship
ĠImmer sturm
ĠTranscend ent
Ġpredecess or
ĠPyro cl
ĠAutom ated
Ġfootfall s
ĠSelk ie
ĠHalberd ier
ĠErd wal
Ġpropert y
Ġingred ients
Ġaspir ations
Orc ish
ĠLarcen ist
ĠEscap ed
ĠSocial ite
ĠVesuv an
Ġcamoufl age
ĠBuccane er
Aev ar
Anth ousa
Caly dd
Desmer a
Fre yalise
Footh ill
Ger da
Git axias
Grand mother
Gulist an
Il romov
Jon ald
Jur uk
Ka ervek
Lat ulla
Lain a
Mat oc
Mult ani
Pont ifex
Qh attib
Run o
Riel le
Sur rak
Sarg is
Samil a
Tek ik
Trad itional
Verv amon
Yol ov
Zomb ie
Zek i
bord ered
cull is
meth es
poc ket
tenth s
xim ity
Ġich or
Ġirrel evant
Ġoup he
Ġtic kets
Ġcab in
Ġalo of
Ġaver age
Ġbould ers
Ġbio engineer
ĠCas tle
ĠCary atid
ĠCaz ur
ĠCoun tless
Ġyester day
Ġswo op
Ġsibl ings
Ġfarth est
ĠWel kin
ĠWau ki
ĠWaken ing
Ġwri gg
Ġwron ged
elud ha
stri ker
strod on
Ġpho bias
Ġpinn acle
ĠSlog urk
ĠSacell um
ĠAtro city
ĠAct ually
ĠArix methes
ĠAys en
ĠAryn x
ĠTire l
ĠTect onic
ĠTort urer
ĠTabor ax
Ġconsc ious
Ġconvers ation
ĠHurk yl
ĠHefe i
ĠDurk wood
ĠDÃº nedain
ĠDukh ara
Ġincon ven
Ġbeck ons
ĠRall ier
ĠLack ey
ĠLaur ine
ĠLani us
ĠLagon na
ĠLiter ally
ĠPont iff
ĠPriv ate
ĠBass ara
ĠButl er
Ġreviv al
Ġstren g
Ġplayth ings
ĠKass andra
ĠKook us
ĠKald heim
ĠKlot hys
ĠOkin a
ĠVect is
ĠVint ara
ĠVrest in
ĠNah iri
ĠNiam bi
Ġshark s
Ġshrie ks
emog oth
Ġperman ently
ĠShink a
ĠShab raz
ĠShige ki
ĠAtzoc an
eregon d
ograp hy
Ġkras is
ĠZeth i
ĠZarg oth
ĠZurg o
ĠZndrsp lt
Ġwholen ess
Ġalliter ative
ĠUgl Ãºk
Ġnostalg ic
ĠScuzz back
ĠExting uisher
ĠStony brook
ĠArgu el
ĠChup acabra
ĠJasm ine
ĠJirin a
ĠJolen e
ĠJÃ¶ tun
ĠSluge ater
ĠThistled own
Ġunbel ievers
Ġunnot iced
ĠSkitt ish
Ġunlik ely
Ġscorp ions
Ġjhov alls
Ġgoather d
ĠDePie tro
Ġarrog ance
Ġoutwe igh
ĠAdÃ© walÃ©
ĠUnhall owed
ĠUnpredict able
ĠSnub horn
ĠSwashbuck ler
ĠYarg le
ĠSeism ic
ĠSqueak ing
Ġimpen etrable
Ġsuicid al
ĠProvision er
ĠProvocate ur
ĠCyclope an
ĠKoroz da
ĠPhilos op
ĠPhelddag rif
ĠGrÃŃ ma
ĠColerid ge
Toothl icker
ĠMaulf ist
ĠMindwr ack
ĠAmiq at
ĠUndÃ³ miel
Ġgeys ers
ĠEnterp rising
ĠMorkr ut
ĠReliqu ary
ĠCutpur se
ĠAsphod el
ĠÃĦages dotter
ĠCerule an
ĠErstwh ile
ĠBibliopl ex
ĠKhorv ath
ĠKhurz og
ardicadaistinac uldacar
moranom ardicadaistinaculdacar
ĠLambh olt
ĠGlorfind el
ĠOyaminar tok
- *
1 6
1 7
1 8
1 Â½
2 2
8 1
> )
A V
A g
A k
A y
A es
A st
A ut
A kin
A rab
A untie
A wyll
B ro
B ig
B all
B art
B lood
B ran
B elly
C N
C reature
C el
C lo
C os
C ore
C ap
C ho
C ult
C ob
C hi
C ym
C rimson
C lad
C arol
D a
D en
D an
D ru
D ind
D ec
D inosaur
D ream
D ane
D ov
D app
D ona
D rav
D eril
E C
E S
E d
E s
E z
E ar
E ight
E ff
E mp
F ar
F ang
F ood
F ah
F urnace
F raid
G r
G ot
G um
G ain
G ore
G ru
G av
G red
G ren
G eth
G ins
G arl
G isa
G rowth
G var
G eor
G imli
H e
H y
H er
H ot
H ay
H ound
H ob
H ouse
H anded
H adi
H eru
H aldir
H arak
I N
I T
I m
I v
I x
I ll
I zoni
I hsan
J or
J al
J ay
J av
J ae
J ori
J ula
J aby
J adar
J iki
J iang
J efan
K l
K r
K y
K ir
K ol
K ad
K ak
K essig
K anar
K ellan
K argan
K innan
K eeper
K eskit
L eg
L egend
L est
L ost
L ab
L ief
L lan
L uphe
M a
M i
M w
M an
M ess
M al
M il
M ad
M ire
M em
M ok
M ors
M elet
M ogg
M ishra
M ikaeus
M unda
M urat
M aeve
N e
N ame
N ed
N ad
N ab
N oy
N aim
O W
O g
O j
O m
O ff
O ran
O rim
O men
O ketra
O par
P L
P el
P ol
P alm
P aws
P ride
P aul
P ippin
P owered
Q u
R y
R an
R ing
R ul
R av
R ite
R ash
R ish
R of
R ana
R une
R oot
R iders
R ona
R attle
R azer
R ouser
R uric
R hirhok
S n
S ed
S le
S ir
S id
S av
S ker
S kin
S ee
S eer
S ana
S ty
S ye
S arl
S iege
S ister
S aint
S ynd
S iona
T i
T w
T re
T ri
T ru
T em
T ide
T ome
T az
T oc
T roll
T itan
T ala
T riv
T oggo
T asigur
U l
U ST
V i
V en
V es
V on
V al
V all
V ampire
V annifar
W ind
W atch
W itch
W isp
Y asova
Z ul
Z urd
Z ero
a en
a ft
a ire
a erie
a bling
a aka
b ell
b ig
b ul
b ull
b ears
b uc
b ony
b rew
b ino
b ased
b rie
b bon
b ench
b ellow
b Ã¡
c ure
c or
c age
c us
c raw
c isc
c our
c ase
c atch
c able
c oon
c rag
c olored
c rator
c ursed
c rested
c utters
c ribing
c ache
c iliation
c ipation
d es
d on
d ro
d ic
d as
d ain
d are
d ust
d ered
d ood
d ens
d ari
d ax
d eep
d ric
d oz
d wen
d weller
d wellers
e j
e z
e ce
e ment
e wal
e ered
e ens
e ah
e enth
e ased
e asy
e akeasy
f ur
f ed
f rom
f ore
f ree
f ive
f eed
f red
f ather
f ox
f na
f uc
f right
f let
f ares
f enor
g reat
g ur
g ic
g ol
g od
g us
g old
g iver
g raz
g ift
g ots
g aze
g ical
g azer
g love
g rowing
g iveness
h h
h n
h u
h el
h ro
h ur
h ield
h um
h ave
h aze
h ault
h irl
h ammers
h oles
h elion
h awks
h ammar
i j
i ate
i br
i ber
i ated
i oc
i bles
i geon
i work
i ada
i ji
j am
j ur
j un
j orn
j eet
j iri
k l
k an
k ill
k air
k und
k itter
k ward
l at
l ow
l ex
l oft
l el
l ian
l one
l ak
l orn
l aves
l oud
l iss
l iner
l ora
l ived
l urker
m ut
m and
m ad
m ath
m ond
m pt
m iss
m ogg
m iner
m asher
m utt
m aro
m elter
m inator
m anta
n or
n el
n ate
n ie
n out
n ok
n ak
n oth
n ger
n ock
n acious
n aph
n ipe
n bra
n emonic
o ast
o ct
o ken
o ire
o ist
o pper
o chs
p re
p ut
p as
p ain
p aw
p icker
p awn
p roud
p itched
p ipe
p iercer
r n
r ink
r ings
r ations
r ants
r ils
r itt
r Ã©
r atog
r dan
s ing
s om
s ies
s acrifice
s ire
s un
s ite
s aw
s even
s ense
s els
s ized
s orcerer
s kir
s dragon
s manship
t en
t ies
t ter
t own
t read
t hem
t aking
t iller
t oday
u in
u ing
u os
u ct
u ger
u ces
u els
u let
u los
v ol
v id
v ice
v ag
v ald
v ara
v ae
v ada
v iper
w a
w s
w w
w as
w ear
w ide
w ort
w ift
w yr
w ader
w rought
w ife
w isp
w oman
x y
x os
y ar
y le
y our
y red
y line
y body
y oti
z y
z im
z old
z ie
z one
z oth
z wood
z rag
z ka
Â °
Â ²
â Ī
Ġ ?
Ġ q
Ġ ken
Ġ edd
Ġ urch
Ġ âĪ
re es
re ft
re ef
re ase
re alm
re tooth
re pentant
Ġt ing
Ġt ast
Ġt et
Ġt amp
Ġt ig
Ġt ents
Ġt usk
Ġt ether
Ġt ires
Ġt inker
Ġt asks
Ġt anner
Ġt icking
Ġt undra
Ġt umult
er ot
er os
er ce
er ator
er ider
er unner
at an
at ra
at ri
at ist
at ok
at ah
at oze
at ongue
at omist
at zec
en e
en ess
en ish
en ia
en iable
en zie
ou ger
ou stab
Ġc ough
Ġc ed
Ġc lock
Ġc ler
Ġc art
Ġc ust
Ġc ott
Ġc ute
Ġc reak
Ġc hem
Ġc rag
Ġc rocodile
Ġc ephal
Ġc ateg
Ġc rimson
Ġc amar
Ġc ackled
Ġc ulp
Ġc aches
Ġa er
Ġa in
Ġa ur
Ġa ph
Ġa kin
Ġa ils
Ġa urochs
Ġa esthir
Ġa ethers
Ġa rose
Ġa blaze
Ġth ud
Ġth icker
Ġth und
Ġth aws
Ġth rew
Ġth rows
Ġth rum
Ġth rice
Ġth unders
Ġo h
Ġo vers
Ġo tter
in um
in ies
in ctiv
in ition
in sp
in als
in tless
in ished
in erate
in stall
ar f
ar im
ar se
ar ial
ar ox
ar ged
ar ov
ar rows
ar cophagus
es ar
es mith
es ka
es cent
es itation
es layer
an er
an or
an se
an ions
an cher
an ha
an athar
ft ers
am ge
am al
am ax
am ba
am let
am oti
end ence
end able
end lyn
it a
it ol
it ri
it ore
it ance
it ron
it ans
it ute
it ations
it te
it aller
it ted
it ering
it ical
it inous
tl an
tl eth
tl ines
tl iner
on ce
on ist
on ator
on ged
on ishing
Ġb er
Ġb ru
Ġb out
Ġb ath
Ġb ind
Ġb ash
Ġb ab
Ġb ull
Ġb att
Ġb arn
Ġb ony
Ġb ows
Ġb rag
Ġb rib
Ġb ank
Ġb unn
Ġb ribe
Ġb ards
Ġb ump
Ġb attering
Ġb itten
Ġb oggle
Ġb aying
Ġb oulder
Ġb ulls
Ġb uckle
Ġb itters
Ġb azaar
Ġb ashing
Ġb amboo
Ġb udoka
ĠC i
ĠC ack
ĠC et
ĠC ath
ĠC art
ĠC land
ĠC ass
ĠC aw
ĠC ities
ĠC ott
ĠC rim
ĠC oll
ĠC ud
ĠC anc
ĠC ald
ĠC alm
ĠC reak
ĠC hem
ĠC rop
ĠC reed
ĠC roc
ĠC rime
ĠC ertain
ĠC aler
ĠC eremon
ĠC ease
ĠC ÃŃ
ĠC radle
ot yr
ot ai
ot eer
ow u
ow on
ow der
gh ast
gh em
ex ed
ess er
ess ed
ess ie
Ġs el
Ġs ack
Ġs amp
Ġs yc
Ġs ated
Ġs ung
Ġs ins
Ġs ired
Ġs ib
Ġs izes
Ġs owing
Ġs outh
Ġs oup
Ġs ank
Ġs ister
Ġs olved
Ġs itting
Ġs ector
Ġs anity
Ġs cholars
Ġs ophistic
Ġs arcophagus
is is
is ly
is ely
is ms
is pens
Ġd ent
Ġd ed
Ġd rom
Ġd ine
Ġd ict
Ġd uck
Ġd ense
Ġd aze
Ġd aught
Ġd run
Ġd rought
Ġd authi
Ġd wind
Ġd iverse
Ġd ummy
Ġd iary
Ġd rank
Ġd arts
Ġd ressed
Ġd rones
Ġd utiful
Ġd iamond
Ġd oused
Ġd iplom
Ġd azzling
Ġd iplomat
ough rider
ac ons
ac ock
ac ama
ac oast
or l
or u
or ion
or ix
or apt
or bs
or ism
oft op
mc oil
Ġf end
Ġf ra
Ġf ut
Ġf ile
Ġf ath
Ġf ond
Ġf ab
Ġf ens
Ġf ung
Ġf its
Ġf ans
Ġf ins
Ġf usion
Ġf ract
Ġf reak
Ġf ib
Ġf idd
Ġf ades
Ġf ern
Ġf amed
Ġf ading
Ġf oster
Ġf rill
Ġf used
Ġf uss
Ġf owl
Ġf ounder
Ġf amine
Ġf amous
Ġf uels
ĠW il
ĠW ur
ĠW id
ĠW ond
ĠW yr
ĠW its
ĠW aver
ĠW ax
ĠW res
ĠW ina
ĠW agon
ĠW ilder
ĠW asp
ĠW yl
ĠW ishes
ĠW ailing
ĠW aning
ĠW ielder
ĠW retch
ĠW itty
ĠW arehouse
Ġw a
Ġw y
Ġw om
Ġw eld
Ġw id
Ġw ate
Ġw ig
Ġw ag
Ġw ip
Ġw ider
Ġw icker
Ġw aver
Ġw ager
Ġw ives
Ġw retch
Ġw ails
Ġw arehouse
el k
el le
el os
el id
el ong
el ise
el ting
el rod
el ords
ro i
ro ad
ro ke
ro ken
ro red
ro dden
ing le
ard ing
ard al
ard ed
ard ole
ge ar
ge an
ge ons
ge mon
ge oneer
Ġan nihil
Ġan tic
Ġan kle
Ġan aconda
st a
st on
st ad
st ant
st ice
st own
st ory
st reak
st alk
st ances
st oker
st itched
st hor
st omper
st riders
st ocked
st udent
st opper
st roke
Ġto me
Ġp ic
Ġp act
Ġp ant
Ġp ies
Ġp ave
Ġp ace
Ġp orc
Ġp ang
Ġp ix
Ġp itch
Ġp otion
Ġp ots
Ġp rime
Ġp ae
Ġp ages
Ġp aria
Ġp iety
Ġp rides
Ġp ouncing
Ġp sionic
Ġp ouring
Ġp antom
Ġp ounce
Ġp apers
Ġp ublic
Ġp ups
Ġp riority
Ġp aladins
Ġm at
Ġm and
Ġm um
Ġm eg
Ġm ong
Ġm ire
Ġm ew
Ġm aker
Ġm ating
Ġm use
Ġm ites
Ġm esa
Ġm others
Ġm eadow
Ġm urd
Ġm aul
Ġm ule
Ġm asks
Ġm eddling
Ġm imics
Ġm umblings
Ġm irage
Ġm aaka
Ġm ingle
al is
al ith
al act
al ice
al to
al ities
al ects
al nu
Ġ~ .<|
ĠS ch
ĠS ke
ĠS wo
ĠS ier
ĠS orc
ĠS ok
ĠS ang
ĠS unt
ĠS ort
ĠS yc
ĠS igh
ĠS ung
ĠS aut
ĠS au
ĠS ize
ĠS under
ĠS orce
ĠS olar
ĠS orrow
ĠS umm
ĠS ont
ĠS ainted
ĠS ickle
ĠS isters
ĠS aints
ĠS arah
ĠS EC
Ġl ent
Ġl os
Ġl ag
Ġl ust
Ġl ick
Ġl ark
Ġl ined
Ġl akes
Ġl oun
Ġl uc
Ġl ends
Ġl ayers
Ġl edge
Ġl ures
Ġl ament
Ġl ured
Ġl ingers
Ġl oping
Ġl ammasu
Ġl otta
Ġl attice
ent er
ent ers
ent ive
ent arim
il an
il ion
il ous
il ation
il ah
Ġh i
Ġh al
Ġh il
Ġh us
Ġh art
Ġh ob
Ġh inder
Ġh edge
Ġh umbl
Ġh awk
Ġh agg
Ġh ints
Ġh osp
Ġh atched
Ġh oles
Ġh ouses
Ġh awks
Ġh mm
Ġh abits
ur re
ur in
ur ge
ur ate
ur ik
ur geon
ur pers
ur rect
ur rk
ur itron
if orm
if ests
if erous
ay ans
hen ni
ed o
ed ary
ed ies
ed ral
ĠA e
ĠA ch
ĠA eg
ĠA ld
ĠA ird
ĠA rel
ĠA usp
ĠA flame
ĠA uthor
ĠA eve
ĠA isha
ĠA uxiliary
ĠA uger
ĠT ou
ĠT reat
ĠT ay
ĠT and
ĠT eg
ĠT ore
ĠT ong
ĠT aste
ĠT row
ĠT ade
ĠT ouch
ĠT orm
ĠT esh
ĠT yc
ĠT oll
ĠT apped
ĠT arg
ĠT ears
ĠT ired
ĠT ari
ĠT ey
ĠT ib
ĠT ek
ĠT org
ĠT ori
ĠT riad
ĠT iana
ĠT amer
ĠT rogen
ĠT ouched
ĠT rophy
ĠT zu
ĠT icking
ĠT ithes
ĠT angled
ĠT undra
ĠT asigur
ĠT AL
ĠT armogoyf
ĠT atyova
ĠT itans
Ġu l
Ġu gl
Ġ1 99
ers ea
Ġg as
Ġg ap
Ġg ul
Ġg un
Ġg our
Ġg oss
Ġg arb
Ġg ross
Ġg ait
Ġg ales
Ġg otten
Ġg ambl
Ġg lands
Ġg azed
Ġg omazoa
ef l
ef et
ef ies
ef ort
ra an
ra ker
ra ph
ra pt
ra gg
ra ved
ra per
ra ints
tro ps
ve y
ic it
ic her
ic us
ic est
ic ip
ic ide
ic ient
ic les
ic ating
ic ada
ic iest
ic ially
urn an
Ġcon e
Ġcon fin
Ġcon cent
Ġcon dition
Ġcon spiracy
ĠH eld
ĠH as
ĠH ack
ĠH ap
ĠH ight
ĠH em
ĠH aw
ĠH atch
ĠH ix
ĠH of
ĠH alt
ĠH ald
ĠH add
ĠH usk
ĠH anging
ĠH aldir
ĠH interland
ĠH esitation
ev ill
ev ict
ĠI N
ĠI mb
ĠI mit
ĠI cy
ĠI ym
ĠI roan
ĠI dent
ĠI zoni
ĠI hsan
ĠI edo
om ancers
ĠD and
ĠD ear
ĠD our
ĠD ive
ĠD ry
ĠD art
ĠD ish
ĠD ise
ĠD uch
ĠD oy
ĠD iff
ĠD ying
ĠD irt
ĠD run
ĠD enn
ĠD ina
ĠD wyn
ĠD rey
ĠD ormant
ĠD edicated
ĠD awning
ĠD ouser
ĠD azzling
ĠD urin
ĠD urnan
Ġin ad
Ġin her
Ġin jure
Ġin ward
Ġin cess
Ġin ns
Ġin ability
Ġin just
Ġin comple
eld ran
Ġn ect
Ġn oses
Ġn ears
Ġn ations
Ġn ets
Ġn aked
Ġn ursed
Ġn asty
Ġn oggle
Ġn uts
Ġn ightly
Ġn arrow
Ġn aive
ast os
ast ian
ast rous
ast master
ĠF ir
ĠF lo
ĠF ile
ĠF ig
ĠF ier
ĠF ink
ĠF ens
ĠF ull
ĠF ift
ĠF ired
ĠF right
ĠF avor
ĠF isher
ĠF ont
ĠF yl
ĠF ruits
ĠF iddle
ĠF urry
ĠF avored
ĠF amine
le en
le ge
le qu
le aper
le te
Ġbattlefield s
ut a
ut an
ut zil
ir ies
ir ie
ir riff
Ġbe ef
Ġbe ak
Ġbe arer
Ġbe gging
Ġbe ckoning
Ġbe gets
Ġbe reft
Ġbe acons
ith id
ith ian
ith izon
and e
and ing
and als
and lar
and escent
um es
um br
um pt
um mer
um aro
um stances
as i
as ers
as ai
as ants
as ury
as rin
Ġor b
Ġor ch
Ġor acle
Ġor acles
ĠE lo
ĠE ll
ĠE man
ĠE dd
ĠE vent
ĠE cc
ĠE rad
ĠE tern
ĠE kem
ĠE esha
ĠE asy
ĠE ivor
ĠE bony
ĠE kund
ĠE tlan
ol a
ol ing
ol ate
ol ition
ol igan
Ġe ve
Ġe man
Ġe aster
Ġe ons
Ġe els
Ġe go
Ġe pid
ly te
Ġent ity
Ġent rails
Ġent hrall
ĠR er
ĠR ure
ĠR end
ĠR al
ĠR iv
ĠR od
ĠR ite
ĠR ings
ĠR ison
ĠR au
ĠR ai
ĠR und
ĠR ope
ĠR ib
ĠR ender
ĠR otten
ĠR ani
ĠR umm
ĠR iding
ĠR ector
ĠR hys
ĠR eady
ĠR otted
ĠR arity
ĠR oughs
ĠR iku
ĠR annet
ĠR ukh
ĠR uric
ĠR umbler
ĠR oustab
ĠR ancher
ĠR oughrider
ĠR orix
ĠL ay
ĠL ith
ĠL age
ĠL ect
ĠL ier
ĠL ust
ĠL esh
ĠL atch
ĠL ater
ĠL ull
ĠL yr
ĠL oss
ĠL ane
ĠL ara
ĠL inger
ĠL ancers
ĠL ungs
ĠL othl
ĠL ila
ĠL upine
ĠL Ã³rien
ĠL ewis
ĠL iao
ount eous
ĠM c
ĠM ary
ĠM ack
ĠM os
ĠM un
ĠM urm
ĠM ull
ĠM ars
ĠM au
ĠM ans
ĠM ari
ĠM ann
ĠM eep
ĠM eless
ĠM ora
ĠM ortal
ĠM ux
ĠM oney
ĠM eadow
ĠM ostly
ĠM omir
ĠM imics
ĠM unda
ĠM nemonic
ĠM amba
ĠM owu
he ck
he ts
he els
he aval
he cies
ĠP in
ĠP an
ĠP el
ĠP ard
ĠP ile
ĠP yr
ĠP rog
ĠP its
ĠP itch
ĠP ike
ĠP uls
ĠP olly
ĠP olis
ĠP opl
ĠP avel
ĠP ierce
ĠP uma
ĠP orter
ĠP oult
ĠP iker
ĠP ublic
ĠP uca
ĠP eerless
ary ll
ĠB E
ĠB ef
ĠB ir
ĠB lock
ĠB ile
ĠB orc
ĠB ry
ĠB less
ĠB ase
ĠB ible
ĠB ron
ĠB igh
ĠB alm
ĠB reed
ĠB ha
ĠB omat
ĠB ank
ĠB attered
ĠB enth
ĠB ont
ĠB onder
ĠB itten
ĠB aba
ĠB aby
ĠB osh
ĠB ael
ĠB lossoms
ĠB eregond
ĠB lyte
ĠB ounteous
ri ft
ri end
ri pp
Ġre ar
Ġre ap
Ġre nder
Ġre ins
Ġre born
Ġre jo
Ġre igned
Ġre vised
Ġre ckoning
Ġre indeer
ach i
ach al
Ġcount ed
Ġcount ry
Ġas hen
Ġas king
Ġas cent
ĠG el
ĠG us
ĠG ish
ĠG ird
ĠG ab
ĠG ud
ĠG oss
ĠG iles
ĠG rib
ĠG iving
ĠG het
ĠG ets
ĠG rowth
ĠG ilder
ĠG lyph
ĠG unk
ĠG arna
ĠG iada
ĠG amge
rom e
rom orph
Ġfor ger
Ġfor aging
Ġfor ging
Ġfor giveness
ch el
ch ron
ch annel
ch ained
Ġunt h
Ġunt id
Ġunt rained
Ġend e
Ġend uring
Ġpl ow
Ġpl ated
Ġpl umb
Ġpl aza
Ġpl ato
Ġpl acid
ell s
ell en
ell os
ell ant
ell ogg
Ġsp ill
Ġsp un
Ġsp here
Ġsp ake
Ġsp ans
Ġsp ike
Ġsp ont
Ġsp elun
Ġsp riggan
Ġsp iraling
Ġsp eech
Ġsp ineless
Ġsp leen
ain ers
ain ment
Ġde w
Ġde ple
Ġde me
Ġde throne
lo d
lo per
lo ving
lo de
lo ping
ad ach
ad erie
ad oc
ad rab
pp et
her om
her der
her ana
age maro
ke mb
ke te
Ġst out
Ġst em
Ġst ead
Ġst ew
Ġst ake
Ġst able
Ġst ates
Ġst ony
Ġst ock
Ġst ret
Ġst ern
Ġst alwart
Ġst itched
Ġst ability
Ġst rides
Ġst adium
os i
os ure
os mir
os uri
ct i
ct us
ct ions
rt et
Ġcan al
Ġcan yon
Ġcan yons
ion age
ion able
eg ana
eg osaurus
act or
act ion
ant i
ant is
ant age
ant icore
ant astic
ant ikari
Ġplay thing
ck led
id ant
id ons
id io
ep ter
ep ec
Ġatt rib
Ġatt ained
Ġatt uned
Ġput rid
et he
et os
et ter
et hin
et ics
et ops
ore l
ap e
ap ine
ap sed
ken brand
ken fist
im o
im al
im il
im us
im one
im ator
im bo
im istic
im inating
im ulus
im agic
ĠK l
ĠK ir
ĠK est
ĠK un
ĠK oth
ĠK ird
ĠK oll
ĠK iss
ĠK its
ĠK air
ĠK ann
ĠK err
ĠK not
ĠK ira
ĠK ib
ĠK app
ĠK ids
ĠK horn
ĠK ills
ĠK ha
ĠK aps
ĠK uro
ĠK itt
ĠK urb
ĠK han
ĠK itten
ĠK eral
ĠK abo
ĠK annah
ĠK anto
ĠK rotiq
ĠK ayla
ĠK omon
ĠK rydle
ĠK ronch
ĠK aijin
ĠK rumar
ĠK utzil
ĠK ellogg
ĠK agemaro
Ġex h
Ġex am
Ġex ec
Ġex arch
Ġex otic
Ġex ecutioner
Ġex erc
ĠO i
ĠO re
ĠO il
ĠO ra
ĠO ce
ĠO ll
ĠO ph
ĠO sp
ĠO rim
ĠO be
ĠO af
ĠO ros
ĠO vers
ĠO oh
ĠO rth
ĠO bey
ĠO val
ĠO asis
Ġlif eless
Ġlif elong
Ġ5 00
Ġco ven
Ġco ats
Ġco pper
Ġco ils
Ġco ckroach
Ġco coon
Ġgra ft
Ġgra ins
Ġgra ze
Ġhand led
Ġhand iwork
ru ctiv
ru ci
ru gged
amp ered
Ġopp osing
Ġopp osition
Ġman ip
Ġman aged
Ġman ifests
ate ct
ate back
ĠV at
ĠV ar
ĠV on
ĠV ex
ĠV ent
ĠV est
ĠV ul
ĠV ery
ĠV igil
ĠV ines
ĠV inel
ĠV oros
ĠV ols
ĠV ern
ĠV ector
ĠV ela
ĠV endor
ĠV itality
ĠV ivis
ĠV alesk
ĠV annifar
ĠV eldran
ĠV ithian
ĠV andals
Ġup held
Ġup heaval
Ġlife blood
iv ity
iv ious
iv alist
iv ores
ight er
ight ing
ight enment
ld a
ho ard
ho ks
ho gs
br an
iz t
iz an
iz ec
ĠSp in
ĠSp ot
ĠSp or
ĠSp ies
ĠSp ite
ĠSp here
ĠSp art
ĠSp read
ĠSp ears
ĠSp ires
ĠSp iders
ĠSp elun
ĠSp awning
ĠSp oil
ĠSp arrow
ĠSp riggan
ĠSp eakeasy
ile Ã±
qu ad
qu ire
qu ist
qu isher
qu ences
od en
od us
od ane
od emon
Ġany time
ĠN in
ĠN an
ĠN og
ĠN our
ĠN ick
ĠN eth
ĠN ope
ĠN umb
ĠN inth
ĠN ested
ĠN evil
ĠN ael
ĠN atur
ĠN uka
ĠN urse
ĠN oggles
ĠN aughty
ĠN ardole
ĠN asrin
Ġv en
Ġv ie
Ġv ia
Ġv ase
Ġv oc
Ġv int
Ġv enge
Ġv iper
Ġv owed
Ġv arious
Ġv ortex
Ġv armint
Ġv ipers
to ck
to ker
to hy
to pl
to gether
us ri
us ions
Ġare na
ill as
ill iance
old er
ue za
gin s
ig ent
ig ning
ig old
ig ible
ig arch
est ead
est rated
ĠWar g
ĠWar p
ĠWar kite
ĠWar mind
ĠWar hound
ĠWar brute
ĠWar beard
ĠWar chanter
ĠWar horse
Ġdo ves
Ġdo oms
Ġdo cum
Ġdo cile
wo g
ace a
ace an
Ġsh ard
Ġsh elves
Ġsh ots
Ġsh owing
Ġsh eds
Ġsh irt
Ġsh ambl
Ġsh rine
Ġsh attering
Ġsh ackled
Ġsh immers
Ġsh rink
Ġsh rugged
ie m
Ġby stander
ire ction
out s
em ic
em ate
em bl
em pts
em ne
em bow
em bered
ĠIt iner
ĠYou ths
ul ates
ul ating
ul iar
Ġper ce
Ġper ish
Ġper former
Ġper mission
other ing
other ium
av a
av ac
av ant
av ory
av ors
av ios
av ileÃ±
ber t
bl im
bl est
bl aster
ĠSh il
ĠSh ed
ĠSh ad
ĠSh iz
ĠSh are
ĠSh ine
ĠSh ail
ĠSh ales
ĠSh rew
ĠSh arp
ĠSh ards
ĠSh agg
ĠSh elter
ĠSh andal
ĠSh ackle
ĠSh essra
ĠSh agrat
ĠSh efet
ĠSh irriff
ĠSh andlar
ĠAt om
ist ener
ist ful
ist air
ist ics
ist inguish
ist adors
all a
all in
all owed
Ġland ing
ath i
ath el
ath ic
ath ari
isc re
ian ul
ian na
ĠX ere
ĠX un
ĠX ira
ere y
un os
un ap
un ior
ker ing
Ġab use
Ġab omination
Ġab stract
Ġab horrent
Ġab road
og en
og ony
ĠGo ose
ĠGo ons
Ġk ite
Ġk iss
Ġk rus
Ġk han
Ġk itten
Ġk itesail
Ġk odama
Ġk rotiq
Ġk athari
our ner
th rough
th ara
th roats
ĠZ y
ĠZ er
ĠZ an
ĠZ ane
ĠZ ada
ĠZ oral
ĠZ oologist
ĠZ areth
ĠZ uo
ĠZ acama
ĠZ alto
ĠZ egana
ĠZ imone
Ġwh it
Ġwh iff
Ġbl ur
Ġbl own
Ġbl amed
Ġbl azed
Ġbl ini
Ġbl izzards
Ġen ig
Ġen su
Ġen comp
Ġen hance
Ġall erg
ĠAs ha
ĠAs yl
Ġtop side
Ġtop soil
Ġown ed
ĠIn qu
ĠIn fl
ĠIn got
ĠIn ga
ĠIn tli
ĠIn exorable
Ġcol ony
Ġcol umn
ind le
ind ered
ĠTh aw
ĠTh ron
ĠTh inking
ĠTh esp
ĠTh reader
ĠTh reef
ĠEl usive
ĠEl sdragon
ĠU ch
ĠU th
ĠU gly
ĠU user
ĠU dÃ»
Ġnon eth
Ġnon white
Ġnon blue
Ġnon sense
Ġret ire
Ġret rieve
Ġse w
Ġse al
Ġse vere
Ġse astrider
Ġse ethe
Ġtim eline
ite ment
ag en
ag ast
ag ion
ag ogue
Ġnot orious
Ġcolor ful
ĠDra go
ĠDra fna
ĠSpirit dancer
ĠEle ct
Ġwas hing
here r
Ġinst antly
Ġinst ructor
efend ed
Ġno vel
Ġno body
Ġno bler
Ġno xious
Ġno vice
ok i
ok u
ry x
ry ing
Ġthan e
Ġequal s
Ġsorc erous
ctiv ity
are nt
Ġam ber
Ġam pl
Ġam ple
Ġam using
Ġam azes
one yed
ĠSc our
ĠSc ute
ĠSc rab
ĠSc ience
ĠSc urry
ĠSc alding
ĠSc ript
ĠSc issors
ter fly
ĠAn a
ĠAn em
ĠAn ew
ĠAn ik
ĠAn nihil
ĠAn vil
ĠAn kle
ĠAn chor
ĠAn zrag
ĠAn atomist
ĠAn owon
ĠAn alects
Ġupkeep s
Ġcho icest
ĠBe es
ĠBe witch
ff ic
ff les
own ies
ip h
ip ly
ip ates
ip stream
Ġr am
Ġr ay
Ġr ans
Ġr ouse
Ġr ots
Ġr otten
Ġr accoon
Ġr umbled
Ġr angers
Ġr umbling
Ġr acket
Ġr oused
Ġr attling
Ġr otters
Ġr umblings
art zwood
Ġal ign
Ġal ien
Ġal ters
Ġal chemist
Ġal gae
Ġal tar
Ġal together
op ers
op ath
op hod
ak in
ak able
ĠEx tra
ĠEx cept
ĠEx ultant
ĠEx orcist
ĠEx hibition
ĠEx hum
Ġlo os
Ġlo ath
Ġlo osen
Ġlo athsome
ĠSt raw
ĠSt art
ĠSt ation
ĠSt ick
ĠSt iff
ĠSt itch
ĠSt atic
ĠSt arl
ĠSt enn
ĠSt ench
ĠSt olen
ĠSt airs
ĠSt ealer
ĠSt urdy
ĠSt ref
ĠSt atue
ust a
ĠRe y
ĠRe quis
ĠRe ki
Ġch ow
Ġch ef
Ġch ir
Ġch art
Ġch ari
Ġch itt
Ġch ained
Ġch ased
Ġch ests
Ġch ittering
Ġch ores
Ġch ump
Ġch aff
Ġch ases
Ġch illing
Ġch arts
Ġch amber
Ġch arted
ash u
ash es
ash arn
sh ed
sh ifter
sh ots
sh ank
sh kar
sh ackle
ĠAr ise
ĠAr rows
ĠAr ni
ĠAr bal
ĠDragon fire
ĠDragon heart
ĠDragon speaker
ink able
ink led
se a
se crator
ang les
ang ely
ang utan
ph age
ph ab
Ġrem ake
Ġrem inding
Ġle an
Ġle apt
Ġle yl
Ġle yline
ĠCh a
ĠCh est
ĠCh ub
ĠCh arl
ĠCh illing
ĠCh aotic
ĠCh amber
ĠCh anter
ĠCh arnel
ĠCh evill
ver ter
ver ob
ver izer
ĠJ er
ĠJ ou
ĠJ on
ĠJ al
ĠJ um
ĠJ ue
ĠJ em
ĠJ aw
ĠJ war
ĠJ oc
ĠJ ars
ĠJ ans
ĠJ ared
ĠJ ones
ĠJ eer
ĠJ errard
ĠJ olly
ĠJ iro
ĠJ aded
ĠJ adel
ĠJ agged
ĠJ areth
ĠJ wari
ĠJ iang
ĠJ addi
ĠJ aguar
ĠJ yoti
ĠJ essie
ition ers
Ġval ky
ish ly
Ġwill ow
Ġwill power
ew all
ew inder
oth es
oth ill
oth rall
land er
ĠBeast caller
ĠBeast breaker
aman oa
uff s
uff y
uff oon
Ġwe aver
Ġwe arer
ĠFl am
ĠFl aw
ĠFl icker
ĠFl ens
ĠFl avor
ĠFl ayed
ĠFl amer
ĠFl utters
ept s
ĠSl iv
ĠSl urrk
ĠSl izt
ĠSl ipstream
Ġexc ited
Ġexc itement
Ġhe ated
Ġhe ckled
ass es
ass id
ass uming
ass adors
Ġdefend ed
Ġway ward
ĠCon v
ĠCon trol
ĠCon und
ĠCon fl
ĠCon tam
ĠCon dem
ĠCon front
ĠCon ifer
Ġfl ap
Ġfl ail
Ġfl air
Ġfl ared
Ġfl ush
Ġfl ora
Ġfl ank
Ġfl inch
Ġfl amma
Ġfl imsy
Ġfl uttering
Ġcop ied
Ġblack ness
Ġblack ened
ick ers
Ġun aut
Ġun rel
Ġun gu
Ġun wise
Ġun ple
Ġun aff
Ġun kind
Ġun ease
Ġun armed
Ġun claimed
Ġun easy
ĠSk ate
ĠSk ill
ĠSk illed
ĠSk izz
ĠSk oa
ĠSk orpe
ĠSk ola
Ġhis ses
aw y
aw alli
aw akened
Ġunl ock
Ġunl ife
Ġunl ucky
ĠAdd er
Ġher b
Ġher ders
Ġher mits
Ġtyp ically
Ġsc an
Ġsc ru
Ġsc orn
Ġsc ient
Ġsc ute
Ġsc atter
Ġsc aring
Ġsc ribe
Ġsc off
Ġsc ythe
Ġsc reamed
Ġsc ouring
Ġsc ript
Ġsc epter
Ġwhite cover
Ġj ade
Ġj eal
Ġj uggernaut
Ġj okes
Ġj unior
Ġwor ries
Ġwor ms
ec law
ec utor
ec cable
ĠRet ribution
ĠRet ainers
Ġro le
Ġro ost
Ġro ars
Ġro ving
Ġro gu
Ġro aring
Ġro aming
Ġro amed
Ġro oted
Ġro bot
Ġro pes
Ġro ds
Ġpre jud
Ġpre late
Ġdown fall
Ġdown right
Ġdown wind
iver ance
Ġgreen seeker
ĠHor rid
ĠHor rific
ĠEn gul
ĠEn atu
ĠEn nor
ĠDe er
ĠDe ft
ĠDe al
ĠDe kat
ĠWe e
ĠWe avers
ĠAngel fire
ia h
Ġso b
Ġso le
Ġso ared
Ġso aring
Ġso othsayer
unt ers
Ġdeath less
ĠTre buc
ĠTre izec
Ġred cap
Ġred uc
Ġred eem
Ġred eemed
Ġred emption
ran ged
ran ioc
ond o
ond iss
ab el
ab ol
ab out
ab az
ab orator
ab bed
Ġar ise
Ġar gu
Ġar range
Ġar rest
touch ed
ott vold
ort ing
sp ike
Ġplan ar
Ġplan et
Ġplan ning
Ġplan ets
Ġplan ned
ĠCat ching
ĠCat ti
ĠCat alyst
ĠCat erp
ĠCat oble
ĠDraw bridge
ven ile
eed ed
ĠAl i
ĠAl one
ĠAl so
ĠAl icorn
ĠAl tered
ĠAl ela
ĠAl esha
ĠAl istair
Ġthere by
Ġwere wolf
ĠPl ate
ĠPl ax
ĠPl enty
ĠPl ume
red eemed
ĠOr b
ĠOr gan
ĠOr fe
ĠOr angutan
Ġag ile
Ġag itated
Ġplaneswal k
ĠNo yan
ĠMy ster
It s
Ġcomm erce
az al
az ol
az eth
az bÃ¡
orest alker
ura bles
Ġexp ense
Ġexp ects
Ġexp osed
Ġexp edient
Ġexp anse
esh ell
esh ark
esh ift
esh aker
ĠFirst born
ĠDeath c
ĠDeath cap
ĠDeath keeper
ĠDeath kn
ĠDeath mark
ĠDeath bellow
ĠAd el
ĠAd ric
ĠAd rian
ĠAd mire
ĠAd riana
ĠAd anto
ĠAd venturous
yc ling
yc aptain
Ġrest ing
Ġrest ored
Ġus urpers
Ġsk ycaptain
Ġpro ves
Ġpro ced
Ġpro claim
Ġpro jects
Ġpro ceed
Ġpro found
Ġpro ximity
Ġpro cure
Ġcl ad
Ġcl ues
Ġcl icks
ren ous
ren ched
Ġri g
Ġri pe
Ġri dge
Ġri pping
Ġri bb
Ġri gged
Ġri gs
Ġri gid
Ġri vals
Ġri bbon
Ġwar lock
Ġwar ms
Ġwar ships
Ġwar hammer
mp ath
ĠDem olisher
ĠFa ult
ĠFa bles
ĠIns ide
ron ing
Ġmill ions
ĠWh ites
ĠWh irler
Ġsec uring
ĠFor age
ĠFor ged
ĠFor ked
ĠArch dem
ĠArch priest
ĠArch elos
lem aster
ĠScout ing
ĠHer ring
apt ic
Ġru d
Ġru g
Ġru s
Ġru ler
Ġru stic
Ġru by
Ġsur rend
ĠOn yx
ĠOn ulet
ĠUn b
ĠUn h
ĠUn it
ĠUn ity
ĠUn sh
ĠUn be
ĠUn ifier
ĠUn blinking
ĠUn gol
ĠUn install
ĠUn chained
ĠUn ctus
ĠUn redeemed
Ġlast ed
Ġpo pped
Ġpo intless
Ġind ul
Ġind icate
Ġind rik
Ġind oor
Ġind omitable
Ġind ustry
Ġind ispens
Ġind istinguish
ĠSn idd
ĠSn arl
ĠSn atcher
ĠSn arecaster
Ġlike wise
ĠRo o
ĠRo ots
ĠRo cc
ĠRo oftop
ĠMon th
ĠMon ks
ĠMon arch
Ġsw ing
Ġsw orn
Ġsw ings
Ġsw ims
Ġsw itched
ĠDev kar
Ġra id
Ġra ins
Ġra ined
Ġra ided
ĠAll an
ĠAll ow
ĠAll enal
Ġtra der
Ġtra ders
Ġtra ded
Ġtra ding
Ġtra ffic
Ġmon th
cl ed
cl usion
cl aws
cl ank
ors mith
Ġform ula
ĠCl ass
ĠCl attering
ĠCl arion
ĠSw orn
ĠSw immer
ĠSw irling
ĠSer f
ĠSer rated
ĠY i
ĠY ur
ĠY om
ĠY ore
ĠY un
ĠY uk
ĠY idar
ĠY isan
ĠY eva
ĠY oked
ĠY OU
ĠY asova
ĠY eah
ĠY orion
ĠY elise
ĠY usri
ĠY asharn
Ġtri p
Ġtri vial
ĠBlood bo
ĠBlood shot
ĠBlood sworn
ĠBlood hall
ĠBlood tithe
ĠBlood sky
Ġcommand o
Ġcommand ed
ĠIs mer
ĠIs amar
ĠReg athan
ĠBl orb
ĠBl urry
ĠBl anch
ĠConstruct ed
ĠConstruct ion
Ġqu it
Ġqu ell
Ġqu icker
Ġqu ills
Ġqu artermaster
Ġqu eens
Ġqu alities
Ġgr ay
Ġgr ate
Ġgr ind
Ġgr inned
Ġgr isly
gg y
gg art
gg lers
ĠMin a
ĠMin ist
ĠMin thara
ved ancer
anc id
Ġpart isan
Ġpart ially
Ġres olute
Ġres ilient
oy ed
Ġsl am
Ġsl ed
Ġsl ash
Ġsl ang
Ġsl ide
Ġsl aves
Ġsl ides
Ġsl iding
Ġsl ashed
Ġsl ippery
ons ist
Ġel k
Ġel ect
Ġel ectro
Ġel aborate
ub a
ub s
ub stant
ĠPir u
pl itter
ign us
read ers
ĠRem ains
oc amp
oc ols
ict ions
ĠDo ves
Ġdra ined
Ġdra gged
Ġshe er
Ġover lo
Ġover night
Ġover ran
Ġover fl
Ġover lord
Ġover ride
Ġover run
Ġover world
ĠTo x
ĠTo kens
ug rin
ĠRat ter
so aked
ĠOgre ss
walk s
ring er
Ġdev ote
ĠEv olution
fin ity
ĠSe k
ĠSe al
ĠSe ah
ĠSe afloor
ĠSe jiri
ĠSe acoast
ung u
Ġblood witch
be am
be ing
ĠLif ec
ĠLif esp
Ġdead liest
ĠNight blade
ĠNight fire
ĠNight bringer
ĠNight hawk
aut s
Ġad orn
Ġad vers
Ġback side
Ġback bone
we et
we ap
we bs
ief lyn
ob ot
per ation
vis ions
Ġfe es
ĠSqu ir
ĠSqu atters
ĠPre t
ĠPre y
ĠPre acher
ĠPre late
ĠPre ston
Ġsm og
Ġsm iles
Ġsm elly
ĠAv ar
ĠAv oid
ĠAv iator
Ġcomp rom
ik al
ane ous
Ġsome body
Ġdes olation
Ġdes olate
ale k
ĠWolf ir
ĠShap ers
ĠGu err
ĠGu ilt
Ġtw ine
Ġtw itched
Ġim itation
Ġim itate
Ġbasic s
Ġpe asants
Ġgl en
Ġgl ade
Ġgl itter
Ġgl owed
Ġgl immer
Ġgl anced
rog oyf
Ġlight ing
ich iko
Ġac adem
Ġbel onged
ĠImp ers
ĠImp oss
ĠImp osing
ĠImp eri
ĠImp ulsive
ĠSky way
ĠSky sw
ĠSky fire
ĠSky warden
ĠSky fisher
ĠSky diver
ĠSky jek
ald kin
Ġtake over
Ġev angel
Ġev ades
Ġev ils
ĠDog meat
ĠBerser k
af lora
ans ing
rid or
itch es
Ġsu pper
Ġsu cc
Ġsu blim
ox ed
Ġnight fall
ĠDwarf hold
ĠSun born
ĠSun mane
ĠSun chaser
ĠSun spire
ĠSun seed
ĠSun bathing
ĠSun striker
ĠSun astian
ĠSoul b
ĠSoul fire
ĠSoul sworn
ĠSoul gorger
ĠSoul tender
ari us
pet ually
Ġoff icer
Ġoff spring
Ġoff icers
ĠSearch light
ĠMorph ling
ĠGl ow
ĠGl arb
ĠGl urg
ĠGl istener
ĠSpell blade
ĠSpell breaker
ĠSpell weaver
ĠSpell caster
ĠSpell wild
ĠSpell gorger
ĠSpell thief
ze el
arb a
arb ridge
Ġmonst ros
elet on
ĠPro of
ĠPro ctor
ĠPro bably
ĠPro vin
ĠPro spector
Ġdis pen
Ġdis order
Ġdis dain
Ġdis astrous
Ġdis embow
roll ub
ĠHy enas
ĠHy strodon
ĠHy lda
ĠCyc lone
Ġser um
Ġser mon
Ġser aph
dra ft
dra ke
Ġtr aced
Ġtr itons
ĠMar ax
ĠMar wyn
ĠMar alen
ĠMar hault
ĠMar igold
Ġkn it
Ġkn ightly
Ġkn uckle
att an
att ic
inn ea
Ġapp les
Ġapp eal
Ġapp ease
Ġapp lication
Ġapp arent
ĠLe ering
ĠLe ovold
ĠWard scale
ĠLand ing
ĠIll ustrious
ĠIll ithid
ĠDr ink
ĠDr iller
ĠDr alnu
ĠMut t
ĠMut ated
Ġstr ict
Ġstr ayed
Ġstr anded
Ġstr angers
Ġstr angely
rel ated
ĠMerc y
Ġtre k
Ġtre etops
Ġcar tographer
Ġcar apace
ax e
ax x
ax es
und i
und ant
ĠAtt ack
ĠAtt ention
ĠAtt entive
ĠSil vers
ĠSil kenfist
ĠSil undi
usp ex
Ġsix th
Ġsix teen
Ġfire ball
Ġfire cannon
ĠArm ada
ĠArm ament
vel t
ĠTra d
ĠTra v
ĠTra pe
ĠTra de
ĠTra ders
ĠTra gedy
ĠTra gic
ĠTra xos
ĠMan ic
ĠMan aw
ĠMan af
ĠMan agor
ract s
ĠCent er
ĠCent ipede
Ġmut tered
Ġmut ton
Ġmag us
Ġmag maw
Ġsoul shift
Ġlit ter
rab and
rab ber
res ent
res cent
amil iar
Ġint ense
Ġint rus
Ġint rig
Ġass um
Ġass et
Ġass ets
Ġass oci
Ġass ociates
ĠKor lash
Ġdark steel
Ġpass engers
Ġactiv ation
arm s
arm ored
Ġeffect ively
ĠCo ins
ĠCo astline
ĠCo vert
ĠGod tr
wor ker
wor th
ĠHell hole
ĠFire blade
ĠFire maw
ĠFire storm
ĠFire fiend
ĠFire slinger
ĠQu arum
ĠQu eller
ĠQu artermaster
ĠQu artzwood
Ġgrow ling
ĠLord s
ah ashi
ĠCom ing
ĠCom mon
ĠCom ple
ĠCom rade
pe ople
Ġsom ethin
ĠGh arial
ĠGh azbÃ¡
Ġsky ward
Ġsky ships
ĠTr acing
ĠTr itons
hem one
ĠShadow born
Ġdist ances
Ġdist rust
Ġdist orted
Ġdist inguished
ĠHar ness
ĠHar ald
ĠHar pers
ĠHar ried
ĠHar lequ
ĠHar uspex
ĠGriffin s
ones ome
Ġwatch ers
ĠAnd rios
ĠPlant s
Ġfew est
ĠDet ain
ĠDet erm
ĠDet ectives
up y
uck ing
ĠMir rans
ĠPh elia
ĠArc ades
ĠArc avios
Ġreg ain
ĠGr anger
ĠGr inning
Ġfri gid
ĠAb omin
ĠAb ilities
ĠAb olisher
uth s
ĠBattl er
ĠBattl et
ĠBattl emaster
Ġsnow y
Ġsnow dri
Ġfound ed
Ġfound ation
Ġfound ations
ĠDevil thorn
ĠCit izens
Ġste pping
Ġguard rails
ĠMag a
ĠMag es
ĠMag ical
ĠMag da
ĠMag gots
ogg y
Ġright fully
Ġbr utish
Ġbr ownies
ĠCol fenor
ĠCol lege
Ġhead ed
Ġhelp less
ĠPer cher
ĠPer for
ĠPer dition
ĠPer fectly
ĠPer ilous
ĠPer petually
ĠBr in
ĠBr allin
ĠBr indle
ĠGn ats
ĠGn ottvold
Ġsurv ives
Ġbu let
Ġbu ilder
Ġfore seen
ĠAven gers
ĠEmp ath
ĠEmp yre
Ġprey ed
ien ces
sc ulptor
itor a
itor ies
Ġsun k
Ġsun ken
Ġcont end
Ġcont ract
Ġcont enders
Ġcont rary
add ening
Ġsword play
Ġart isan
Ġsil ks
Ġsil enced
ĠAc orn
Ġrun ners
Ġ9 9
ĠSur ve
ĠSur ging
ĠSur tland
ĠSur gical
ĠUr b
ĠUr zan
ĠElder leaf
Ġclo aked
Ġmer ry
Ġwork bench
Ġyet is
Ġpr attle
Ġpr istine
Ġpr ismatic
Ġinvestig ation
Ġem br
Ġem ulating
Ġtem perate
Ġtem pting
orp hist
ee oh
Ġmount ing
Ġmount ed
Ġshould ers
uc ate
uc roc
Ġdream t
Ġdream stuff
rop y
rop ic
Ġnothing ness
zz ar
Ġext end
Ġext ort
Ġext ends
Ġext ended
Ġext inguished
resh ments
ĠDom esticated
ĠGarg antikari
Ġheart beats
Ġdef inition
Ġhard en
ĠAk u
ĠAk iri
ĠAk awalli
Ġcons ort
Ġcons ult
Ġcons oled
ĠRes erv
Ġshield mate
Ġwhich ever
As moranomardicadaistinaculdacar
Ġsince rest
ĠAur lock
ĠGreat horn
ĠGreat wurm
ĠGra in
ĠGra ss
ĠGra dy
ĠGra verob
ira ble
Ġwind ing
Ġwild life
ĠKeep ing
ĠKeep ers
ĠNec rol
Ġcur led
Ġcur io
Ġwell s
Ġeat ers
Ġsn ack
Ġsn atch
Ġsn ail
Ġsn eer
Ġsn aps
Ġsn orted
Ġsn orts
ĠWild born
ĠGre ens
ĠGre enseeker
Ġpur p
Ġpur ge
Ġpur ity
Ġpur se
Ġpur ses
Ġpur ifying
Ġpur sue
Ġconjure s
ĠRav aging
ech n
ĠMoon veil
ĠMoon lit
right eous
Ġren ounced
ĠKra j
ĠKra um
fl ayer
fl ux
Ġdec iding
Ġdec aying
ĠAg ate
ĠAg atha
ĠAg adeem
ĠLeg ions
Ġrep elled
Ġrep rieve
ib ah
nic an
nic al
Ġset tled
Ġflash ed
Ġfeel ings
Ġmin ion
Ġmin eral
Ġhor rid
ĠBand ar
ĠInf esting
org rass
ĠDu plicate
ĠDis owned
ĠDis integ
ĠDis miss
ĠLight bringer
ĠLight foot
ĠLight house
ĠLight shield
ĠUnder taker
ĠStorm wing
eath ers
Ġdisc ou
Ġdisc iple
ĠInd enture
ĠInd omin
ĠInd atha
ĠInd eb
ĠInd orapt
ĠAny a
ĠDisc iplined
ĠExp ect
ĠExp endable
aunt ing
ov able
reath ed
Ġsy mphony
Ġsy mpt
Ġsy mpath
Ġsaf est
Ġsaf eguard
Ġwait ed
ĠInt et
ĠInt ellect
ĠInt elligence
ĠTheir s
ĠNot e
ĠNot orious
app y
sw ord
Ġchild hood
cer ned
ĠSy gg
ĠSy mmet
Ġinc ident
Ġinc urable
Ġinc antation
Ġinc inerate
Ġinc urables
Ġinc onsist
Ġrec all
Ġrec ite
Ġrec ip
Ġrec ept
Ġrec ounting
Ġrec ycling
use i
Ġdraft ing
ĠGargoy les
Ġbo ars
Ġbo arded
ows ing
ows ages
Ġdel ve
Ġdel ights
Ġdel ivered
ĠFox es
Ġref reshments
Ġimp ressed
Ġimp eccable
Ġmod ification
Ġmem orable
ĠTy m
ĠMa urer
ĠMa aka
ĠMa ikal
ĠBal an
ĠBal or
ĠBal ance
ĠBal efire
ĠGor i
ĠGor o
ĠGor ing
ĠGor ion
Ġspend ing
ĠInc ursion
ĠCast igator
Ġne at
ĠGate way
ĠGold warden
ĠServ ants
ĠGuild sworn
ĠWind ing
ĠWind seeker
ĠWind reader
ĠWind scout
Ġpat riarch
Ġpat hetic
Ġhold ing
ras ios
Ġspecial ty
Ġtravel ogue
Ġquick est
ĠRen owned
ĠRen egades
Ġter rest
arp an
Ġsound ed
Ġunb ound
Ġunb idden
Ġunb urd
Ġunb roken
Ġsoon er
ĠRob o
ĠRob aran
Ġair ship
Ġwr ites
Ġinv olves
Ġinv itations
ĠPe acock
ĠPar cel
rupt ing
Ġchar red
Ġchar isma
Ġchar lat
hic le
iev ing
Ġob tain
Ġob nox
ĠWor king
ĠWor thy
Ġins isted
Ġins idious
ĠMind less
ĠMind ful
ĠMind bender
ĠHalfling s
ric ades
Ġben ign
Ġben evolent
Ġben evolence
ĠCor am
ĠCor on
ĠCor ps
ĠCor usc
Ġwater proof
ĠAm y
ĠAm mit
ĠAm azing
ĠAm phib
ĠGe ier
ĠGe ology
ĠGe ode
ĠGe ological
ĠGe omet
ĠKar ras
ĠKar rth
ĠKar umon
ĠKing fisher
ĠOur s
ĠDel ighted
ĠDel iverance
ĠDead bridge
Ġearth ly
Ġearth quake
Ġearth shaking
ĠMet atect
ĠBar u
ĠBar rity
ĠBar zeel
ĠGru nts
ĠGru nn
ĠZh ong
ĠZh ao
ĠZh uge
ĠZh entarim
Ġz ing
Ġinsp ector
Ġemer gence
rib ly
Ġrel ief
Ġrel ative
Ġrel ishes
Ġrel axing
Ġrel inqu
ket ch
ĠComm odore
Ar m
Ġtrans fer
Ġtrans late
ĠCar ry
Ġstud ies
Ġcoin c
Ġprec edes
Ġprec isely
Ġprec epts
ĠDeep fathom
Ġcou ple
Ġcou rier
Ġdu al
Ġdun es
Ġdun geons
Ġho vel
ĠAz usa
ĠAether mage
ĠIm skir
ĠIm aryll
ĠIm odane
ask ia
ĠOb ser
ĠOb struct
ĠOb uun
ĠOb yra
rows ing
Ġadv ice
Ġadv ise
Ġact ing
Ġdri vers
Ġdri fted
Ġfree ze
ĠWatch ers
Ġwhis k
Ġwhis tle
Ġwhis kers
Ġwhis kergill
ĠTime bender
ĠTrans l
ĠTrans figure
ĠDawn ray
Ġshroud s
Ġshroud ed
Ġcollect ions
aj j
Ġcr um
Ġcr itic
Ġcr umble
Ġcr isis
amm i
amm ing
ĠDusk rider
ĠRab bits
ĠRaven sthor
ĠLevel er
ĠBas al
ĠBas her
ĠBas rel
Ġresp ite
Ġask ari
An grath
Ġtoward s
Ġcor rect
Ġcor rosive
Ġbra ss
Ġbra ved
Ġmark ing
Ġmark ers
ĠSm og
ĠSm ok
ĠSm art
ĠSm iling
ĠSm oldering
ĠSm othering
Ġund eniable
Ġund efended
ĠFamil y
ĠMist folk
ĠMist fire
Ġvol unteer
Ġvol unteers
ĠFlame born
ĠFlame blade
ĠFlame tongue
Ġcloud ed
ĠMonst ers
ĠMonst rosaur
ĠBattle ment
ĠBattle ments
ĠBattle hammer
arl id
Ġbreath s
Ġmult iverse
Ġmult iplied
Ġmult iply
ĠSav ed
ĠSav vy
ĠSav annah
ĠSav aen
ific ance
ific ence
ĠTer rible
ĠTer mag
ĠTitan ic
head ed
Ġborn e
Ġsent ence
Ġsent ient
isk elion
ĠDread knight
asm ic
ĠPrim us
ĠPrim ord
ĠPrim oc
ĠPrim aris
ĠUnd eath
ĠUnd efe
ĠUnd ersea
Ġpred ation
ris ers
Ġaw ed
Ġaw ash
Ġaw kward
ĠCur ie
ĠCur iosity
ĠMo a
ĠMo at
ĠMo ag
ĠMo ors
ĠMo aning
ĠMo onglove
ĠInfect ed
ĠInfect ious
Ġge m
Ġge ography
Ġav alan
ĠCaval iers
ĠArt iller
ĠArt isans
ĠArt hur
ĠArt eeoh
ĠFore ver
ĠFore most
ĠFore sight
ĠFore runners
ĠFore nsic
ĠEnt ire
ĠEnt hrall
ĠEnt ropic
ĠRiver wheel
ĠOx en
ĠVol unteer
ĠThrull s
wing ed
Ġsqu id
Ġsqu all
Ġsqu ab
Ġsqu eak
Ġsqu ads
Ġfle es
Ġfle as
Ġfell a
Ġwis er
Ġmo at
Ġmo le
ĠHigh ly
ĠHigh spire
ĠPlot ter
Ġsupp le
Ġsupp osed
Ġsurviv alist
hold en
Ġmar o
Ġmar iner
ĠTw ig
ĠTw enty
ĠEmb ers
ĠSpy master
Ġshow ed
Ġcommon ers
rin i
ĠCel estine
ĠAp atzec
ĠTor alf
ĠTor rent
ĠTor ahn
ĠTor bran
ĠRa ul
ĠRa iser
ĠRa ugrin
ĠPy rom
ĠPy rew
ĠKam sa
ĠKam achal
ĠOutl and
Ġshap ing
ĠThunder ous
ĠCloud ed
ĠCloud heath
forc ed
the a
Ġdr ums
ĠWhere as
Ġones elf
ĠMult i
ĠMult iple
Ġreal izing
ĠUl a
ĠArg ent
figure d
erm ite
Ġbur dens
ĠCou gar
Ġpers u
Ġpers ists
Ġconn ects
leg om
ĠBush wh
ĠStone work
ĠStone brow
ĠComp anions
ĠCy lian
ĠCy topl
Ġfun k
ĠWill iam
ĠWood wraith
rov a
ĠSu it
Ġconst rict
ĠRu adach
ĠMal ach
ĠMal evolent
ĠMal ignus
ĠShield s
ĠChar ix
ĠChar mer
ĠChar ismatic
ĠDesert walk
ĠDomin arian
ĠDomin ating
ĠDomin arians
Ġmeaning less
ature s
ĠWhis ker
Ġmast s
Ġmast ery
Ġharm onious
rad esh
ĠFer ox
ĠFer ny
ĠVi gean
Ġenc ased
Ġenc umbr
ĠInv aders
Ġhero ism
ĠRoot ing
ĠTiefling s
Ch any
Ch amber
Ch anter
Ch arged
Ch ammi
Ġve hicle
Ġwood en
Ġwood ed
Ġpot ato
ĠSec uritron
ĠPower stones
ĠProt ocols
ĠBlack l
ĠBlack blade
ĠSilver wing
ĠSilver glade
Ġcut s
Ġcut ting
Ġcut throat
Ġcut throats
itt ars
Ġsleep y
Ġsleep er
Ġsleep less
Ġmist rust
ĠAst ronomer
ĠIron ically
ĠIron root
ĠIron hoof
ĠDef ense
umm oxed
ĠRev ue
ĠRev ivalist
ĠRad iance
ĠRad agast
ĠLo tleth
Ġstay s
ĠOt epec
Ġsurf aced
Ġteach er
Ġguild ed
Ġguild mage
Ġguild gate
Ġtact ically
ĠSand s
ĠSand stone
ĠSand stalker
ĠAmb ition
ĠHand s
ĠEye blight
ĠMor ning
ĠMor ale
ĠMor oii
Ġrequ est
ĠOff ender
ĠOff icial
ĠZendik ari
ĠScry b
Ġprov oked
ĠLeech ing
uv ia
rest raint
ĠTru dge
ĠTru efire
ĠHear tless
ĠEmer gent
ĠStr anger
ĠStr onger
Ġadapt ing
Ġadapt ive
Ġadapt ation
wh ip
Ġcross bow
Ġthreat ens
Ġsign al
Ġsign aled
Ġsign aling
Ġwelcom es
Ġhost s
ĠPra irie
ĠPack leader
ĠBog brew
ĠOm inous
run o
Ġvi ashino
uls ion
uls ions
Ġteam work
Ġfoot work
Ġfoot prints
ĠGeist catcher
Ġremember ing
Ġterr itories
Ġche eks
Ġche ws
Ġbad ge
Ġbad ger
Ġbird folk
ĠCry pto
Ġprom ises
ĠSel Ã»
ĠEnd ry
ĠEnd rek
ĠEnd urance
izz ling
izz erdrix
Ġcontin u
ĠSaddle brute
ĠCap ybara
ĠPur ple
ĠPur ifier
ĠPers u
ĠBel le
ĠBel be
ĠBel ief
ĠBra ggart
Ġdem ise
ĠKal amax
ĠKal emne
ĠThorn s
ĠThorn wind
ĠThorn mantle
Ġpres ents
ĠAdept us
Ġtrust ing
ĠGreen weaver
ĠGreen belt
ĠGreen warden
ĠFleet foot
Ġir rit
Ġthunder head
Ġsol o
Ġhop eless
ĠTal ara
ĠRaz ors
ĠMem bers
ĠBald uvia
Ġstar ved
Ġstar tling
Ġstar vation
ĠOl igarch
ĠColoss odon
Ġsuff used
ĠWere bear
Ġang le
Ġang riest
ĠSet on
Ġlar vae
ĠAnt iquity
ĠAnt imagic
ĠFiend ish
Ġemb odies
ĠRep ose
ĠPo e
ĠPo ol
ĠPo ets
ĠPo acher
ĠPo ppet
ĠSteel shaper
ĠSteel clad
Ġarch itects
Ġforetell s
Ġtransform ative
Ġou phes
Ġcertain ty
Ġbright er
ĠCal c
ĠCal ix
Ġfer ried
Ġfavor ites
Ġmis chievous
ĠTree beard
ĠFar id
ĠMe asure
ĠPath breaker
ĠPath maker
ĠPath cutter
ĠSpl atter
ĠSpl endor
ĠSpl ashy
ĠSpr ites
ĠRec ruits
ĠRec overy
Ġunf illed
Ġunf olded
Ġunf orgiving
Ġunf amiliar
Ġprep aring
Ġprodu ction
Ġswamp y
ĠNecron s
Ġtown ship
ĠWorm wood
Ġhom ewor
Ġinf using
Ġinf amy
ĠPr istine
ĠBy way
ĠBurn ished
ĠBatt ery
ĠGar field
Ġsharp ens
Ġabs olution
Ġabs orbs
Ġweak est
Ġprefer ably
Ġswift ness
Ġswift est
Ġfool hardy
Ġsteal ing
Ġavoid ing
Ġill umin
Ġill icit
Ġill usions
Ġpar as
Ġpar rying
Ġpure ly
Ġpet al
ĠHel vault
Ġemp ires
Ġeternal ize
ĠBell t
ĠBell ows
Ġlie ge
Ġdoor step
ĠAsh ur
ĠAsh coat
ĠScar red
ĠScar blade
ĠScar zam
Ġskin ning
Ġdescend ing
Ġcruel er
Ġcruel est
Ġadvance ment
Th rash
ney s
ney mage
Ġcult s
Ġcult ure
Ġcult ist
Ġcapt or
Ġcapt ains
Ġcapt ives
Ġaven ger
Ġaven ues
Ġbal oths
Ġsail s
Ġsail ing
Ġwield ed
Ġmess enger
Ġmess engers
utt ered
ĠBu ddy
ĠNon token
ĠAnim ar
ĠAnim ator
ĠPlague bearer
ĠPlague crafter
Ġextra planar
ĠBrood lord
ĠBrood mate
ĠBrood mother
ĠImm olation
Ġign ores
Ġcraft smanship
Ġocc asions
Ġocc upy
Ġban ks
Ġban ana
Ġbran ching
ĠCall a
Ġdest inies
Ġdest ructiv
Ġgen etic
Ġconf isc
Ġconf ine
Ġconf usion
Ġconf idence
Ġconf ident
ĠDri pping
ĠForm ation
ĠEnl ightenment
Ġrepl enish
ĠGrim oire
Ġfort ifications
Ġdet ect
ĠOld er
Ġvan ity
overe igns
Ġmountains ide
ĠCelebr ity
ĠCelebr ants
ĠHeart fire
ĠHeart stab
lic it
Ġsand storm
Ġsand wurms
ĠTher mal
ĠDrom edary
ĠLong bow
ĠLong tusk
ĠLong legs
ĠBet ween
ĠBet je
Ġreb irth
ĠShip s
ĠBlight wing
Ġgrand est
Ġdeser ter
Ġdeser ts
Ġclean up
Ġvisit ation
agh atar
bo ar
for ge
gl ow
aro o
aro cti
ote ur
Ġsho es
Ġsho ps
Ġdust y
Ġdust ed
Ġpri zes
Ġmass acre
Ġmatch es
Ġmatch ed
Ġlab orator
Ġlab oratory
ays a
ĠFang orn
ĠEt chings
ĠPit lord
acks aw
Ġspark ling
Ġdeterm ination
Ġvenom ous
Ġdog ma
ulf ur
ĠThought bound
Ġcommit ment
Ġgrant ing
Ġimm inent
Ġimm obil
Ġimagin ary
Ġimagin ations
ĠProp hecy
ĠProp hets
Ġwonder ing
Ġwonder ful
Ġcap ricious
Ġbound less
ĠCr oft
Ġfur ious
ĠWater deep
Ġwand erer
Ġwand erers
ĠSig rid
Ġhum s
Ġhum ility
ĠHo of
ĠHo oligan
ĠHaunt er
ĠHaunt ing
Ġnum eral
ĠFe iy
ĠFe asting
ĠRam ses
ĠRam unap
ĠRevel s
ĠBur row
ĠBur ied
ĠBur akos
ĠGen asi
Ġspl int
Ġspl attered
Ġspl itting
Ġspl ashes
ĠVan ished
ĠVan isher
ĠVan quisher
ĠExt ractor
ĠStalwart s
Ġunsp oken
ĠSkyc law
ĠSkyc laves
ĠSkull s
ĠSkull briar
Ġquiet er
Ġappear ing
Ġappear ances
ĠDuel ing
break ing
fort able
oint ment
Ġaether born
Ġbreed er
Ġmor al
Ġhur led
Ġhur tling
Ġhur das
ĠTro kin
ĠTro kair
ĠHollow s
ĠHipp ocamp
Ġinter rupted
Ġinter planar
ĠFan atical
ĠRot priest
Ġash ore
Ġstri ves
ĠKy ler
ĠKy lem
ĠKy oki
Ġheat hen
ĠAdv ance
Ġrad iant
Ġtrain ers
Ġquestion ing
ĠForetell ing
go at
ĠCho ices
Ġdou bled
Ġfigure s
Ġwander ings
ĠSar inth
ĠSar adoc
ĠTin kering
ĠTel im
ĠTel chor
ĠHorn b
ĠHorn s
ĠHorn crest
ĠIx idor
ĠDen ry
Ġinvent ive
ĠEid ren
ĠEgg s
ĠEarth quake
ĠPet al
ĠPet ra
Ġsto ic
Ġsto pping
ĠKen way
ĠKen ku
Ġvers ions
ĠAncest ors
ĠAncest ral
Ġacc uracy
ĠProdig al
ĠMirror mere
Ph age
Sc out
Sc ale
Sc ourge
Sh adow
Sh aper
sl ick
Ġtor toise
Ġtest ed
Ġbar rier
Ġbar ricade
Ġbar ricades
Ġbus tle
Ġbirth ed
Ġbirth day
Ġdwell s
Ġdwell ed
Ġfil ings
Ġfact ory
ĠWing steed
Ġmal ign
Ġmal evolence
aly zed
ĠSiege breaker
ĠTri arch
rax is
ĠHead master
ĠHead hunter
ĠHead liner
ĠHob bling
ĠHob net
ĠDist inguished
Ġinh osp
Ġreward s
Ġreward ing
Ġforget ful
Ġspect ral
Ġstom p
Ġstom ping
ĠAssem bled
Ġaccept s
Ġintens ify
Ġdiscover ing
ĠTransm utation
ĠJunk yard
Al chemist
bur r
Ġtask master
Ġaut onomous
ĠCru c
ĠCru ci
Ġdwar ven
Ġfang ren
Ġfront ier
Ġpun ishing
Ġpract ically
Ġpract iced
Ġmad der
ĠSor aya
ĠSor rows
ĠSub tle
ĠSleep less
Ġlack ed
Ġhell ions
ĠHound master
ĠHunger ing
ĠIce hide
ĠDep arted
Ġclaw ing
Ġclaw ed
Ġrain bows
Ġadm ission
Ġadm irable
Ġtech nic
Ġappreci ated
Ġappreci ates
Ġartist ic
ĠAcc ounting
ĠAcc ustomed
ĠPilgrim s
ige ons
Ġtend ency
Ġtend rils
Ġcat ac
Ġbell ies
ĠChe ap
ĠClo sed
Ġdim ensions
Ġfal ter
Ġfal tering
Ġfocus es
ĠSol oist
ĠSol aflora
Ġlaugh s
ĠTry gon
Ġgn ome
Ġgn ats
Ġgn arr
Ġgn ashed
Ġgard ener
ĠHaz el
ĠDale ks
Ġinfl ict
Ġinfl icted
ĠEr ne
ĠEr kenbrand
ĠBru se
ĠGal van
ĠGal axy
ĠGal loping
ĠNull mage
ĠNull stone
Ġseed lings
ĠSte elf
ĠSte ppe
Ġmyth ic
Ġuns he
Ġuns avory
Ġroot walla
Ġpret ense
ĠInter cessor
ĠInter planar
ĠInter lopers
ĠInter loper
Ġreflect s
ĠRazor fin
ĠRazor back
ĠEngine ers
ĠRiot ers
no ble
Ġramp art
reg ard
Ġaf ar
Ġaim ing
ĠCreep y
ĠCreep ing
Ġpost s
Ġmen agerie
Ġhon our
Ġhon ors
Ġconqu ered
Ġconqu istadors
ĠIg noble
ĠDec orated
ĠDec eption
ĠDec imator
ĠFin ality
ĠFin isher
ĠMogg lings
Ġread ily
Ġstra gglers
ĠKn oll
ĠKn ock
ĠKn uckle
ĠKn acksaw
ĠVir us
Ġshift y
ĠThousand th
ĠUp start
Ġamb ition
Ġmeet ing
Ġprop het
Ġprop hecies
ĠWhip tongue
ĠForge born
ĠForge master
ĠBlad ed
ĠBlad eg
Ġassault ed
Ġcrack ling
Ġdrink s
Ġelemental ist
Gh itu
Mir acles
bb ing
bb ec
gra ss
gra de
Ġing ress
Ġcamp ed
Ġcamp us
Ġbog le
Ġfair grounds
Ġwo e
Ġwo ol
ĠSure ly
Ġhot ter
Ġhair y
ĠPest ilence
ĠGore x
ĠGore horn
ĠGore claw
Ġspr ings
Ġspr ites
Ġspr outing
Ġspring jack
ĠKeen ing
ĠVill agers
Ġblind ed
ĠExc ruci
ĠChrom ium
ĠCont ractor
ĠCont agious
ĠCont ainment
Ġsoc ial
Ġexpect ing
Ġruin ous
Ġsurve illed
Ġsurve yed
Ġsurve yor
Ġsweet est
ĠTruth s
Ġjourney s
Ġjourney ed
ĠWayf aring
Ġpossess ing
Ġpossess ions
ĠProphet ic
ĠExtort ionist
Sk ull
Sk immer
Ur borg
blood s
ugg ing
Ã© oden
Ġtear ing
Ġthri ved
Ġthri ving
Ġble ached
Ġbarg ain
Ġdare s
Ġflood ing
ĠWr acked
ĠWest gate
Ġmot ive
Ġmot ives
ĠSho o
ĠSho al
ĠSeed pod
ĠTom ik
ĠHex mage
ĠHex gold
ĠDid n
ĠDig ger
ĠDig site
Ġnest ing
ĠFre estrider
ĠFree blade
ĠFree wind
ĠFree jam
ĠMother lode
ĠMort ipede
ĠBig gest
riv aled
ĠGy el
ĠGy ik
ĠGy rus
Ġstack ed
Ġlimit ations
ĠScor cher
ĠScor ching
ĠStor vald
ĠRoc ket
ĠSwift blade
ĠYaw ning
Ġdesert ed
serv ator
Ġconsum ption
ĠSupp lies
ĠSupp ressor
Ġsuccess fully
Bar is
Bar row
Ġkey s
ĠCreat or
ĠCle ansing
ĠCob bled
Ġdro ps
Ġdro ols
Ġwolf ir
Ġphys ics
ĠAeronaut s
ĠTomb shell
ĠTide caller
ĠTide binder
ĠTide hollow
ĠHur ry
ĠHur da
ĠIcat ia
Ġnomad s
Ġnomad ic
ĠEd itor
ĠEd gar
Ġet ch
Ġet hereal
ĠLor thos
ĠMarch es
ĠPsych opath
Ġrevel ed
Ġrevel ation
ĠGloom hunter
Ġspo iled
ĠKa ho
ĠOath keeper
Ġcool ness
Ġcool ed
ĠSpring jack
Ġrout ine
Ġloc ate
Ġloc als
ĠStri pped
ĠStri king
ĠStri ped
ĠStud y
Ġscaven ged
ĠClown s
ĠDoes n
Ġsmart s
Ġinterest ing
scri pt
Ġbrain less
ĠReplic ator
Ġstrugg led
Ġbusiness es
Gl Ã³in
fit ted
how ler
erv in
Ġcal ibr
Ġow es
inc arn
arant h
Ġbas in
Ġbas ket
Ġann ual
Ġprim al
Ġprim itive
Ġpatter ned
ĠSaw blade
ĠSummon ed
Ġlay ing
ĠAre k
ĠAir ship
ĠHold er
ĠDiv a
ĠDiv ine
ĠMak eshift
ĠBound ary
ĠBright flame
ĠBright spear
ĠBright hearth
ĠBreath stealer
ĠBrush strider
ĠGet ting
Ġspider webs
Ġdear ly
ĠVerd uran
ĠShore crasher
Ġthank ful
Ġchampion ed
ashion ed
ĠJam ie
Ġunw itting
Ġunw elcome
Ġunw avering
ĠRetri eval
Ġexpl ained
Ġclim ates
ĠSword tooth
Ġimpro ved
Ġimpro vised
Ġappet izer
ĠLeaf kin
Ġstrateg ies
Ġstrateg ist
ĠSynth esis
Ġrecruit er
Ġburst s
Ġkeen ly
Ġkeen est
ĠGrizz legom
Ad in
Ad aran
Ad riana
Az naph
clo aker
ias ma
rant ic
Ġid le
Ġce ased
Ġce aseless
Ġcit adel
Ġcel estial
Ġcraw l
Ġcraw ling
Ġcraw led
Ġaug urs
Ġbox es
Ġsort s
Ġport ent
Ġport ents
Ġport cullis
Ġmed ium
Ġmed itation
Ġlur king
ĠAx elrod
ĠAx urik
Ġgri p
Ġgri ev
Ġgru esome
ĠHenge hammer
ĠDun barrow
ĠDun geoneer
ĠFil th
Ġear ning
ĠReven ge
ĠMad ame
ĠMad ara
ĠMuse um
ĠMamm oths
ĠPol gar
ĠBan ner
ĠBan eslayer
ĠBrig adier
Ġrev ive
ĠGw endlyn
ĠGut sy
ĠGith zerai
ĠKaz arov
ĠKels ien
ĠOd um
ĠOd unos
ĠVis itors
Ġvow el
ĠShar key
Ġenlight ened
Ġcoll ateral
Ġcoll apsed
ĠUs ing
ĠUs her
Ġpress ure
ĠAlt hemone
ĠMyc osynth
ĠMyc otyr
ĠAdam aro
Ġslumber ing
ĠGlade walker
ĠGlade hart
Ġtrem bles
ĠMagn ificent
ĠMagn igoth
ĠHomar ids
ĠOutcast s
ĠSkirm ishers
ĠAmbush ers
ĠRidge wolf
ĠSteam core
ĠStormc aller
ĠStormc loud
ĠCustod es
Bru enna
ean or
fic ient
hor ized
Ġess ent
Ġess ences
Ġest ates
Ġcro ak
Ġcrim inals
Ġcoward s
Ġcoward ly
Ġcoward ice
Ġcirc uit
Ġcirc umstances
ĠCra ghorn
Ġsanct ity
Ġdiss olve
Ġdiss enters
Ġdirt walkers
elm ed
Ġtoll s
Ġpal aces
Ġpol es
Ġpol ice
Ġposition s
ĠSaur ian
ĠTet hered
ĠTet rav
ĠTet zim
ĠHammer heim
ĠDro pper
ĠDro oling
ĠDred ger
ĠFollow ing
ĠLy ons
ĠLy dari
ĠLy zold
ĠLum ra
ĠMass es
ĠBrim s
ĠGro odion
ĠGro vedancer
ĠGener als
ĠGener ations
Ġplains walk
osp awn
ĠKr ond
Ġgrasp ing
ĠSpore back
ĠSpear master
ĠNem ata
Ġshar per
Ġperform ed
ĠScut tl
Ġchant ing
ĠJo ining
Ġherald s
Ġscra pe
Ġjump ing
Ġjump ed
Ġpreser ved
Ġpreser vation
Ġripp les
ĠPrec ursor
Ġdisp os
Ġdisp atch
Ġdisp osing
Ġrecogn ition
ĠRedeem ed
ĠAfflict ion
Ġconstruct ion
ĠShipwreck er
Ġbrief ly
ĠImagin ative
Bra enna
Gor o
Zh osmir
bal anced
och thon
Ġtur tles
Ġbed time
ĠCa esar
ĠCross ing
ĠCross way
Ġsin ister
Ġsell ing
Ġfift y
Ġfrog s
Ġmant is
ĠSou thern
ĠSou lless
ĠSin ew
ĠSum mer
ĠSangu inary
Ġhook s
Ġhills ides
ĠAy ara
ĠAren son
ĠTan aka
ĠTan uki
ĠHard y
ĠHard ened
ĠHard bris
ĠHard hearted
ĠFathom less
Ġbee ble
Ġbee tle
Ġbee tles
ĠEs quire
ĠErr atic
ĠRest orer
ĠMaw cor
ĠPup il
ĠBow en
ĠBay ou
ĠBronze beak
Ġattract ing
Ġattract ed
ĠKrov od
ĠOk ay
ĠOp ulent
ĠVh ati
ĠNi hil
ĠAng us
Ġleap ed
ĠCharm ing
Ġheir s
ĠConver t
ĠConver ter
Ġgreed y
abo ons
Ġaggress ion
Ġrush es
Ġrush ing
Ġrush ed
ĠSneak y
ĠSneak ing
Ġrapt ure
ĠCliff side
Ġdevast ated
Ġtwist ing
ĠTravel er
Ġmagn ificent
Ġmagn ificence
Ġdistract s
Ġdistract ions
Ġinsult s
ĠTrue heart
ĠIgn ore
Ġambush es
Ġambush ing
Ġgargantu an
Ġcelebr ation
Ġcelebr ated
Ly dia
bug s
Ġident ities
Ġcath edral
Ġcaut ion
Ġthr ong
Ġobl ige
Ġobl ivion
Ġobl ivious
Ġbi ological
ĠCann ibal
ĠCrag s
ĠâĢĶ~ ,
Ġslo sh
Ġdar ling
Ġfest ers
Ġmuff led
ĠSz eras
ĠSz adek
ĠSyn od
ĠSyn chron
ĠToc atli
ĠTuk nir
Ġconce al
ĠHat red
ĠHat ificer
ĠHum il
ĠHum orless
ĠHive master
ĠDak ra
ĠFest ival
ĠRos ie
ĠRap id
ĠLon ghorn
ĠLot ho
ĠLamp ad
ĠLamp light
ĠLine breaker
ĠMis ery
ĠMul ch
ĠPant heon
ĠPale ont
Ġdeb ts
Ġstronghold s
ĠKath ril
ĠOpp osition
Ġcob ra
Ġcob bler
ĠVr ondiss
ĠVer azol
ĠInvestig ate
Ġamid st
Ġlock ing
Ġlock ed
Ġvalley s
ĠFlames peaker
Ġunh oly
Ġunh armed
Ġunh allowed
Ġunh indered
Ġunm ake
Ġunm oved
Ġunicorn s
Ġscar red
Ġscar cely
Ġcommun ity
Ġcommun icate
Ġpoor ly
Ġsweep ing
ĠDooms day
Ġdevel oping
Ġadop ted
Ġguarant eed
ĠGods ire
Ġskyknight s
ĠGris ly
ĠAbs olution
ĠBrown ie
ĠBramble guard
ĠGnarl root
Ġexperiment al
Ġhoof prints
Ġbrav ely
ĠMoons ilver
Ġsquad rons
Ġmarsh al
Ġmarsh aled
Ġunpredict ability
Ġveter ans
Ġmachin ist
ĠTimber land
goblin s
Ġtorment ing
Ġingen ious
Ġsurround ing
Ġrebuild ing
Ġsharpen ed
ĠScoundrel s
Con fuc
On atah
bird s
cut ive
rek avac
ĠCould n
ĠCapt ive
Ġstro ve
Ġstro ke
Ġsens ation
Ġsens eless
Ġfel ine
Ġfel idars
Ġfirm ly
ĠWings mith
Ġwreck ed
Ġwitness es
Ġwitness ed
Ġmour ning
Ġmour ns
Ġmood s
Ġmarch ed
Ġmogg s
ĠSad ist
ĠSail or
ĠSail ors
ĠSouth land
ĠAer om
ĠAer osaur
ĠAer athi
ĠHam ster
ĠDagger tooth
Ġnurt ure
ĠFac et
ĠEight h
Ġeag le
ĠRish ada
ĠLat ulla
ĠLuk ka
ĠLock s
ĠMol ting
ĠPri ze
ĠPter on
ĠPter odon
ĠPter amander
ĠPix ies
ĠPris matic
ĠBomb ard
ĠBomb adil
ĠBull ies
ĠGig apede
ĠGang renous
antic le
Ġliqu efies
Ġcook s
ĠVirt ue
ĠVirt uos
ĠNef arox
ĠScal eguard
ĠAnn ie
ĠSton eforge
ĠStens ian
Ġchannel ing
Ġchannel ed
Ġremn ant
Ġschem ing
Ġworsh ippers
Ġprev ious
Ġexpert ise
Ġswall ows
Ġeleg ance
Ġeleg antly
ĠPres ence
ĠPres ident
ĠPres idio
Ġdism ay
Ġdism issed
ĠDrill master
ĠTrap finder
ĠTrap jaw
ĠBris tle
ĠBris tling
ĠBris ela
ĠBrutal izer
Ġemotion al
ĠGrey fax
Ġpursu er
Ġreport s
ĠPilf ering
Ġsubst ances
Ġunderest im
Ġfellow ship
ĠLoam speaker
ĠOmen port
Ġcheck point
Ġtowns folk
ĠDrift ers
Ġdemonst ration
Ġeru pt
Ġeru ption
Ġclimb ing
Ġidi ot
Ġidi ocy
Ġconflict ing
Ġmechan ism
Ken i
Ken ji
Ken zo
Sam ut
Vol o
vil le
Ġcac ophon
Ġceremon y
Ġast onishing
Ġthaw ing
Ġom n
Ġbraw ls
Ġbraw lers
Ġbrid le
Ġsou lless
Ġsor rows
Ġfac et
ĠWreck er
Ġwreak ing
stab bing
Ġpil ots
Ġmig rate
Ġmig ration
Ġmig rated
Ġmock eries
Ġmaj or
Ġmaj estic
Ġmurk y
Ġmurk root
ĠSell er
ĠSid ewinder
ĠSalt field
Ġitem s
ĠAud itore
ĠTop an
ĠTop iary
ĠTech nomancer
ĠTusker i
efe ather
Ġconse cutive
ĠHord es
ĠHord echief
Ġnour ish
Ġnour ished
Ġnour ishes
ĠFron tliner
Ġep ic
Ġep itaph
ĠRul ik
ĠRash ka
ĠRash mi
ĠLag rell
ĠPall adia
ĠPop ular
ĠPash iri
ĠPort yr
ĠBold wyr
ĠBark hide
ĠBloom ing
Ġrend ered
ĠGat staf
ĠGat herer
ĠGad wick
ĠGall ant
Ġstruct ural
ĠOs g
ĠOs wald
ĠVult ure
ĠVult urous
ĠSpine woods
ĠSpik es
ĠSpik ed
ĠSpik eshot
Ġshudd ers
Ġkra ken
Ġkra kens
Ġwhir ring
Ġchim era
Ġcharm s
Ġremark ably
ĠJac ques
Ġweigh s
Ġgreet ing
Ġgreet ed
Ġroof s
ĠTrespass er
ĠTrespass ing
Ġprogen itor
Ġprogen itors
Ġpoc ket
Ġtriumph s
Ġbloodl ines
Ġbloodchief s
ĠGlass kite
ĠProsper ity
ĠGround breaker
ĠGround shaker
ĠSoj ourner
Ġember mage
Ġtemp ests
Ġdecor ation
Ġdecor ated
ĠZhur ong
Ġemergen cies
Ġrelentless ly
Ġharness es
ĠMalc ator
ĠCryst al
Ġfortun es
Ġannoy ing
Ġnavig ate
Ġnavig ational
ĠTunnel er
Be ast
Be arer
Be arers
Nik ou
Pro sperity
Tal on
Tal rand
Tal ibah
Ward en
del e
pres ent
then s
Ġoper ating
Ġball ist
Ġbrush wagg
Ġbrush striders
ĠCove tous
ĠCraft ed
ĠCivil ization
Ġsev ers
Ġsev enth
Ġtoss ed
Ġprot ocol
Ġpuls ating
Ġpuzz les
ĠSan well
ĠSard ia
Ġlog ic
ĠTaunt er
ĠTrost ad
Ġgal axy
ĠHot shot
ĠHav i
ĠHarm onic
ĠIb ex
ĠIv or
ĠIde al
ĠDir ty
ĠDir gur
ĠDyn asty
ĠDyn amo
ĠDyn astic
Ġorgan ized
Ġentertain ing
Ġentertain ed
ĠLa elia
ĠMeg al
ĠMock ery
ĠPure steel
ĠPend rell
ĠBol a
ĠBraw l
ĠBart el
Ġrecon ciliation
ĠGraz er
Ġspit eful
Ġstab bed
ĠKe imi
ĠOy ster
ĠObl ivion
ĠObl igation
Ġcove t
ĠVes per
ĠVast ra
ĠVad mir
ĠVant asaur
Ġvor rac
ĠZur an
ĠThr ong
ĠThr alls
Ġretreat ed
ĠBeaut iful
ĠChall enge
ĠJel enn
ĠJoh n
ĠSlither ing
Ġexcav ate
Ġexcav ation
ĠSkin shifter
ĠSkarr g
Ġscal elords
Ġscroll s
ĠCatac lysm
ĠAlex i
ĠAlex ios
ĠOrch id
Ġagree ment
Ġprodig y
Ġprodig ies
Ġprodig ious
ĠWhirl wind
Ġslaught ering
Ġadjust ed
Ġcompar isons
Ġacqu ired
Ġacqu iring
Ġsugg ests
ĠDeser ter
ĠQuest ing
ĠQuest ion
ĠBrand is
ĠGnaw ing
Ġtempt ed
ĠNecrom ancers
ĠAggress ive
ĠDuerg ars
ĠDisp el
ĠDisp atcher
ĠDisp osal
Ġincarn ation
Ġobsc urity
Ġobser ve
Ġbenef its
Ġrespond s
Ġrespond ed
Ġdrown s
Ġveget able
Ġaccord ance
ĠHobgoblin s
Ġfrequ ent
Ġimprove ment
ĠOpal ine
Ġenviron ments
Gre gel
burn ing
hard ened
oe ba
vi ya
Ġtin iest
Ġtin kerer
Ġtranqu il
Ġcrab s
Ġcreep y
Ġcreep ing
Ġbef itting
ĠCull blade
ĠCrook claw
ĠCrook shank
Ġyawn ed
Ġyearn s
Ġsad ly
Ġsink holes
Ġdish onored
Ġpan icked
Ġpan acea
Ġpig s
Ġpaper work
ĠSeg mented
ĠSab oteur
ĠSuccess ful
Ġhyp er
ĠTa bern
ĠTa igam
ĠTiv it
ĠTiv adar
ĠTrib al
ĠTrib une
Ġgurg ling
Ġgurg les
raf s
Ġcondem nation
ĠHelp ful
ĠId ol
ĠIsh i
ĠIsh kan
ĠIgu ana
ĠIgu anar
ĠDil oph
ĠDil igent
Ġinquis itive
ĠEber yn
ĠLure nbra
ĠLau nd
ĠMom entum
ĠMas ako
ĠMas umaro
ĠMid way
ĠMourn ful
ĠPorc elain
ĠPorc upine
ĠBot tle
ĠBri arbridge
ĠBureau crat
ĠBureau crats
Ġreass emble
ĠGorg ers
ĠGorg oroth
char ged
ĠKed iss
ĠKum o
ĠKas imir
ĠOri gin
ĠOch ran
ĠOdd ity
ĠVin eshaper
ĠVisc era
ĠVisc erid
ĠVert an
hist ories
ĠNaz ahn
Ġshout ed
Ġperiod ically
ĠZar ichi
comm end
comm and
ĠUmb ra
ĠScamp ering
ĠRejuven ation
Ġflaw less
Ġblacksmith s
Ġjud ged
Ġrooft op
ĠWeak ness
Ġoutn umber
Ġoutn umbered
Ġskul ks
ĠUnw avering
Ġteem ing
ĠHyd romorph
Ġtrumpet ing
Ġappl ied
Ġappl aud
ĠLeap ing
ĠIllus ions
Ġfearless ness
ĠManifest ation
ĠHellsp ur
ĠHellsp urs
ĠQuag mire
ĠTrou pe
Ġdistinct ion
Ġdragonlord s
ĠAcid ic
ĠAcquis itor
ĠAcquis itions
ĠAccompl ice
ĠAccompl ished
Ġesc ort
Ġesc hew
Ġextermin ate
Ġextermin ator
Ġsuspicious ly
ĠGravel gill
Ġcruc ible
Ġcrunch y
Ġsniff ing
ĠSyphon er
Ġpatroll ed
Ġobsess ively
Ġtransl ates
Ġdrift ing
Ġdeploy ed
Ġencroach es
ĠLoch mere
ĠInnoc ent
ĠInnoc uous
Ġparaly zing
Ġemploy ed
Ġpriv ate
Ġpriv ilege
Ġinterf ering
Ġinterf erence
ĠCosm ic
ĠCosm ogony
ĠFool ishly
ĠMechan ical
Ġuncertain ty
Ġpolit ics
Ġpolit ical
Ġhydra s
ĠGigant osaurus
Ġmaneu vers
Ġimperfect ion
Ġimperfect ions
Ġsacr ament
Ġthorough ly
Ġthorough fares
ĠFarbog s
Ġappropri ately
Cry pto
End ril
Gn awer
Kro og
Kro shkar
Py leas
Rad ha
Raf iq
bro ken
bro ker
breed er
car ved
crab s
skin ned
yu u
Ã¢ n
Ġtant rum
Ġtid y
Ġtort ure
Ġtort ured
Ġtren ches
Ġtatto os
enb ock
Ġcer atok
Ġcous in
Ġcous ins
Ġaber rant
Ġaward ed
[...]
