{
  "version": "1.0",
  "truncation": null,
  "padding": null,
  "added_tokens": [
    {
      "id": 0,
      "content": "<tl>",
      "single_word": false,
      "lstrip": false,
      "rstrip": false,
      "normalized": false,
      "special": true
    },
    {
      "id": 1,
      "content": "<name>",
      "single_word": false,
      "lstrip": false,
      "rstrip": false,
      "normalized": false,
      "special": true
    },
    {
      "id": 2,
      "content": "<mc>",
      "single_word": false,
      "lstrip": false,
      "rstrip": false,
      "normalized": false,
      "special": true
    },
    {
      "id": 3,
      "content": "<ot>",
      "single_word": false,
      "lstrip": false,
      "rstrip": false,
      "normalized": false,
      "special": true
    },
    {
      "id": 4,
      "content": "<power>",
      "single_word": false,
      "lstrip": false,
      "rstrip": false,
      "normalized": false,
      "special": true
    },
    {
      "id": 5,
      "content": "<toughness>",
      "single_word": false,
      "lstrip": false,
      "rstrip": false,
      "normalized": false,
      "special": true
    },
    {
      "id": 6,
      "content": "<ft>",
      "single_word": false,
      "lstrip": false,
      "rstrip": false,
      "normalized": false,
      "special": true
    },
    {
      "id": 7,
      "content": "<|endoftext|>",
      "single_word": false,
      "lstrip": false,
      "rstrip": false,
      "normalized": false,
      "special": true
    },
    {
      "id": 8,
      "content": "<pad>",
      "single_word": false,
      "lstrip": false,
      "rstrip": false,
      "normalized": false,
      "special": true
    },
    {
      "id": 9,
      "content": "<nl>",
      "single_word": false,
      "lstrip": false,
      "rstrip": false,
      "normalized": false,
      "special": true
    },
    {
      "id": 10,
      "content": "<1>",
      "single_word": false,
      "lstrip": false,
      "rstrip": false,
      "normalized": false,
      "special": true
    },
    {
      "id": 11,
      "content": "<U>",
      "single_word": false,
      "lstrip": false,
      "rstrip": false,
      "normalized": false,
      "special": true
    },
    {
      "id": 12,
      "content": "<B>",
      "single_word": false,
      "lstrip": false,
      "rstrip": false,
      "normalized": false,
      "special": true
    },
    {
      "id": 13,
      "content": "<T>",
      "single_word": false,
      "lstrip": false,
      "rstrip": false,
      "normalized": false,
      "special": true
    },
    {
      "id": 14,
      "content": "<G>",
      "single_word": false,
      "lstrip": false,
      "rstrip": false,
      "normalized": false,
      "special": true
    },
    {
      "id": 15,
      "content": "<2>",
      "single_word": false,
      "lstrip": false,
      "rstrip": false,
      "normalized": false,
      "special": true
    },
    {
      "id": 16,
      "content": "<7>",
      "single_word": false,
      "lstrip": false,
      "rstrip": false,
      "normalized": false,
      "special": true
    },
    {
      "id": 17,
      "content": "<C>",
      "single_word": false,
      "lstrip": false,
      "rstrip": false,
      "normalized": false,
      "special": true
    },
    {
      "id": 18,
      "content": "<5>",
      "single_word": false,
      "lstrip": false,
      "rstrip": false,
      "normalized": false,
      "special": true
    },
    {
      "id": 19,
      "content": "<W>",
      "single_word": false,
      "lstrip": false,
      "rstrip": false,
      "normalized": false,
      "special": true
    },
    {
      "id": 20,
      "content": "<3>",
      "single_word": false,
      "lstrip": false,
      "rstrip": false,
      "normalized": false,
      "special": true
    },
    {
      "id": 21,
      "content": "<B/P>",
      "single_word": false,
      "lstrip": false,
      "rstrip": false,
      "normalized": false,
      "special": true
    },
    {
      "id": 22,
      "content": "<R>",
      "single_word": false,
      "lstrip": false,
      "rstrip": false,
      "normalized": false,
      "special": true
    },
    {
      "id": 23,
      "content": "<W/U>",
      "single_word": false,
      "lstrip": false,
      "rstrip": false,
      "normalized": false,
      "special": true
    },
    {
      "id": 24,
      "content": "<U/B>",
      "single_word": false,
      "lstrip": false,
      "rstrip": false,
      "normalized": false,
      "special": true
    },
    {
      "id": 25,
      "content": "<W/B>",
      "single_word": false,
      "lstrip": false,
      "rstrip": false,
      "normalized": false,
      "special": true
    },
    {
      "id": 26,
      "content": "<6>",
      "single_word": false,
      "lstrip": false,
      "rstrip": false,
      "normalized": false,
      "special": true
    },
    {
      "id": 27,
      "content": "<4>",
      "single_word": false,
      "lstrip": false,
      "rstrip": false,
      "normalized": false,
      "special": true
    },
    {
      "id": 28,
      "content": "<R/W>",
      "single_word": false,
      "lstrip": false,
      "rstrip": false,
      "normalized": false,
      "special": true
    },
    {
      "id": 29,
      "content": "<U/R>",
      "single_word": false,
      "lstrip": false,
      "rstrip": false,
      "normalized": false,
      "special": true
    },
    {
      "id": 30,
      "content": "<Q>",
      "single_word": false,
      "lstrip": false,
      "rstrip": false,
      "normalized": false,
      "special": true
    },
    {
      "id": 31,
      "content": "<10>",
      "single_word": false,
      "lstrip": false,
      "rstrip": false,
      "normalized": false,
      "special": true
    },
    {
      "id": 32,
      "content": "<X>",
      "single_word": false,
      "lstrip": false,
      "rstrip": false,
      "normalized": false,
      "special": true
    },
    {
      "id": 33,
      "content": "<G/U>",
      "single_word": false,
      "lstrip": false,
      "rstrip": false,
      "normalized": false,
      "special": true
    },
    {
      "id": 34,
      "content": "<W/P>",
      "single_word": false,
      "lstrip": false,
      "rstrip": false,
      "normalized": false,
      "special": true
    },
    {
      "id": 35,
      "content": "<TK>",
      "single_word": false,
      "lstrip": false,
      "rstrip": false,
      "normalized": false,
      "special": true
    },
    {
      "id": 36,
      "content": "<B/G>",
      "single_word": false,
      "lstrip": false,
      "rstrip": false,
      "normalized": false,
      "special": true
    },
    {
      "id": 37,
      "content": "<S>",
      "single_word": false,
      "lstrip": false,
      "rstrip": false,
      "normalized": false,
      "special": true
    },
    {
      "id": 38,
      "content": "<G/W>",
      "single_word": false,
      "lstrip": false,
      "rstrip": false,
      "normalized": false,
      "special": true
    },
    {
      "id": 39,
      "content": "<E>",
      "single_word": false,
      "lstrip": false,
      "rstrip": false,
      "normalized": false,
      "special": true
    },
    {
      "id": 40,
      "content": "<8>",
      "single_word": false,
      "lstrip": false,
      "rstrip": false,
      "normalized": false,
      "special": true
    },
    {
      "id": 41,
      "content": "<R/G>",
      "single_word": false,
      "lstrip": false,
      "rstrip": false,
      "normalized": false,
      "special": true
    },
    {
      "id": 42,
      "content": "<0>",
      "single_word": false,
      "lstrip": false,
      "rstrip": false,
      "normalized": false,
      "special": true
    },
    {
      "id": 43,
      "content": "<B/R>",
      "single_word": false,
      "lstrip": false,
      "rstrip": false,
      "normalized": false,
      "special": true
    },
    {
      "id": 44,
      "content": "<14>",
      "single_word": false,
      "lstrip": false,
      "rstrip": false,
      "normalized": false,
      "special": true
    },
    {
      "id": 45,
      "content": "<9>",
      "single_word": false,
      "lstrip": false,
      "rstrip": false,
      "normalized": false,
      "special": true
    },
    {
      "id": 46,
      "content": "<11>",
      "single_word": false,
      "lstrip": false,
      "rstrip": false,
      "normalized": false,
      "special": true
    },
    {
      "id": 47,
      "content": "<HR>",
      "single_word": false,
      "lstrip": false,
      "rstrip": false,
      "normalized": false,
      "special": true
    },
    {
      "id": 48,
      "content": "<12>",
      "single_word": false,
      "lstrip": false,
      "rstrip": false,
      "normalized": false,
      "special": true
    },
    {
      "id": 49,
      "content": "<U/P>",
      "single_word": false,
      "lstrip": false,
      "rstrip": false,
      "normalized": false,
      "special": true
    },
    {
      "id": 50,
      "content": "<13>",
      "single_word": false,
      "lstrip": false,
      "rstrip": false,
      "normalized": false,
      "special": true
    },
    {
      "id": 51,
      "content": "<G/P>",
      "single_word": false,
      "lstrip": false,
      "rstrip": false,
      "normalized": false,
      "special": true
    },
    {
      "id": 52,
      "content": "<16>",
      "single_word": false,
      "lstrip": false,
      "rstrip": false,
      "normalized": false,
      "special": true
    },
    {
      "id": 53,
      "content": "<2/W>",
      "single_word": false,
      "lstrip": false,
      "rstrip": false,
      "normalized": false,
      "special": true
    },
    {
      "id": 54,
      "content": "<2/U>",
      "single_word": false,
      "lstrip": false,
      "rstrip": false,
      "normalized": false,
      "special": true
    },
    {
      "id": 55,
      "content": "<2/B>",
      "single_word": false,
      "lstrip": false,
      "rstrip": false,
      "normalized": false,
      "special": true
    },
    {
      "id": 56,
      "content": "<2/R>",
      "single_word": false,
      "lstrip": false,
      "rstrip": false,
      "normalized": false,
      "special": true
    },
    {
      "id": 57,
      "content": "<2/G>",
      "single_word": false,
      "lstrip": false,
      "rstrip": false,
      "normalized": false,
      "special": true
    },
    {
      "id": 58,
      "content": "<R/P>",
      "single_word": false,
      "lstrip": false,
      "rstrip": false,
      "normalized": false,
      "special": true
    },
    {
      "id": 59,
      "content": "<15>",
      "single_word": false,
      "lstrip": false,
      "rstrip": false,
      "normalized": false,
      "special": true
    },
    {
      "id": 60,
      "content": "<C/W>",
      "single_word": false,
      "lstrip": false,
      "rstrip": false,
      "normalized": false,
      "special": true
    },
    {
      "id": 61,
      "content": "<C/U>",
      "single_word": false,
      "lstrip": false,
      "rstrip": false,
      "normalized": false,
      "special": true
    },
    {
      "id": 62,
      "content": "<C/B>",
      "single_word": false,
      "lstrip": false,
      "rstrip": false,
      "normalized": false,
      "special": true
    },
    {
      "id": 63,
      "content": "<C/R>",
      "single_word": false,
      "lstrip": false,
      "rstrip": false,
      "normalized": false,
      "special": true
    },
    {
      "id": 64,
      "content": "<C/G>",
      "single_word": false,
      "lstrip": false,
      "rstrip": false,
      "normalized": false,
      "special": true
    },
    {
      "id": 65,
      "content": "<HW>",
      "single_word": false,
      "lstrip": false,
      "rstrip": false,
      "normalized": false,
      "special": true
    },
    {
      "id": 66,
      "content": "<½>",
      "single_word": false,
      "lstrip": false,
      "rstrip": false,
      "normalized": false,
      "special": true
    },
    {
      "id": 67,
      "content": "<20>",
      "single_word": false,
      "lstrip": false,
      "rstrip": false,
      "normalized": false,
      "special": true
    },
    {
      "id": 68,
      "content": "<Z>",
      "single_word": false,
      "lstrip": false,
      "rstrip": false,
      "normalized": false,
      "special": true
    },
    {
      "id": 69,
      "content": "<A>",
      "single_word": false,
      "lstrip": false,
      "rstrip": false,
      "normalized": false,
      "special": true
    }
  ],
  "normalizer": null,
  "pre_tokenizer": {
    "type": "ByteLevel",
    "add_prefix_space": false,
    "trim_offsets": true,
    "use_regex": true
  },
  "post_processor": null,
  "decoder": {
    "type": "ByteLevel",
    "add_prefix_space": true,
    "trim_offsets": true,
    "use_regex": true
  },
  "model": {
    "type": "BPE",
    "dropout": null,
    "unk_token": null,
    "continuing_subword_prefix": null,
    "end_of_word_suffix": null,
    "fuse_unk": false,
    "byte_fallback": false,
    "vocab": {
      "<tl>": 0,
      "<name>": 1,
      "<mc>": 2,
      "<ot>": 3,
      "<power>": 4,
      "<toughness>": 5,
      "<ft>": 6,
      "<|endoftext|>": 7,
      "<pad>": 8,
      "<nl>": 9,
      "<1>": 10,
      "<U>": 11,
      "<B>": 12,
      "<T>": 13,
      "<G>": 14,
      "<2>": 15,
      "<7>": 16,
      "<C>": 17,
      "<5>": 18,
      "<W>": 19,
      "<3>": 20,
      "<B/P>": 21,
      "<R>": 22,
      "<W/U>": 23,
      "<U/B>": 24,
      "<W/B>": 25,
      "<6>": 26,
      "<4>": 27,
      "<R/W>": 28,
      "<U/R>": 29,
      "<Q>": 30,
      "<10>": 31,
      "<X>": 32,
      "<G/U>": 33,
      "<W/P>": 34,
      "<TK>": 35,
      "<B/G>": 36,
      "<S>": 37,
      "<G/W>": 38,
      "<E>": 39,
      "<8>": 40,
      "<R/G>": 41,
      "<0>": 42,
      "<B/R>": 43,
      "<14>": 44,
      "<9>": 45,
      "<11>": 46,
      "<HR>": 47,
      "<12>": 48,
      "<U/P>": 49,
      "<13>": 50,
      "<G/P>": 51,
      "<16>": 52,
      "<2/W>": 53,
      "<2/U>": 54,
      "<2/B>": 55,
      "<2/R>": 56,
      "<2/G>": 57,
      "<R/P>": 58,
      "<15>": 59,
      "<C/W>": 60,
      "<C/U>": 61,
      "<C/B>": 62,
      "<C/R>": 63,
      "<C/G>": 64,
      "<HW>": 65,
      "<½>": 66,
      "<20>": 67,
      "<Z>": 68,
      "<A>": 69,
      "!": 70,
      "#": 71,
      "$": 72,
      "%": 73,
      "&": 74,
      "'": 75,
      "(": 76,
      ")": 77,
      "*": 78,
      "+": 79,
      ",": 80,
      "-": 81,
      ".": 82,
      "/": 83,
      "0": 84,
      "1": 85,
      "2": 86,
      "3": 87,
      "4": 88,
      "5": 89,
      "6": 90,
      "7": 91,
      "8": 92,
      "9": 93,
      ":": 94,
      ";": 95,
      "<": 96,
      "=": 97,
      ">": 98,
      "?": 99,
      "@": 100,
      "A": 101,
      "B": 102,
      "C": 103,
      "D": 104,
      "E": 105,
      "F": 106,
      "G": 107,
      "H": 108,
      "I": 109,
      "J": 110,
      "K": 111,
      "L": 112,
      "M": 113,
      "N": 114,
      "O": 115,
      "P": 116,
      "Q": 117,
      "R": 118,
      "S": 119,
      "T": 120,
      "U": 121,
      "V": 122,
      "W": 123,
      "X": 124,
      "Y": 125,
      "Z": 126,
      "[": 127,
      "\\": 128,
      "]": 129,
      "^": 130,
      "_": 131,
      "a": 132,
      "b": 133,
      "c": 134,
      "d": 135,
      "e": 136,
      "f": 137,
      "g": 138,
      "h": 139,
      "i": 140,
      "j": 141,
      "k": 142,
      "l": 143,
      "m": 144,
      "n": 145,
      "o": 146,
      "p": 147,
      "q": 148,
      "r": 149,
      "s": 150,
      "t": 151,
      "u": 152,
      "v": 153,
      "w": 154,
      "x": 155,
      "y": 156,
      "z": 157,
      "|": 158,
      "~": 159,
      "¡": 160,
      "¢": 161,
      "¦": 162,
      "©": 163,
      "®": 164,
      "¯": 165,
      "°": 166,
      "±": 167,
      "²": 168,
      "³": 169,
      "¶": 170,
      "º": 171,
      "»": 172,
      "¼": 173,
      "½": 174,
      "Â": 175,
      "Ã": 176,
      "Å": 177,
      "â": 178,
      "ê": 179,
      "Ċ": 180,
      "č": 181,
      "Ġ": 182,
      "Ģ": 183,
      "Ħ": 184,
      "Ĩ": 185,
      "Ī": 186,
      "ī": 187,
      "Ĵ": 188,
      "ĵ": 189,
      "Ķ": 190,
      "ŀ": 191,
      "ł": 192,
      "Ń": 193,
      "Ġ<": 194,
      "re": 195,
      "Ġt": 196,
      "er": 197,
      "at": 198,
      "en": 199,
      "ou": 200,
      "Ġc": 201,
      "Ġa": 202,
      "Ġth": 203,
      "Ġo": 204,
      "in": 205,
      "ar": 206,
      "reat": 207,
      "es": 208,
      "ure": 209,
      "reature": 210,
      "an": 211,
      "ft": 212,
      "Ġthe": 213,
      "am": 214,
      "end": 215,
      "it": 216,
      "tl": 217,
      "on": 218,
      "Ġb": 219,
      "ĠC": 220,
      "ot": 221,
      "Ġy": 222,
      "Ġyou": 223,
      "ow": 224,
      "âĢ": 225,
      "gh": 226,
      "âĢĶ": 227,
      "ex": 228,
      "ĠâĢĶ": 229,
      "ess": 230,
      "Ġs": 231,
      "is": 232,
      "ower": 233,
      "Ġd": 234,
      "ough": 235,
      "nl": 236,
      "power": 237,
      "ame": 238,
      "ext": 239,
      "ness": 240,
      "ac": 241,
      "oughness": 242,
      "name": 243,
      "ĠCreature": 244,
      "Ġof": 245,
      "or": 246,
      "oft": 247,
      "mc": 248,
      "<|": 249,
      "|>": 250,
      "čĊ": 251,
      "endoft": 252,
      "endoftext": 253,
      "toughness": 254,
      "Ġf": 255,
      "ĠW": 256,
      "Ġw": 257,
      "el": 258,
      "ro": 259,
      "ing": 260,
      "ard": 261,
      "ge": 262,
      "Ġan": 263,
      "st": 264,
      "Ġto": 265,
      "Ġcreature": 266,
      "Ġp": 267,
      "Ġm": 268,
      "al": 269,
      "Ġ~": 270,
      "ĠS": 271,
      "Ġl": 272,
      "ent": 273,
      "il": 274,
      "Ġit": 275,
      "Ġh": 276,
      "ur": 277,
      "if": 278,
      "nt": 279,
      "ay": 280,
      "hen": 281,
      "Ġ2": 282,
      "ed": 283,
      "ĠA": 284,
      "ĠT": 285,
      "ĠWhen": 286,
      "Ġu": 287,
      "get": 288,
      "Ġ1": 289,
      "ers": 290,
      "Ġg": 291,
      "ef": 292,
      "Ġcard": 293,
      "Ġyour": 294,
      "ra": 295,
      "tro": 296,
      "Ġ3": 297,
      "ve": 298,
      "ic": 299,
      "urn": 300,
      "Ġcon": 301,
      "ĠH": 302,
      ".<|": 303,
      "Ġon": 304,
      "ev": 305,
      "ĠI": 306,
      "Ġand": 307,
      "om": 308,
      "ĠD": 309,
      "trol": 310,
      "Ġcontrol": 311,
      "Ġin": 312,
      "eld": 313,
      "Ġn": 314,
      "attl": 315,
      "ield": 316,
      "ast": 317,
      "Ġbattl": 318,
      "ĠF": 319,
      "le": 320,
      "efield": 321,
      "Ġbattlefield": 322,
      "ut": 323,
      "ir": 324,
      "Ġbe": 325,
      "ith": 326,
      "and": 327,
      "um": 328,
      "as": 329,
      "ever": 330,
      "arget": 331,
      "Ġturn": 332,
      "Ġthis": 333,
      "Ġor": 334,
      "ĠE": 335,
      "ol": 336,
      "Ġ(": 337,
      "Ġwith": 338,
      ".)": 339,
      "Ġe": 340,
      "'s": 341,
      "ly": 342,
      "Ġ+": 343,
      "Ġent": 344,
      "ĠR": 345,
      "ĠL": 346,
      "/+": 347,
      "Ġtarget": 348,
      "ount": 349,
      "ĠM": 350,
      "he": 351,
      "Ġ4": 352,
      "ĠP": 353,
      "ary": 354,
      "ĠB": 355,
      "ri": 356,
      "Ġenters": 357,
      "Ġre": 358,
      "Ġthat": 359,
      "ach": 360,
      "ĠWhenever": 361,
      "Ġat": 362,
      "Ġcount": 363,
      "Ġas": 364,
      "ĠG": 365,
      "ack": 366,
      "rom": 367,
      "Ġfor": 368,
      "ch": 369,
      "Ġunt": 370,
      "Ġend": 371,
      "Ġpl": 372,
      "Ġfrom": 373,
      "ell": 374,
      "Ġsp": 375,
      "uman": 376,
      "Ġis": 377,
      "Ġmay": 378,
      "ain": 379,
      "Ġde": 380,
      "lo": 381,
      "ad": 382,
      "ĠHuman": 383,
      "pp": 384,
      "her": 385,
      "lying": 386,
      "age": 387,
      "ke": 388,
      "Ġst": 389,
      "os": 390,
      ">:": 391,
      "'t": 392,
      "ct": 393,
      "rt": 394,
      "Ġcan": 395,
      "ion": 396,
      "eg": 397,
      "Ġuntil": 398,
      "act": 399,
      "rtif": 400,
      "ant": 401,
      "Ġcast": 402,
      "Ġplay": 403,
      "ck": 404,
      "id": 405,
      "ep": 406,
      "Ġget": 407,
      "Ġatt": 408,
      "Ġeach": 409,
      "Ġput": 410,
      "Ġspell": 411,
      "amage": 412,
      "Ġits": 413,
      "rtifact": 414,
      "Ġdamage": 415,
      "Ġplayer": 416,
      "Ġattack": 417,
      "et": 418,
      "ore": 419,
      "Ġdeal": 420,
      ">,": 421,
      "ĠThe": 422,
      "ap": 423,
      "lock": 424,
      "ĠFlying": 425,
      "Ġcounter": 426,
      "ice": 427,
      "omb": 428,
      "egend": 429,
      "Ġli": 430,
      "ken": 431,
      "Ġcreatures": 432,
      "egendary": 433,
      "im": 434,
      "Ġgain": 435,
      "ght": 436,
      "ĠK": 437,
      "rif": 438,
      "nd": 439,
      "Ġex": 440,
      "Ġblock": 441,
      "ĠLegendary": 442,
      "ĠO": 443,
      "Ġlif": 444,
      "You": 445,
      "ce": 446,
      "Ġ5": 447,
      "ll": 448,
      "Ġco": 449,
      "Ġgra": 450,
      "acrif": 451,
      "yard": 452,
      "Ġgrave": 453,
      "Ġhand": 454,
      "Ġgraveyard": 455,
      "ru": 456,
      "ies": 457,
      "amp": 458,
      "ong": 459,
      "Ġopp": 460,
      "Ġman": 461,
      "Ġgets": 462,
      "onent": 463,
      "Ġopponent": 464,
      "ate": 465,
      "ĠV": 466,
      "Ġup": 467,
      "Ġif": 468,
      "Ġlife": 469,
      "ave": 470,
      "iv": 471,
      "ight": 472,
      "Ġtoken": 473,
      "Ġcards": 474,
      "ld": 475,
      "ho": 476,
      "acrifice": 477,
      "br": 478,
      "iz": 479,
      "ĠIf": 480,
      "ĠSp": 481,
      "Ġone": 482,
      "Ġdeals": 483,
      "ile": 484,
      "qu": 485,
      "his": 486,
      "od": 487,
      "Ġany": 488,
      "ĠN": 489,
      "Ġv": 490,
      "to": 491,
      "Ġartifact": 492,
      "us": 493,
      "Ġlibr": 494,
      "Ġare": 495,
      "ning": 496,
      "Ġlibrary": 497,
      "ment": 498,
      "ill": 499,
      "old": 500,
      "Ġhave": 501,
      "ue": 502,
      "Ġtheir": 503,
      "ose": 504,
      "raw": 505,
      "ear": 506,
      "gin": 507,
      "reate": 508,
      "Ġmana": 509,
      "ig": 510,
      "est": 511,
      "ĠWar": 512,
      "Ġdo": 513,
      "wo": 514,
      "ombat": 515,
      "ace": 516,
      "Ġsh": 517,
      "Ġbegin": 518,
      "ther": 519,
      "ie": 520,
      "Ġcost": 521,
      "ble": 522,
      "Ġcombat": 523,
      "nly": 524,
      "Ġbeginning": 525,
      "Ġcounters": 526,
      "Ġby": 527,
      "ire": 528,
      "Ġinto": 529,
      "out": 530,
      "ect": 531,
      "em": 532,
      "ĠIt": 533,
      "ĠYou": 534,
      "Ġonly": 535,
      "ul": 536,
      "Ġmore": 537,
      "Ġper": 538,
      "Ġhas": 539,
      "other": 540,
      "av": 541,
      "ber": 542,
      "Ġattacks": 543,
      "Ġtwo": 544,
      "izard": 545,
      "bl": 546,
      "rior": 547,
      "ĠSh": 548,
      "ĠAt": 549,
      "ist": 550,
      "all": 551,
      "Ġblocked": 552,
      "Ġpower": 553,
      "ier": 554,
      "Ġland": 555,
      "Ġcreate": 556,
      "ath": 557,
      "isc": 558,
      "Ġanother": 559,
      "ĠWarrior": 560,
      "Ġgains": 561,
      "ian": 562,
      "Ġlong": 563,
      "Ġpay": 564,
      "ĠX": 565,
      "nder": 566,
      "ity": 567,
      "ere": 568,
      "Ġ6": 569,
      "un": 570,
      "man": 571,
      "ĠSacrifice": 572,
      "ker": 573,
      "Ġab": 574,
      "wn": 575,
      "dd": 576,
      "Ġ~.": 577,
      "ler": 578,
      "og": 579,
      "Ġdraw": 580,
      "ĠGo": 581,
      "ĠWizard": 582,
      "Ġk": 583,
      "our": 584,
      "th": 585,
      "This": 586,
      "ĠZ": 587,
      "iscard": 588,
      "com": 589,
      "ould": 590,
      "umber": 591,
      "ramp": 592,
      "manent": 593,
      "Ġwh": 594,
      "Ġbl": 595,
      "Ġen": 596,
      "aste": 597,
      "Ġ0": 598,
      "Ġpermanent": 599,
      "Ġall": 600,
      "rample": 601,
      "ĠSold": 602,
      "ĠAs": 603,
      "Ġnumber": 604,
      "ĠArtifact": 605,
      "Ġthen": 606,
      "ery": 607,
      "Ġtop": 608,
      "Ġunder": 609,
      "ĠSoldier": 610,
      "irst": 611,
      "Ġother": 612,
      "Ġbecom": 613,
      "Ġown": 614,
      "keep": 615,
      "ĠIn": 616,
      "Ġcol": 617,
      "ind": 618,
      "ĠTh": 619,
      "ĠEl": 620,
      "Ġthem": 621,
      "Ġthey": 622,
      "blin": 623,
      "irit": 624,
      "Ġdies": 625,
      "ĠU": 626,
      "Ġflying": 627,
      "pped": 628,
      "ance": 629,
      "Ġnon": 630,
      "Ġret": 631,
      "Ġse": 632,
      "Ġabil": 633,
      "ous": 634,
      "Ġtim": 635,
      "ite": 636,
      "Ġreturn": 637,
      ">.": 638,
      "ag": 639,
      "ree": 640,
      "Ġequ": 641,
      "Ġnot": 642,
      "Ġcolor": 643,
      "ĠDra": 644,
      "Ġexile": 645,
      "Ġstep": 646,
      "orc": 647,
      "Ġcontrols": 648,
      "ĠSpirit": 649,
      "ĠEle": 650,
      "Ġwas": 651,
      "Ġless": 652,
      "ĠZomb": 653,
      "Ġbecomes": 654,
      "here": 655,
      "gon": 656,
      "Ġinst": 657,
      "Ġta": 658,
      "rike": 659,
      "efend": 660,
      "Ġno": 661,
      "ok": 662,
      "ive": 663,
      "ry": 664,
      "ĠGoblin": 665,
      "Ġthan": 666,
      "Ġequal": 667,
      "Ġsorc": 668,
      "Ġsorcery": 669,
      "ctiv": 670,
      "are": 671,
      "Ġam": 672,
      "chant": 673,
      "hy": 674,
      "one": 675,
      "ĠSc": 676,
      "ter": 677,
      "ĠZombie": 678,
      "Ġstrike": 679,
      "ĠAn": 680,
      "Ġupkeep": 681,
      "Ġcho": 682,
      "ĠBe": 683,
      "Ġtime": 684,
      "ff": 685,
      "own": 686,
      "mental": 687,
      "ip": 688,
      "Ġface": 689,
      "Ġr": 690,
      "ĠElemental": 691,
      "ĠPut": 692,
      "ead": 693,
      "Ġcom": 694,
      "veal": 695,
      "night": 696,
      "art": 697,
      "Ġwould": 698,
      "Ġal": 699,
      "estro": 700,
      "estroy": 701,
      "ĠTarget": 702,
      "igil": 703,
      "op": 704,
      "Ġsacrifice": 705,
      "ĠElf": 706,
      "ak": 707,
      "Ġhaste": 708,
      "ĠEx": 709,
      "Ġlo": 710,
      "ĠSt": 711,
      "Ġnext": 712,
      "ust": 713,
      "leric": 714,
      "Ġbut": 715,
      "ĠRe": 716,
      "ĠCleric": 717,
      "Ġch": 718,
      "igilance": 719,
      "Ġdiscard": 720,
      "ash": 721,
      "ctivate": 722,
      "Ġfirst": 723,
      "sh": 724,
      "hyre": 725,
      "ound": 726,
      "ĠAr": 727,
      "ĠDragon": 728,
      "hyrex": 729,
      "olk": 730,
      "Ġthree": 731,
      "ink": 732,
      "ĠPhyrex": 733,
      "ĠKnight": 734,
      "Ġreveal": 735,
      "se": 736,
      "ang": 737,
      "When": 738,
      "Ġowner": 739,
      "aur": 740,
      "ph": 741,
      "Ġrem": 742,
      "Ġle": 743,
      "ove": 744,
      "Ġwhere": 745,
      "ĠCh": 746,
      "ver": 747,
      "ĠJ": 748,
      "ition": 749,
      "ĠRog": 750,
      "ord": 751,
      "ĠPhyrexian": 752,
      "ĠRogue": 753,
      "wal": 754,
      "Ġuntap": 755,
      "Ġval": 756,
      "ish": 757,
      "Ġwill": 758,
      "ĠTrample": 759,
      "ampire": 760,
      "/-": 761,
      "ew": 762,
      "oth": 763,
      "ation": 764,
      "ird": 765,
      "land": 766,
      "ĠBeast": 767,
      "aman": 768,
      "Ġmy": 769,
      "Ġadd": 770,
      "uff": 771,
      "Ġwe": 772,
      "ĠFl": 773,
      "ĠMer": 774,
      "ept": 775,
      "Ġdealt": 776,
      "ĠSl": 777,
      "der": 778,
      "Ġexc": 779,
      "Ġ~:": 780,
      "Ġ.": 781,
      "Ġability": 782,
      "ruct": 783,
      "Ġhe": 784,
      "ass": 785,
      "Ġme": 786,
      "Ġvalue": 787,
      "yp": 788,
      "Ġdefend": 789,
      "ĠVampire": 790,
      "Ġ-": 791,
      "chantment": 792,
      "Ġtapped": 793,
      "row": 794,
      "Ġway": 795,
      "ĠCon": 796,
      "Ġfl": 797,
      "ĠThis": 798,
      "ade": 799,
      "Ġcop": 800,
      "Ġattacking": 801,
      "ide": 802,
      "ĠShaman": 803,
      "less": 804,
      "Ġchoose": 805,
      "ling": 806,
      "Ġblack": 807,
      "orn": 808,
      "Ġgreat": 809,
      "Ġ*": 810,
      "nto": 811,
      "Ġdestroy": 812,
      "Ġonto": 813,
      "ick": 814,
      "ome": 815,
      "oses": 816,
      "Ġspells": 817,
      "Ġun": 818,
      "ĠActivate": 819,
      "earch": 820,
      "ine": 821,
      "ĠSk": 822,
      "Ġhis": 823,
      "aw": 824,
      "Ġcopy": 825,
      "Ġgre": 826,
      "uring": 827,
      "Ġunl": 828,
      "Ġamong": 829,
      "Ġtrample": 830,
      "gel": 831,
      "ost": 832,
      "ĠAdd": 833,
      "Ġher": 834,
      "rot": 835,
      "Ġtyp": 836,
      "Ġsc": 837,
      "Ġshuff": 838,
      "Ġwhite": 839,
      "Ġ7": 840,
      "Ġj": 841,
      "Ġtoughness": 842,
      "ĠExile": 843,
      "now": 844,
      "Ġwor": 845,
      "Ġexcept": 846,
      "folk": 847,
      "ouch": 848,
      "ake": 849,
      "Ġwithout": 850,
      "lood": 851,
      "Ġaddition": 852,
      "ark": 853,
      "Ġunless": 854,
      "ec": 855,
      "Ġloses": 856,
      "Ġ(<": 857,
      "ves": 858,
      "iant": 859,
      "ĠRet": 860,
      "Ġro": 861,
      "ĠBird": 862,
      "Ġshuffle": 863,
      "Ġthose": 864,
      "Ġpre": 865,
      "Ġdown": 866,
      "ĠThey": 867,
      "Ġwho": 868,
      "ild": 869,
      "iver": 870,
      "Ġgo": 871,
      "Ġgreen": 872,
      "Ġinstant": 873,
      "ĠHor": 874,
      "ruid": 875,
      "ĠReturn": 876,
      "fter": 877,
      "ĠEn": 878,
      "elink": 879,
      "Ġname": 880,
      "enace": 881,
      "ĠDe": 882,
      "Ġtokens": 883,
      "ĠDiscard": 884,
      "ror": 885,
      "ĠWe": 886,
      "ĠAngel": 887,
      "ener": 888,
      "Ġduring": 889,
      "ities": 890,
      "rotect": 891,
      "ia": 892,
      "ss": 893,
      "Ġso": 894,
      "ise": 895,
      "ĠOther": 896,
      "unt": 897,
      "Ġdeath": 898,
      "Ġdon": 899,
      "Ġdefending": 900,
      "ĠTre": 901,
      "Ġred": 902,
      "ran": 903,
      "ond": 904,
      "ab": 905,
      "Ġar": 906,
      "touch": 907,
      "ott": 908,
      "ort": 909,
      "Ġever": 910,
      "sp": 911,
      "Ġout": 912,
      "ger": 913,
      "oul": 914,
      "Ġplan": 915,
      "ĠMerfolk": 916,
      "ĠDruid": 917,
      "ĠCat": 918,
      "orm": 919,
      "ĠDraw": 920,
      "ven": 921,
      "ĠEld": 922,
      "eed": 923,
      "even": 924,
      "Ġmany": 925,
      "orph": 926,
      "ĠEach": 927,
      "aster": 928,
      "Ġabilities": 929,
      "ator": 930,
      "Whenever": 931,
      "ĠâĢ": 932,
      "ĠAl": 933,
      "ĠâĢ¢": 934,
      "raz": 935,
      "ĠVigilance": 936,
      "Ġdoes": 937,
      "uch": 938,
      "Ġtap": 939,
      "Ġthere": 940,
      "Ġwere": 941,
      "ult": 942,
      "Ġenchantment": 943,
      "ĠPl": 944,
      "red": 945,
      "Ġwhen": 946,
      "ĠOr": 947,
      "Ġnan": 948,
      "Ġ~'": 949,
      "Ġinstead": 950,
      "Ġag": 951,
      "Ġlook": 952,
      "eswal": 953,
      "ase": 954,
      "iled": 955,
      "ĠGiant": 956,
      "uard": 957,
      "pt": 958,
      "ĠFlash": 959,
      "Ġplaneswal": 960,
      "ĠSliver": 961,
      "ĠNo": 962,
      "Ġadditional": 963,
      "ered": 964,
      "ĠHorror": 965,
      "Ġour": 966,
      "ĠMy": 967,
      "ings": 968,
      "It": 969,
      "Ġcomm": 970,
      "az": 971,
      "orest": 972,
      "ura": 973,
      "Ġexp": 974,
      "Ġsee": 975,
      "vent": 976,
      "Ġopponents": 977,
      "esh": 978,
      "way": 979,
      "ĠHaste": 980,
      "atch": 981,
      "Ġfour": 982,
      "ĠFirst": 983,
      "Ġvigilance": 984,
      "Ġgreater": 985,
      "Ġnonland": 986,
      "ĠDeath": 987,
      "ĠAd": 988,
      "yc": 989,
      "Ġhad": 990,
      "Ġcosts": 991,
      "ible": 992,
      "Ġrest": 993,
      "Ġus": 994,
      "ottom": 995,
      "ix": 996,
      "Ġbottom": 997,
      "Ġsk": 998,
      "Ġsearch": 999,
      "Ġevery": 1000,
      "Ġpro": 1001,
      "Ġcl": 1002,
      "ally": 1003,
      "Ġonce": 1004,
      "ĠCreate": 1005,
      "ren": 1006,
      "ated": 1007,
      "icer": 1008,
      "Ġplaneswalker": 1009,
      "Ġri": 1010,
      "tle": 1011,
      "Ġwar": 1012,
      "If": 1013,
      "mp": 1014,
      "osaur": 1015,
      "ner": 1016,
      "war": 1017,
      "ĠHe": 1018,
      "rotection": 1019,
      "ood": 1020,
      "Ġlifelink": 1021,
      "estruct": 1022,
      "Ġdoesn": 1023,
      "ĠDem": 1024,
      "ĠFa": 1025,
      "ĠIns": 1026,
      "razi": 1027,
      "ence": 1028,
      "ron": 1029,
      "ĠEldrazi": 1030,
      "ial": 1031,
      "Ġmill": 1032,
      "ĠDefend": 1033,
      "ĠUnt": 1034,
      "Ġable": 1035,
      "Ġknow": 1036,
      "ains": 1037,
      "ĠConst": 1038,
      "ĠWh": 1039,
      "Ġexiled": 1040,
      "Ġthough": 1041,
      "ĠDefender": 1042,
      "efore": 1043,
      "Ġsec": 1044,
      "ouble": 1045,
      "ious": 1046,
      "ĠFor": 1047,
      "Ġorder": 1048,
      "Ġlands": 1049,
      "inosaur": 1050,
      "aves": 1051,
      "Ġmuch": 1052,
      "rtificer": 1053,
      "ĠArch": 1054,
      "gre": 1055,
      "ĠWall": 1056,
      "lem": 1057,
      "ĠScout": 1058,
      "Ġpermanents": 1059,
      "ĠHer": 1060,
      "apt": 1061,
      "ĠDemon": 1062,
      "Ġru": 1063,
      "Ġsur": 1064,
      "ĠOn": 1065,
      "acrific": 1066,
      "Ġcolorless": 1067,
      "fect": 1068,
      "ĠTap": 1069,
      "asure": 1070,
      "ĠUn": 1071,
      "Ġsacrific": 1072,
      "Ġlast": 1073,
      "ĠInsect": 1074,
      "Ġpo": 1075,
      "Ġind": 1076,
      "ĠReach": 1077,
      "ĠSn": 1078,
      "Ġlike": 1079,
      "ĠRo": 1080,
      "Ġlose": 1081,
      "ĠMon": 1082,
      "ider": 1083,
      "!<|": 1084,
      "Ġsw": 1085,
      "urm": 1086,
      "ĠDev": 1087,
      "Ġra": 1088,
      "ather": 1089,
      "ory": 1090,
      "rim": 1091,
      "oll": 1092,
      "ĠAss": 1093,
      "ud": 1094,
      "apped": 1095,
      "Ġ~,": 1096,
      "ĠArtificer": 1097,
      "Ġnever": 1098,
      "Ġnamed": 1099,
      "rough": 1100,
      "ĠAll": 1101,
      "andom": 1102,
      "Ġrandom": 1103,
      "Ġtra": 1104,
      "adow": 1105,
      "Ġbefore": 1106,
      "icker": 1107,
      "Ġcontroller": 1108,
      "Ġmon": 1109,
      "ĠDinosaur": 1110,
      "cl": 1111,
      "ors": 1112,
      "Ġform": 1113,
      "'re": 1114,
      "Ġcould": 1115,
      "Ġremove": 1116,
      "aus": 1117,
      "Ġblocks": 1118,
      "Ġpaying": 1119,
      "ĠCl": 1120,
      "ĠSw": 1121,
      "ĠSer": 1122,
      "Ġuntapped": 1123,
      "Ġtype": 1124,
      "Ġagain": 1125,
      "ĠY": 1126,
      "ĠGolem": 1127,
      "Ġtri": 1128,
      "Ġfight": 1129,
      "elf": 1130,
      "ook": 1131,
      "ĠBlood": 1132,
      "ĠMenace": 1133,
      "ied": 1134,
      "Ġ8": 1135,
      "oud": 1136,
      "Ġjust": 1137,
      "Ġcommand": 1138,
      "'ve": 1139,
      "ĠTurn": 1140,
      "ĠIs": 1141,
      "ĠReg": 1142,
      "ĠBl": 1143,
      "Ġisn": 1144,
      "ĠConstruct": 1145,
      "ts": 1146,
      "estructible": 1147,
      "Ġqu": 1148,
      "able": 1149,
      "Ġgr": 1150,
      "Ġwhat": 1151,
      "Ġblue": 1152,
      "gg": 1153,
      "Ġtypes": 1154,
      "hin": 1155,
      "Ġboth": 1156,
      "ĠMin": 1157,
      "aid": 1158,
      "ved": 1159,
      "anc": 1160,
      "Ġpart": 1161,
      "of": 1162,
      "Ġres": 1163,
      "oy": 1164,
      "Ġnew": 1165,
      "Ġreach": 1166,
      "erie": 1167,
      "Ġmost": 1168,
      "Ġsl": 1169,
      "Ġmust": 1170,
      "Ġblocking": 1171,
      "ons": 1172,
      "Ġel": 1173,
      "Ġartifacts": 1174,
      "Ġnonc": 1175,
      "Ġworld": 1176,
      "mer": 1177,
      "ub": 1178,
      "ater": 1179,
      "ĠPir": 1180,
      "pl": 1181,
      "ign": 1182,
      "Ġleaves": 1183,
      "ail": 1184,
      "led": 1185,
      "read": 1186,
      "ĠRem": 1187,
      "ert": 1188,
      "alf": 1189,
      "ful": 1190,
      "oc": 1191,
      "ĠWol": 1192,
      "ĠThat": 1193,
      "assin": 1194,
      "king": 1195,
      "ions": 1196,
      "Ġthrough": 1197,
      "ict": 1198,
      "igh": 1199,
      "ĠDo": 1200,
      "ĠDestroy": 1201,
      "ens": 1202,
      "Ġdra": 1203,
      "enerate": 1204,
      "Ġshe": 1205,
      "Ġdiscards": 1206,
      "Ġnoncreature": 1207,
      "Ġday": 1208,
      "ĠCreatures": 1209,
      "Ġover": 1210,
      "ĠTo": 1211,
      "The": 1212,
      "ug": 1213,
      "Ġeven": 1214,
      "Ġdid": 1215,
      "ĠRat": 1216,
      "asic": 1217,
      "ĠTreasure": 1218,
      "ĠRegenerate": 1219,
      "ĠThen": 1220,
      "ĠDeathtouch": 1221,
      "Ġstill": 1222,
      "eth": 1223,
      "*<|": 1224,
      "ĠAssassin": 1225,
      "ull": 1226,
      "ream": 1227,
      "iff": 1228,
      "ift": 1229,
      "ĠWurm": 1230,
      "ĠDwar": 1231,
      "Ġtargets": 1232,
      "Ġattach": 1233,
      "Ġdeathtouch": 1234,
      "Ġindestructible": 1235,
      "pro": 1236,
      "tly": 1237,
      "so": 1238,
      "osen": 1239,
      "Ġchoice": 1240,
      "ĠRemove": 1241,
      "oon": 1242,
      "ĠForest": 1243,
      "ĠOrc": 1244,
      "arg": 1245,
      "icked": 1246,
      "ison": 1247,
      "ĠOgre": 1248,
      "walk": 1249,
      "ĠPirate": 1250,
      "mb": 1251,
      "ring": 1252,
      "Ġdev": 1253,
      "Ġph": 1254,
      "Ġmenace": 1255,
      "ĠEv": 1256,
      "aven": 1257,
      "ĠFaerie": 1258,
      "fin": 1259,
      "yr": 1260,
      "ĠSe": 1261,
      "ung": 1262,
      "ient": 1263,
      "Ġblood": 1264,
      "ĠEnchantment": 1265,
      "be": 1266,
      "Ġcaus": 1267,
      "ĠLif": 1268,
      "Ġdead": 1269,
      "ĠNight": 1270,
      "'ll": 1271,
      "Ġtot": 1272,
      "les": 1273,
      "iss": 1274,
      "ither": 1275,
      "ĠLizard": 1276,
      "ĠDrake": 1277,
      "Ġtotal": 1278,
      "aut": 1279,
      "kin": 1280,
      "Ġad": 1281,
      "Ġback": 1282,
      "we": 1283,
      "Ġhear": 1284,
      "ĠSnake": 1285,
      "ĠIsland": 1286,
      "ief": 1287,
      "ks": 1288,
      "Ġhim": 1289,
      "Ġenough": 1290,
      "ob": 1291,
      "per": 1292,
      "oss": 1293,
      "Ġalso": 1294,
      "ollow": 1295,
      "vis": 1296,
      "Ġneed": 1297,
      "Ġchosen": 1298,
      "Ġfe": 1299,
      "ĠShe": 1300,
      "proof": 1301,
      "ars": 1302,
      "ĠSqu": 1303,
      "ĠPre": 1304,
      "thing": 1305,
      "anger": 1306,
      "?<|": 1307,
      "ways": 1308,
      "otaur": 1309,
      "Ġsm": 1310,
      "ĠAv": 1311,
      "exproof": 1312,
      "Ġarm": 1313,
      "Ġcomp": 1314,
      "ates": 1315,
      "au": 1316,
      "ik": 1317,
      "ane": 1318,
      "Ġsome": 1319,
      "Ġdes": 1320,
      "ely": 1321,
      "ale": 1322,
      "Ġbet": 1323,
      "hoose": 1324,
      "ĠWolf": 1325,
      "Ġhunt": 1326,
      "Ġattached": 1327,
      "oke": 1328,
      "ĠShap": 1329,
      "ually": 1330,
      "arch": 1331,
      "ĠQ": 1332,
      "Ġdie": 1333,
      "ĠGu": 1334,
      "awn": 1335,
      "Ġtru": 1336,
      "Ġturned": 1337,
      "ĠIts": 1338,
      "cap": 1339,
      "oid": 1340,
      "Ġtw": 1341,
      "Ġcreat": 1342,
      "Ġsay": 1343,
      "Ġprotection": 1344,
      "ps": 1345,
      "Ġim": 1346,
      "Ġbasic": 1347,
      "ĠEqu": 1348,
      "Ġsecond": 1349,
      "Ġpe": 1350,
      "Ġgl": 1351,
      "Ġey": 1352,
      "rog": 1353,
      "alt": 1354,
      "Ġlight": 1355,
      "Ġpays": 1356,
      "ving": 1357,
      "its": 1358,
      "ich": 1359,
      "ĠSwamp": 1360,
      "Ġac": 1361,
      "Ġbel": 1362,
      "efolk": 1363,
      "ĠImp": 1364,
      "Ġbecome": 1365,
      "Ġalways": 1366,
      "ĠSky": 1367,
      "ifter": 1368,
      "ald": 1369,
      "ĠWarlock": 1370,
      "Ġkicked": 1371,
      "Ġtake": 1372,
      "Ġlost": 1373,
      "aker": 1374,
      "Ġev": 1375,
      "erser": 1376,
      "Ġbattle": 1377,
      "ears": 1378,
      "ĠAura": 1379,
      "ĠDog": 1380,
      "ĠBerser": 1381,
      "Ġwhile": 1382,
      "ĠAlly": 1383,
      "af": 1384,
      "ans": 1385,
      "rid": 1386,
      "cho": 1387,
      "Ġalone": 1388,
      "Ġpoison": 1389,
      "ins": 1390,
      "ese": 1391,
      "itch": 1392,
      "Ġsu": 1393,
      "Ġmorph": 1394,
      "Ġfive": 1395,
      "ipment": 1396,
      "nal": 1397,
      "ox": 1398,
      "Ġnight": 1399,
      "ired": 1400,
      "Ġscry": 1401,
      "ĠDwarf": 1402,
      "ĠSun": 1403,
      "ĠSoul": 1404,
      "ĠMount": 1405,
      "ĠBerserker": 1406,
      "Ġactivate": 1407,
      "ari": 1408,
      "Ġbase": 1409,
      "chanted": 1410,
      "pet": 1411,
      "vest": 1412,
      "Ġte": 1413,
      "Ġdouble": 1414,
      "Ġoff": 1415,
      "ĠSearch": 1416,
      "Ġhow": 1417,
      "ĠMorph": 1418,
      "ĠGl": 1419,
      "ĠThere": 1420,
      "ĠSpell": 1421,
      "ĠMinotaur": 1422,
      "ai": 1423,
      "Ġgu": 1424,
      "riffin": 1425,
      "ze": 1426,
      "arb": 1427,
      "Ġsour": 1428,
      "Ġfind": 1429,
      "eshifter": 1430,
      "ĠUntil": 1431,
      "Ġmonst": 1432,
      "elet": 1433,
      "ents": 1434,
      "ĠPro": 1435,
      "ĠShapeshifter": 1436,
      "form": 1437,
      "int": 1438,
      "Ġsame": 1439,
      "Ġdis": 1440,
      "roll": 1441,
      "ged": 1442,
      "ĠHy": 1443,
      "Ġbeen": 1444,
      "ize": 1445,
      "ĠTreefolk": 1446,
      "ĠCyc": 1447,
      "Ġser": 1448,
      "Ġmake": 1449,
      "Ġshadow": 1450,
      "Ġamount": 1451,
      "dra": 1452,
      "Ġtr": 1453,
      "Ġdiff": 1454,
      "ĠMar": 1455,
      "ctor": 1456,
      "Ġkn": 1457,
      "att": 1458,
      "inn": 1459,
      "ross": 1460,
      "Ġmind": 1461,
      "Ġgame": 1462,
      "token": 1463,
      "Ġapp": 1464,
      "Ġband": 1465,
      "Ġenter": 1466,
      "ĠLe": 1467,
      "Ġafter": 1468,
      "Ġbest": 1469,
      "ĠWard": 1470,
      "ĠLand": 1471,
      "usion": 1472,
      "Ġnontoken": 1473,
      "ĠNoble": 1474,
      "ĠLifelink": 1475,
      "At": 1476,
      "air": 1477,
      "Ġseven": 1478,
      "ĠIll": 1479,
      "ĠDr": 1480,
      "hinx": 1481,
      "Ġef": 1482,
      "ute": 1483,
      "ĠMut": 1484,
      "ĠGuard": 1485,
      "Ġstr": 1486,
      "ĠSpider": 1487,
      "Ġkind": 1488,
      "roud": 1489,
      "Ġkeep": 1490,
      "rel": 1491,
      "Ġtoo": 1492,
      "ny": 1493,
      "ĠMerc": 1494,
      "ĠAdvis": 1495,
      "Ġfollow": 1496,
      "ĠSam": 1497,
      "Ġsacrifices": 1498,
      "Ġtre": 1499,
      "ĠâĢĶ*": 1500,
      "ĠSome": 1501,
      "Ġnat": 1502,
      "aver": 1503,
      "ĠOne": 1504,
      "ĠAdvisor": 1505,
      "Ġbeing": 1506,
      "ats": 1507,
      "atar": 1508,
      "Ġcar": 1509,
      "inj": 1510,
      "Ġgoblin": 1511,
      "ax": 1512,
      "ann": 1513,
      "Ġforest": 1514,
      "ored": 1515,
      "ĠSphinx": 1516,
      "Ġperpet": 1517,
      "Ġtimes": 1518,
      "ĠUntap": 1519,
      "und": 1520,
      "Ġ10": 1521,
      "ĠAtt": 1522,
      "ĠMonk": 1523,
      "ĠPrevent": 1524,
      "ces": 1525,
      "ĠSil": 1526,
      "ĠProtection": 1527,
      "usp": 1528,
      "ander": 1529,
      "ĠPart": 1530,
      "Ġplayers": 1531,
      "ĠAvatar": 1532,
      "ĠEquipment": 1533,
      "Ġperpetually": 1534,
      "Ġsix": 1535,
      "Ġfire": 1536,
      "Ġroll": 1537,
      "Ġdiffere": 1538,
      "fall": 1539,
      "alm": 1540,
      "ĠArm": 1541,
      "Ġexplo": 1542,
      "ĠArcher": 1543,
      "gu": 1544,
      "mare": 1545,
      "vel": 1546,
      "Ġfo": 1547,
      "Ġfear": 1548,
      "Ġpaid": 1549,
      "alken": 1550,
      "Ġdidn": 1551,
      "Ġsource": 1552,
      "mage": 1553,
      "arian": 1554,
      "ĠChoose": 1555,
      "Ġfall": 1556,
      "ĠTra": 1557,
      "ĠMan": 1558,
      "ists": 1559,
      "ope": 1560,
      "ship": 1561,
      "Ġleave": 1562,
      "ract": 1563,
      "reet": 1564,
      "ara": 1565,
      "Ġspent": 1566,
      "earth": 1567,
      "ĠIllusion": 1568,
      "ĠCent": 1569,
      "Ġmut": 1570,
      "Ġmag": 1571,
      "ĠFood": 1572,
      "ared": 1573,
      "Ġcall": 1574,
      "inger": 1575,
      "Ġlegendary": 1576,
      "ĠNinj": 1577,
      "Ġthink": 1578,
      "Ġsoul": 1579,
      "elp": 1580,
      "Ġlit": 1581,
      "rab": 1582,
      "wise": 1583,
      "res": 1584,
      "amil": 1585,
      "als": 1586,
      "Ġhigh": 1587,
      "Ġint": 1588,
      "Ġnow": 1589,
      "Ġass": 1590,
      "ime": 1591,
      "ĠKor": 1592,
      "ĠKicker": 1593,
      "Ġenem": 1594,
      "urai": 1595,
      "aptain": 1596,
      "erg": 1597,
      "Ġcity": 1598,
      "Ġdark": 1599,
      "Ġword": 1600,
      "ros": 1601,
      "Ġpass": 1602,
      "ĠWhat": 1603,
      "ating": 1604,
      "Ġactiv": 1605,
      "ami": 1606,
      "Ġward": 1607,
      "ithkin": 1608,
      "ĠBut": 1609,
      "gth": 1610,
      "ined": 1611,
      "arm": 1612,
      "arn": 1613,
      "Ġwon": 1614,
      "evel": 1615,
      "ĠDes": 1616,
      "ush": 1617,
      "Ġeffect": 1618,
      "cient": 1619,
      "ey": 1620,
      "gr": 1621,
      "ting": 1622,
      "ĠCo": 1623,
      "ĠGod": 1624,
      "ampion": 1625,
      "ggers": 1626,
      "wor": 1627,
      "ĠHell": 1628,
      "ĠFire": 1629,
      "ĠBo": 1630,
      "Ġtriggers": 1631,
      "ĠQu": 1632,
      "cape": 1633,
      "ĠHydra": 1634,
      "bel": 1635,
      "Ġgrow": 1636,
      "ĠLord": 1637,
      "phant": 1638,
      "ations": 1639,
      "rans": 1640,
      "ancer": 1641,
      "ah": 1642,
      "rous": 1643,
      "where": 1644,
      "ĠSamurai": 1645,
      "born": 1646,
      "otion": 1647,
      "Ġlet": 1648,
      "ĠDouble": 1649,
      "Ġplus": 1650,
      "ided": 1651,
      "avu": 1652,
      "Ġleast": 1653,
      "ĠSkelet": 1654,
      "ĠCom": 1655,
      "Ġhexproof": 1656,
      "raft": 1657,
      "aper": 1658,
      "earn": 1659,
      "Ġshare": 1660,
      "Ġremains": 1661,
      "rength": 1662,
      "Ġmills": 1663,
      "Ġsacrificed": 1664,
      "pe": 1665,
      "arth": 1666,
      "Ġsom": 1667,
      "ĠPay": 1668,
      "ĠGh": 1669,
      "Ġattacked": 1670,
      "ivers": 1671,
      "Ġsky": 1672,
      "reak": 1673,
      "edalken": 1674,
      "ĠTr": 1675,
      "hem": 1676,
      "ective": 1677,
      "ĠShadow": 1678,
      "Ġkill": 1679,
      "ĠCentaur": 1680,
      "ike": 1681,
      "uk": 1682,
      "Ġ'": 1683,
      "atter": 1684,
      "Ġsing": 1685,
      "Ġdist": 1686,
      "izen": 1687,
      "ince": 1688,
      "Ġwant": 1689,
      "ĠHar": 1690,
      "ĠGriffin": 1691,
      "Ġabout": 1692,
      "angel": 1693,
      "ĠUnearth": 1694,
      "ĠMercen": 1695,
      "eep": 1696,
      "oved": 1697,
      "pen": 1698,
      "ones": 1699,
      "Ġwatch": 1700,
      "Ġmight": 1701,
      "ĠAnd": 1702,
      "Ġdraws": 1703,
      "Ġgood": 1704,
      "ĠPlant": 1705,
      "ĠPartner": 1706,
      "jinn": 1707,
      "Ġfa": 1708,
      "Ġfew": 1709,
      "ĠDet": 1710,
      "up": 1711,
      "uck": 1712,
      "ĠMir": 1713,
      "ĠPh": 1714,
      "ĠArc": 1715,
      "ĠLandfall": 1716,
      "Ġlittle": 1717,
      "pent": 1718,
      "Ġreg": 1719,
      "ĠGr": 1720,
      "Ġcome": 1721,
      "ĠChampion": 1722,
      "Ġprevent": 1723,
      "Ġeyes": 1724,
      "ative": 1725,
      "icate": 1726,
      "Ġcasts": 1727,
      "Ġdragon": 1728,
      "Ġfri": 1729,
      "ĠSent": 1730,
      "ĠAb": 1731,
      "uth": 1732,
      "irrel": 1733,
      "ĠBattl": 1734,
      "Ġdefender": 1735,
      "Ġsecre": 1736,
      "ipped": 1737,
      "Ġcame": 1738,
      "Ġthings": 1739,
      "Ġdied": 1740,
      "Ġlearn": 1741,
      "ĠAfter": 1742,
      "ĠBack": 1743,
      "Ġenerg": 1744,
      "ĠElephant": 1745,
      "Ġgreatest": 1746,
      "ĠMyr": 1747,
      "ĠSkeleton": 1748,
      "con": 1749,
      "ines": 1750,
      "Ġsnow": 1751,
      "Ġdiv": 1752,
      "Ġfound": 1753,
      "Ġstrength": 1754,
      "ternal": 1755,
      "ecial": 1756,
      "ĠDevil": 1757,
      "Ġcommanders": 1758,
      "Ġmonstrous": 1759,
      "'m": 1760,
      "jure": 1761,
      "light": 1762,
      "te": 1763,
      "ress": 1764,
      "ĠCit": 1765,
      "Ġhist": 1766,
      "Ġhere": 1767,
      "Ġste": 1768,
      "ĠKavu": 1769,
      "thers": 1770,
      "ĠMutant": 1771,
      "ait": 1772,
      "kes": 1773,
      "Ġguard": 1774,
      "ĠDjinn": 1775,
      "ĠMag": 1776,
      "ogg": 1777,
      "ager": 1778,
      "Ġrevealed": 1779,
      "Ġright": 1780,
      "ĠDoctor": 1781,
      "lif": 1782,
      "rent": 1783,
      "Ġage": 1784,
      "Ġaway": 1785,
      "ange": 1786,
      "itter": 1787,
      "Ġbr": 1788,
      "ĠCol": 1789,
      "Ġlead": 1790,
      "Ġhead": 1791,
      "Ġhelp": 1792,
      "Ġgive": 1793,
      "ĠEm": 1794,
      "ĠMaster": 1795,
      "ĠPer": 1796,
      "ĠBr": 1797,
      "ĠGn": 1798,
      "Ġstand": 1799,
      "wood": 1800,
      "ople": 1801,
      "ĠEvery": 1802,
      "vestig": 1803,
      "ĠMercenary": 1804,
      "ĠDetective": 1805,
      "'d": 1806,
      "err": 1807,
      "Ġoil": 1808,
      "Ġgod": 1809,
      "ĠHunt": 1810,
      "lect": 1811,
      "ĠMage": 1812,
      "ĠKithkin": 1813,
      "ĠNow": 1814,
      "Ġvict": 1815,
      "akes": 1816,
      "ĠOtherwise": 1817,
      "Ġsurv": 1818,
      "Damage": 1819,
      "mon": 1820,
      "Ġbu": 1821,
      "Ġfore": 1822,
      "ilt": 1823,
      "ĠAven": 1824,
      "ĠEmp": 1825,
      "ĠProw": 1826,
      "Ġitself": 1827,
      "ody": 1828,
      "Ġprey": 1829,
      "ween": 1830,
      "Ġdifferent": 1831,
      ">.)": 1832,
      "iers": 1833,
      "Ġwin": 1834,
      "ĠTroll": 1835,
      "ĠVedalken": 1836,
      "Ġweap": 1837,
      "ĠDevoid": 1838,
      "Ġphase": 1839,
      "hing": 1840,
      "ien": 1841,
      "sc": 1842,
      "rer": 1843,
      "itor": 1844,
      "Ġsun": 1845,
      "Ġcont": 1846,
      "ĠHis": 1847,
      "Ġeither": 1848,
      "add": 1849,
      "usk": 1850,
      "Ġleft": 1851,
      "ĠHero": 1852,
      "Ġsword": 1853,
      "Ġagainst": 1854,
      "Ġdevotion": 1855,
      "Ġtrue": 1856,
      "ium": 1857,
      "oun": 1858,
      "Ġart": 1859,
      "Ġsil": 1860,
      "aces": 1861,
      "Ġfin": 1862,
      "Ġmaster": 1863,
      "ĠSo": 1864,
      "ĠAc": 1865,
      "Ġanything": 1866,
      "Ġrun": 1867,
      "Ġcauses": 1868,
      "ying": 1869,
      "Ġ9": 1870,
      "alker": 1871,
      "ĠSur": 1872,
      "ĠFrog": 1873,
      "Ġanywhere": 1874,
      "ĠUr": 1875,
      "ouse": 1876,
      "ĠElder": 1877,
      "ĠSerpent": 1878,
      "ĠNightmare": 1879,
      "Ġbetween": 1880,
      "cend": 1881,
      "na": 1882,
      "side": 1883,
      "ward": 1884,
      "Ġes": 1885,
      "Ġclo": 1886,
      "Ġthese": 1887,
      "Ġmer": 1888,
      "Ġhome": 1889,
      "ants": 1890,
      "Ġwork": 1891,
      "Ġpeople": 1892,
      "Ġstrong": 1893,
      "Ġenergy": 1894,
      "oze": 1895,
      "under": 1896,
      "Ġyet": 1897,
      "ster": 1898,
      "Ġpr": 1899,
      "ales": 1900,
      "ĠEven": 1901,
      "Ġspirit": 1902,
      "Ġreveals": 1903,
      "ĠDrone": 1904,
      "ĠCitizen": 1905,
      "vish": 1906,
      "ĠWith": 1907,
      "Ġprotect": 1908,
      "iles": 1909,
      "aya": 1910,
      "Ġinvestig": 1911,
      "olt": 1912,
      "Ġem": 1913,
      "Ġupon": 1914,
      "Ġactivated": 1915,
      "Ġtem": 1916,
      "Ġcyc": 1917,
      "Ġsold": 1918,
      "orp": 1919,
      "alk": 1920,
      "ĠLook": 1921,
      "pper": 1922,
      "ether": 1923,
      "ĠYour": 1924,
      "ĠThose": 1925,
      "Ġrather": 1926,
      "Ġcommander": 1927,
      "ungus": 1928,
      "Ġcause": 1929,
      "guise": 1930,
      "Any": 1931,
      "ee": 1932,
      "not": 1933,
      "elves": 1934,
      "Ġmount": 1935,
      "ury": 1936,
      "ĠRanger": 1937,
      "rider": 1938,
      "Ġliving": 1939,
      "Ġshould": 1940,
      "ryad": 1941,
      "Ġground": 1942,
      "ĠSquirrel": 1943,
      "master": 1944,
      "ser": 1945,
      "uc": 1946,
      "enix": 1947,
      "Ġdream": 1948,
      "rop": 1949,
      "Ġeas": 1950,
      "ĠBear": 1951,
      "adness": 1952,
      "hoenix": 1953,
      "Ġnothing": 1954,
      "Ġbanding": 1955,
      "Ġsingle": 1956,
      "eer": 1957,
      "zz": 1958,
      "Ġext": 1959,
      "resh": 1960,
      "Ġcle": 1961,
      "Ġfar": 1962,
      "Ġmet": 1963,
      "ĠDom": 1964,
      "ĠGarg": 1965,
      "Ġ*<|": 1966,
      "Ġheart": 1967,
      "ĠMountain": 1968,
      "ĠCycling": 1969,
      "Ġnature": 1970,
      "ense": 1971,
      "Ġbring": 1972,
      "Ġdef": 1973,
      "ĠSap": 1974,
      "Ġhard": 1975,
      "ĠAk": 1976,
      "Ġcons": 1977,
      "ĠRes": 1978,
      "riest": 1979,
      "hop": 1980,
      "Ġshield": 1981,
      "Ġwhich": 1982,
      "inder": 1983,
      "Ġremain": 1984,
      "Ġremoved": 1985,
      "Ġthought": 1986,
      "They": 1987,
      "As": 1988,
      "To": 1989,
      "yn": 1990,
      "reed": 1991,
      "ends": 1992,
      "tless": 1993,
      "Ġsusp": 1994,
      "Ġsince": 1995,
      "oric": 1996,
      "Ġhuman": 1997,
      "ĠAur": 1998,
      "Ġbec": 1999,
      "ĠLet": 2000,
      "ĠGreat": 2001,
      "ĠGra": 2002,
      "ĠOoze": 2003,
      "aller": 2004,
      "Ġenchanted": 2005,
      "Ġflip": 2006,
      "ĠGuardian": 2007,
      "eak": 2008,
      "ira": 2009,
      "ots": 2010,
      "Ġwind": 2011,
      "Ġwild": 2012,
      "roc": 2013,
      "Ġmade": 2014,
      "ality": 2015,
      "Ġecho": 2016,
      "ĠKeep": 2017,
      "ives": 2018,
      "ĠNec": 2019,
      "aze": 2020,
      "hino": 2021,
      "Put": 2022,
      "Ġcur": 2023,
      "iti": 2024,
      "ony": 2025,
      "Ġwell": 2026,
      "Ġhope": 2027,
      "ĠDon": 2028,
      "Ġeat": 2029,
      "ĠBarb": 2030,
      "Ġplace": 2031,
      "eph": 2032,
      "ousand": 2033,
      "Ġseek": 2034,
      "ething": 2035,
      "Ġinvestigate": 2036,
      "oice": 2037,
      "selves": 2038,
      "Ġcru": 2039,
      "Ġbro": 2040,
      "Ġsn": 2041,
      "ĠWild": 2042,
      "ĠPhoenix": 2043,
      "ĠGre": 2044,
      "Ġstart": 2045,
      "Ġgraveyards": 2046,
      "Ġmagic": 2047,
      "Ġhistoric": 2048,
      "Look": 2049,
      "aired": 2050,
      "bit": 2051,
      "de": 2052,
      "Ġfeed": 2053,
      "Ġpur": 2054,
      "alad": 2055,
      "ayer": 2056,
      "eful": 2057,
      "Ġconjure": 2058,
      "ĠHalf": 2059,
      "ĠDryad": 2060,
      "ĠFungus": 2061,
      "ĠRav": 2062,
      "ĠRebel": 2063,
      "ground": 2064,
      "ech": 2065,
      "Ġopen": 2066,
      "inel": 2067,
      "onor": 2068,
      "ayers": 2069,
      "ĠFear": 2070,
      "ĠMoon": 2071,
      "right": 2072,
      "Ġren": 2073,
      "ĠKra": 2074,
      "Ġcomes": 2075,
      "Ġresult": 2076,
      "Ġtwice": 2077,
      ").": 2078,
      "fl": 2079,
      "ted": 2080,
      "Ġten": 2081,
      "Ġothers": 2082,
      "ought": 2083,
      "Ġdec": 2084,
      "Ġshall": 2085,
      "Ġperfect": 2086,
      "Ġbless": 2087,
      "ĠOnce": 2088,
      "ĠNinja": 2089,
      "cess": 2090,
      "iar": 2091,
      "ience": 2092,
      "lord": 2093,
      "Ġburn": 2094,
      "ĠAg": 2095,
      "ĠLeg": 2096,
      "Ġrep": 2097,
      "ular": 2098,
      "aim": 2099,
      "ib": 2100,
      "nic": 2101,
      "vers": 2102,
      "Ġthing": 2103,
      "Ġset": 2104,
      "ics": 2105,
      "ĠRhino": 2106,
      "ĠOnly": 2107,
      "Ġheal": 2108,
      "Ġflash": 2109,
      "Ġflesh": 2110,
      "aws": 2111,
      "Ġfeel": 2112,
      "back": 2113,
      "ek": 2114,
      "self": 2115,
      "Ġmin": 2116,
      "Ġhor": 2117,
      "veil": 2118,
      "Ġbey": 2119,
      "ĠBand": 2120,
      "acking": 2121,
      "bles": 2122,
      "ĠInf": 2123,
      "Ġsea": 2124,
      "owned": 2125,
      "ĠReveal": 2126,
      "ĠPlains": 2127,
      "ĠClue": 2128,
      "Ġmutate": 2129,
      "ĠBoar": 2130,
      "aken": 2131,
      "ng": 2132,
      "ering": 2133,
      "ana": 2134,
      "org": 2135,
      "ĠSnow": 2136,
      "Ġhide": 2137,
      "ural": 2138,
      "rage": 2139,
      "ĠDu": 2140,
      "ĠDis": 2141,
      "ĠLight": 2142,
      "lops": 2143,
      "idd": 2144,
      "Ġhands": 2145,
      "ĠUnder": 2146,
      "Ġcolors": 2147,
      "ĠStorm": 2148,
      "ĠBarbarian": 2149,
      "eath": 2150,
      "ues": 2151,
      "xic": 2152,
      "za": 2153,
      "oward": 2154,
      "Ġdisc": 2155,
      "roling": 2156,
      "Ġuse": 2157,
      "ĠInd": 2158,
      "imes": 2159,
      "Your": 2160,
      "blade": 2161,
      "ĠAny": 2162,
      "Ġmean": 2163,
      "ready": 2164,
      "ĠArmy": 2165,
      "lan": 2166,
      "ma": 2167,
      "ple": 2168,
      "aries": 2169,
      "anion": 2170,
      "amorph": 2171,
      "stone": 2172,
      "Ġhalf": 2173,
      "ĠDisc": 2174,
      "ĠBat": 2175,
      "ĠSpect": 2176,
      "Ġseen": 2177,
      "ĠExp": 2178,
      "eneral": 2179,
      "Ġaround": 2180,
      "rime": 2181,
      "Ġphas": 2182,
      "aunt": 2183,
      "cest": 2184,
      "ov": 2185,
      "reath": 2186,
      "anking": 2187,
      "Ġsy": 2188,
      "Ġsuch": 2189,
      "Ġsaf": 2190,
      "Ġwings": 2191,
      "Ġwait": 2192,
      "Ġpath": 2193,
      "entor": 2194,
      "icorn": 2195,
      "ĠInt": 2196,
      "Ġstop": 2197,
      "ĠTheir": 2198,
      "ĠNot": 2199,
      "Ġalready": 2200,
      "Ġwarrior": 2201,
      "aught": 2202,
      "app": 2203,
      "sw": 2204,
      "enge": 2205,
      "Ġold": 2206,
      "Ġyears": 2207,
      "âĢĶ<": 2208,
      "Ġthemselves": 2209,
      "ĠScaven": 2210,
      "Ġchild": 2211,
      "ĠEnchanted": 2212,
      "Ġsomething": 2213,
      "ĠSaproling": 2214,
      "ae": 2215,
      "cer": 2216,
      "dom": 2217,
      "aring": 2218,
      "ĠCaptain": 2219,
      "Ġsize": 2220,
      "acle": 2221,
      "geon": 2222,
      "ĠSy": 2223,
      "Ġinc": 2224,
      "Ġbeaut": 2225,
      "ĠEternal": 2226,
      "Ġrec": 2227,
      "ĠSpend": 2228,
      "use": 2229,
      "Ġblade": 2230,
      "Ġloy": 2231,
      "warm": 2232,
      "Ġdraft": 2233,
      "angeling": 2234,
      "ĠGargoy": 2235,
      "Ġbeyond": 2236,
      "su": 2237,
      "ames": 2238,
      "Ġbo": 2239,
      "Ġbig": 2240,
      "ows": 2241,
      "Ġdel": 2242,
      "rol": 2243,
      "ĠFox": 2244,
      "oly": 2245,
      "Ġentered": 2246,
      "ĠMentor": 2247,
      "ĠPat": 2248,
      "Ġref": 2249,
      "ades": 2250,
      "ides": 2251,
      "etimes": 2252,
      "ĠVal": 2253,
      "izes": 2254,
      "avor": 2255,
      "une": 2256,
      "Ġenchant": 2257,
      "arec": 2258,
      "shaper": 2259,
      "Ġroom": 2260,
      "Ġimp": 2261,
      "Ġgoblins": 2262,
      "ĠSentinel": 2263,
      "tra": 2264,
      "Ġcare": 2265,
      "ĠCount": 2266,
      "Ġmod": 2267,
      "Ġmem": 2268,
      "ily": 2269,
      "ĠTy": 2270,
      "ĠMa": 2271,
      "ĠBal": 2272,
      "ĠGor": 2273,
      "Ġspend": 2274,
      "rus": 2275,
      "igure": 2276,
      "ĠInc": 2277,
      "Ġworth": 2278,
      "Ġparty": 2279,
      "Ġelse": 2280,
      "alty": 2281,
      "Ġacross": 2282,
      "ĠGargoyle": 2283,
      "Create": 2284,
      "tell": 2285,
      "ĠCast": 2286,
      "Ġdanger": 2287,
      "Ġfamil": 2288,
      "Ġancient": 2289,
      "Ġmove": 2290,
      "ĠTur": 2291,
      "Ġgiant": 2292,
      "ĠHexproof": 2293,
      "Ġne": 2294,
      "asc": 2295,
      "ĠBen": 2296,
      "ĠGate": 2297,
      "ĠGold": 2298,
      "Ġdeck": 2299,
      "unger": 2300,
      "ĠThresh": 2301,
      "Ġequipped": 2302,
      "ĠJust": 2303,
      "ĠServ": 2304,
      "ĠGuild": 2305,
      "work": 2306,
      "ĠBackground": 2307,
      "hopter": 2308,
      "craft": 2309,
      "du": 2310,
      "itan": 2311,
      "ĠWind": 2312,
      "Ġpat": 2313,
      "ils": 2314,
      "Ġhold": 2315,
      "ras": 2316,
      "omad": 2317,
      "Ġspecial": 2318,
      "Ġdeep": 2319,
      "egamorph": 2320,
      "ĠNy": 2321,
      "ieve": 2322,
      "eman": 2323,
      "arer": 2324,
      "Ġdiscarded": 2325,
      "Ġtravel": 2326,
      "Ġquick": 2327,
      "Ġpartner": 2328,
      "Ġbetter": 2329,
      "ĠThreshold": 2330,
      "rew": 2331,
      "Ġthousand": 2332,
      "Ġmakes": 2333,
      "Ġlater": 2334,
      "ical": 2335,
      "leep": 2336,
      "Ġbeh": 2337,
      "ĠRen": 2338,
      "rier": 2339,
      "ected": 2340,
      "ĠChangeling": 2341,
      "ished": 2342,
      "Ġquest": 2343,
      "Ġenemies": 2344,
      "arecrow": 2345,
      "sed": 2346,
      "Ġter": 2347,
      "Ġtell": 2348,
      "eran": 2349,
      "arp": 2350,
      "ĠCrab": 2351,
      "Ġsound": 2352,
      "ories": 2353,
      "ĠSag": 2354,
      "ĠThopter": 2355,
      "rag": 2356,
      "uture": 2357,
      "Ġbeast": 2358,
      "ady": 2359,
      "key": 2360,
      "ĠOct": 2361,
      "ĠShade": 2362,
      "Ġseem": 2363,
      "Ġdestroyed": 2364,
      "Ġunb": 2365,
      "Ġsoon": 2366,
      "ĠRob": 2367,
      "emanship": 2368,
      "Each": 2369,
      "mith": 2370,
      "oot": 2371,
      "Ġtouch": 2372,
      "Ġair": 2373,
      "orce": 2374,
      "Ġwr": 2375,
      "Ġpast": 2376,
      "Ġinv": 2377,
      "ĠEcho": 2378,
      "ĠRak": 2379,
      "ĠPe": 2380,
      "ĠPar": 2381,
      "ids": 2382,
      "Ġputs": 2383,
      "rupt": 2384,
      "ĠThese": 2385,
      "Ġchar": 2386,
      "Ġexcess": 2387,
      "atherlight": 2388,
      "Ġdays": 2389,
      "hic": 2390,
      "iev": 2391,
      "ock": 2392,
      "voke": 2393,
      "atyr": 2394,
      "Ġcry": 2395,
      "Ġob": 2396,
      "ĠWor": 2397,
      "els": 2398,
      "gether": 2399,
      "Ġins": 2400,
      "ĠMind": 2401,
      "ĠKami": 2402,
      "Ġexert": 2403,
      "ĠVe": 2404,
      "Ġvot": 2405,
      "aval": 2406,
      "opus": 2407,
      "Ġarmy": 2408,
      "Ġenemy": 2409,
      "aladin": 2410,
      "ĠHalfling": 2411,
      "mit": 2412,
      "ric": 2413,
      "ty": 2414,
      "eng": 2415,
      "ination": 2416,
      "ften": 2417,
      "Ġben": 2418,
      "ĠCor": 2419,
      "Ġwall": 2420,
      "Ġwater": 2421,
      "urg": 2422,
      "ĠAm": 2423,
      "rix": 2424,
      "Ġcountered": 2425,
      "ĠGe": 2426,
      "loom": 2427,
      "ĠKar": 2428,
      "ĠKing": 2429,
      "ĠOur": 2430,
      "ires": 2431,
      "ĠScarecrow": 2432,
      "iple": 2433,
      "Ġsmall": 2434,
      "ĠSpells": 2435,
      "ĠCyclops": 2436,
      "Ġwords": 2437,
      "ĠProwess": 2438,
      "Ġsoldiers": 2439,
      "rocod": 2440,
      "ĠOctopus": 2441,
      "Ġoften": 2442,
      "ori": 2443,
      "rod": 2444,
      "Ġpack": 2445,
      "ĠAug": 2446,
      "ĠDel": 2447,
      "ĠDead": 2448,
      "ĠFish": 2449,
      "olves": 2450,
      "Ġearth": 2451,
      "ĠMet": 2452,
      "ĠPil": 2453,
      "ĠBar": 2454,
      "ĠGru": 2455,
      "rull": 2456,
      "ĠNe": 2457,
      "rawler": 2458,
      "ĠZh": 2459,
      "ĠElves": 2460,
      "ĠHorse": 2461,
      "Ġeverything": 2462,
      "ĠWhile": 2463,
      "ĠUnicorn": 2464,
      "Ġcreates": 2465,
      "ĠRavnic": 2466,
      "Human": 2467,
      "eker": 2468,
      "iet": 2469,
      "kers": 2470,
      "Ġz": 2471,
      "erate": 2472,
      "atic": 2473,
      "Ġbreak": 2474,
      "Ġsaw": 2475,
      "Ġsaid": 2476,
      "ĠTem": 2477,
      "Ġgift": 2478,
      "Ġinsp": 2479,
      "ley": 2480,
      "Ġemer": 2481,
      "ĠBro": 2482,
      "rib": 2483,
      "Ġrel": 2484,
      "ket": 2485,
      "Ġcannot": 2486,
      "Ġlives": 2487,
      "Ġexist": 2488,
      "iving": 2489,
      "odon": 2490,
      "Ġjour": 2491,
      "Ġexper": 2492,
      "ĠHerald": 2493,
      "ĠSpellshaper": 2494,
      "ĠMany": 2495,
      "Ġdarkness": 2496,
      "ĠComm": 2497,
      "Ġcycle": 2498,
      "ĠCounter": 2499,
      "rocodile": 2500,
      "Ar": 2501,
      "ye": 2502,
      "reaker": 2503,
      "Ġtrans": 2504,
      "era": 2505,
      "ining": 2506,
      "ĠCar": 2507,
      "Ġsub": 2508,
      "oros": 2509,
      "Ġfuture": 2510,
      "Ġmort": 2511,
      "Ġleg": 2512,
      "Ġlegend": 2513,
      "Ġhonor": 2514,
      "Ġnear": 2515,
      "ols": 2516,
      "olog": 2517,
      "ĠRing": 2518,
      "het": 2519,
      "cher": 2520,
      "Ġstud": 2521,
      "Ġcasting": 2522,
      "Ġcoin": 2523,
      "ruit": 2524,
      "Ġvis": 2525,
      "aving": 2526,
      "erer": 2527,
      "keeper": 2528,
      "Ġwasn": 2529,
      "Ġremem": 2530,
      "Ġprec": 2531,
      "ĠDeep": 2532,
      "Ġtrig": 2533,
      "Ġeye": 2534,
      "Ġtrees": 2535,
      "ĠArcane": 2536,
      "eel": 2537,
      "Ġcou": 2538,
      "iner": 2539,
      "inity": 2540,
      "ĠCrocodile": 2541,
      "Ġdu": 2542,
      "Ġdun": 2543,
      "Ġangel": 2544,
      "Ġmadness": 2545,
      "Ġho": 2546,
      "ĠAz": 2547,
      "ĠAether": 2548,
      "rak": 2549,
      "ĠIm": 2550,
      "ask": 2551,
      "Ġstorm": 2552,
      "Ġexiles": 2553,
      "ĠOb": 2554,
      "illed": 2555,
      "rows": 2556,
      "Ġadv": 2557,
      "Ġbehind": 2558,
      "EL": 2559,
      "aos": 2560,
      "bers": 2561,
      "cul": 2562,
      "guard": 2563,
      "Ġcrime": 2564,
      "Ġact": 2565,
      "Ġbones": 2566,
      "Ġsim": 2567,
      "Ġdri": 2568,
      "Ġfree": 2569,
      "ĠWatch": 2570,
      "Ġwhis": 2571,
      "Ġmatter": 2572,
      "ĠTime": 2573,
      "ĠTrans": 2574,
      "ĠHom": 2575,
      "ĠDawn": 2576,
      "Ġwithin": 2577,
      "ĠRed": 2578,
      "ĠPaladin": 2579,
      "Ġstone": 2580,
      "egas": 2581,
      "imic": 2582,
      "Ġshroud": 2583,
      "Ġcollect": 2584,
      "opy": 2585,
      "Ġfights": 2586,
      "annel": 2587,
      "Ġsecrets": 2588,
      "aj": 2589,
      "ault": 2590,
      "gan": 2591,
      "iend": 2592,
      "sided": 2593,
      "Ġcr": 2594,
      "amm": 2595,
      "ites": 2596,
      "isher": 2597,
      "stic": 2598,
      "Ġtogether": 2599,
      "alia": 2600,
      "ĠSatyr": 2601,
      "ĠApp": 2602,
      "rap": 2603,
      "rash": 2604,
      "ĠDusk": 2605,
      "ĠEf": 2606,
      "ĠRab": 2607,
      "ĠRaven": 2608,
      "ĠLevel": 2609,
      "ĠBas": 2610,
      "Ġresp": 2611,
      "Ġask": 2612,
      "Ġsticker": 2613,
      "locked": 2614,
      "ims": 2615,
      "Ġlonger": 2616,
      "ĠInst": 2617,
      "Ġmonarch": 2618,
      "ause": 2619,
      "Ġelves": 2620,
      "Ġbelieve": 2621,
      "ride": 2622,
      "Ġlearned": 2623,
      "liferate": 2624,
      "Ġgods": 2625,
      "Ġrenowned": 2626,
      "Ġphases": 2627,
      "ĠTyran": 2628,
      "ĠTurtle": 2629,
      "An": 2630,
      "eal": 2631,
      "iath": 2632,
      "ject": 2633,
      "Ġtry": 2634,
      "Ġtoward": 2635,
      "Ġcor": 2636,
      "Ġbra": 2637,
      "owing": 2638,
      "Ġfield": 2639,
      "ĠWhy": 2640,
      "Ġpaired": 2641,
      "Ġmark": 2642,
      "ĠSm": 2643,
      "Ġund": 2644,
      "Ġgot": 2645,
      "ĠDark": 2646,
      "Ġnec": 2647,
      "ĠFrom": 2648,
      "ĠFamil": 2649,
      "olored": 2650,
      "ĠMist": 2651,
      "Ġvol": 2652,
      "ulk": 2653,
      "ĠAncient": 2654,
      "ĠChim": 2655,
      "ĠFlame": 2656,
      "Ġcloud": 2657,
      "Ġknows": 2658,
      "ĠMonst": 2659,
      "plicate": 2660,
      "Ġknown": 2661,
      "ĠBattle": 2662,
      "ĠLegion": 2663,
      "egasus": 2664,
      "EV": 2665,
      "ao": 2666,
      "Ġ|": 2667,
      "ened": 2668,
      "arl": 2669,
      "ender": 2670,
      "Ġbreath": 2671,
      "Ġmult": 2672,
      "ĠSav": 2673,
      "ific": 2674,
      "ĠTer": 2675,
      "ĠTitan": 2676,
      "ĠHost": 2677,
      "Ġcontrolled": 2678,
      "olve": 2679,
      "ĠLEV": 2680,
      "ĠMay": 2681,
      "head": 2682,
      "Ġdecl": 2683,
      "ĠOut": 2684,
      "quis": 2685,
      "ĠInsp": 2686,
      "ages": 2687,
      "Ġsteps": 2688,
      "Ġlesser": 2689,
      "ounded": 2690,
      "ĠSlivers": 2691,
      "enerated": 2692,
      "Ġrage": 2693,
      "ĠMinion": 2694,
      "ĠRats": 2695,
      "ĠKraken": 2696,
      "ĠRavnica": 2697,
      "ĠLEVEL": 2698,
      "__": 2699,
      "ki": 2700,
      "rath": 2701,
      "ret": 2702,
      "Ġtext": 2703,
      "onin": 2704,
      "Ġborn": 2705,
      "Ġsent": 2706,
      "isk": 2707,
      "Ġpain": 2708,
      "ĠAff": 2709,
      "ĠHow": 2710,
      "ĠDread": 2711,
      "utsu": 2712,
      "asm": 2713,
      "Ġturns": 2714,
      "ĠPrim": 2715,
      "Ġlive": 2716,
      "ĠSpawn": 2717,
      "Ġking": 2718,
      "Ġwhy": 2719,
      "ĠThough": 2720,
      "ĠElvish": 2721,
      "ĠUnd": 2722,
      "othing": 2723,
      "Ġpred": 2724,
      "ption": 2725,
      "Ġsurveil": 2726,
      "Ġcreated": 2727,
      "Ġcarry": 2728,
      "ĠGhoul": 2729,
      "Ġescape": 2730,
      "ĠSpecter": 2731,
      "Ġunblocked": 2732,
      "Ġdungeon": 2733,
      "We": 2734,
      "borg": 2735,
      "cy": 2736,
      "cyc": 2737,
      "fire": 2738,
      "ris": 2739,
      "utl": 2740,
      "ern": 2741,
      "Ġaw": 2742,
      "itu": 2743,
      "Ġbody": 2744,
      "ĠCur": 2745,
      "Ġsure": 2746,
      "Ġfier": 2747,
      "ĠSage": 2748,
      "ĠSwarm": 2749,
      "ĠDream": 2750,
      "Ġnor": 2751,
      "ĠMo": 2752,
      "ĠBest": 2753,
      "ries": 2754,
      "idence": 2755,
      "ets": 2756,
      "Ġgained": 2757,
      "ized": 2758,
      "Ġaren": 2759,
      "Ġabove": 2760,
      "ĠInfect": 2761,
      "aging": 2762,
      "ague": 2763,
      "aking": 2764,
      "Ġlove": 2765,
      "ront": 2766,
      "ertain": 2767,
      "Ġglory": 2768,
      "rosity": 2769,
      "Ġweapons": 2770,
      "uced": 2771,
      "ĠFamiliar": 2772,
      "Choose": 2773,
      "ders": 2774,
      "ges": 2775,
      "pose": 2776,
      "scape": 2777,
      "Ġge": 2778,
      "Ġav": 2779,
      "ĠCaval": 2780,
      "Ġdone": 2781,
      "elcom": 2782,
      "Ġmere": 2783,
      "ĠArt": 2784,
      "Ġiniti": 2785,
      "ĠFore": 2786,
      "ason": 2787,
      "ĠEnt": 2788,
      "Ġeight": 2789,
      "ĠRiver": 2790,
      "ĠPriest": 2791,
      "ĠGol": 2792,
      "ches": 2793,
      "Ġspeak": 2794,
      "ĠOx": 2795,
      "ĠVol": 2796,
      "ments": 2797,
      "ĠThrull": 2798,
      "ĠZombies": 2799,
      "ĠScion": 2800,
      "Ġoutside": 2801,
      "Ġcomple": 2802,
      "alted": 2803,
      "raction": 2804,
      "ĠPhant": 2805,
      "Ġfriends": 2806,
      "Ġforever": 2807,
      "Ġloyalty": 2808,
      "Ġspecializes": 2809,
      "ĠTyranid": 2810,
      "caller": 2811,
      "horn": 2812,
      "ipp": 2813,
      "ral": 2814,
      "wing": 2815,
      "zan": 2816,
      "inct": 2817,
      "owar": 2818,
      "Ġsqu": 2819,
      "Ġdestruct": 2820,
      "Ġfle": 2821,
      "Ġfell": 2822,
      "Ġwis": 2823,
      "elt": 2824,
      "Ġmo": 2825,
      "Ġgold": 2826,
      "ĠHigh": 2827,
      "ummon": 2828,
      "Ġdep": 2829,
      "iders": 2830,
      "Ġvill": 2831,
      "Ġreturned": 2832,
      "ĠPlot": 2833,
      "ledge": 2834,
      "ĠSea": 2835,
      "Ġsupp": 2836,
      "Ġserv": 2837,
      "Ġtruth": 2838,
      "Ġknew": 2839,
      "Ġsouls": 2840,
      "Ġregenerated": 2841,
      "ĠGnome": 2842,
      "Ġsurviv": 2843,
      "Ġbuild": 2844,
      "Ġweapon": 2845,
      "Ġblessing": 2846,
      "lanowar": 2847,
      "ĠDisciple": 2848,
      "hi": 2849,
      "hold": 2850,
      "Ġcent": 2851,
      "ited": 2852,
      "Ġdire": 2853,
      "eless": 2854,
      "rost": 2855,
      "Ġmar": 2856,
      "Ġmain": 2857,
      "ĠTw": 2858,
      "ĠEmb": 2859,
      "olar": 2860,
      "ĠRun": 2861,
      "Ġspore": 2862,
      "ĠSpy": 2863,
      "ills": 2864,
      "Ġshow": 2865,
      "iege": 2866,
      "Ġtakes": 2867,
      "otten": 2868,
      "Ġcommon": 2869,
      "igns": 2870,
      "former": 2871,
      "Ġexplores": 2872,
      "Ġfaith": 2873,
      "Ġdragons": 2874,
      "Ġbecame": 2875,
      "Ġbeneath": 2876,
      "culus": 2877,
      "ĠEfreet": 2878,
      "ĠChimera": 2879,
      "Weatherlight": 2880,
      "cycling": 2881,
      "ha": 2882,
      "kite": 2883,
      "pers": 2884,
      "rin": 2885,
      "two": 2886,
      "ani": 2887,
      "itz": 2888,
      "ĠCan": 2889,
      "ĠCel": 2890,
      "ĠWitch": 2891,
      "Ġwish": 2892,
      "Ġansw": 2893,
      "stand": 2894,
      "Ġtook": 2895,
      "ĠSal": 2896,
      "Ġhar": 2897,
      "Ġhunger": 2898,
      "edge": 2899,
      "ĠAp": 2900,
      "ĠTor": 2901,
      "ĠTyr": 2902,
      "umbl": 2903,
      "ĠRa": 2904,
      "ĠPy": 2905,
      "ĠBard": 2906,
      "Ġspread": 2907,
      "ada": 2908,
      "Ġstun": 2909,
      "aps": 2910,
      "ĠKam": 2911,
      "ĠOutl": 2912,
      "Ġshap": 2913,
      "outh": 2914,
      "ĠThunder": 2915,
      "ĠElite": 2916,
      "ĠGoblins": 2917,
      "iper": 2918,
      "oph": 2919,
      "ĠPhyrexia": 2920,
      "Ġflame": 2921,
      "ĠOrder": 2922,
      "venture": 2923,
      "Ġskies": 2924,
      "ĠCloud": 2925,
      "Ġcompanion": 2926,
      "ĠGuide": 2927,
      "Ġevidence": 2928,
      "Ġserve": 2929,
      "Ġbestow": 2930,
      "ĠNinjutsu": 2931,
      "ĠHunter": 2932,
      "ĠHeroic": 2933,
      "Ġmetal": 2934,
      "Ġpurpose": 2935,
      "ĠDisguise": 2936,
      "ĠIndestructible": 2937,
      "ĠExplo": 2938,
      "ascade": 2939,
      "ĠVehic": 2940,
      "cle": 2941,
      "forc": 2942,
      "the": 2943,
      "ately": 2944,
      "oup": 2945,
      "Ġdr": 2946,
      "ora": 2947,
      "orrow": 2948,
      "ĠWhere": 2949,
      "ĠSire": 2950,
      "Ġline": 2951,
      "eds": 2952,
      "ĠAut": 2953,
      "Ġgener": 2954,
      "Ġgriffin": 2955,
      "ices": 2956,
      "icolored": 2957,
      "Ġones": 2958,
      "omat": 2959,
      "irin": 2960,
      "olf": 2961,
      "ĠLike": 2962,
      "ĠMult": 2963,
      "Ġreal": 2964,
      "acker": 2965,
      "romancer": 2966,
      "ader": 2967,
      "ĠVet": 2968,
      "ĠNew": 2969,
      "ĠNomad": 2970,
      "ĠUl": 2971,
      "Ġchooses": 2972,
      "ĠArg": 2973,
      "ĠChannel": 2974,
      "ĠMystic": 2975,
      "Ġpoint": 2976,
      "ĠToxic": 2977,
      "Ġdeadly": 2978,
      "Ġdisguise": 2979,
      "Ġnatural": 2980,
      "rentice": 2981,
      "ĠUrza": 2982,
      "Ġeasy": 2983,
      "ĠAuras": 2984,
      "Ġstarting": 2985,
      "Ġsymb": 2986,
      "ĠMonstrosity": 2987,
      "ĠBestow": 2988,
      "een": 2989,
      "figure": 2990,
      "over": 2991,
      "Ġ.<|": 2992,
      "erm": 2993,
      "Ġbur": 2994,
      "ĠCou": 2995,
      "Ġfury": 2996,
      "Ġwalk": 2997,
      "Ġpers": 2998,
      "Ġmom": 2999,
      "Ġhors": 3000,
      "iful": 3001,
      "Ġconn": 3002,
      "leg": 3003,
      "ution": 3004,
      "ĠRapt": 3005,
      "heart": 3006,
      "ĠBush": 3007,
      "loy": 3008,
      "imid": 3009,
      "Ġvampire": 3010,
      "iance": 3011,
      "Ġkami": 3012,
      "Ġowners": 3013,
      "ĠStone": 3014,
      "Ġcopies": 3015,
      "Ġclaim": 3016,
      "gress": 3017,
      "Ġteeth": 3018,
      "ĠComp": 3019,
      "Ġsteel": 3020,
      "Ġdangerous": 3021,
      "ĠVeteran": 3022,
      "cc": 3023,
      "cept": 3024,
      "dos": 3025,
      "fer": 3026,
      "ni": 3027,
      "well": 3028,
      "ank": 3029,
      "ĠCy": 3030,
      "acred": 3031,
      "Ġfun": 3032,
      "ĠWay": 3033,
      "ĠWill": 3034,
      "ĠWood": 3035,
      "rov": 3036,
      "alking": 3037,
      "ĠSu": 3038,
      "ĠSom": 3039,
      "Ġlevel": 3040,
      "edition": 3041,
      "icore": 3042,
      "Ġconst": 3043,
      "ĠFall": 3044,
      "asant": 3045,
      "ĠRu": 3046,
      "ĠRaid": 3047,
      "ĠLlanowar": 3048,
      "ĠMal": 3049,
      "ĠPegasus": 3050,
      "ido": 3051,
      "Ġattacker": 3052,
      "Ġattackers": 3053,
      "Ġvery": 3054,
      "ĠShield": 3055,
      "ister": 3056,
      "isted": 3057,
      "unculus": 3058,
      "ths": 3059,
      "ĠElk": 3060,
      "ĠRecon": 3061,
      "Ġchange": 3062,
      "ĠChar": 3063,
      "Ġunp": 3064,
      "Ġrock": 3065,
      "Ġarri": 3066,
      "pts": 3067,
      "ĠSeer": 3068,
      "issary": 3069,
      "ĠSquad": 3070,
      "ĠWarden": 3071,
      "ĠDesert": 3072,
      "Ġeffects": 3073,
      "oggart": 3074,
      "Ġsurvive": 3075,
      "ounc": 3076,
      "ĠDomin": 3077,
      "Ġmeaning": 3078,
      "Ġbeauty": 3079,
      "Ġquickly": 3080,
      "ĠRakdos": 3081,
      "10": 3082,
      "Re": 3083,
      "me": 3084,
      "ature": 3085,
      "Ġside": 3086,
      "Ġsadd": 3087,
      "ised": 3088,
      "Ġfood": 3089,
      "ĠWho": 3090,
      "ĠWhis": 3091,
      "Ġancest": 3092,
      "Ġposs": 3093,
      "Ġmast": 3094,
      "Ġharm": 3095,
      "ĠApe": 3096,
      "ĠTief": 3097,
      "rad": 3098,
      "eldor": 3099,
      "ĠFer": 3100,
      "umul": 3101,
      "ĠLi": 3102,
      "Ġforce": 3103,
      "ched": 3104,
      "ĠKeld": 3105,
      "rush": 3106,
      "ĠVi": 3107,
      "hov": 3108,
      "Ġenc": 3109,
      "ĠInv": 3110,
      "ĠSkir": 3111,
      "Ġhero": 3112,
      "sper": 3113,
      "ators": 3114,
      "Ġproliferate": 3115,
      "ĠRoot": 3116,
      "ungle": 3117,
      "ĠHellion": 3118,
      "hemoth": 3119,
      "Ġvictims": 3120,
      "Ġdreams": 3121,
      "Ġrepres": 3122,
      "Ġchildren": 3123,
      "Ġjournal": 3124,
      "ĠTiefling": 3125,
      "Ch": 3126,
      "jeldor": 3127,
      "Ġve": 3128,
      "Ġwood": 3129,
      "Ġpot": 3130,
      "aler": 3131,
      "ĠSec": 3132,
      "ĠHag": 3133,
      "ĠMost": 3134,
      "ĠPower": 3135,
      "ĠProt": 3136,
      "Ġplaces": 3137,
      "ety": 3138,
      "ueen": 3139,
      "Ġship": 3140,
      "avim": 3141,
      "ĠThief": 3142,
      "Ġrise": 3143,
      "ops": 3144,
      "ĠCons": 3145,
      "Ġflanking": 3146,
      "Ġgoad": 3147,
      "Ġwarning": 3148,
      "Ġrule": 3149,
      "ĠYavim": 3150,
      "ĠBlack": 3151,
      "ĠSwampwalk": 3152,
      "undred": 3153,
      "ĠSilver": 3154,
      "Ġclear": 3155,
      "ĠRabbit": 3156,
      "Ġwisdom": 3157,
      "umulative": 3158,
      "El": 3159,
      "Pl": 3160,
      "breaker": 3161,
      "can": 3162,
      "ebr": 3163,
      "gotten": 3164,
      "ka": 3165,
      "oin": 3166,
      "uro": 3167,
      "Ġtree": 3168,
      "Ġcut": 3169,
      "Ġthird": 3170,
      "ino": 3171,
      "ures": 3172,
      "anct": 3173,
      "itt": 3174,
      "owed": 3175,
      "Ġsong": 3176,
      "Ġsleep": 3177,
      "Ġdruid": 3178,
      "Ġfull": 3179,
      "gered": 3180,
      "Ġmist": 3181,
      "ĠSusp": 3182,
      "ility": 3183,
      "ĠAst": 3184,
      "icious": 3185,
      "ĠIron": 3186,
      "ĠDef": 3187,
      "umm": 3188,
      "ĠRev": 3189,
      "ĠRad": 3190,
      "ĠRamp": 3191,
      "ĠLo": 3192,
      "ĠMant": 3193,
      "Ġstay": 3194,
      "imir": 3195,
      "ĠKob": 3196,
      "ĠKjeldor": 3197,
      "ĠOt": 3198,
      "ulate": 3199,
      "Ġdrawn": 3200,
      "ĠBee": 3201,
      "Ġmeans": 3202,
      "ĠConvoke": 3203,
      "icks": 3204,
      "Ġscout": 3205,
      "range": 3206,
      "abal": 3207,
      "ĠArchon": 3208,
      "Ġsurf": 3209,
      "ĠBlade": 3210,
      "ĠLife": 3211,
      "Ġteach": 3212,
      "Ġguild": 3213,
      "attered": 3214,
      "Ġtreasure": 3215,
      "ĠAttraction": 3216,
      "ĠPerformer": 3217,
      "Ġspirits": 3218,
      "Ġfamily": 3219,
      "ĠRobot": 3220,
      "Ġduplicate": 3221,
      "ĠTyrant": 3222,
      "ĠReconfigure": 3223,
      "ĠYavimaya": 3224,
      "ĠKobold": 3225,
      "bound": 3226,
      "ging": 3227,
      "li": 3228,
      "ne": 3229,
      "rator": 3230,
      "Ġtact": 3231,
      "erial": 3232,
      "Ġcold": 3233,
      "Ġcatch": 3234,
      "endik": 3235,
      "Ġyoung": 3236,
      "Ġpair": 3237,
      "ĠSand": 3238,
      "enture": 3239,
      "ĠAmb": 3240,
      "ĠHand": 3241,
      "irium": 3242,
      "Ġbegan": 3243,
      "asion": 3244,
      "ĠEye": 3245,
      "ĠMor": 3246,
      "Ġrequ": 3247,
      "Ġrealm": 3248,
      "Ġstreet": 3249,
      "immer": 3250,
      "ĠOff": 3251,
      "ĠNothing": 3252,
      "Ġvoice": 3253,
      "unn": 3254,
      "unning": 3255,
      "ĠZendik": 3256,
      "Ġwhose": 3257,
      "ĠScry": 3258,
      "ĠJack": 3259,
      "awa": 3260,
      "ortun": 3261,
      "ĠAlien": 3262,
      "Ġprov": 3263,
      "ĠSerra": 3264,
      "Ġshadows": 3265,
      "ĠMarsh": 3266,
      "ĠLeech": 3267,
      "Ġkeeps": 3268,
      "ĠAttach": 3269,
      "Ġdivide": 3270,
      "Ġbecause": 3271,
      "ĠGuildmage": 3272,
      "ĠHomunculus": 3273,
      "Ġsymbol": 3274,
      "ĠRaptor": 3275,
      "..": 3276,
      "Artifact": 3277,
      "down": 3278,
      "uv": 3279,
      "viv": 3280,
      "Ġ/": 3281,
      "rest": 3282,
      "Ġtreat": 3283,
      "Ġcour": 3284,
      "iny": 3285,
      "ĠCumulative": 3286,
      "Ġsight": 3287,
      "ision": 3288,
      "acc": 3289,
      "acy": 3290,
      "aced": 3291,
      "Ġluck": 3292,
      "ified": 3293,
      "ĠTru": 3294,
      "ĠHear": 3295,
      "ĠFle": 3296,
      "irt": 3297,
      "ĠEmer": 3298,
      "idar": 3299,
      "ĠNim": 3300,
      "ĠShroud": 3301,
      "Ġknight": 3302,
      "Ġreturns": 3303,
      "ĠAnother": 3304,
      "Ġrounded": 3305,
      "ĠStr": 3306,
      "anguard": 3307,
      "ĠJun": 3308,
      "ishing": 3309,
      "Ġplaneswalkers": 3310,
      "Ġgroup": 3311,
      "Ġadapt": 3312,
      "ĠDomain": 3313,
      "ĠKeeper": 3314,
      "Ġwarriors": 3315,
      "ĠSagas": 3316,
      "Ġbeasts": 3317,
      "ĠDelirium": 3318,
      "ĠGruul": 3319,
      "Ġmulticolored": 3320,
      "Ġdeclared": 3321,
      "Ġdestruction": 3322,
      "ĠVehicle": 3323,
      "ĠSiren": 3324,
      "Ġhorsemanship": 3325,
      "line": 3326,
      "ms": 3327,
      "most": 3328,
      "oh": 3329,
      "son": 3330,
      "tacking": 3331,
      "wh": 3332,
      "Ġtied": 3333,
      "Ġcross": 3334,
      "Ġthreat": 3335,
      "ended": 3336,
      "Ġsign": 3337,
      "Ġwizard": 3338,
      "Ġwake": 3339,
      "Ġwelcom": 3340,
      "rove": 3341,
      "stalker": 3342,
      "alion": 3343,
      "ĠSadd": 3344,
      "enth": 3345,
      "Ġhorn": 3346,
      "Ġhost": 3347,
      "Ġhundred": 3348,
      "urt": 3349,
      "uty": 3350,
      "olved": 3351,
      "ĠRider": 3352,
      "ĠLev": 3353,
      "ĠLore": 3354,
      "ĠPra": 3355,
      "ĠPack": 3356,
      "ĠBog": 3357,
      "ĠBoros": 3358,
      "ribe": 3359,
      "Ġready": 3360,
      "ĠGeneral": 3361,
      "Ġforces": 3362,
      "ching": 3363,
      "ained": 3364,
      "ĠOm": 3365,
      "run": 3366,
      "iven": 3367,
      "Ġvi": 3368,
      "uls": 3369,
      "ashino": 3370,
      "ĠWhite": 3371,
      "Ġrare": 3372,
      "ĠOrcs": 3373,
      "Ġtruly": 3374,
      "Ġevil": 3375,
      "Ġteam": 3376,
      "Attacking": 3377,
      "Ġfoot": 3378,
      "orpion": 3379,
      "orpse": 3380,
      "Ġbroken": 3381,
      "idden": 3382,
      "orcerer": 3383,
      "ĠGeist": 3384,
      "Ġremember": 3385,
      "ĠBushido": 3386,
      "Ġsaddled": 3387,
      "Ġrepresents": 3388,
      "Players": 3389,
      "ĠZendikar": 3390,
      "gar": 3391,
      "nce": 3392,
      "naut": 3393,
      "Ġterr": 3394,
      "Ġche": 3395,
      "Ġaff": 3396,
      "Ġbad": 3397,
      "Ġbird": 3398,
      "ĠCry": 3399,
      "acious": 3400,
      "actly": 3401,
      "roach": 3402,
      "Ġprom": 3403,
      "Ġmach": 3404,
      "Ġmiss": 3405,
      "ala": 3406,
      "alcon": 3407,
      "ĠSel": 3408,
      "Ġlaw": 3409,
      "enty": 3410,
      "uries": 3411,
      "ĠTe": 3412,
      "ician": 3413,
      "lector": 3414,
      "ased": 3415,
      "ĠEnd": 3416,
      "Ġeager": 3417,
      "ĠRel": 3418,
      "ĠProtect": 3419,
      "Ġstrange": 3420,
      "egade": 3421,
      "Ġexactly": 3422,
      "ĠOver": 3423,
      "izz": 3424,
      "tooth": 3425,
      "Ġshaman": 3426,
      "term": 3427,
      "ĠBehemoth": 3428,
      "ĠStalker": 3429,
      "ĠDragons": 3430,
      "Ġscream": 3431,
      "ĠRole": 3432,
      "Ġresearch": 3433,
      "issa": 3434,
      "ĠMutate": 3435,
      "Ġfollowing": 3436,
      "Ġcalled": 3437,
      "ĠHellkite": 3438,
      "ĠMirrod": 3439,
      "Ġfriend": 3440,
      "Ġcontin": 3441,
      "ĠAgent": 3442,
      "Ġneither": 3443,
      "ĠPeasant": 3444,
      "Ġcharge": 3445,
      "Ġlegendaries": 3446,
      "ĠApprentice": 3447,
      "ĠRavenous": 3448,
      "imidate": 3449,
      "ĠSuspend": 3450,
      "Ġsurface": 3451,
      "Artifacts": 3452,
      "ĠSaddle": 3453,
      "ĠLeviath": 3454,
      "ĠMirrodin": 3455,
      "Unt": 3456,
      "basic": 3457,
      "day": 3458,
      "eaker": 3459,
      "io": 3460,
      "ns": 3461,
      "ned": 3462,
      "tide": 3463,
      "zhov": 3464,
      "Ġgh": 3465,
      "enom": 3466,
      "init": 3467,
      "aria": 3468,
      "ĠCap": 3469,
      "ĠCopy": 3470,
      "Ġsav": 3471,
      "Ġsummon": 3472,
      "Ġfly": 3473,
      "roat": 3474,
      "alish": 3475,
      "Ġlist": 3476,
      "Ġgone": 3477,
      "Ġtargeted": 3478,
      "ĠMur": 3479,
      "hether": 3480,
      "ĠPur": 3481,
      "ĠPers": 3482,
      "ĠBel": 3483,
      "ĠBra": 3484,
      "riad": 3485,
      "chief": 3486,
      "Ġdem": 3487,
      "adem": 3488,
      "kets": 3489,
      "ction": 3490,
      "ĠKal": 3491,
      "ĠKros": 3492,
      "ĠVoice": 3493,
      "bringer": 3494,
      "ests": 3495,
      "black": 3496,
      "ĠThorn": 3497,
      "Ġcoming": 3498,
      "ĠExalted": 3499,
      "ounds": 3500,
      "ĠKnights": 3501,
      "angle": 3502,
      "ĠContra": 3503,
      "Ġshuffles": 3504,
      "Ġpres": 3505,
      "ĠWeaver": 3506,
      "Ġreduced": 3507,
      "Ġenchantments": 3508,
      "ĠOrzhov": 3509,
      "Ġago": 3510,
      "ĠAdept": 3511,
      "Ġsurp": 3512,
      "claw": 3513,
      "ugger": 3514,
      "ĠIslandwalk": 3515,
      "ĠQueen": 3516,
      "Ġtrust": 3517,
      "Ġpeace": 3518,
      "Ġsometimes": 3519,
      "Ġsecret": 3520,
      "Ġvictory": 3521,
      "ĠAvenger": 3522,
      "Ġclose": 3523,
      "ĠGreen": 3524,
      "Ġwaiting": 3525,
      "ĠPatrol": 3526,
      "Ġwalls": 3527,
      "Ġtriggered": 3528,
      "Ġclouds": 3529,
      "ĠFleet": 3530,
      "Until": 3531,
      "initely": 3532,
      "20": 3533,
      "cat": 3534,
      "iqu": 3535,
      "oz": 3536,
      "Ġir": 3537,
      "Ġthunder": 3538,
      "ammer": 3539,
      "ĠCabal": 3540,
      "Ġsol": 3541,
      "Ġfade": 3542,
      "Ġwurm": 3543,
      "Ġmus": 3544,
      "Ġmegamorph": 3545,
      "ĠSimic": 3546,
      "ilisk": 3547,
      "Ġhit": 3548,
      "Ġhop": 3549,
      "urb": 3550,
      "ĠTal": 3551,
      "Ġyourself": 3552,
      "urnace": 3553,
      "ĠHal": 3554,
      "ĠFrost": 3555,
      "utter": 3556,
      "ĠRaz": 3557,
      "ĠLoy": 3558,
      "ĠMod": 3559,
      "ĠMem": 3560,
      "ĠBald": 3561,
      "rie": 3562,
      "Ġstar": 3563,
      "iding": 3564,
      "aph": 3565,
      "iment": 3566,
      "ĠOl": 3567,
      "iest": 3568,
      "ĠVanguard": 3569,
      "dden": 3570,
      "thirst": 3571,
      "Ġnotes": 3572,
      "Ġways": 3573,
      "ĠHors": 3574,
      "ĠEngin": 3575,
      "Ġtrained": 3576,
      "Ġslow": 3577,
      "Ġfeet": 3578,
      "Ġdesign": 3579,
      "Ġhunter": 3580,
      "Ġhunting": 3581,
      "Ġguide": 3582,
      "axim": 3583,
      "Ġmutates": 3584,
      "Ġhigher": 3585,
      "world": 3586,
      "Ġshares": 3587,
      "ĠHarvest": 3588,
      "ĠSentry": 3589,
      "ĠColoss": 3590,
      "Ġleader": 3591,
      "errard": 3592,
      "Ġsilent": 3593,
      "ĠSurviv": 3594,
      "Ġtempts": 3595,
      "ĠBands": 3596,
      "aughter": 3597,
      "olyte": 3598,
      "ĠAugment": 3599,
      "ĠAffinity": 3600,
      "omaton": 3601,
      "Reveal": 3602,
      "ĠJackal": 3603,
      "Ġcourse": 3604,
      "uggernaut": 3605,
      "bt": 3606,
      "dge": 3607,
      "fish": 3608,
      "gari": 3609,
      "han": 3610,
      "rr": 3611,
      "uge": 3612,
      "Ġeld": 3613,
      "Ġtaste": 3614,
      "ently": 3615,
      "ambl": 3616,
      "Ġbone": 3617,
      "ĠCrus": 3618,
      "Ġsuff": 3619,
      "Ġdice": 3620,
      "ĠWere": 3621,
      "Ġang": 3622,
      "Ġple": 3623,
      "Ġmaxim": 3624,
      "ĠSet": 3625,
      "Ġlar": 3626,
      "ĠAnt": 3627,
      "astes": 3628,
      "ĠFiend": 3629,
      "asa": 3630,
      "Ġemb": 3631,
      "ĠRep": 3632,
      "ĠMadness": 3633,
      "ĠMegamorph": 3634,
      "ĠPo": 3635,
      "rion": 3636,
      "rible": 3637,
      "Ġcounts": 3638,
      "Ġspec": 3639,
      "ckless": 3640,
      "Ġlies": 3641,
      "Ġventure": 3642,
      "ourge": 3643,
      "ĠInn": 3644,
      "ĠIniti": 3645,
      "ĠUnl": 3646,
      "Ġnone": 3647,
      "Ġnonblack": 3648,
      "Ġamass": 3649,
      "ĠScorpion": 3650,
      "ĠStar": 3651,
      "ĠStreet": 3652,
      "ĠSteel": 3653,
      "shift": 3654,
      "ype": 3655,
      "Ġgrew": 3656,
      "Ġherd": 3657,
      "Ġarch": 3658,
      "ĠAdapt": 3659,
      "Ġknowledge": 3660,
      "Ġruins": 3661,
      "ocus": 3662,
      "Ġmonsters": 3663,
      "Ġhighest": 3664,
      "ĠGrand": 3665,
      "life": 3666,
      "ittering": 3667,
      "ĠEmissary": 3668,
      "Ġforetell": 3669,
      "ĠMoonfolk": 3670,
      "ĠLightning": 3671,
      "ĠGorgon": 3672,
      "Ġtransform": 3673,
      "Ġcourage": 3674,
      "Ġmerely": 3675,
      "ĠGolgari": 3676,
      "Ġvampires": 3677,
      "ĠSometimes": 3678,
      "ĠViashino": 3679,
      "ĠLeviathan": 3680,
      ".'": 3681,
      "bond": 3682,
      "book": 3683,
      "dig": 3684,
      "hil": 3685,
      "ual": 3686,
      "Ġou": 3687,
      "ena": 3688,
      "enn": 3689,
      "Ġcertain": 3690,
      "aming": 3691,
      "ament": 3692,
      "Ġbright": 3693,
      "ĠCal": 3694,
      "ĠCao": 3695,
      "Ġsave": 3696,
      "Ġsacred": 3697,
      "Ġden": 3698,
      "amed": 3699,
      "Ġfer": 3700,
      "Ġfavor": 3701,
      "ĠWither": 3702,
      "Ġmis": 3703,
      "ĠStro": 3704,
      "Ġhaunt": 3705,
      "Ġhapp": 3706,
      "ifest": 3707,
      "ĠTower": 3708,
      "ĠTree": 3709,
      "oms": 3710,
      "Ġinn": 3711,
      "ĠFar": 3712,
      "uten": 3713,
      "irl": 3714,
      "iration": 3715,
      "Ġbear": 3716,
      "asher": 3717,
      "Ġentire": 3718,
      "ĠMe": 3719,
      "ĠPath": 3720,
      "Ġendless": 3721,
      "ellation": 3722,
      "Ġstir": 3723,
      "ĠSpl": 3724,
      "ĠSpr": 3725,
      "odies": 3726,
      "igator": 3727,
      "ects": 3728,
      "eret": 3729,
      "thy": 3730,
      "aren": 3731,
      "Ġalong": 3732,
      "ĠRec": 3733,
      "Ġchaos": 3734,
      "ĠJuggernaut": 3735,
      "Ġunf": 3736,
      "Ġroots": 3737,
      "Ġprep": 3738,
      "ĠEnforc": 3739,
      "unter": 3740,
      "Ġweren": 3741,
      "Ġprodu": 3742,
      "renz": 3743,
      "Ġmilled": 3744,
      "ĠConstellation": 3745,
      "Ġswamp": 3746,
      "ĠDwarven": 3747,
      "ĠEvoke": 3748,
      "Ġarms": 3749,
      "Ġarmor": 3750,
      "Ġcreations": 3751,
      "Ġdifference": 3752,
      "Ġassigns": 3753,
      "Ġswords": 3754,
      "oltari": 3755,
      "Ġmountain": 3756,
      "Ġhumans": 3757,
      "ĠNecron": 3758,
      "Ġcrush": 3759,
      "Ġsafe": 3760,
      "ĠBenalish": 3761,
      "Ġzone": 3762,
      "ĠCommander": 3763,
      "ĠEmbalm": 3764,
      "Ġmoment": 3765,
      "accoon": 3766,
      "ĠProtector": 3767,
      "ĠContraption": 3768,
      "Ex": 3769,
      "ior": 3770,
      "va": 3771,
      "reck": 3772,
      "Ġtown": 3773,
      "aters": 3774,
      "ening": 3775,
      "Ġcomb": 3776,
      "Ġap": 3777,
      "itory": 3778,
      "ona": 3779,
      "Ġsend": 3780,
      "Ġfoul": 3781,
      "ĠWorm": 3782,
      "elly": 3783,
      "ards": 3784,
      "Ġmaking": 3785,
      "alan": 3786,
      "aled": 3787,
      "Ġlot": 3788,
      "Ġhom": 3789,
      "Ġhung": 3790,
      "ifact": 3791,
      "Ġgave": 3792,
      "raith": 3793,
      "ĠDimir": 3794,
      "Ġinf": 3795,
      "ume": 3796,
      "olas": 3797,
      "ĠLav": 3798,
      "ĠPr": 3799,
      "ĠBy": 3800,
      "ĠBurn": 3801,
      "ĠBone": 3802,
      "ĠBatt": 3803,
      "ĠGar": 3804,
      "change": 3805,
      "cholar": 3806,
      "ading": 3807,
      "ĠHumans": 3808,
      "ĠSpike": 3809,
      "Ġsharp": 3810,
      "ulpt": 3811,
      "Ġabs": 3812,
      "ours": 3813,
      "Ġunderstand": 3814,
      "Ġnonbasic": 3815,
      "tern": 3816,
      "artifact": 3817,
      "wald": 3818,
      "ishra": 3819,
      "Ġweak": 3820,
      "Ġprefer": 3821,
      "ably": 3822,
      "Ġlasts": 3823,
      "Ġswift": 3824,
      "ĠDevour": 3825,
      "Ġhearts": 3826,
      "ĠIslands": 3827,
      "Ġtwisted": 3828,
      "Ġbelow": 3829,
      "Ġfool": 3830,
      "Ġgrows": 3831,
      "Ġfewer": 3832,
      "Ġsteal": 3833,
      "Ġescap": 3834,
      "Ġprice": 3835,
      "Ġeasily": 3836,
      "ĠGrave": 3837,
      "Ġwilds": 3838,
      "Ġflashback": 3839,
      "ĠScavenge": 3840,
      "Ġworthy": 3841,
      "ĠWorld": 3842,
      "ĠMetal": 3843,
      "ribute": 3844,
      "Ġexperience": 3845,
      "Ġavoid": 3846,
      "aun": 3847,
      "bs": 3848,
      "da": 3849,
      "hunter": 3850,
      "kir": 3851,
      "rict": 3852,
      "wart": 3853,
      "wolf": 3854,
      "ys": 3855,
      "yal": 3856,
      "Ġill": 3857,
      "Ġide": 3858,
      "eron": 3859,
      "eries": 3860,
      "Ġcaptain": 3861,
      "ina": 3862,
      "iness": 3863,
      "ured": 3864,
      "essig": 3865,
      "Ġsick": 3866,
      "Ġdawn": 3867,
      "Ġflo": 3868,
      "Ġfail": 3869,
      "Ġpar": 3870,
      "Ġpure": 3871,
      "Ġpet": 3872,
      "Ġmage": 3873,
      "alist": 3874,
      "ilit": 3875,
      "iling": 3876,
      "Ġgiven": 3877,
      "efinitely": 3878,
      "ĠHel": 3879,
      "ĠHarb": 3880,
      "irth": 3881,
      "Ġemp": 3882,
      "Ġeternal": 3883,
      "ĠRi": 3884,
      "ĠRig": 3885,
      "ĠRub": 3886,
      "ĠLie": 3887,
      "ĠBell": 3888,
      "ĠGho": 3889,
      "Ġspeed": 3890,
      "pping": 3891,
      "herd": 3892,
      "Ġstru": 3893,
      "Ġlie": 3894,
      "ights": 3895,
      "izier": 3896,
      "igawa": 3897,
      "Ġdoor": 3898,
      "Ġshell": 3899,
      "ĠShiv": 3900,
      "ĠAsh": 3901,
      "ĠAscend": 3902,
      "Ġnonartifact": 3903,
      "ĠScar": 3904,
      "ĠRecl": 3905,
      "ĠFlanking": 3906,
      "Ġheav": 3907,
      "Ġwhole": 3908,
      "Ġskin": 3909,
      "Ġindefinitely": 3910,
      "ĠYet": 3911,
      "Ġslivers": 3912,
      "ĠForests": 3913,
      "weaver": 3914,
      "Ġdescend": 3915,
      "ĠGuest": 3916,
      "Ġlightning": 3917,
      "ĠHarp": 3918,
      "Ġcruel": 3919,
      "ĠServant": 3920,
      "Ġexerted": 3921,
      "orius": 3922,
      "ĠPilot": 3923,
      "Ġmortal": 3924,
      "Ġangels": 3925,
      "Ġadvance": 3926,
      "ĠCavalry": 3927,
      "ĠKamigawa": 3928,
      "ouncil": 3929,
      "Ġancestors": 3930,
      "ĠStrom": 3931,
      "utenant": 3932,
      "ĠGhost": 3933,
      "*,": 3934,
      "Th": 3935,
      "ba": 3936,
      "gm": 3937,
      "ml": 3938,
      "ney": 3939,
      "rum": 3940,
      "sy": 3941,
      "Ġke": 3942,
      "Ġtro": 3943,
      "Ġcult": 3944,
      "Ġcapt": 3945,
      "Ġaven": 3946,
      "Ġogre": 3947,
      "Ġbal": 3948,
      "ĠCut": 3949,
      "Ġself": 3950,
      "Ġsail": 3951,
      "isa": 3952,
      "iser": 3953,
      "ising": 3954,
      "owers": 3955,
      "ĠWell": 3956,
      "ĠWander": 3957,
      "Ġwield": 3958,
      "Ġanim": 3959,
      "Ġtoxic": 3960,
      "Ġmess": 3961,
      "ĠSanct": 3962,
      "ede": 3963,
      "ĠTwo": 3964,
      "ĠTangle": 3965,
      "icid": 3966,
      "ĠHist": 3967,
      "ĠIzz": 3968,
      "utt": 3969,
      "andra": 3970,
      "Ġearn": 3971,
      "ĠRaccoon": 3972,
      "ĠLur": 3973,
      "ĠMark": 3974,
      "ĠMouse": 3975,
      "ĠMishra": 3976,
      "ĠBu": 3977,
      "Ġforgotten": 3978,
      "ongue": 3979,
      "ĠVor": 3980,
      "ivil": 3981,
      "ĠSpecial": 3982,
      "Ġanyone": 3983,
      "ĠNon": 3984,
      "ĠNor": 3985,
      "ĠNeph": 3986,
      "Ġbegins": 3987,
      "Ġpowerful": 3988,
      "iana": 3989,
      "Ġkicker": 3990,
      "ĠZeal": 3991,
      "Ġsees": 3992,
      "oka": 3993,
      "ĠAnim": 3994,
      "Ġrats": 3995,
      "angu": 3996,
      "orde": 3997,
      "ĠFlesh": 3998,
      "Ġheard": 3999,
      "ĠVampires": 4000,
      "oster": 4001,
      "Ġjungle": 4002,
      "Ġrose": 4003,
      "Ġredu": 4004,
      "ĠPlague": 4005,
      "Ġused": 4006,
      "Ġride": 4007,
      "rought": 4008,
      "Ġtrib": 4009,
      "Ġfighting": 4010,
      "ĠBloodthirst": 4011,
      "Ġparts": 4012,
      "oyf": 4013,
      "authi": 4014,
      "Ġneeds": 4015,
      "Ġminds": 4016,
      "ĠCollector": 4017,
      "Ġbuilt": 4018,
      "ĠAcolyte": 4019,
      "ĠUrborg": 4020,
      "Ġextra": 4021,
      "Ġhorror": 4022,
      "ĠInfilt": 4023,
      "Ġpatrol": 4024,
      "ĠNyx": 4025,
      "Ġvotes": 4026,
      "ĠBrood": 4027,
      "ologist": 4028,
      "Ġstudy": 4029,
      "ĠImm": 4030,
      "ĠRaider": 4031,
      "loyee": 4032,
      "Ġmasters": 4033,
      "uvian": 4034,
      "Ġterritory": 4035,
      "Ġoutl": 4036,
      "ĠLieutenant": 4037,
      "ĠIzzet": 4038,
      "Rather": 4039,
      "bane": 4040,
      "ios": 4041,
      "iok": 4042,
      "kn": 4043,
      "pherd": 4044,
      "uber": 4045,
      "water": 4046,
      "ya": 4047,
      "Ġign": 4048,
      "Ġtales": 4049,
      "Ġcraft": 4050,
      "Ġocc": 4051,
      "amander": 4052,
      "ont": 4053,
      "Ġban": 4054,
      "Ġbran": 4055,
      "ĠCall": 4056,
      "ĠCult": 4057,
      "oted": 4058,
      "otype": 4059,
      "ises": 4060,
      "Ġdest": 4061,
      "Ġdance": 4062,
      "aceful": 4063,
      "Ġfill": 4064,
      "Ġfelt": 4065,
      "Ġwhether": 4066,
      "geant": 4067,
      "Ġprow": 4068,
      "Ġmouth": 4069,
      "alian": 4070,
      "ĠSorcerer": 4071,
      "Ġloss": 4072,
      "edd": 4073,
      "Ġ12": 4074,
      "Ġgen": 4075,
      "Ġconf": 4076,
      "ĠDri": 4077,
      "ĠDire": 4078,
      "ĠForm": 4079,
      "iring": 4080,
      "andon": 4081,
      "umb": 4082,
      "ĠEnl": 4083,
      "ĠEver": 4084,
      "ĠLead": 4085,
      "ĠBefore": 4086,
      "Ġreally": 4087,
      "Ġrepl": 4088,
      "ĠGrim": 4089,
      "Ġfort": 4090,
      "Ġdet": 4091,
      "adian": 4092,
      "Ġstory": 4093,
      "ĠKessig": 4094,
      "ĠOj": 4095,
      "ĠOld": 4096,
      "ĠNever": 4097,
      "Ġvan": 4098,
      "athom": 4099,
      "Ġblades": 4100,
      "inding": 4101,
      "aga": 4102,
      "ĠScourge": 4103,
      "Ġalmost": 4104,
      "shroud": 4105,
      "overe": 4106,
      "ĠJund": 4107,
      "ĠPhyrexians": 4108,
      "walker": 4109,
      "Ġflavor": 4110,
      "awk": 4111,
      "Ġgoing": 4112,
      "pty": 4113,
      "Ġexpend": 4114,
      "Ġexpress": 4115,
      "atcher": 4116,
      "Ġeveryone": 4117,
      "Ġrules": 4118,
      "ude": 4119,
      "clave": 4120,
      "ances": 4121,
      "ĠForestwalk": 4122,
      "beast": 4123,
      "Ġfeast": 4124,
      "Ġcompan": 4125,
      "Ġsomeone": 4126,
      "Ġsaying": 4127,
      "Ġevoke": 4128,
      "ridge": 4129,
      "Ġsuc": 4130,
      "ĠSoulshift": 4131,
      "Ġexploits": 4132,
      "ĠBackup": 4133,
      "ĠMagecraft": 4134,
      "ĠEmployee": 4135,
      "ĠProwler": 4136,
      "Ġmountains": 4137,
      "Ġdefense": 4138,
      "Ġbeautiful": 4139,
      "ĠIncub": 4140,
      "ĠIncarn": 4141,
      "ĠServo": 4142,
      "rupted": 4143,
      "ĠBasilisk": 4144,
      "ifications": 4145,
      "ĠPhantom": 4146,
      "ĠCelebr": 4147,
      "ĠCourier": 4148,
      "ĠCompanion": 4149,
      "Ġpotent": 4150,
      "ĠPowerstone": 4151,
      "ĠHeart": 4152,
      "Ġviol": 4153,
      "ĠPersist": 4154,
      "ĠLoyal": 4155,
      "ĠInitiate": 4156,
      "Exile": 4157,
      "ĠBattalion": 4158,
      "ĠInfiltrator": 4159,
      "Activate": 4160,
      "Equ": 4161,
      "St": 4162,
      "TK": 4163,
      "aab": 4164,
      "bon": 4165,
      "ci": 4166,
      "core": 4167,
      "chem": 4168,
      "haps": 4169,
      "knight": 4170,
      "lv": 4171,
      "lic": 4172,
      "oj": 4173,
      "ray": 4174,
      "uel": 4175,
      "wind": 4176,
      "reep": 4177,
      "Ġtal": 4178,
      "Ġtide": 4179,
      "eror": 4180,
      "Ġcas": 4181,
      "Ġcrew": 4182,
      "inner": 4183,
      "itness": 4184,
      "itting": 4185,
      "tling": 4186,
      "Ġsand": 4187,
      "ism": 4188,
      "Ġduty": 4189,
      "Ġfate": 4190,
      "Ġfears": 4191,
      "ĠWraith": 4192,
      "Ġpie": 4193,
      "alwart": 4194,
      "ilos": 4195,
      "iliana": 4196,
      "Ġhive": 4197,
      "urk": 4198,
      "ĠTher": 4199,
      "Ġgives": 4200,
      "ĠHope": 4201,
      "ĠHouse": 4202,
      "ĠDar": 4203,
      "ĠDrom": 4204,
      "ĠDash": 4205,
      "ĠDuring": 4206,
      "ĠDauthi": 4207,
      "ĠFew": 4208,
      "let": 4209,
      "olly": 4210,
      "ĠRage": 4211,
      "ĠLong": 4212,
      "ĠLost": 4213,
      "ĠBet": 4214,
      "Ġreb": 4215,
      "Ġforge": 4216,
      "ores": 4217,
      "omber": 4218,
      "ĠKill": 4219,
      "Ġmanifest": 4220,
      "ĠSpark": 4221,
      "ĠNature": 4222,
      "Ġshort": 4223,
      "ector": 4224,
      "ĠShip": 4225,
      "Ġpowers": 4226,
      "Ġens": 4227,
      "ĠAsp": 4228,
      "agg": 4229,
      "Ġnoble": 4230,
      "Ġran": 4231,
      "artes": 4232,
      "spring": 4233,
      "Ġlooked": 4234,
      "ĠFaith": 4235,
      "ĠForce": 4236,
      "ĠMonkey": 4237,
      "ĠBlight": 4238,
      "Ġgrand": 4239,
      "Ġele": 4240,
      "Ġdeser": 4241,
      "Ġhunters": 4242,
      "pses": 4243,
      "ĠEquipped": 4244,
      "atters": 4245,
      "Ġfoes": 4246,
      "uko": 4247,
      "Ġmighty": 4248,
      "uphe": 4249,
      "Ġclean": 4250,
      "Ġminotaur": 4251,
      "engeance": 4252,
      "ĠScavenger": 4253,
      "Ġvisit": 4254,
      "ĠAetherborn": 4255,
      "ĠExploit": 4256,
      "Ġunpaired": 4257,
      "ĠPrototype": 4258,
      "ĠAstartes": 4259,
      "ĠManticore": 4260,
      "Ġtactics": 4261,
      "ĠBalduvian": 4262,
      "ĠHorsemanship": 4263,
      "Ġmaximum": 4264,
      "ĠEnforcer": 4265,
      "ĠMetalcraft": 4266,
      "Equipment": 4267,
      "General": 4268,
      "agh": 4269,
      "agin": 4270,
      "bo": 4271,
      "cr": 4272,
      "cent": 4273,
      "cast": 4274,
      "city": 4275,
      "for": 4276,
      "fang": 4277,
      "gl": 4278,
      "iam": 4279,
      "mph": 4280,
      "oker": 4281,
      "pered": 4282,
      "rone": 4283,
      "rise": 4284,
      "uous": 4285,
      "zen": 4286,
      "ĠÃ": 4287,
      "Ġtale": 4288,
      "aro": 4289,
      "ote": 4290,
      "owstone": 4291,
      "Ġsho": 4292,
      "Ġsense": 4293,
      "Ġdust": 4294,
      "Ġdash": 4295,
      "Ġfast": 4296,
      "ardu": 4297,
      "Ġpri": 4298,
      "Ġmass": 4299,
      "Ġmatch": 4300,
      "Ġlab": 4301,
      "iler": 4302,
      "ays": 4303,
      "ayed": 4304,
      "Ġ20": 4305,
      "ĠHa": 4306,
      "omination": 4307,
      "ĠFang": 4308,
      "ump": 4309,
      "ĠEt": 4310,
      "ĠEsper": 4311,
      "olarian": 4312,
      "ĠRip": 4313,
      "ĠLicid": 4314,
      "ĠMardu": 4315,
      "ĠPit": 4316,
      "ĠPred": 4317,
      "ĠBoggart": 4318,
      "rig": 4319,
      "ĠGri": 4320,
      "ĠGain": 4321,
      "acks": 4322,
      "Ġspark": 4323,
      "Ġdeterm": 4324,
      "osing": 4325,
      "ident": 4326,
      "Ġspellbook": 4327,
      "Ġvenom": 4328,
      "iger": 4329,
      "Ġdog": 4330,
      "ulf": 4331,
      "erest": 4332,
      "Ġallies": 4333,
      "ĠThought": 4334,
      "hys": 4335,
      "Ġalive": 4336,
      "ĠStrider": 4337,
      "Ġmeal": 4338,
      "Ġjoin": 4339,
      "Ġworse": 4340,
      "ĠWeird": 4341,
      "abit": 4342,
      "ĠOracle": 4343,
      "Ġcommit": 4344,
      "Ġclash": 4345,
      "Ġclaws": 4346,
      "Ġwarm": 4347,
      "ĠHealer": 4348,
      "rongh": 4349,
      "ĠWhale": 4350,
      "Ġgrant": 4351,
      "enses": 4352,
      "finite": 4353,
      "bearer": 4354,
      "augh": 4355,
      "Ġimm": 4356,
      "Ġimagin": 4357,
      "ĠSoulbond": 4358,
      "ĠProp": 4359,
      "ĠLeonin": 4360,
      "ĠSilent": 4361,
      "Ġwonder": 4362,
      "Ġletter": 4363,
      "Ġfinal": 4364,
      "Ġsoldier": 4365,
      "Ġsuspected": 4366,
      "ephal": 4367,
      "Ġsafety": 4368,
      "ĠEternalize": 4369,
      "Ġmemory": 4370,
      "ĠGolden": 4371,
      "Ġsimp": 4372,
      "Ġvolcan": 4373,
      "ĠInspired": 4374,
      "ĠUndying": 4375,
      "Ġcenturies": 4376,
      "ĠOutlast": 4377,
      "ĠKeldon": 4378,
      "Ġstreets": 4379,
      "ĠColossus": 4380,
      "Ġangry": 4381,
      "overeign": 4382,
      "aff": 4383,
      "co": 4384,
      "caster": 4385,
      "eet": 4386,
      "eash": 4387,
      "gen": 4388,
      "iac": 4389,
      "ius": 4390,
      "ls": 4391,
      "lers": 4392,
      "mo": 4393,
      "mir": 4394,
      "maw": 4395,
      "yed": 4396,
      "Ġice": 4397,
      "Ġtall": 4398,
      "erd": 4399,
      "Ġcap": 4400,
      "onic": 4401,
      "Ġbite": 4402,
      "Ġbound": 4403,
      "Ġbodies": 4404,
      "ĠCr": 4405,
      "ĠCer": 4406,
      "ĠCome": 4407,
      "ĠCascade": 4408,
      "isan": 4409,
      "Ġdinosaur": 4410,
      "Ġfur": 4411,
      "Ġfine": 4412,
      "ĠWu": 4413,
      "ĠWater": 4414,
      "Ġwand": 4415,
      "Ġwear": 4416,
      "Ġtold": 4417,
      "Ġtoday": 4418,
      "Ġpir": 4419,
      "Ġpride": 4420,
      "ĠSig": 4421,
      "Ġhum": 4422,
      "edic": 4423,
      "vered": 4424,
      "ĠHo": 4425,
      "ĠHaunt": 4426,
      "omancer": 4427,
      "Ġincl": 4428,
      "Ġnum": 4429,
      "ĠFe": 4430,
      "umi": 4431,
      "olution": 4432,
      "ĠRam": 4433,
      "ĠRath": 4434,
      "ĠRevel": 4435,
      "ĠMast": 4436,
      "ĠBur": 4437,
      "ĠBrawler": 4438,
      "ried": 4439,
      "ĠGen": 4440,
      "Ġspl": 4441,
      "antuko": 4442,
      "idnight": 4443,
      "ĠOuphe": 4444,
      "ĠVan": 4445,
      "ĠVod": 4446,
      "Ġvast": 4447,
      "ĠShambl": 4448,
      "ĠWarriors": 4449,
      "mane": 4450,
      "ourn": 4451,
      "agon": 4452,
      "ĠExt": 4453,
      "ĠStalwart": 4454,
      "Ġchose": 4455,
      "angler": 4456,
      "ĠChaos": 4457,
      "rowth": 4458,
      "ĠConclave": 4459,
      "Ġunsp": 4460,
      "ĠSkyc": 4461,
      "ĠSkull": 4462,
      "Ġarrows": 4463,
      "ortal": 4464,
      "Ġwhenever": 4465,
      "ĠAdventure": 4466,
      "Ġridd": 4467,
      "Ġriver": 4468,
      "Ġtraining": 4469,
      "Ġjustice": 4470,
      "Ġquite": 4471,
      "Ġquiet": 4472,
      "ĠWolver": 4473,
      "ĠSeeker": 4474,
      "ĠShepherd": 4475,
      "Ġtwenty": 4476,
      "Ġbelong": 4477,
      "Ġappear": 4478,
      "Ġfallen": 4479,
      "Ġpasses": 4480,
      "ĠCoal": 4481,
      "ĠMagus": 4482,
      "ĠEmber": 4483,
      "Ġempty": 4484,
      "ĠDuel": 4485,
      "ĠUnderworld": 4486,
      "ĠSylv": 4487,
      "Ġmodified": 4488,
      "Ġmodifications": 4489,
      "Ġwrong": 4490,
      "Ġemerge": 4491,
      "ĠCommand": 4492,
      "Ġrespect": 4493,
      "Ġmarks": 4494,
      "Ġgenerations": 4495,
      "ermin": 4496,
      "nihil": 4497,
      "ĠRuin": 4498,
      "ĠCharger": 4499,
      "ĠDominaria": 4500,
      "ĠOtter": 4501,
      "ĠMarshal": 4502,
      "Ġwelcome": 4503,
      "ĠCrypt": 4504,
      "ĠModular": 4505,
      "ĠYeti": 4506,
      "Ġexpression": 4507,
      "ronghold": 4508,
      "Ġsimply": 4509,
      "Ent": 4510,
      "Pay": 4511,
      "aud": 4512,
      "by": 4513,
      "break": 4514,
      "ced": 4515,
      "eem": 4516,
      "fort": 4517,
      "force": 4518,
      "grim": 4519,
      "oint": 4520,
      "ram": 4521,
      "rate": 4522,
      "rine": 4523,
      "time": 4524,
      "ux": 4525,
      "Ã»": 4526,
      "eri": 4527,
      "ateg": 4528,
      "Ġcaught": 4529,
      "Ġaether": 4530,
      "Ġbreed": 4531,
      "ĠCity": 4532,
      "ĠCephal": 4533,
      "Ġdrop": 4534,
      "orious": 4535,
      "Ġfought": 4536,
      "strike": 4537,
      "Ġmor": 4538,
      "Ġmine": 4539,
      "ĠSoltari": 4540,
      "ĠScholar": 4541,
      "ĠSovereign": 4542,
      "Ġhur": 4543,
      "Ġhers": 4544,
      "ĠTro": 4545,
      "ĠTim": 4546,
      "ĠHollow": 4547,
      "ĠHipp": 4548,
      "Ġinter": 4549,
      "Ġnames": 4550,
      "ĠFan": 4551,
      "ĠFurnace": 4552,
      "irc": 4553,
      "umgar": 4554,
      "asing": 4555,
      "Ġears": 4556,
      "ĠRot": 4557,
      "ĠRid": 4558,
      "ĠLion": 4559,
      "ĠLaw": 4560,
      "ĠLiving": 4561,
      "ĠMelet": 4562,
      "ĠBring": 4563,
      "ĠBody": 4564,
      "Ġash": 4565,
      "ĠGae": 4566,
      "Ġstri": 4567,
      "rth": 4568,
      "lockwork": 4569,
      "ĠKy": 4570,
      "onger": 4571,
      "tog": 4572,
      "emere": 4573,
      "ĠShu": 4574,
      "athers": 4575,
      "Ġabandon": 4576,
      "ĠGoat": 4577,
      "Ġblitz": 4578,
      "ĠInquis": 4579,
      "shot": 4580,
      "ords": 4581,
      "order": 4582,
      "Ġheat": 4583,
      "Ġflames": 4584,
      "ideon": 4585,
      "ĠEnrage": 4586,
      "iable": 4587,
      "ĠPlayers": 4588,
      "Ġlooks": 4589,
      "Ġexpedition": 4590,
      "ĠAdv": 4591,
      "Ġskull": 4592,
      "Ġsacrificing": 4593,
      "Ġrad": 4594,
      "Ġraised": 4595,
      "Ġtrain": 4596,
      "Ġgrace": 4597,
      "anced": 4598,
      "ĠOrcish": 4599,
      "Ġsmash": 4600,
      "Ġbeliev": 4601,
      "itcher": 4602,
      "Ġnightmare": 4603,
      "ĠMountains": 4604,
      "Ġguess": 4605,
      "Ġsources": 4606,
      "Ġforestwalk": 4607,
      "ĠAttend": 4608,
      "Ġdisturb": 4609,
      "ĠAbzan": 4610,
      "Ġmerfolk": 4611,
      "ĠAuriok": 4612,
      "Ġbooster": 4613,
      "ĠBaloth": 4614,
      "Ġgiants": 4615,
      "ĠRenegade": 4616,
      "Ġquestion": 4617,
      "Ġtrigger": 4618,
      "ĠAzorius": 4619,
      "Ġawaken": 4620,
      "ĠForetell": 4621,
      "ĠSalamander": 4622,
      "ĠAutomaton": 4623,
      "ĠPraet": 4624,
      "Ġrarely": 4625,
      "ĠKrosan": 4626,
      "ique": 4627,
      "ĠSetess": 4628,
      "ĠRecruit": 4629,
      "ĠHarpy": 4630,
      "Ġtribute": 4631,
      "ĠIncubator": 4632,
      "ĠWolverine": 4633,
      "Enter": 4634,
      "ĠGaea": 4635,
      "emeref": 4636,
      "Vec": 4637,
      "but": 4638,
      "eous": 4639,
      "foot": 4640,
      "go": 4641,
      "iator": 4642,
      "sa": 4643,
      "ters": 4644,
      "wall": 4645,
      "ym": 4646,
      "atural": 4647,
      "atli": 4648,
      "ench": 4649,
      "Ġcascade": 4650,
      "esa": 4651,
      "antly": 4652,
      "amer": 4653,
      "Ġbri": 4654,
      "ĠComb": 4655,
      "ĠCho": 4656,
      "ĠCinder": 4657,
      "ĠCouncil": 4658,
      "Ġdou": 4659,
      "acyn": 4660,
      "Ġfish": 4661,
      "Ġfaces": 4662,
      "Ġfigure": 4663,
      "Ġwing": 4664,
      "Ġwaste": 4665,
      "Ġwaves": 4666,
      "Ġwander": 4667,
      "storm": 4668,
      "Ġpile": 4669,
      "Ġmoon": 4670,
      "alks": 4671,
      "ĠSar": 4672,
      "Ġlow": 4673,
      "ilder": 4674,
      "Ġhat": 4675,
      "ĠTin": 4676,
      "ĠTel": 4677,
      "Ġ11": 4678,
      "ĠHorn": 4679,
      "ĠIx": 4680,
      "ĠDen": 4681,
      "Ġinvent": 4682,
      "ĠFalcon": 4683,
      "asp": 4684,
      "ĠEid": 4685,
      "ĠEgg": 4686,
      "ĠEarth": 4687,
      "ĠEscape": 4688,
      "olis": 4689,
      "Ġentry": 4690,
      "ĠMore": 4691,
      "ĠPet": 4692,
      "ĠBant": 4693,
      "Ġdemon": 4694,
      "Ġsto": 4695,
      "Ġstat": 4696,
      "antu": 4697,
      "antry": 4698,
      "ĠKen": 4699,
      "ĠKin": 4700,
      "ĠOf": 4701,
      "ĠOh": 4702,
      "hok": 4703,
      "hood": 4704,
      "izon": 4705,
      "Ġvers": 4706,
      "illa": 4707,
      "Ġkin": 4708,
      "Ġkor": 4709,
      "throat": 4710,
      "ĠSoldiers": 4711,
      "Ġinstinct": 4712,
      "ĠAncest": 4713,
      "ips": 4714,
      "Ġrich": 4715,
      "aked": 4716,
      "ĠJelly": 4717,
      "Ġweight": 4718,
      "lessed": 4719,
      "ĠSkaab": 4720,
      "Ġworry": 4721,
      "ĠSeraph": 4722,
      "ĠBlitz": 4723,
      "Ġqueen": 4724,
      "Ġresist": 4725,
      "ĠWolves": 4726,
      "Ġdrakes": 4727,
      "ĠEvolve": 4728,
      "Ġadventure": 4729,
      "ĠAvacyn": 4730,
      "Ġarmies": 4731,
      "Ġdesp": 4732,
      "itsune": 4733,
      "Ġacc": 4734,
      "ĠSkyshroud": 4735,
      "Ġsudden": 4736,
      "Ġoffer": 4737,
      "ĠProdig": 4738,
      "ĠSilumgar": 4739,
      "Ġmages": 4740,
      "ĠTracker": 4741,
      "ĠMirror": 4742,
      "Ġregular": 4743,
      "Ġdivided": 4744,
      "Ġbrings": 4745,
      "ĠEmrak": 4746,
      "ĠEmpire": 4747,
      "Ġwinter": 4748,
      "olten": 4749,
      "Ġdefe": 4750,
      "ĠIntimidate": 4751,
      "rasher": 4752,
      "ĠAugur": 4753,
      "ĠNeuro": 4754,
      "ĠZhalf": 4755,
      "Ġlegs": 4756,
      "Ġwhispers": 4757,
      "ĠTransform": 4758,
      "ĠOutrider": 4759,
      "Ġpredators": 4760,
      "Ġinitiative": 4761,
      "Ġvillage": 4762,
      "Ġharvest": 4763,
      "ĠArgoth": 4764,
      "Ġperson": 4765,
      "Ġconnives": 4766,
      "ĠConsulate": 4767,
      "ĠOffspring": 4768,
      "Ġelder": 4769,
      "ĠWerewolf": 4770,
      "Ġferoc": 4771,
      "ĠZealot": 4772,
      "chemist": 4773,
      "ĠEmrakul": 4774,
      "ĠNeurok": 4775,
      "AN": 4776,
      "Ph": 4777,
      "Sc": 4778,
      "Sh": 4779,
      "bly": 4780,
      "gest": 4781,
      "hide": 4782,
      "hort": 4783,
      "pur": 4784,
      "sl": 4785,
      "ught": 4786,
      "vation": 4787,
      "wolves": 4788,
      "xe": 4789,
      "zed": 4790,
      "Ġtor": 4791,
      "Ġtest": 4792,
      "Ġtroll": 4793,
      "ata": 4794,
      "Ġcivil": 4795,
      "Ġbar": 4796,
      "Ġbus": 4797,
      "Ġbirth": 4798,
      "isi": 4799,
      "Ġdwell": 4800,
      "Ġfil": 4801,
      "Ġfact": 4802,
      "Ġfolk": 4803,
      "ĠWing": 4804,
      "Ġwond": 4805,
      "stem": 4806,
      "Ġpick": 4807,
      "Ġpriest": 4808,
      "Ġmal": 4809,
      "aly": 4810,
      "ĠSim": 4811,
      "ĠSiege": 4812,
      "iless": 4813,
      "Ġhate": 4814,
      "nth": 4815,
      "ĠAh": 4816,
      "ĠTri": 4817,
      "eferi": 4818,
      "rax": 4819,
      "raid": 4820,
      "rafter": 4821,
      "ĠHead": 4822,
      "ĠHob": 4823,
      "ĠDist": 4824,
      "Ġinh": 4825,
      "Ġinfect": 4826,
      "Ġinside": 4827,
      "lease": 4828,
      "utai": 4829,
      "umn": 4830,
      "aser": 4831,
      "olute": 4832,
      "ĠRim": 4833,
      "ĠLox": 4834,
      "ounty": 4835,
      "ĠMill": 4836,
      "ĠPain": 4837,
      "Ġreward": 4838,
      "Ġforget": 4839,
      "Ġspect": 4840,
      "ads": 4841,
      "Ġstom": 4842,
      "Ġstick": 4843,
      "epar": 4844,
      "Ġgetting": 4845,
      "Ġputting": 4846,
      "etic": 4847,
      "imate": 4848,
      "ĠKirin": 4849,
      "Ġexamp": 4850,
      "ĠOw": 4851,
      "ĠVoid": 4852,
      "ivien": 4853,
      "brand": 4854,
      "brace": 4855,
      "Ġvengeance": 4856,
      "alli": 4857,
      "ĠWizards": 4858,
      "Ġkithkin": 4859,
      "ĠZuber": 4860,
      "ĠInk": 4861,
      "ĠThass": 4862,
      "ĠThrab": 4863,
      "Ġtaking": 4864,
      "oney": 4865,
      "Ġwouldn": 4866,
      "ĠReaper": 4867,
      "ĠReckless": 4868,
      "Ġchall": 4869,
      "Ġchance": 4870,
      "overed": 4871,
      "Ġwilling": 4872,
      "Ġmyr": 4873,
      "Ġflight": 4874,
      "Ġunatt": 4875,
      "Ġroar": 4876,
      "Ġgoes": 4877,
      "ĠEncore": 4878,
      "speaker": 4879,
      "ĠAlab": 4880,
      "ĠMyriad": 4881,
      "azing": 4882,
      "Ġusing": 4883,
      "ĠRock": 4884,
      "ĠMonster": 4885,
      "ĠAssem": 4886,
      "udge": 4887,
      "Ġformer": 4888,
      "Ġelvish": 4889,
      "ĠPirates": 4890,
      "fully": 4891,
      "ĠSee": 4892,
      "Ġhimself": 4893,
      "Ġsmell": 4894,
      "Ġsays": 4895,
      "Ġaccept": 4896,
      "Ġfollows": 4897,
      "Ġfires": 4898,
      "Ġcalls": 4899,
      "Ġintens": 4900,
      "ĠDesp": 4901,
      "ĠArcbound": 4902,
      "ĠAbomination": 4903,
      "Ġheads": 4904,
      "Ġfinality": 4905,
      "Ġsuspect": 4906,
      "Ġwinds": 4907,
      "Ġcurrent": 4908,
      "ĠGreml": 4909,
      "Ġdiscover": 4910,
      "ĠRenown": 4911,
      "ĠTransm": 4912,
      "ĠPhantasm": 4913,
      "Ġanswer": 4914,
      "ĠWhisper": 4915,
      "ĠJunk": 4916,
      "Ġsummoning": 4917,
      "ĠBurning": 4918,
      "ulptor": 4919,
      "ĠHarbinger": 4920,
      "ĠRigger": 4921,
      "ĠMarkov": 4922,
      "Ġbranches": 4923,
      "ĠIncarnation": 4924,
      "ĠSigard": 4925,
      "ĠDuelist": 4926,
      "ĠThassa": 4927,
      "ĠThraben": 4928,
      "Al": 4929,
      "Captain": 4930,
      "Target": 4931,
      "bow": 4932,
      "bur": 4933,
      "cing": 4934,
      "hir": 4935,
      "hurg": 4936,
      "iod": 4937,
      "joy": 4938,
      "oves": 4939,
      "sion": 4940,
      "upp": 4941,
      "uld": 4942,
      "uatli": 4943,
      "vy": 4944,
      "wurm": 4945,
      "yl": 4946,
      "zumi": 4947,
      "Ġer": 4948,
      "Ġedge": 4949,
      "reci": 4950,
      "Ġtask": 4951,
      "Ġtunn": 4952,
      "entless": 4953,
      "Ġcorpse": 4954,
      "Ġaut": 4955,
      "Ġawo": 4956,
      "Ġodd": 4957,
      "inth": 4958,
      "esk": 4959,
      "esny": 4960,
      "ftain": 4961,
      "ama": 4962,
      "amog": 4963,
      "ending": 4964,
      "Ġbond": 4965,
      "Ġboon": 4966,
      "Ġbrought": 4967,
      "ĠCru": 4968,
      "ĠCarn": 4969,
      "ĠCaller": 4970,
      "ĠCrawler": 4971,
      "isay": 4972,
      "Ġdwar": 4973,
      "orian": 4974,
      "orous": 4975,
      "Ġfang": 4976,
      "Ġfreed": 4977,
      "Ġfruit": 4978,
      "Ġfilled": 4979,
      "Ġfront": 4980,
      "Ġwise": 4981,
      "Ġwaters": 4982,
      "Ġtom": 4983,
      "Ġpun": 4984,
      "Ġpract": 4985,
      "Ġmad": 4986,
      "ĠSor": 4987,
      "ĠSub": 4988,
      "ĠSyr": 4989,
      "ĠSleep": 4990,
      "ĠSeng": 4991,
      "Ġlack": 4992,
      "Ġlines": 4993,
      "ention": 4994,
      "Ġhell": 4995,
      "Ġhaven": 4996,
      "ĠTiger": 4997,
      "icken": 4998,
      "ĠHound": 4999,
      "ĠHaven": 5000,
      "ĠHonor": 5001,
      "ĠHunger": 5002,
      "ĠIce": 5003,
      "ĠDep": 5004,
      "ĠFound": 5005,
      "ĠFort": 5006,
      "irm": 5007,
      "anded": 5008,
      "olon": 5009,
      "Ġegg": 5010,
      "ĠRho": 5011,
      "ĠRoll": 5012,
      "ĠLancer": 5013,
      "ĠMach": 5014,
      "ĠBad": 5015,
      "ĠBall": 5016,
      "Ġreality": 5017,
      "ĠGer": 5018,
      "ĠGive": 5019,
      "ĠGrix": 5020,
      "Ġisland": 5021,
      "Ġstood": 5022,
      "ĠKol": 5023,
      "ĠKher": 5024,
      "Ġcover": 5025,
      "ruk": 5026,
      "ruits": 5027,
      "ĠVold": 5028,
      "ĠVision": 5029,
      "hod": 5030,
      "oldred": 5031,
      "therium": 5032,
      "ieftain": 5033,
      "blem": 5034,
      "bled": 5035,
      "allid": 5036,
      "eren": 5037,
      "ĠThree": 5038,
      "agger": 5039,
      "Ġnoted": 5040,
      "ĠSpirits": 5041,
      "Ġtaught": 5042,
      "ipl": 5043,
      "seeker": 5044,
      "ĠSlug": 5045,
      "Ġmeasure": 5046,
      "ĠConjure": 5047,
      "Ġjob": 5048,
      "ĠWei": 5049,
      "ĠAngelic": 5050,
      "untie": 5051,
      "razen": 5052,
      "atchling": 5053,
      "Ġprocess": 5054,
      "Ġclan": 5055,
      "Ġclaw": 5056,
      "ĠFair": 5057,
      "ĠWalls": 5058,
      "Ġrain": 5059,
      "ĠAssist": 5060,
      "Ġreaches": 5061,
      "ocate": 5062,
      "ĠDoom": 5063,
      "Ġphilos": 5064,
      "ĠNightstalker": 5065,
      "Ġadm": 5066,
      "auder": 5067,
      "ika": 5068,
      "rogen": 5069,
      "Ġtech": 5070,
      "ĠMarauder": 5071,
      "Ġappreci": 5072,
      "avern": 5073,
      "ĠAttacking": 5074,
      "Ġfoe": 5075,
      "ĠButcher": 5076,
      "ĠDescend": 5077,
      "eye": 5078,
      "ĠCoven": 5079,
      "ĠCohort": 5080,
      "Ġkilled": 5081,
      "Ġdistance": 5082,
      "Ġprevented": 5083,
      "Ġfright": 5084,
      "Ġartist": 5085,
      "Ġsilence": 5086,
      "ĠAcc": 5087,
      "Ġcloser": 5088,
      "Ġconsists": 5089,
      "ĠRestless": 5090,
      "verseer": 5091,
      "Ġbigger": 5092,
      "Ġimport": 5093,
      "Ġholds": 5094,
      "ĠNymph": 5095,
      "Ġseems": 5096,
      "Ġvote": 5097,
      "ĠPilgrim": 5098,
      "ĠTemp": 5099,
      "Ġprecious": 5100,
      "ĠWatcher": 5101,
      "ĠInstant": 5102,
      "Ġcorpses": 5103,
      "Ġcompleted": 5104,
      "Ġflee": 5105,
      "Ġgolden": 5106,
      "Ġdepths": 5107,
      "Ġservice": 5108,
      "ĠExplorer": 5109,
      "ĠUlamog": 5110,
      "ĠCyborg": 5111,
      "ĠKjeldoran": 5112,
      "ĠBeetle": 5113,
      "ĠSelesny": 5114,
      "ĠSprite": 5115,
      "ĠCutthroat": 5116,
      "ĠSpecialize": 5117,
      "Ġhorrors": 5118,
      "ĠLeader": 5119,
      "ĠVodalian": 5120,
      "ĠCoalition": 5121,
      "nihilator": 5122,
      "ĠEidolon": 5123,
      "ĠProdigy": 5124,
      "ANG": 5125,
      "ĠLoxodon": 5126,
      "Ġexample": 5127,
      "ĠZubera": 5128,
      "Ġunattach": 5129,
      "Targeting": 5130,
      "hurgoyf": 5131,
      "ĠSengir": 5132,
      "ĠGrixis": 5133,
      "ĠVoldaren": 5134,
      "ĠSelesnya": 5135,
      "Clan": 5136,
      "During": 5137,
      "Ta": 5138,
      "growth": 5139,
      "ige": 5140,
      "kki": 5141,
      "maker": 5142,
      "ration": 5143,
      "ti": 5144,
      "tam": 5145,
      "tail": 5146,
      "Ġtend": 5147,
      "enger": 5148,
      "Ġcat": 5149,
      "Ġcoun": 5150,
      "Ġartificer": 5151,
      "Ġahead": 5152,
      "anar": 5153,
      "anged": 5154,
      "endary": 5155,
      "itude": 5156,
      "tles": 5157,
      "Ġbol": 5158,
      "Ġbell": 5159,
      "ĠChe": 5160,
      "ĠClo": 5161,
      "Ġsat": 5162,
      "Ġsought": 5163,
      "Ġswarm": 5164,
      "Ġsepar": 5165,
      "Ġdim": 5166,
      "Ġdig": 5167,
      "Ġfal": 5168,
      "Ġfocus": 5169,
      "Ġfuel": 5170,
      "ĠWand": 5171,
      "Ġwent": 5172,
      "Ġwave": 5173,
      "elee": 5174,
      "roan": 5175,
      "Ġmilit": 5176,
      "ĠSol": 5177,
      "Ġlaugh": 5178,
      "Ġheld": 5179,
      "Ġhaving": 5180,
      "urch": 5181,
      "ĠTact": 5182,
      "ĠTry": 5183,
      "ĠTales": 5184,
      "ĠTaj": 5185,
      "Ġgn": 5186,
      "Ġgard": 5187,
      "Ġyours": 5188,
      "ĠHaz": 5189,
      "ĠDale": 5190,
      "Ġinfl": 5191,
      "asted": 5192,
      "ĠFury": 5193,
      "ircle": 5194,
      "ands": 5195,
      "umin": 5196,
      "ĠEr": 5197,
      "ĠRef": 5198,
      "ĠLhurgoyf": 5199,
      "heel": 5200,
      "ĠBru": 5201,
      "ĠBrazen": 5202,
      "rik": 5203,
      "acher": 5204,
      "ĠGal": 5205,
      "Ġstories": 5206,
      "idian": 5207,
      "idable": 5208,
      "Ġexchange": 5209,
      "ivia": 5210,
      "ĠNull": 5211,
      "ĠNaya": 5212,
      "igan": 5213,
      "ĠWarlord": 5214,
      "iew": 5215,
      "emage": 5216,
      "uler": 5217,
      "ĠShark": 5218,
      "alls": 5219,
      "athar": 5220,
      "Ġengin": 5221,
      "Ġseed": 5222,
      "Ġnote": 5223,
      "Ġtaken": 5224,
      "ĠBearer": 5225,
      "ĠBehold": 5226,
      "Ġrot": 5227,
      "opl": 5228,
      "akos": 5229,
      "ĠSte": 5230,
      "Ġleaving": 5231,
      "ĠChain": 5232,
      "ĠChron": 5233,
      "others": 5234,
      "Ġmyth": 5235,
      "Ġmyself": 5236,
      "ickster": 5237,
      "Ġuns": 5238,
      "Ġworks": 5239,
      "Ġroam": 5240,
      "Ġroot": 5241,
      "Ġpret": 5242,
      "Ġlooking": 5243,
      "Ġskill": 5244,
      "Ġthoughts": 5245,
      "ĠAlliance": 5246,
      "claim": 5247,
      "ĠYu": 5248,
      "Ġresolved": 5249,
      "Ġsliver": 5250,
      "arging": 5251,
      "bey": 5252,
      "Ġoffering": 5253,
      "Ġapproach": 5254,
      "araoh": 5255,
      "Ġassem": 5256,
      "Ġpassed": 5257,
      "Ġactivating": 5258,
      "eysa": 5259,
      "ĠBoast": 5260,
      "belt": 5261,
      "Ġgrowth": 5262,
      "ĠTrickster": 5263,
      "Ġdivinity": 5264,
      "ĠDevils": 5265,
      "Ġhistory": 5266,
      "ĠAcadem": 5267,
      "Ġstrongest": 5268,
      "ĠNecromancer": 5269,
      "Ġfeeding": 5270,
      "Ġhealing": 5271,
      "Ġphased": 5272,
      "ĠInter": 5273,
      "Ġincub": 5274,
      "Ġdelight": 5275,
      "Ġreflect": 5276,
      "Ġmemories": 5277,
      "Ġtravelers": 5278,
      "ĠSaga": 5279,
      "Ġsimple": 5280,
      "Ġkingdom": 5281,
      "Ġfierce": 5282,
      "Ġshape": 5283,
      "Ġgriffins": 5284,
      "Ġrealized": 5285,
      "legendary": 5286,
      "ĠInvoker": 5287,
      "Ġrequires": 5288,
      "Ġtreated": 5289,
      "Ġknights": 5290,
      "Ġbirds": 5291,
      "ĠRazor": 5292,
      "ĠEngine": 5293,
      "ĠHarvester": 5294,
      "Ġtransforms": 5295,
      "Ġhungry": 5296,
      "ĠRiot": 5297,
      "ĠRubble": 5298,
      "sych": 5299,
      "ĠOjutai": 5300,
      "ĠDromoka": 5301,
      "aghan": 5302,
      "ĠRiptide": 5303,
      "ĠPredator": 5304,
      "moor": 5305,
      "Ġriddle": 5306,
      "ĠInquisitor": 5307,
      "ĠAttendant": 5308,
      "ĠPraetor": 5309,
      "ĠCombine": 5310,
      "Ġawoke": 5311,
      "Ġtomorrow": 5312,
      "ĠGeralf": 5313,
      "ĠKolaghan": 5314,
      "ĠVisionary": 5315,
      "Gerrard": 5316,
      "Tail": 5317,
      "cutter": 5318,
      "den": 5319,
      "dog": 5320,
      "fast": 5321,
      "ko": 5322,
      "lave": 5323,
      "mate": 5324,
      "no": 5325,
      "narch": 5326,
      "oa": 5327,
      "val": 5328,
      "yll": 5329,
      "Ġramp": 5330,
      "Ġelf": 5331,
      "reg": 5332,
      "oum": 5333,
      "Ġcalm": 5334,
      "Ġaf": 5335,
      "Ġaid": 5336,
      "Ġaim": 5337,
      "Ġbow": 5338,
      "Ġbug": 5339,
      "Ġboggart": 5340,
      "ĠCave": 5341,
      "ĠCreep": 5342,
      "essian": 5343,
      "Ġwolves": 5344,
      "Ġwalks": 5345,
      "elter": 5346,
      "Ġanger": 5347,
      "Ġpost": 5348,
      "Ġmen": 5349,
      "Ġlate": 5350,
      "Ġlav": 5351,
      "Ġlaws": 5352,
      "Ġhon": 5353,
      "urity": 5354,
      "ursed": 5355,
      "ĠTolarian": 5356,
      "Ġgather": 5357,
      "Ġconv": 5358,
      "Ġconqu": 5359,
      "ĠIg": 5360,
      "ĠDay": 5361,
      "ĠDec": 5362,
      "attle": 5363,
      "ĠFin": 5364,
      "ĠFri": 5365,
      "ĠFalken": 5366,
      "Ġbeings": 5367,
      "Ġbears": 5368,
      "ĠEz": 5369,
      "ĠLady": 5370,
      "ĠMogg": 5371,
      "ĠBolas": 5372,
      "ĠBlessed": 5373,
      "ĠBANG": 5374,
      "Ġread": 5375,
      "Ġrepe": 5376,
      "Ġforth": 5377,
      "log": 5378,
      "Ġstra": 5379,
      "Ġsteed": 5380,
      "Ġstars": 5381,
      "Ġstones": 5382,
      "osition": 5383,
      "Ġattem": 5384,
      "Ġliz": 5385,
      "ĠKn": 5386,
      "ĠOthers": 5387,
      "Ġopportun": 5388,
      "ĠVess": 5389,
      "ĠVir": 5390,
      "ĠVenge": 5391,
      "ĠVizier": 5392,
      "hoira": 5393,
      "bricate": 5394,
      "ĠNantuko": 5395,
      "estial": 5396,
      "Ġshift": 5397,
      "thern": 5398,
      "Ġhasn": 5399,
      "avigator": 5400,
      "ĠShrine": 5401,
      "Ġenjoy": 5402,
      "ĠThousand": 5403,
      "ĠThallid": 5404,
      "ĠUp": 5405,
      "Ġnonlegendary": 5406,
      "ĠDraft": 5407,
      "Ġamb": 5408,
      "ĠScient": 5409,
      "ĠScrap": 5410,
      "eady": 5411,
      "ashi": 5412,
      "seen": 5413,
      "ĠChild": 5414,
      "ĠChandra": 5415,
      "oths": 5416,
      "ĠSlith": 5417,
      "Ġmeet": 5418,
      "Ġscrap": 5419,
      "Ġarrow": 5420,
      "spass": 5421,
      "Ġplane": 5422,
      "azer": 5423,
      "Ġseeking": 5424,
      "Ġseeks": 5425,
      "Ġprop": 5426,
      "ĠWhip": 5427,
      "ĠForge": 5428,
      "ĠArchangel": 5429,
      "Ġforms": 5430,
      "ĠBlad": 5431,
      "ancy": 5432,
      "Ġdevour": 5433,
      "perate": 5434,
      "Ġneeded": 5435,
      "ĠImperial": 5436,
      "Ġsuper": 5437,
      "Ġafterlife": 5438,
      "Ata": 5439,
      "Ġrolled": 5440,
      "Ġassault": 5441,
      "ĠQuicks": 5442,
      "ahng": 5443,
      "iverse": 5444,
      "Ġwatches": 5445,
      "uthless": 5446,
      "ĠMagic": 5447,
      "ĠBrute": 5448,
      "Ġstands": 5449,
      "itorial": 5450,
      "Ġmerchant": 5451,
      "Ġembrace": 5452,
      "ĠLookout": 5453,
      "ĠMountainwalk": 5454,
      "ĠAkki": 5455,
      "ĠAkoum": 5456,
      "Ġsuspend": 5457,
      "Ġcurse": 5458,
      "Ġbrood": 5459,
      "biter": 5460,
      "Ġresults": 5461,
      "Ġblessed": 5462,
      "Ġburns": 5463,
      "ĠDuo": 5464,
      "Ġdiscovered": 5465,
      "Ġsystem": 5466,
      "ĠValiant": 5467,
      "ĠBenalia": 5468,
      "Ġterror": 5469,
      "Ġterrible": 5470,
      "ĠCorrupted": 5471,
      "ĠTemur": 5472,
      "Ġmortals": 5473,
      "Ġstorms": 5474,
      "Ġcrack": 5475,
      "ĠInstead": 5476,
      "ĠCavalier": 5477,
      "Ġsupport": 5478,
      "umbled": 5479,
      "Ġdrink": 5480,
      "ĠFallen": 5481,
      "Ġrocks": 5482,
      "Ġdruids": 5483,
      "Ġmistake": 5484,
      "Ġmachines": 5485,
      "Ġsurpris": 5486,
      "ĠCrusader": 5487,
      "Ġinnoc": 5488,
      "Ġescapes": 5489,
      "Ġsickness": 5490,
      "ĠRecluse": 5491,
      "Ġdescended": 5492,
      "ĠHistory": 5493,
      "Ġcompanions": 5494,
      "Ġelemental": 5495,
      "Ġinclud": 5496,
      "Ġherself": 5497,
      "ĠAncestor": 5498,
      "ĠJellyfish": 5499,
      "ĠGremlin": 5500,
      "ĠWanderer": 5501,
      "ĠTactician": 5502,
      "ĠAcademy": 5503,
      "Ġincubate": 5504,
      "ĠFalkenrath": 5505,
      "ahngarth": 5506,
      "Gh": 5507,
      "Mir": 5508,
      "bb": 5509,
      "bloom": 5510,
      "fess": 5511,
      "fiend": 5512,
      "gra": 5513,
      "hon": 5514,
      "lict": 5515,
      "ming": 5516,
      "mind": 5517,
      "mark": 5518,
      "rill": 5519,
      "smith": 5520,
      "tered": 5521,
      "ued": 5522,
      "ware": 5523,
      "Ġing": 5524,
      "Ġil": 5525,
      "oured": 5526,
      "ourer": 5527,
      "ourth": 5528,
      "Ġcamp": 5529,
      "Ġartif": 5530,
      "Ġthrow": 5531,
      "Ġoath": 5532,
      "inforce": 5533,
      "esis": 5534,
      "fts": 5535,
      "iter": 5536,
      "itation": 5537,
      "Ġbit": 5538,
      "Ġbog": 5539,
      "Ġbounty": 5540,
      "ĠCos": 5541,
      "ĠCold": 5542,
      "ĠCorpse": 5543,
      "Ġyes": 5544,
      "Ġyear": 5545,
      "Ġsoft": 5546,
      "Ġdom": 5547,
      "Ġdying": 5548,
      "orus": 5549,
      "Ġfre": 5550,
      "Ġfather": 5551,
      "Ġfair": 5552,
      "Ġfrag": 5553,
      "ĠWalker": 5554,
      "ĠWitness": 5555,
      "Ġwo": 5556,
      "Ġwitch": 5557,
      "ingers": 5558,
      "steel": 5559,
      "Ġpen": 5560,
      "Ġpull": 5561,
      "Ġmiles": 5562,
      "alakos": 5563,
      "ĠSa": 5564,
      "ĠSure": 5565,
      "ĠSto": 5566,
      "ĠSult": 5567,
      "Ġled": 5568,
      "Ġlord": 5569,
      "ilver": 5570,
      "Ġhot": 5571,
      "Ġhour": 5572,
      "Ġhair": 5573,
      "Ġhouse": 5574,
      "uri": 5575,
      "urs": 5576,
      "ife": 5577,
      "ifier": 5578,
      "edron": 5579,
      "ĠAuntie": 5580,
      "ĠTell": 5581,
      "ĠTenth": 5582,
      "Ġgarg": 5583,
      "evi": 5584,
      "evol": 5585,
      "ĠDran": 5586,
      "Ġinfinite": 5587,
      "ĠFo": 5588,
      "ĠFel": 5589,
      "ĠField": 5590,
      "leader": 5591,
      "Ġorders": 5592,
      "ĠEdge": 5593,
      "olen": 5594,
      "Ġeats": 5595,
      "Ġeating": 5596,
      "ĠRaging": 5597,
      "ĠLich": 5598,
      "ĠLiliana": 5599,
      "ĠMeph": 5600,
      "heim": 5601,
      "ĠPest": 5602,
      "ĠPride": 5603,
      "Ġasp": 5604,
      "ĠGore": 5605,
      "chs": 5606,
      "ellig": 5607,
      "Ġspr": 5608,
      "Ġspear": 5609,
      "Ġspring": 5610,
      "loss": 5611,
      "ĠKeen": 5612,
      "ĠKoz": 5613,
      "rifying": 5614,
      "ĠOverseer": 5615,
      "ĠVill": 5616,
      "ilek": 5617,
      "ĠNak": 5618,
      "ĠNorn": 5619,
      "usher": 5620,
      "ireless": 5621,
      "empl": 5622,
      "avoc": 5623,
      "ĠGoad": 5624,
      "though": 5625,
      "three": 5626,
      "Ġwhom": 5627,
      "Ġblind": 5628,
      "Ġowns": 5629,
      "ĠScra": 5630,
      "artyr": 5631,
      "ĠExc": 5632,
      "Ġchain": 5633,
      "angers": 5634,
      "pha": 5635,
      "Ġleonin": 5636,
      "ĠChrom": 5637,
      "ĠChief": 5638,
      "ĠCont": 5639,
      "ĠCondu": 5640,
      "Ġsoc": 5641,
      "ondor": 5642,
      "Ġexpect": 5643,
      "Ġusually": 5644,
      "Ġskills": 5645,
      "ĠHeav": 5646,
      "ĠFabricate": 5647,
      "Ġruin": 5648,
      "Ġsurr": 5649,
      "Ġsurve": 5650,
      "Ġsweet": 5651,
      "rimson": 5652,
      "Ġtrapped": 5653,
      "ancers": 5654,
      "iffs": 5655,
      "Ġseconds": 5656,
      "itched": 5657,
      "Ġdispl": 5658,
      "Ġtrick": 5659,
      "Ġexplorer": 5660,
      "ĠMana": 5661,
      "Ġpassion": 5662,
      "ĠGhira": 5663,
      "ĠTruth": 5664,
      "Ġdistribute": 5665,
      "Ġguardian": 5666,
      "Ġleads": 5667,
      "Ġleaders": 5668,
      "ĠPerhaps": 5669,
      "ĠEmpires": 5670,
      "ĠEmperor": 5671,
      "Ġstronger": 5672,
      "Ġgrounds": 5673,
      "Ġfeeds": 5674,
      "cessor": 5675,
      "Ġburned": 5676,
      "ĠInfantry": 5677,
      "ĠExpedition": 5678,
      "sworn": 5679,
      "Ġrefuge": 5680,
      "arpadian": 5681,
      "Ġtouching": 5682,
      "ĠParagon": 5683,
      "iety": 5684,
      "Ġinspire": 5685,
      "Ġinspiration": 5686,
      "Ġjourney": 5687,
      "Ġhooves": 5688,
      "Ġasked": 5689,
      "Ġfields": 5690,
      "ĠTerror": 5691,
      "Ġfiery": 5692,
      "ĠWayf": 5693,
      "Ġpossess": 5694,
      "Ġpossible": 5695,
      "Ġveins": 5696,
      "Ġgoaded": 5697,
      "Elvish": 5698,
      "Ġguilds": 5699,
      "ĠTrust": 5700,
      "ĠOmn": 5701,
      "Ġghoul": 5702,
      "ĠMurasa": 5703,
      "Ġpresence": 5704,
      "Ġiron": 5705,
      "ĠMemnarch": 5706,
      "Ġlarge": 5707,
      "Ġcombination": 5708,
      "eronaut": 5709,
      "Ġtroops": 5710,
      "ĠWandering": 5711,
      "ĠNephalia": 5712,
      "Ġoccasion": 5713,
      "ĠProphet": 5714,
      "Ġdinosaurs": 5715,
      "Ġnumbers": 5716,
      "ĠVanishing": 5717,
      "ĠExtort": 5718,
      "ĠCephalid": 5719,
      "Ġdoubt": 5720,
      "Ġstomach": 5721,
      "eskai": 5722,
      "Ġfreedom": 5723,
      "ĠRhox": 5724,
      "Ġphilosop": 5725,
      "tamun": 5726,
      "ĠScientist": 5727,
      "ĠSultai": 5728,
      "ĠKozilek": 5729,
      "ĠGhirapur": 5730,
      "19": 5731,
      "Draw": 5732,
      "Le": 5733,
      "Sk": 5734,
      "Sp": 5735,
      "Sarpadian": 5736,
      "Ur": 5737,
      "bot": 5738,
      "bid": 5739,
      "blood": 5740,
      "body": 5741,
      "ca": 5742,
      "dent": 5743,
      "duced": 5744,
      "fist": 5745,
      "got": 5746,
      "gers": 5747,
      "ially": 5748,
      "jo": 5749,
      "lt": 5750,
      "pens": 5751,
      "sk": 5752,
      "ugg": 5753,
      "wyn": 5754,
      "yss": 5755,
      "Ã©": 5756,
      "reb": 5757,
      "Ġtear": 5758,
      "atl": 5759,
      "Ġcrow": 5760,
      "Ġcorn": 5761,
      "Ġcreed": 5762,
      "Ġthri": 5763,
      "Ġthirst": 5764,
      "incl": 5765,
      "itive": 5766,
      "itable": 5767,
      "onian": 5768,
      "onder": 5769,
      "Ġbreat": 5770,
      "Ġble": 5771,
      "Ġbarg": 5772,
      "ĠCame": 5773,
      "ĠCog": 5774,
      "ĠCare": 5775,
      "ĠClockwork": 5776,
      "Ġdue": 5777,
      "Ġdare": 5778,
      "acles": 5779,
      "orb": 5780,
      "orker": 5781,
      "Ġflood": 5782,
      "ĠWr": 5783,
      "ĠWest": 5784,
      "ĠWire": 5785,
      "Ġwins": 5786,
      "Ġwastes": 5787,
      "Ġmot": 5788,
      "Ġmists": 5789,
      "ĠSho": 5790,
      "ĠSeed": 5791,
      "Ġlangu": 5792,
      "Ġhidden": 5793,
      "ĠActiv": 5794,
      "ĠTom": 5795,
      "ĠTid": 5796,
      "Ġgle": 5797,
      "Ġgaze": 5798,
      "Ġgiving": 5799,
      "ĠHex": 5800,
      "ĠHyp": 5801,
      "ĠHorde": 5802,
      "ĠHawk": 5803,
      "ĠHatchling": 5804,
      "Ġoni": 5805,
      "eva": 5806,
      "eval": 5807,
      "oma": 5808,
      "ĠDid": 5809,
      "ĠDig": 5810,
      "Ġnet": 5811,
      "Ġnest": 5812,
      "ĠFre": 5813,
      "ĠFree": 5814,
      "lea": 5815,
      "asons": 5816,
      "ĠRose": 5817,
      "ĠRust": 5818,
      "ĠRally": 5819,
      "ĠRiders": 5820,
      "ĠLiege": 5821,
      "ĠMother": 5822,
      "ĠMog": 5823,
      "ĠMite": 5824,
      "ĠMort": 5825,
      "ĠMoss": 5826,
      "ĠPass": 5827,
      "ĠBi": 5828,
      "ĠBig": 5829,
      "ĠBane": 5830,
      "riv": 5831,
      "ĠGy": 5832,
      "ĠGix": 5833,
      "kem": 5834,
      "Ġstack": 5835,
      "rtai": 5836,
      "idross": 5837,
      "Ġlimit": 5838,
      "ĠKh": 5839,
      "ization": 5840,
      "ĠSpit": 5841,
      "ĠSpire": 5842,
      "Ġvedalken": 5843,
      "Ġview": 5844,
      "used": 5845,
      "Ġdoom": 5846,
      "ully": 5847,
      "Ġperil": 5848,
      "avan": 5849,
      "avel": 5850,
      "bler": 5851,
      "bling": 5852,
      "ĠAtark": 5853,
      "istrad": 5854,
      "unch": 5855,
      "ĠSoldevi": 5856,
      "inders": 5857,
      "ĠThalakos": 5858,
      "Ġequip": 5859,
      "hered": 5860,
      "oked": 5861,
      "ĠScor": 5862,
      "eadow": 5863,
      "Ġcompl": 5864,
      "ĠStor": 5865,
      "ĠStand": 5866,
      "ĠStew": 5867,
      "phoros": 5868,
      "ĠJeskai": 5869,
      "Ġvalues": 5870,
      "ishes": 5871,
      "ĠFlowstone": 5872,
      "ĠSlayer": 5873,
      "Ġmeant": 5874,
      "linger": 5875,
      "Ġunn": 5876,
      "ĠSkulk": 5877,
      "Ġscent": 5878,
      "Ġgolem": 5879,
      "ĠReturned": 5880,
      "ĠEnchant": 5881,
      "ĠDece": 5882,
      "ĠWeatherlight": 5883,
      "onda": 5884,
      "otted": 5885,
      "azot": 5886,
      "Ġprogress": 5887,
      "Ġrid": 5888,
      "Ġknowing": 5889,
      "iously": 5890,
      "ĠArchers": 5891,
      "Ġpoet": 5892,
      "ĠRoc": 5893,
      "ĠDevourer": 5894,
      "Ġraven": 5895,
      "Ġcouldn": 5896,
      "ĠClan": 5897,
      "ĠSwift": 5898,
      "ĠSergeant": 5899,
      "ĠYaw": 5900,
      "Ġresolves": 5901,
      "Ġelite": 5902,
      "ubborn": 5903,
      "ailing": 5904,
      "Ġdesert": 5905,
      "ĠShaper": 5906,
      "ĠSwamps": 5907,
      "ĠSouls": 5908,
      "ĠLands": 5909,
      "Ġkinds": 5910,
      "Ġfollowed": 5911,
      "Ġcarrion": 5912,
      "Ġforests": 5913,
      "ĠArmored": 5914,
      "rabras": 5915,
      "Ġassign": 5916,
      "Ġgrowing": 5917,
      "attering": 5918,
      "Ġwatched": 5919,
      "Ġfailed": 5920,
      "Ġdivine": 5921,
      "Ġbrother": 5922,
      "ĠEverything": 5923,
      "Ġfinest": 5924,
      "ĠWithin": 5925,
      "serv": 5926,
      "ĠAkroan": 5927,
      "Ġconsum": 5928,
      "Ġshields": 5929,
      "Ġsuspended": 5930,
      "Ġeaten": 5931,
      "Ġbroke": 5932,
      "Ġdecided": 5933,
      "Ġperfection": 5934,
      "Ġburning": 5935,
      "Ġloyal": 5936,
      "ĠValley": 5937,
      "ĠGorger": 5938,
      "jects": 5939,
      "Ġtrying": 5940,
      "ĠPrimal": 5941,
      "Ġpredator": 5942,
      "ĠGoliath": 5943,
      "Ġspeaks": 5944,
      "Ġservants": 5945,
      "Ġdirect": 5946,
      "Ġanswers": 5947,
      "ĠCyber": 5948,
      "ĠWillow": 5949,
      "ĠSupp": 5950,
      "ĠRaiders": 5951,
      "Ġarrived": 5952,
      "Ġheroes": 5953,
      "itten": 5954,
      "Ġtreasures": 5955,
      "Ġlucky": 5956,
      "ĠEmerge": 5957,
      "Ġhorns": 5958,
      "runner": 5959,
      "Ġsaved": 5960,
      "ĠPurphoros": 5961,
      "Ġmusic": 5962,
      "Ġhoping": 5963,
      "Ġspecies": 5964,
      "ĠInnistrad": 5965,
      "ĠUnleash": 5966,
      "Ġhomes": 5967,
      "ĠLava": 5968,
      "Ġfloor": 5969,
      "ĠShivan": 5970,
      "Ġmessage": 5971,
      "Ġreduces": 5972,
      "ĠNyxborn": 5973,
      "known": 5974,
      "ĠEnlist": 5975,
      "Ġsuccess": 5976,
      "Ã»l": 5977,
      "ĠMeletis": 5978,
      "Pharaoh": 5979,
      "ĠAssembly": 5980,
      "Ġimportant": 5981,
      "ĠRubblebelt": 5982,
      "ĠVengeful": 5983,
      "ĠMephidross": 5984,
      "ĠNaktamun": 5985,
      "Ġlanguage": 5986,
      "ĠActivated": 5987,
      "ĠMogis": 5988,
      "ĠAtarka": 5989,
      "rabrask": 5990,
      "+*": 5991,
      "Bl": 5992,
      "Bar": 5993,
      "Eye": 5994,
      "For": 5995,
      "II": 5996,
      "Or": 5997,
      "Tap": 5998,
      "Tales": 5999,
      "Worker": 6000,
      "bably": 6001,
      "cane": 6002,
      "dition": 6003,
      "gald": 6004,
      "hip": 6005,
      "iad": 6006,
      "jack": 6007,
      "la": 6008,
      "mos": 6009,
      "monger": 6010,
      "oen": 6011,
      "pid": 6012,
      "ses": 6013,
      "tec": 6014,
      "var": 6015,
      "vage": 6016,
      "voy": 6017,
      "yes": 6018,
      "Ġkey": 6019,
      "Ġtongue": 6020,
      "atog": 6021,
      "atiable": 6022,
      "enna": 6023,
      "Ġcase": 6024,
      "Ġcries": 6025,
      "Ġach": 6026,
      "ints": 6027,
      "arika": 6028,
      "any": 6029,
      "anic": 6030,
      "anist": 6031,
      "amble": 6032,
      "ito": 6033,
      "Ġbare": 6034,
      "ĠCreat": 6035,
      "ĠCle": 6036,
      "ĠCob": 6037,
      "essary": 6038,
      "Ġsal": 6039,
      "isf": 6040,
      "isen": 6041,
      "Ġdro": 6042,
      "Ġfed": 6043,
      "Ġfet": 6044,
      "Ġfaster": 6045,
      "ĠWalking": 6046,
      "Ġwolf": 6047,
      "elope": 6048,
      "ingu": 6049,
      "Ġproud": 6050,
      "Ġphys": 6051,
      "Ġmid": 6052,
      "ĠSomber": 6053,
      "urd": 6054,
      "uru": 6055,
      "ĠAmp": 6056,
      "ĠAerial": 6057,
      "ĠAtog": 6058,
      "ĠAeronaut": 6059,
      "ĠTomb": 6060,
      "ĠTide": 6061,
      "ĠTerr": 6062,
      "ĠTaken": 6063,
      "Ġ13": 6064,
      "icult": 6065,
      "ically": 6066,
      "ĠHur": 6067,
      "ĠHulk": 6068,
      "ĠIch": 6069,
      "ĠIcat": 6070,
      "ĠDancer": 6071,
      "Ġnomad": 6072,
      "ĠFight": 6073,
      "ĠFemeref": 6074,
      "utal": 6075,
      "ĠEd": 6076,
      "Ġet": 6077,
      "ĠLor": 6078,
      "ĠLun": 6079,
      "ĠLab": 6080,
      "ĠMight": 6081,
      "ĠMine": 6082,
      "ĠMob": 6083,
      "ĠMarch": 6084,
      "ĠMaze": 6085,
      "ĠMech": 6086,
      "ĠMidnight": 6087,
      "ĠPear": 6088,
      "ĠPsych": 6089,
      "ĠBreaker": 6090,
      "Ġrevel": 6091,
      "Ġreason": 6092,
      "Ġaside": 6093,
      "ĠGraft": 6094,
      "ĠGloom": 6095,
      "ĠGondor": 6096,
      "Ġspo": 6097,
      "Ġsproc": 6098,
      "aint": 6099,
      "Ġdece": 6100,
      "adi": 6101,
      "Ġstuff": 6102,
      "Ġstench": 6103,
      "osed": 6104,
      "ctic": 6105,
      "antern": 6106,
      "eturn": 6107,
      "Ġlived": 6108,
      "ĠKa": 6109,
      "ĠKnow": 6110,
      "riff": 6111,
      "ĠOath": 6112,
      "ĠOak": 6113,
      "Ġcool": 6114,
      "ĠVault": 6115,
      "ived": 6116,
      "izens": 6117,
      "ĠSpring": 6118,
      "igree": 6119,
      "ester": 6120,
      "ested": 6121,
      "ĠYoung": 6122,
      "Ġkavu": 6123,
      "ĠInform": 6124,
      "ĠThrough": 6125,
      "ĠUk": 6126,
      "Ġseason": 6127,
      "Ġseeds": 6128,
      "agers": 6129,
      "reeching": 6130,
      "Ġtail": 6131,
      "hyr": 6132,
      "ĠSculptor": 6133,
      "Ġrout": 6134,
      "Ġloc": 6135,
      "ĠStri": 6136,
      "ĠStud": 6137,
      "ĠReaver": 6138,
      "ĠArbiter": 6139,
      "ĠArctic": 6140,
      "ĠJor": 6141,
      "ĠJuk": 6142,
      "ewer": 6143,
      "ewing": 6144,
      "Ġmyst": 6145,
      "ĠMerrow": 6146,
      "Ġmeat": 6147,
      "Ġunst": 6148,
      "Ġunknown": 6149,
      "ĠSkul": 6150,
      "Ġscaven": 6151,
      "Ġjo": 6152,
      "ecution": 6153,
      "otting": 6154,
      "ĠAlthough": 6155,
      "Ġuseful": 6156,
      "Ġproblem": 6157,
      "Ġclass": 6158,
      "Ġrider": 6159,
      "ĠFaeries": 6160,
      "ronze": 6161,
      "ĠRoil": 6162,
      "ĠMonitor": 6163,
      "Ġtrap": 6164,
      "ĠClown": 6165,
      "Ġtried": 6166,
      "ĠRegent": 6167,
      "Ġnoncombat": 6168,
      "igned": 6169,
      "ĠDoes": 6170,
      "ĠTreasures": 6171,
      "ĠEvangel": 6172,
      "ĠSquid": 6173,
      "Ġsmart": 6174,
      "Ġcompet": 6175,
      "Ġhunts": 6176,
      "Ġpeaceful": 6177,
      "ĠGlider": 6178,
      "ĠGlory": 6179,
      "ĠProject": 6180,
      "Ġtrouble": 6181,
      "Ġdifficult": 6182,
      "Ġentering": 6183,
      "airs": 6184,
      "ĠDrac": 6185,
      "ĠSamite": 6186,
      "anna": 6187,
      "Ġfools": 6188,
      "ĠTrained": 6189,
      "Ġintru": 6190,
      "Ġinterest": 6191,
      "Ġpassage": 6192,
      "ĠGhitu": 6193,
      "Ġwanted": 6194,
      "ĠBattlemage": 6195,
      "Ġsecretly": 6196,
      "Ġrighteous": 6197,
      "scri": 6198,
      "Ġsuns": 6199,
      "Ġrunning": 6200,
      "warden": 6201,
      "server": 6202,
      "Ġconsider": 6203,
      "Ġconsume": 6204,
      "ĠResearch": 6205,
      "Ġremained": 6206,
      "Ġdecayed": 6207,
      "ĠBanding": 6208,
      "iddle": 6209,
      "Ġsounds": 6210,
      "ragorn": 6211,
      "ooter": 6212,
      "rodo": 6213,
      "Ġzomb": 6214,
      "Ġgifts": 6215,
      "Ġemerged": 6216,
      "Arrim": 6217,
      "ĠCarrion": 6218,
      "Ġsubtle": 6219,
      "Ġcourt": 6220,
      "Ġadvant": 6221,
      "Ġbrain": 6222,
      "Ġundead": 6223,
      "____": 6224,
      "ĠVolrath": 6225,
      "Ġcomplet": 6226,
      "Ġmoves": 6227,
      "Ġsurvival": 6228,
      "ĠRunner": 6229,
      "ĠCelestial": 6230,
      "Ġharsh": 6231,
      "umbling": 6232,
      "ĠChanneler": 6233,
      "rovax": 6234,
      "Ġconstant": 6235,
      "Ġharmony": 6236,
      "ĠDefiler": 6237,
      "ummy": 6238,
      "ĠRampaging": 6239,
      "ĠMorbid": 6240,
      "Ġwizards": 6241,
      "Ġscreams": 6242,
      "Ġlisten": 6243,
      "ĠOltec": 6244,
      "ĠEngineer": 6245,
      "ĠReplic": 6246,
      "Ġprepare": 6247,
      "Ġproduce": 6248,
      "ternity": 6249,
      "kirk": 6250,
      "Ġstrugg": 6251,
      "ĠStromgald": 6252,
      "ĠStromkirk": 6253,
      "Ġkept": 6254,
      "Ġogres": 6255,
      "Ġanimals": 6256,
      "Ġearned": 6257,
      "ĠImmortal": 6258,
      "Ġpotential": 6259,
      "Ġminotaurs": 6260,
      "Ġmorning": 6261,
      "ĠFanatic": 6262,
      "ĠSetessan": 6263,
      "ĠRecruiter": 6264,
      "Ġferocity": 6265,
      "Ġbusiness": 6266,
      "ĠOwl": 6267,
      "Ġintensity": 6268,
      "uppet": 6269,
      "ĠBadger": 6270,
      "ĠTempest": 6271,
      "Ġcountless": 6272,
      "Ġrepeat": 6273,
      "Ġattempt": 6274,
      "Ġlizard": 6275,
      "ĠSteward": 6276,
      "Ġsprockets": 6277,
      "ĠJukai": 6278,
      "!'": 6279,
      "Disa": 6280,
      "Eyed": 6281,
      "Gl": 6282,
      "Jil": 6283,
      "Kin": 6284,
      "Mana": 6285,
      "Return": 6286,
      "Vivien": 6287,
      "bor": 6288,
      "fit": 6289,
      "fly": 6290,
      "fec": 6291,
      "gy": 6292,
      "how": 6293,
      "hart": 6294,
      "iary": 6295,
      "jani": 6296,
      "kind": 6297,
      "men": 6298,
      "more": 6299,
      "mother": 6300,
      "rs": 6301,
      "rac": 6302,
      "rated": 6303,
      "rint": 6304,
      "taker": 6305,
      "uzz": 6306,
      "word": 6307,
      "watch": 6308,
      "wreck": 6309,
      "reme": 6310,
      "erv": 6311,
      "erve": 6312,
      "atile": 6313,
      "encer": 6314,
      "ency": 6315,
      "Ġcal": 6316,
      "Ġcunning": 6317,
      "Ġakki": 6318,
      "Ġow": 6319,
      "inc": 6320,
      "inter": 6321,
      "inia": 6322,
      "inator": 6323,
      "arr": 6324,
      "arum": 6325,
      "arant": 6326,
      "anos": 6327,
      "amity": 6328,
      "iton": 6329,
      "tled": 6330,
      "Ġbas": 6331,
      "Ġbook": 6332,
      "Ġbits": 6333,
      "Ġbitter": 6334,
      "Ġbloom": 6335,
      "ĠCust": 6336,
      "ĠCub": 6337,
      "ĠCunning": 6338,
      "Ġsever": 6339,
      "Ġsap": 6340,
      "Ġsust": 6341,
      "Ġscho": 6342,
      "acing": 6343,
      "Ġfresh": 6344,
      "ĠWo": 6345,
      "Ġwounds": 6346,
      "Ġwilder": 6347,
      "elst": 6348,
      "root": 6349,
      "Ġann": 6350,
      "ste": 6351,
      "step": 6352,
      "Ġpit": 6353,
      "Ġprim": 6354,
      "Ġpatter": 6355,
      "Ġmoney": 6356,
      "aling": 6357,
      "ĠSen": 6358,
      "ĠSong": 6359,
      "ĠSaw": 6360,
      "ĠSummon": 6361,
      "Ġlay": 6362,
      "Ġhiding": 6363,
      "ĠAre": 6364,
      "ĠAir": 6365,
      "ĠAragorn": 6366,
      "ĠTake": 6367,
      "ĠTark": 6368,
      "ĠTeferi": 6369,
      "ĠTeysa": 6370,
      "ragon": 6371,
      "icial": 6372,
      "ĠHold": 6373,
      "ĠHere": 6374,
      "ĠHidden": 6375,
      "omer": 6376,
      "ĠDamage": 6377,
      "ĠDiv": 6378,
      "Ġnine": 6379,
      "asty": 6380,
      "ĠFrenz": 6381,
      "ĠFrodo": 6382,
      "irion": 6383,
      "andalf": 6384,
      "ashen": 6385,
      "Ġorc": 6386,
      "ĠEag": 6387,
      "ĠEreb": 6388,
      "lyph": 6389,
      "ĠRuthless": 6390,
      "ĠLast": 6391,
      "ĠMold": 6392,
      "ĠMak": 6393,
      "ĠPal": 6394,
      "ĠPang": 6395,
      "ĠPoss": 6396,
      "ĠBound": 6397,
      "ĠBoss": 6398,
      "ĠBright": 6399,
      "ĠBreath": 6400,
      "ĠBrush": 6401,
      "Ġrece": 6402,
      "Ġrelease": 6403,
      "Ġate": 6404,
      "ĠGet": 6405,
      "ĠGav": 6406,
      "ĠGerrard": 6407,
      "Ġforged": 6408,
      "Ġforward": 6409,
      "Ġspy": 6410,
      "Ġspies": 6411,
      "Ġspider": 6412,
      "ainted": 6413,
      "Ġdear": 6414,
      "Ġdeeds": 6415,
      "Ġstage": 6416,
      "Ġstubborn": 6417,
      "ĠOper": 6418,
      "rust": 6419,
      "ĠVict": 6420,
      "ĠVuls": 6421,
      "ĠVerd": 6422,
      "ival": 6423,
      "ivator": 6424,
      "izer": 6425,
      "usive": 6426,
      "iller": 6427,
      "ĠShore": 6428,
      "ierce": 6429,
      "ogn": 6430,
      "ĠGood": 6431,
      "Ġallow": 6432,
      "Ġundercity": 6433,
      "ĠElend": 6434,
      "heres": 6435,
      "Ġthank": 6436,
      "ipe": 6437,
      "Ġcomfort": 6438,
      "Ġally": 6439,
      "oper": 6440,
      "ĠStinger": 6441,
      "ĠReid": 6442,
      "ĠRealm": 6443,
      "Ġchampion": 6444,
      "Ġchorus": 6445,
      "ashion": 6446,
      "anging": 6447,
      "ĠChosen": 6448,
      "ĠChieftain": 6449,
      "ĠCharging": 6450,
      "ĠJam": 6451,
      "ĠJungle": 6452,
      "ĠJhoira": 6453,
      "ĠRogues": 6454,
      "ewind": 6455,
      "lands": 6456,
      "Ġweb": 6457,
      "ĠMerchant": 6458,
      "ĠSlinger": 6459,
      "Ġflow": 6460,
      "Ġunc": 6461,
      "Ġunw": 6462,
      "ĠSkanos": 6463,
      "Ġscars": 6464,
      "Ġworst": 6465,
      "ĠRetri": 6466,
      "Ġroad": 6467,
      "ability": 6468,
      "ĠAlpha": 6469,
      "Ġwerewolves": 6470,
      "Ġexpl": 6471,
      "Ġsearches": 6472,
      "Ġproduced": 6473,
      "Ġclever": 6474,
      "Ġclim": 6475,
      "ĠHeir": 6476,
      "ĠArchmage": 6477,
      "ĠArchae": 6478,
      "ĠAllies": 6479,
      "Ġtrail": 6480,
      "ĠClam": 6481,
      "ĠSword": 6482,
      "ĠYes": 6483,
      "ĠBloodrush": 6484,
      "ĠIsle": 6485,
      "Ġreached": 6486,
      "Ġworlds": 6487,
      "assins": 6488,
      "ĠToo": 6489,
      "ĠAssassins": 6490,
      "ĠDwarves": 6491,
      "ĠSquee": 6492,
      "ikicker": 6493,
      "Ġimpro": 6494,
      "Ġglad": 6495,
      "ĠImprov": 6496,
      "ĠDogs": 6497,
      "Ġoffers": 6498,
      "Ġmonster": 6499,
      "ĠProcessor": 6500,
      "Ġtrack": 6501,
      "ĠMaraud": 6502,
      "Ġknock": 6503,
      "Ġmindless": 6504,
      "Ġappet": 6505,
      "ĠLeaf": 6506,
      "Ġstrateg": 6507,
      "Ġtreefolk": 6508,
      "Ġfalls": 6509,
      "ĠTraining": 6510,
      "Ġintimidate": 6511,
      "ĠWhatever": 6512,
      "ĠHellb": 6513,
      "Ġkilling": 6514,
      "Ġwatching": 6515,
      "Ġfaerie": 6516,
      "Ġguards": 6517,
      "Ġguarded": 6518,
      "oggle": 6519,
      "ĠEveryone": 6520,
      "scale": 6521,
      "Ġmercy": 6522,
      "Ġcyclops": 6523,
      "ĠSquirrels": 6524,
      "ĠSapraz": 6525,
      "Ġharder": 6526,
      "ĠRavager": 6527,
      "Ġhorizon": 6528,
      "ĠSpectral": 6529,
      "ĠSynth": 6530,
      "Ġincre": 6531,
      "Ġrecruit": 6532,
      "ĠPatron": 6533,
      "ĠValor": 6534,
      "Ġpatience": 6535,
      "ĠNylea": 6536,
      "Ġquestions": 6537,
      "Ġcharged": 6538,
      "Ġstudents": 6539,
      "Ġvisions": 6540,
      "Ġremembers": 6541,
      "Ġprecision": 6542,
      "ĠImoen": 6543,
      "Ġbrains": 6544,
      "Ġnecrom": 6545,
      "ĠSavage": 6546,
      "ĠUndead": 6547,
      "Ġgeists": 6548,
      "Ġmoving": 6549,
      "Ġsurvived": 6550,
      "ĠMultikicker": 6551,
      "Ġburst": 6552,
      "Ġburied": 6553,
      "ĠFeral": 6554,
      "ĠSkirk": 6555,
      "ĠSecret": 6556,
      "Ġships": 6557,
      "urochs": 6558,
      "ĠRadiant": 6559,
      "Ġprovide": 6560,
      "rested": 6561,
      "Ġpromise": 6562,
      "Ġghost": 6563,
      "ĠBrass": 6564,
      "Ġpresent": 6565,
      "ĠSurvivor": 6566,
      "ĠCrusher": 6567,
      "ĠAntelope": 6568,
      "Ġfavorite": 6569,
      "alanx": 6570,
      "ĠHeliod": 6571,
      "Ġstruck": 6572,
      "gmoth": 6573,
      "Ġkeen": 6574,
      "utton": 6575,
      "ĠVoracious": 6576,
      "Ġprowl": 6577,
      "Ġgentle": 6578,
      "Ġfearsome": 6579,
      "Ġpieces": 6580,
      "ĠTheriad": 6581,
      "Ġrebu": 6582,
      "Ġmassive": 6583,
      "ĠGrizz": 6584,
      "Ġdetermined": 6585,
      "Ġvolcano": 6586,
      "ĠShambler": 6587,
      "ĠSkyclave": 6588,
      "ĠCommando": 6589,
      "ĠBringer": 6590,
      "ĠAdvocate": 6591,
      "Ġnightmares": 6592,
      "Ġdespair": 6593,
      "Ġcurrents": 6594,
      "Ġfangs": 6595,
      "Ġpractice": 6596,
      "Ġbolster": 6597,
      "Ġsatisf": 6598,
      "Ġinflu": 6599,
      "ĠBeholder": 6600,
      "Ġassembles": 6601,
      "Ġafraid": 6602,
      "ĠCreeper": 6603,
      "ĠQuicksilver": 6604,
      "Mirri": 6605,
      "honas": 6606,
      "Ġsociety": 6607,
      "Leaf": 6608,
      "inclex": 6609,
      "ĠWirewood": 6610,
      "ĠYawgmoth": 6611,
      "ĠSomberwald": 6612,
      "Ġintruders": 6613,
      "Ġcompletely": 6614,
      "fectly": 6615,
      "elstrom": 6616,
      "ĠTarkir": 6617,
      "ĠVulshok": 6618,
      "ĠImprovise": 6619,
      "00": 6620,
      "Ad": 6621,
      "Az": 6622,
      "Dal": 6623,
      "DÃ»l": 6624,
      "Head": 6625,
      "Huatli": 6626,
      "Mizz": 6627,
      "Nissa": 6628,
      "Rief": 6629,
      "Su": 6630,
      "Tribe": 6631,
      "Wall": 6632,
      "ailed": 6633,
      "clo": 6634,
      "eks": 6635,
      "fe": 6636,
      "field": 6637,
      "gor": 6638,
      "hound": 6639,
      "haven": 6640,
      "ias": 6641,
      "igin": 6642,
      "pact": 6643,
      "rant": 6644,
      "rall": 6645,
      "sess": 6646,
      "sis": 6647,
      "uary": 6648,
      "ynd": 6649,
      "zon": 6650,
      "¼d": 6651,
      "Ã¼d": 6652,
      "Ġid": 6653,
      "reach": 6654,
      "rets": 6655,
      "Ġtread": 6656,
      "Ġtalk": 6657,
      "enment": 6658,
      "Ġce": 6659,
      "Ġcit": 6660,
      "Ġcel": 6661,
      "Ġcraw": 6662,
      "Ġcrash": 6663,
      "Ġaud": 6664,
      "Ġaug": 6665,
      "Ġaxe": 6666,
      "Ġthop": 6667,
      "urer": 6668,
      "amo": 6669,
      "ital": 6670,
      "itors": 6671,
      "onight": 6672,
      "Ġbark": 6673,
      "Ġbox": 6674,
      "ĠCrimson": 6675,
      "otic": 6676,
      "otter": 6677,
      "ghtly": 6678,
      "Ġsort": 6679,
      "Ġdread": 6680,
      "acon": 6681,
      "Ġflock": 6682,
      "Ġfarm": 6683,
      "Ġfourth": 6684,
      "ĠWave": 6685,
      "ela": 6686,
      "ingly": 6687,
      "ardic": 6688,
      "Ġtools": 6689,
      "Ġpop": 6690,
      "Ġport": 6691,
      "Ġpets": 6692,
      "Ġmed": 6693,
      "Ġmother": 6694,
      "alg": 6695,
      "ĠSuch": 6696,
      "Ġlur": 6697,
      "Ġhammer": 6698,
      "ĠAx": 6699,
      "ĠAge": 6700,
      "ĠArash": 6701,
      "ĠTen": 6702,
      "ĠTho": 6703,
      "ĠTask": 6704,
      "ĠTribute": 6705,
      "Ġut": 6706,
      "Ġult": 6707,
      "Ġgri": 6708,
      "Ġgru": 6709,
      "ravel": 6710,
      "iced": 6711,
      "icers": 6712,
      "Ġconcer": 6713,
      "ĠHall": 6714,
      "ĠHenge": 6715,
      "evic": 6716,
      "ĠDun": 6717,
      "ĠDross": 6718,
      "Ġnim": 6719,
      "ĠFil": 6720,
      "ĠFist": 6721,
      "ĠFeed": 6722,
      "ĠFading": 6723,
      "Ġbeg": 6724,
      "andal": 6725,
      "andrix": 6726,
      "uma": 6727,
      "umpet": 6728,
      "Ġorigin": 6729,
      "Ġear": 6730,
      "ĠRag": 6731,
      "ĠReven": 6732,
      "ĠRift": 6733,
      "ĠLar": 6734,
      "ĠLess": 6735,
      "ĠLocus": 6736,
      "ĠMad": 6737,
      "ĠMuse": 6738,
      "ĠMamm": 6739,
      "ĠMartyr": 6740,
      "ĠPol": 6741,
      "ĠPill": 6742,
      "ĠBan": 6743,
      "ĠBent": 6744,
      "ĠBrig": 6745,
      "ria": 6746,
      "riarch": 6747,
      "Ġrev": 6748,
      "Ġreclaim": 6749,
      "ĠGw": 6750,
      "ĠGard": 6751,
      "ĠGed": 6752,
      "ĠGut": 6753,
      "ĠGith": 6754,
      "ĠGear": 6755,
      "ĠGideon": 6756,
      "Ġforage": 6757,
      "Ġends": 6758,
      "Ġspoke": 6759,
      "aders": 6760,
      "adox": 6761,
      "ephyr": 6762,
      "oreal": 6763,
      "aphe": 6764,
      "imp": 6765,
      "ĠKaz": 6766,
      "ĠKels": 6767,
      "ĠKitsune": 6768,
      "ĠKonda": 6769,
      "Ġexalted": 6770,
      "ĠOd": 6771,
      "ceed": 6772,
      "rup": 6773,
      "ĠVis": 6774,
      "ĠVine": 6775,
      "ivore": 6776,
      "hoot": 6777,
      "odiac": 6778,
      "ĠNar": 6779,
      "ĠNet": 6780,
      "Ġvow": 6781,
      "Ġvicious": 6782,
      "uss": 6783,
      "blazer": 6784,
      "ĠShar": 6785,
      "ĠAth": 6786,
      "Ġlandwalk": 6787,
      "athran": 6788,
      "lert": 6789,
      "ĠZodiac": 6790,
      "Ġblow": 6791,
      "Ġblink": 6792,
      "Ġenlight": 6793,
      "ĠArtifacts": 6794,
      "Ġcoll": 6795,
      "ĠThran": 6796,
      "ĠThiev": 6797,
      "ĠUs": 6798,
      "ryff": 6799,
      "ĠAnnihilator": 6800,
      "Ġchoices": 6801,
      "ĠBeware": 6802,
      "Ġrhy": 6803,
      "Ġrising": 6804,
      "igilant": 6805,
      "oping": 6806,
      "aks": 6807,
      "akir": 6808,
      "ĠExempl": 6809,
      "ĠStarn": 6810,
      "ĠStrength": 6811,
      "Ġchanged": 6812,
      "inking": 6813,
      "phin": 6814,
      "ĠJark": 6815,
      "ĠJura": 6816,
      "ordial": 6817,
      "Ġweave": 6818,
      "Ġunearth": 6819,
      "Ġunique": 6820,
      "Ġjoy": 6821,
      "Ġrope": 6822,
      "Ġpress": 6823,
      "ĠEnvoy": 6824,
      "Ġsoil": 6825,
      "rank": 6826,
      "speth": 6827,
      "ĠAlt": 6828,
      "redict": 6829,
      "Ġagent": 6830,
      "ĠMyc": 6831,
      "ĠMyra": 6832,
      "ĠAdam": 6833,
      "Ġclick": 6834,
      "Ġrivers": 6835,
      "nerÃ¼d": 6836,
      "ĠFae": 6837,
      "ĠWhelp": 6838,
      "Ġrust": 6839,
      "udevic": 6840,
      "ĠClaw": 6841,
      "ĠSwitch": 6842,
      "ĠBladem": 6843,
      "Ġresolve": 6844,
      "Ġslain": 6845,
      "Ġslumber": 6846,
      "ension": 6847,
      "visa": 6848,
      "Ġfeathers": 6849,
      "ĠSheoldred": 6850,
      "Ġdesperate": 6851,
      "Ġcreation": 6852,
      "alties": 6853,
      "ĠSkyknight": 6854,
      "Ġevent": 6855,
      "ĠGlade": 6856,
      "ĠProliferate": 6857,
      "Ġtrem": 6858,
      "Ġcarries": 6859,
      "Ġfalling": 6860,
      "ĠFoods": 6861,
      "Ġthinks": 6862,
      "Ġthinking": 6863,
      "Ġintellig": 6864,
      "Ġdarkest": 6865,
      "ĠQuirion": 6866,
      "ĠQuandrix": 6867,
      "ĠMirran": 6868,
      "ĠPhalanx": 6869,
      "ĠGrace": 6870,
      "ĠMagn": 6871,
      "Ġsilver": 6872,
      "Ġfinally": 6873,
      "Ġclosed": 6874,
      "Ġprotects": 6875,
      "Ġeasier": 6876,
      "Ġdefenses": 6877,
      "Ġrenegade": 6878,
      "flame": 6879,
      "Ġhealers": 6880,
      "Ġminus": 6881,
      "Ġhorse": 6882,
      "ĠBandit": 6883,
      "ĠUndergrowth": 6884,
      "Ġdrafted": 6885,
      "ĠMaelstrom": 6886,
      "ĠBala": 6887,
      "Ġfamiliar": 6888,
      "Ġcryst": 6889,
      "ĠWorker": 6890,
      "ĠDeadeye": 6891,
      "ĠBaron": 6892,
      "ĠNezumi": 6893,
      "ĠAzra": 6894,
      "asked": 6895,
      "Ġdriven": 6896,
      "ĠHomar": 6897,
      "aji": 6898,
      "ĠSavant": 6899,
      "Ġdeclare": 6900,
      "ĠOutcast": 6901,
      "retched": 6902,
      "ĠCursed": 6903,
      "ĠArtist": 6904,
      "ĠArtisan": 6905,
      "Ġinitiate": 6906,
      "Ġinitiates": 6907,
      "Ġcomplete": 6908,
      "Ġfleet": 6909,
      "Ġsurvivors": 6910,
      "Ġbuilding": 6911,
      "Ġdirection": 6912,
      "Ġmarket": 6913,
      "ĠTwin": 6914,
      "ĠTorment": 6915,
      "ĠOutlaw": 6916,
      "Ġshapes": 6917,
      "Ġmoments": 6918,
      "ĠMalakir": 6919,
      "ĠFeroc": 6920,
      "ĠLibr": 6921,
      "ĠLiber": 6922,
      "ĠSkirm": 6923,
      "Ġwoods": 6924,
      "ĠRevane": 6925,
      "ĠRevolt": 6926,
      "ĠRadha": 6927,
      "Ġteaching": 6928,
      "ĠAmbush": 6929,
      "ĠAmbusher": 6930,
      "ortunately": 6931,
      "ĠEmeria": 6932,
      "ĠNimble": 6933,
      "ĠRelic": 6934,
      "ĠRelentless": 6935,
      "ĠOverlord": 6936,
      "Ġshamans": 6937,
      "Ġcontinue": 6938,
      "ĠCapashen": 6939,
      "ĠKalonian": 6940,
      "Ġsurprise": 6941,
      "Ġwurms": 6942,
      "Ġhopes": 6943,
      "ĠTalas": 6944,
      "Ġdesigned": 6945,
      "Ġlarger": 6946,
      "Ġmischief": 6947,
      "Ġhappy": 6948,
      "Ġswampwalk": 6949,
      "Ġidea": 6950,
      "Ġheavy": 6951,
      "ĠLurking": 6952,
      "Ġreduce": 6953,
      "ĠFormidable": 6954,
      "Ġtalent": 6955,
      "Ġensure": 6956,
      "Ġbelongs": 6957,
      "Ġappearance": 6958,
      "ĠSylvan": 6959,
      "ĠRidge": 6960,
      "Ġstrikes": 6961,
      "Ġabandoned": 6962,
      "Ġbelieved": 6963,
      "ĠKennerÃ¼d": 6964,
      "ĠKinship": 6965,
      "Ġsuddenly": 6966,
      "ĠZhalfir": 6967,
      "Ġinhabit": 6968,
      "ĠTransmute": 6969,
      "ĠWhispering": 6970,
      "Ġappreciate": 6971,
      "ĠTajuru": 6972,
      "ĠDalek": 6973,
      "iganjo": 6974,
      "ĠSteam": 6975,
      "Ġbugs": 6976,
      "Ġboggarts": 6977,
      "Ġopportunity": 6978,
      "Ġinnocent": 6979,
      "fessor": 6980,
      "ĠExcav": 6981,
      "ĠConduit": 6982,
      "ĠHeavy": 6983,
      "Ġcrowd": 6984,
      "ĠCamel": 6985,
      "ĠStormc": 6986,
      "ĠTerritorial": 6987,
      "ĠIcatian": 6988,
      "ĠPearl": 6989,
      "Jilad": 6990,
      "ĠCustod": 6991,
      "ĠErebos": 6992,
      "ĠGavony": 6993,
      "ĠOperative": 6994,
      "ĠHellbent": 6995,
      "ĠJarkeld": 6996,
      "*-": 6997,
      "Bru": 6998,
      "Kor": 6999,
      "Ol": 7000,
      "Song": 7001,
      "Sacrifice": 7002,
      "aits": 7003,
      "bble": 7004,
      "combat": 7005,
      "dem": 7006,
      "ean": 7007,
      "eur": 7008,
      "eared": 7009,
      "far": 7010,
      "fic": 7011,
      "gard": 7012,
      "gling": 7013,
      "hor": 7014,
      "iq": 7015,
      "iy": 7016,
      "just": 7017,
      "kar": 7018,
      "lies": 7019,
      "meadow": 7020,
      "nith": 7021,
      "nch": 7022,
      "rice": 7023,
      "riss": 7024,
      "tic": 7025,
      "tain": 7026,
      "uer": 7027,
      "uit": 7028,
      "udd": 7029,
      "Ġess": 7030,
      "Ġur": 7031,
      "Ġest": 7032,
      "Ġ____": 7033,
      "Ġtides": 7034,
      "erous": 7035,
      "ernal": 7036,
      "Ġcro": 7037,
      "Ġcand": 7038,
      "Ġcrim": 7039,
      "Ġcoward": 7040,
      "Ġcirc": 7041,
      "Ġoce": 7042,
      "inary": 7043,
      "esmer": 7044,
      "urel": 7045,
      "tline": 7046,
      "onored": 7047,
      "ĠCra": 7048,
      "ĠCad": 7049,
      "ĠCombat": 7050,
      "ĠCour": 7051,
      "othe": 7052,
      "essenger": 7053,
      "Ġsanct": 7054,
      "isp": 7055,
      "Ġdiss": 7056,
      "Ġdusk": 7057,
      "Ġdiet": 7058,
      "Ġdirt": 7059,
      "orator": 7060,
      "Ġfro": 7061,
      "Ġfav": 7062,
      "Ġfert": 7063,
      "ĠWren": 7064,
      "ĠWicked": 7065,
      "ĠWait": 7066,
      "Ġwide": 7067,
      "elm": 7068,
      "eled": 7069,
      "eland": 7070,
      "Ġtool": 7071,
      "Ġtoll": 7072,
      "Ġpal": 7073,
      "Ġpol": 7074,
      "Ġpush": 7075,
      "Ġposition": 7076,
      "Ġmur": 7077,
      "Ġmap": 7078,
      "Ġmob": 7079,
      "Ġmourn": 7080,
      "Ġmolten": 7081,
      "ĠSaur": 7082,
      "ĠSacred": 7083,
      "ĠSisay": 7084,
      "Ġlore": 7085,
      "Ġlantern": 7086,
      "Ġholy": 7087,
      "Ġhurt": 7088,
      "Ġhabit": 7089,
      "aying": 7090,
      "ĠAw": 7091,
      "ĠAce": 7092,
      "ĠAurochs": 7093,
      "ĠTet": 7094,
      "Ġgeneral": 7095,
      "rav": 7096,
      "raiser": 7097,
      "Ġconfl": 7098,
      "ĠHan": 7099,
      "ĠHier": 7100,
      "ĠHammer": 7101,
      "ĠIma": 7102,
      "omes": 7103,
      "ĠDro": 7104,
      "ĠDred": 7105,
      "Ġinner": 7106,
      "asting": 7107,
      "ĠFollow": 7108,
      "ĠFada": 7109,
      "uts": 7110,
      "irant": 7111,
      "irling": 7112,
      "ases": 7113,
      "ĠEp": 7114,
      "ĠEss": 7115,
      "ĠEsc": 7116,
      "ĠEbon": 7117,
      "ĠEyes": 7118,
      "ĠEiganjo": 7119,
      "olation": 7120,
      "Ġetherium": 7121,
      "ĠRay": 7122,
      "ĠRune": 7123,
      "ĠRank": 7124,
      "ĠLy": 7125,
      "ĠLum": 7126,
      "ĠLob": 7127,
      "ĠMen": 7128,
      "ĠMus": 7129,
      "ĠMass": 7130,
      "ĠMessenger": 7131,
      "hew": 7132,
      "ĠPak": 7133,
      "ĠPuppet": 7134,
      "ĠBeg": 7135,
      "ĠBrim": 7136,
      "ĠBats": 7137,
      "ĠBones": 7138,
      "riar": 7139,
      "Ġreckless": 7140,
      "ĠGro": 7141,
      "ĠGener": 7142,
      "ĠGale": 7143,
      "ĠGilt": 7144,
      "ĠGisa": 7145,
      "cha": 7146,
      "chi": 7147,
      "Ġplains": 7148,
      "Ġplague": 7149,
      "Ġspawn": 7150,
      "loon": 7151,
      "ador": 7152,
      "ppel": 7153,
      "Ġstream": 7154,
      "Ġsteady": 7155,
      "osp": 7156,
      "Ġcanopy": 7157,
      "ckon": 7158,
      "Ġattention": 7159,
      "oret": 7160,
      "Ġlik": 7161,
      "Ġlikes": 7162,
      "kenzan": 7163,
      "imen": 7164,
      "iments": 7165,
      "ĠKr": 7166,
      "ĠKind": 7167,
      "ĠKins": 7168,
      "ĠOnd": 7169,
      "ĠOran": 7170,
      "ĠOona": 7171,
      "Ġgrasp": 7172,
      "ĠViper": 7173,
      "ldron": 7174,
      "ĠSpore": 7175,
      "ĠSpear": 7176,
      "oday": 7177,
      "ĠNiv": 7178,
      "ĠNem": 7179,
      "ĠNala": 7180,
      "ĠNavigator": 7181,
      "Ġvile": 7182,
      "Ġvirt": 7183,
      "Ġvizier": 7184,
      "illing": 7185,
      "ĠWarren": 7186,
      "Ġdoing": 7187,
      "Ġshar": 7188,
      "ection": 7189,
      "ula": 7190,
      "Ġperform": 7191,
      "Ġperfectly": 7192,
      "mantle": 7193,
      "that": 7194,
      "ĠZephyr": 7195,
      "ĠInvent": 7196,
      "ĠUrabrask": 7197,
      "Ġnonatt": 7198,
      "ĠScut": 7199,
      "ĠBei": 7200,
      "Ġrum": 7201,
      "Ġritu": 7202,
      "arts": 7203,
      "akers": 7204,
      "Ġloose": 7205,
      "Ġloved": 7206,
      "ĠSteed": 7207,
      "ĠStrix": 7208,
      "ĠStronghold": 7209,
      "ĠClerics": 7210,
      "Ġchant": 7211,
      "ĠArson": 7212,
      "ĠJo": 7213,
      "ĠJace": 7214,
      "otha": 7215,
      "ĠBeasts": 7216,
      "Ġmyriad": 7217,
      "uffle": 7218,
      "Ġweep": 7219,
      "Ġ...": 7220,
      "Ġheights": 7221,
      "Ġunity": 7222,
      "Ġunited": 7223,
      "ĠSkitter": 7224,
      "Ġherald": 7225,
      "Ġscr": 7226,
      "Ġscra": 7227,
      "Ġscales": 7228,
      "Ġjump": 7229,
      "Ġpreser": 7230,
      "ĠWeap": 7231,
      "venwald": 7232,
      "ĠAlchemist": 7233,
      "ĠNov": 7234,
      "esha": 7235,
      "Ġskip": 7236,
      "Ġprobably": 7237,
      "Ġripp": 7238,
      "Ġmonks": 7239,
      "ĠYot": 7240,
      "Ġcommands": 7241,
      "Ġpartic": 7242,
      "Ġnews": 7243,
      "ightly": 7244,
      "Ġoverhead": 7245,
      "ĠSeek": 7246,
      "beats": 7247,
      "Ġadept": 7248,
      "ĠPrec": 7249,
      "Ġsmith": 7250,
      "auldron": 7251,
      "Ġglorious": 7252,
      "Ġbelief": 7253,
      "ĠSkys": 7254,
      "Ġhowever": 7255,
      "ĠGlutton": 7256,
      "Ġfinding": 7257,
      "Ġdisp": 7258,
      "ĠMarket": 7259,
      "Ġapply": 7260,
      "arians": 7261,
      "ĠTrail": 7262,
      "Ġcalling": 7263,
      "Ġassist": 7264,
      "Ġpassing": 7265,
      "Ġeffective": 7266,
      "eyes": 7267,
      "ĠFirebrand": 7268,
      "ahr": 7269,
      "ĠTriton": 7270,
      "ĠShadowmoor": 7271,
      "ukarum": 7272,
      "Ġdistant": 7273,
      "Ġwants": 7274,
      "ĠMercenaries": 7275,
      "Ġmightiest": 7276,
      "Ġfae": 7277,
      "ĠPharika": 7278,
      "ĠGray": 7279,
      "ĠAbyss": 7280,
      "ĠAfterlife": 7281,
      "Ġenergies": 7282,
      "ressed": 7283,
      "Ġbrothers": 7284,
      "ĠPermanent": 7285,
      "Ġcontent": 7286,
      "Ġsilently": 7287,
      "ĠSokenzan": 7288,
      "Ġruns": 7289,
      "ĠSurveil": 7290,
      "ĠSurrak": 7291,
      "Ġclos": 7292,
      "Ġprotecting": 7293,
      "Ġtemple": 7294,
      "Ġhumanity": 7295,
      "Ġsnake": 7296,
      "Ġmagical": 7297,
      "Ġopened": 7298,
      "ibility": 7299,
      "Ġsets": 7300,
      "Ġsettle": 7301,
      "Ġhorrible": 7302,
      "Ġpaths": 7303,
      "Ġrecruits": 7304,
      "Ġrecogn": 7305,
      "Ġdelicate": 7306,
      "Ġrefuse": 7307,
      "ĠMauler": 7308,
      "Ġneigh": 7309,
      "ĠGuildpact": 7310,
      "raska": 7311,
      "Ġtraveler": 7312,
      "Ġseemed": 7313,
      "ĠDelve": 7314,
      "ĠMetathran": 7315,
      "Ġlegacy": 7316,
      "Ġnearly": 7317,
      "Ġprecombat": 7318,
      "Ġwhisper": 7319,
      "ĠRedeem": 7320,
      "ealer": 7321,
      "Ġcorrupt": 7322,
      "Ġnecessary": 7323,
      "ĠMistform": 7324,
      "quisite": 7325,
      "ĠAfflict": 7326,
      "ĠMole": 7327,
      "elcome": 7328,
      "Ġsquirrel": 7329,
      "Ġshaped": 7330,
      "ĠUlvenwald": 7331,
      "Ġconstruct": 7332,
      "Ġencount": 7333,
      "ĠSecrets": 7334,
      "...": 7335,
      "ĠJuniper": 7336,
      "Ġadapted": 7337,
      "Ġscreaming": 7338,
      "Ġdemand": 7339,
      "Ġslowly": 7340,
      "Ġsuffer": 7341,
      "Ġhaunting": 7342,
      "ĠFarmer": 7343,
      "Ġstirred": 7344,
      "ĠSplit": 7345,
      "Ġapart": 7346,
      "Ġescaped": 7347,
      "Ġcapture": 7348,
      "ĠSanctum": 7349,
      "ĠLurker": 7350,
      "Ġoutlaws": 7351,
      "iosity": 7352,
      "ĠCultivator": 7353,
      "Ġprowess": 7354,
      "ĠCelebration": 7355,
      "Ġviolence": 7356,
      "Ġcasu": 7357,
      "Ġpiece": 7358,
      "ĠShipwreck": 7359,
      "Ġranks": 7360,
      "Ġdogs": 7361,
      "Ġclashing": 7362,
      "Ġvolcanic": 7363,
      "Ġpirates": 7364,
      "ĠMasticore": 7365,
      "ointed": 7366,
      "ĠHippo": 7367,
      "ĠBodyguard": 7368,
      "walla": 7369,
      "Ġbrief": 7370,
      "ĠIxalan": 7371,
      "Ġdefeat": 7372,
      "Ġcivilization": 7373,
      "Ġwonders": 7374,
      "ĠRimewind": 7375,
      "ĠAlabaster": 7376,
      "ĠSigarda": 7377,
      "burst": 7378,
      "ĠCruel": 7379,
      "ĠFoundry": 7380,
      "Ġislandwalk": 7381,
      "Ġmilitary": 7382,
      "Ġpretty": 7383,
      "Ġkingdoms": 7384,
      "Ġpostcombat": 7385,
      "ĠViridian": 7386,
      "ĠColdeyes": 7387,
      "Ġfragile": 7388,
      "evolent": 7389,
      "Ġcorner": 7390,
      "Ġunnatural": 7391,
      "Blade": 7392,
      "Ġphysical": 7393,
      "ĠAmplif": 7394,
      "ĠKnowledge": 7395,
      "Ġadvantage": 7396,
      "ĠReplica": 7397,
      "Ġseveral": 7398,
      "Ġwilderness": 7399,
      "ĠJamura": 7400,
      "ĠRetriever": 7401,
      "Mizzet": 7402,
      "Suq": 7403,
      "ĠStarnheim": 7404,
      "ĠBlademaster": 7405,
      "Ġmurder": 7406,
      "ĠImagin": 7407,
      "ĠEssence": 7408,
      "ĠNalaar": 7409,
      "Ġnonattacking": 7410,
      "ukarumel": 7411,
      "12": 7412,
      "Bra": 7413,
      "Discard": 7414,
      "Dragon": 7415,
      "Gor": 7416,
      "Gideon": 7417,
      "Lo": 7418,
      "Rukarumel": 7419,
      "Sor": 7420,
      "Wh": 7421,
      "Zh": 7422,
      "bar": 7423,
      "bal": 7424,
      "bear": 7425,
      "bered": 7426,
      "chen": 7427,
      "ctly": 7428,
      "catcher": 7429,
      "crafter": 7430,
      "dag": 7431,
      "dotter": 7432,
      "gged": 7433,
      "hend": 7434,
      "hus": 7435,
      "iro": 7436,
      "iora": 7437,
      "ja": 7438,
      "ku": 7439,
      "lain": 7440,
      "law": 7441,
      "mun": 7442,
      "mara": 7443,
      "mages": 7444,
      "ners": 7445,
      "ole": 7446,
      "och": 7447,
      "opp": 7448,
      "oices": 7449,
      "pin": 7450,
      "ped": 7451,
      "perer": 7452,
      "rayer": 7453,
      "vala": 7454,
      "wen": 7455,
      "wild": 7456,
      "wright": 7457,
      "wagg": 7458,
      "xious": 7459,
      "yrie": 7460,
      "Ã³": 7461,
      "Ġze": 7462,
      "Ġerr": 7463,
      "reos": 7464,
      "render": 7465,
      "rehend": 7466,
      "Ġtower": 7467,
      "Ġtur": 7468,
      "Ġtang": 7469,
      "Ġtowers": 7470,
      "eral": 7471,
      "atron": 7472,
      "athered": 7473,
      "Ġcra": 7474,
      "Ġcleric": 7475,
      "Ġcaves": 7476,
      "Ġthin": 7477,
      "Ġthir": 7478,
      "Ġthick": 7479,
      "Ġthread": 7480,
      "Ġthrull": 7481,
      "anity": 7482,
      "itary": 7483,
      "itect": 7484,
      "ittle": 7485,
      "tler": 7486,
      "Ġbed": 7487,
      "Ġbord": 7488,
      "Ġbarb": 7489,
      "Ġbolt": 7490,
      "ĠCa": 7491,
      "ĠCross": 7492,
      "ĠCircle": 7493,
      "ĠCathar": 7494,
      "owl": 7495,
      "Ġsin": 7496,
      "Ġsle": 7497,
      "Ġsell": 7498,
      "Ġsorrow": 7499,
      "isaur": 7500,
      "Ġdry": 7501,
      "Ġdrew": 7502,
      "acer": 7503,
      "acatl": 7504,
      "orium": 7505,
      "Ġfog": 7506,
      "Ġfoll": 7507,
      "Ġfift": 7508,
      "Ġfrog": 7509,
      "Ġfingers": 7510,
      "Ġfashion": 7511,
      "ĠWoj": 7512,
      "Ġwicked": 7513,
      "Ġwoke": 7514,
      "Ġwears": 7515,
      "eling": 7516,
      "elun": 7517,
      "roas": 7518,
      "rochi": 7519,
      "geist": 7520,
      "Ġanew": 7521,
      "Ġtoler": 7522,
      "Ġpegasus": 7523,
      "Ġmir": 7524,
      "Ġmant": 7525,
      "Ġmoved": 7526,
      "Ġmaze": 7527,
      "Ġmatters": 7528,
      "ĠSou": 7529,
      "ĠSin": 7530,
      "ĠSum": 7531,
      "ĠSly": 7532,
      "ĠSigil": 7533,
      "ĠSelf": 7534,
      "ĠSinger": 7535,
      "ĠSangu": 7536,
      "Ġlion": 7537,
      "ilim": 7538,
      "Ġhook": 7539,
      "Ġhills": 7540,
      "Ġhym": 7541,
      "urid": 7542,
      "ifies": 7543,
      "eding": 7544,
      "edgling": 7545,
      "ĠAy": 7546,
      "ĠAber": 7547,
      "ĠAren": 7548,
      "ĠTan": 7549,
      "ĠTaz": 7550,
      "Ġ16": 7551,
      "Ġgro": 7552,
      "raged": 7553,
      "ica": 7554,
      "icator": 7555,
      "Ġconver": 7556,
      "Ġconvoke": 7557,
      "ĠHu": 7558,
      "ĠHard": 7559,
      "ĠHoly": 7560,
      "ĠIroas": 7561,
      "omin": 7562,
      "oman": 7563,
      "omper": 7564,
      "ĠDust": 7565,
      "ĠDiss": 7566,
      "ĠDari": 7567,
      "ĠDaring": 7568,
      "ĠDaun": 7569,
      "Ġinev": 7570,
      "asters": 7571,
      "ĠFind": 7572,
      "ĠFoul": 7573,
      "ĠFathom": 7574,
      "iri": 7575,
      "Ġbee": 7576,
      "Ġbeat": 7577,
      "ithing": 7578,
      "umph": 7579,
      "ĠEs": 7580,
      "ĠEater": 7581,
      "ĠErr": 7582,
      "olin": 7583,
      "Ġwithstand": 7584,
      "ĠRest": 7585,
      "ĠRitu": 7586,
      "ĠRhonas": 7587,
      "ĠLu": 7588,
      "ĠLim": 7589,
      "ĠLooter": 7590,
      "ĠMong": 7591,
      "ĠMove": 7592,
      "ĠMoth": 7593,
      "ĠMaw": 7594,
      "ĠMori": 7595,
      "ĠMolten": 7596,
      "ĠMelee": 7597,
      "ĠMummy": 7598,
      "ĠPact": 7599,
      "ĠPara": 7600,
      "ĠPup": 7601,
      "ĠPheres": 7602,
      "ĠBow": 7603,
      "ĠBay": 7604,
      "ĠBoth": 7605,
      "ĠBook": 7606,
      "ĠBronze": 7607,
      "riers": 7608,
      "ĠGit": 7609,
      "ĠGust": 7610,
      "ĠGamer": 7611,
      "ĠGoma": 7612,
      "ackling": 7613,
      "Ġfors": 7614,
      "chaser": 7615,
      "Ġplant": 7616,
      "ellow": 7617,
      "Ġspare": 7618,
      "Ġdebt": 7619,
      "aded": 7620,
      "osk": 7621,
      "idow": 7622,
      "Ġattract": 7623,
      "etime": 7624,
      "apult": 7625,
      "ima": 7626,
      "imar": 7627,
      "ĠKong": 7628,
      "ĠKrov": 7629,
      "Ġexists": 7630,
      "ĠOk": 7631,
      "ĠOp": 7632,
      "ĠOpen": 7633,
      "Ġgraves": 7634,
      "ĠVh": 7635,
      "ĠVig": 7636,
      "ĠValk": 7637,
      "ivian": 7638,
      "ightened": 7639,
      "hoof": 7640,
      "ĠSpec": 7641,
      "ĠNi": 7642,
      "ĠNessian": 7643,
      "Ġvines": 7644,
      "Ġvoices": 7645,
      "Ġtheirs": 7646,
      "earning": 7647,
      "iga": 7648,
      "estic": 7649,
      "Ġshore": 7650,
      "Ġshelter": 7651,
      "outing": 7652,
      "ember": 7653,
      "uli": 7654,
      "ĠShin": 7655,
      "istic": 7656,
      "allids": 7657,
      "unk": 7658,
      "mancer": 7659,
      "Ġki": 7660,
      "come": 7661,
      "compl": 7662,
      "Ġblaze": 7663,
      "Ġenforc": 7664,
      "ĠIngest": 7665,
      "indi": 7666,
      "Ġseas": 7667,
      "ĠElec": 7668,
      "hereal": 7669,
      "Ġinstrum": 7670,
      "ĠAng": 7671,
      "Ġround": 7672,
      "Ġrises": 7673,
      "eadfast": 7674,
      "Ġalike": 7675,
      "Ġalleg": 7676,
      "ĠExper": 7677,
      "Ġlox": 7678,
      "ĠStamp": 7679,
      "ĠStalking": 7680,
      "ĠReinforce": 7681,
      "Ġchurch": 7682,
      "shell": 7683,
      "Ġreminder": 7684,
      "Ġleap": 7685,
      "ĠChap": 7686,
      "ĠCharm": 7687,
      "ĠChange": 7688,
      "ĠJh": 7689,
      "Ġvalu": 7690,
      "Ġadds": 7691,
      "Ġwebs": 7692,
      "ĠFlip": 7693,
      "ĠSlaughter": 7694,
      "Ġheir": 7695,
      "ĠConver": 7696,
      "Ġflows": 7697,
      "lings": 7698,
      "orns": 7699,
      "ickle": 7700,
      "Ġgreed": 7701,
      "Ġworship": 7702,
      "arkhan": 7703,
      "ĠBirds": 7704,
      "sson": 7705,
      "Ġdeaths": 7706,
      "abo": 7707,
      "Ġplans": 7708,
      "ĠAlley": 7709,
      "razed": 7710,
      "ĠPlan": 7711,
      "ĠPlay": 7712,
      "Ġages": 7713,
      "Ġagents": 7714,
      "Ġaggress": 7715,
      "Ġours": 7716,
      "ĠMyoj": 7717,
      "aza": 7718,
      "azav": 7719,
      "Ġproper": 7720,
      "Ġrip": 7721,
      "Ġriders": 7722,
      "ials": 7723,
      "ĠForgotten": 7724,
      "Ġlandscape": 7725,
      "ĠArchfiend": 7726,
      "ĠHerd": 7727,
      "ĠHermit": 7728,
      "Ġrush": 7729,
      "ĠOni": 7730,
      "Ġpoints": 7731,
      "ĠSneak": 7732,
      "ĠRoyal": 7733,
      "Ġswim": 7734,
      "Ġrapt": 7735,
      "cles": 7736,
      "ĠCliff": 7737,
      "ĠBlue": 7738,
      "Ġgrat": 7739,
      "plus": 7740,
      "ensive": 7741,
      "Ġdrake": 7742,
      "Ġdevast": 7743,
      "yrinth": 7744,
      "ĠSeason": 7745,
      "ission": 7746,
      "weft": 7747,
      "ossible": 7748,
      "visible": 7749,
      "Ġfeather": 7750,
      "Ġfeared": 7751,
      "ĠSquire": 7752,
      "Ġsmile": 7753,
      "Ġcomprehend": 7754,
      "Ġtwist": 7755,
      "Ġimage": 7756,
      "Ġglass": 7757,
      "rogant": 7758,
      "rides": 7759,
      "Ġnights": 7760,
      "ĠGlint": 7761,
      "arbage": 7762,
      "Ġdisapp": 7763,
      "Ġsergeant": 7764,
      "dragon": 7765,
      "Ġtrespass": 7766,
      "Ġcarve": 7767,
      "ĠParty": 7768,
      "ĠTravel": 7769,
      "ĠTrapper": 7770,
      "ĠTrainer": 7771,
      "Ġmagn": 7772,
      "Ġnowhere": 7773,
      "ĠDesec": 7774,
      "worthy": 7775,
      "ĠQuick": 7776,
      "ahl": 7777,
      "Ġletters": 7778,
      "ĠShadowheart": 7779,
      "Ġdistract": 7780,
      "Ġfaeries": 7781,
      "ucky": 7782,
      "ĠPhasing": 7783,
      "Ġregard": 7784,
      "ecializes": 7785,
      "teers": 7786,
      "Ġstanding": 7787,
      "ĠHunted": 7788,
      "Ġvictim": 7789,
      "Ġsilk": 7790,
      "naire": 7791,
      "Ġmerc": 7792,
      "Ġprayer": 7793,
      "ĠWithout": 7794,
      "Ġprotectors": 7795,
      "Ġemissary": 7796,
      "zzeret": 7797,
      "Ġextinct": 7798,
      "ĠGargantu": 7799,
      "Ġbringing": 7800,
      "ĠAkros": 7801,
      "ynx": 7802,
      "ĠAurora": 7803,
      "ĠGreater": 7804,
      "Ġechoes": 7805,
      "ĠWilds": 7806,
      "Ġstarted": 7807,
      "ĠFearless": 7808,
      "Ġblessings": 7809,
      "ĠAgents": 7810,
      "ĠInfernal": 7811,
      "Ġstops": 7812,
      "Ġcares": 7813,
      "Ġmembers": 7814,
      "ĠRobber": 7815,
      "Ġtouched": 7816,
      "Ġinvasion": 7817,
      "Ġinvaders": 7818,
      "Ġobst": 7819,
      "Ġinsult": 7820,
      "Ġinsects": 7821,
      "ĠCoral": 7822,
      "ĠAmong": 7823,
      "Ġsmallest": 7824,
      "ĠZhang": 7825,
      "ĠHeralds": 7826,
      "Arna": 7827,
      "ology": 7828,
      "Ġaction": 7829,
      "Ġwhispered": 7830,
      "ammers": 7831,
      "Ġmarked": 7832,
      "ĠSavior": 7833,
      "ĠTerisi": 7834,
      "ĠTitania": 7835,
      "ĠMaybe": 7836,
      "ĠInspiring": 7837,
      "Ġsentry": 7838,
      "ĠPrimordial": 7839,
      "Ġcarrying": 7840,
      "Ġdestructive": 7841,
      "Ġbuildings": 7842,
      "Ġcentaur": 7843,
      "Ġwishes": 7844,
      "ĠPyromancer": 7845,
      "ĠThundering": 7846,
      "ĠAutumn": 7847,
      "ĠArgivian": 7848,
      "ĠCourt": 7849,
      "Ġconstantly": 7850,
      "Ġarrival": 7851,
      "ĠSquadron": 7852,
      "ĠLiu": 7853,
      "ĠRootwater": 7854,
      "ĠRampage": 7855,
      "ĠKobolds": 7856,
      "Ġrealms": 7857,
      "ĠTrue": 7858,
      "Ġmission": 7859,
      "ĠTeam": 7860,
      "ĠBeleren": 7861,
      "ĠBrain": 7862,
      "ĠKrosa": 7863,
      "ĠHalo": 7864,
      "ĠOlivia": 7865,
      "ĠCalamity": 7866,
      "Ġhaunts": 7867,
      "Ġprepared": 7868,
      "ĠPrince": 7869,
      "yalise": 7870,
      "ĠNephilim": 7871,
      "ĠAnima": 7872,
      "ĠCallaphe": 7873,
      "Ġdestiny": 7874,
      "eddler": 7875,
      "ĠCelebrant": 7876,
      "bonder": 7877,
      "ĠDaru": 7878,
      "ĠAspirant": 7879,
      "miral": 7880,
      "Ġcapable": 7881,
      "ĠCerat": 7882,
      "Ġfurther": 7883,
      "Ġwearing": 7884,
      "Ġpirate": 7885,
      "ĠHoard": 7886,
      "ĠRathi": 7887,
      "Ġunspent": 7888,
      "Ġunspecializes": 7889,
      "ĠAdventurer": 7890,
      "Ġstopped": 7891,
      "Ġstatues": 7892,
      "Ġresistance": 7893,
      "Ġchallenge": 7894,
      "ĠDespite": 7895,
      "Ġtunnels": 7896,
      "Ġdwarves": 7897,
      "ĠAssistant": 7898,
      "Ġfleeing": 7899,
      "Ġseparately": 7900,
      "Ġgarden": 7901,
      "Ġlava": 7902,
      "ĠIgn": 7903,
      "Ġstraight": 7904,
      "Ġambush": 7905,
      "Ġincludes": 7906,
      "ĠSaber": 7907,
      "Ġgargantu": 7908,
      "lossom": 7909,
      "Ġexplorers": 7910,
      "Ġphilosopher": 7911,
      "uggler": 7912,
      "Ġbreathe": 7913,
      "Ġnetwork": 7914,
      "Ġachieve": 7915,
      "ĠMarchesa": 7916,
      "ĠJoraga": 7917,
      "ecutioner": 7918,
      "ĠSummoner": 7919,
      "ĠFrenzied": 7920,
      "ĠMakindi": 7921,
      "ĠSaprazzan": 7922,
      "Ġcelebr": 7923,
      "Ġaudience": 7924,
      "Ġlurks": 7925,
      "ĠRevenant": 7926,
      "ĠMammoth": 7927,
      "ĠBenthic": 7928,
      "ĠAthreos": 7929,
      "Ġenlightenment": 7930,
      "ĠExemplar": 7931,
      "ĠAdamant": 7932,
      "ĠHomarid": 7933,
      "ĠFerocious": 7934,
      "ĠSkirmisher": 7935,
      "Ġ_____": 7936,
      "ĠAwaken": 7937,
      "ĠEscort": 7938,
      "Ġlikely": 7939,
      "ĠOndu": 7940,
      "ĠArsonist": 7941,
      "Ġparticular": 7942,
      "ĠPermanents": 7943,
      "Lovisa": 7944,
      "husi": 7945,
      "oppable": 7946,
      "Ġborders": 7947,
      "Ġfollowers": 7948,
      "ĠWojek": 7949,
      "ĠDarien": 7950,
      "ĠDauntless": 7951,
      "ĠMoriok": 7952,
      "ĠParables": 7953,
      "ĠMyojin": 7954,
      "ĠTerisiare": 7955,
      ",'": 7956,
      "Band": 7957,
      "Jace": 7958,
      "Ly": 7959,
      "Liliana": 7960,
      "Mage": 7961,
      "Phyrex": 7962,
      "Tahngarth": 7963,
      "aul": 7964,
      "apper": 7965,
      "bed": 7966,
      "bug": 7967,
      "binder": 7968,
      "bender": 7969,
      "bridge": 7970,
      "cary": 7971,
      "call": 7972,
      "eor": 7973,
      "eers": 7974,
      "hv": 7975,
      "house": 7976,
      "hulk": 7977,
      "iel": 7978,
      "iends": 7979,
      "je": 7980,
      "jud": 7981,
      "joice": 7982,
      "kull": 7983,
      "nation": 7984,
      "ping": 7985,
      "vin": 7986,
      "wark": 7987,
      "widow": 7988,
      "yre": 7989,
      "yon": 7990,
      "zel": 7991,
      "Ġident": 7992,
      "rem": 7993,
      "Ġtough": 7994,
      "Ġtyr": 7995,
      "Ġtears": 7996,
      "Ġtitan": 7997,
      "Ġtastes": 7998,
      "erunning": 7999,
      "ato": 8000,
      "atest": 8001,
      "ences": 8002,
      "Ġcath": 8003,
      "Ġcub": 8004,
      "Ġcaut": 8005,
      "Ġcrop": 8006,
      "Ġalert": 8007,
      "Ġthr": 8008,
      "Ġthroat": 8009,
      "Ġthallids": 8010,
      "Ġobl": 8011,
      "inal": 8012,
      "inch": 8013,
      "arry": 8014,
      "esp": 8015,
      "aning": 8016,
      "amorous": 8017,
      "endor": 8018,
      "endent": 8019,
      "iting": 8020,
      "itchen": 8021,
      "onia": 8022,
      "Ġbi": 8023,
      "Ġbat": 8024,
      "Ġbred": 8025,
      "Ġborrow": 8026,
      "Ġborder": 8027,
      "ĠCann": 8028,
      "ĠCoward": 8029,
      "ĠCrew": 8030,
      "ĠCrag": 8031,
      "ĠCrasher": 8032,
      "exing": 8033,
      "ĠâĢĶ~": 8034,
      "Ġsum": 8035,
      "Ġslo": 8036,
      "Ġsigil": 8037,
      "Ġsalt": 8038,
      "Ġsides": 8039,
      "Ġsenses": 8040,
      "isans": 8041,
      "Ġda": 8042,
      "Ġdar": 8043,
      "Ġdam": 8044,
      "Ġdive": 8045,
      "Ġdrove": 8046,
      "Ġdinner": 8047,
      "orv": 8048,
      "oral": 8049,
      "orter": 8050,
      "Ġfest": 8051,
      "Ġfaced": 8052,
      "Ġfrenz": 8053,
      "ĠWise": 8054,
      "ĠWils": 8055,
      "elia": 8056,
      "rob": 8057,
      "rook": 8058,
      "inging": 8059,
      "ardan": 8060,
      "Ġant": 8061,
      "stones": 8062,
      "Ġpul": 8063,
      "Ġpity": 8064,
      "Ġmuff": 8065,
      "ĠSz": 8066,
      "ĠSak": 8067,
      "ĠSaf": 8068,
      "ĠSyn": 8069,
      "Ġlarg": 8070,
      "Ġlearning": 8071,
      "Ġhy": 8072,
      "Ġhollow": 8073,
      "Ġhint": 8074,
      "Ġhours": 8075,
      "urry": 8076,
      "nts": 8077,
      "ĠToc": 8078,
      "ĠTuk": 8079,
      "ĠTolar": 8080,
      "ĠToday": 8081,
      "Ġgang": 8082,
      "Ġgates": 8083,
      "vere": 8084,
      "icy": 8085,
      "Ġconce": 8086,
      "ĠHat": 8087,
      "ĠHum": 8088,
      "ĠHul": 8089,
      "ĠHive": 8090,
      "ĠHeret": 8091,
      "ĠHours": 8092,
      "ĠHedron": 8093,
      "evil": 8094,
      "ĠDak": 8095,
      "ĠDeth": 8096,
      "Ġinvisible": 8097,
      "Ġnav": 8098,
      "ielder": 8099,
      "astic": 8100,
      "ĠFr": 8101,
      "ĠFest": 8102,
      "ĠFug": 8103,
      "ĠFract": 8104,
      "utin": 8105,
      "asu": 8106,
      "asia": 8107,
      "ĠErtai": 8108,
      "olith": 8109,
      "Ġwither": 8110,
      "ĠRow": 8111,
      "ĠRos": 8112,
      "ĠRap": 8113,
      "ĠRive": 8114,
      "ĠRush": 8115,
      "ĠRager": 8116,
      "ĠRonin": 8117,
      "ĠRasp": 8118,
      "ĠLin": 8119,
      "ĠLon": 8120,
      "ĠLot": 8121,
      "ĠLamp": 8122,
      "ĠLumber": 8123,
      "ĠLine": 8124,
      "ĠLynx": 8125,
      "ĠMis": 8126,
      "ĠMul": 8127,
      "ĠMade": 8128,
      "ĠMilit": 8129,
      "ĠMedic": 8130,
      "ĠPen": 8131,
      "ĠPant": 8132,
      "ĠPale": 8133,
      "ĠProud": 8134,
      "ĠPiper": 8135,
      "ĠProgen": 8136,
      "ĠPardic": 8137,
      "ĠBon": 8138,
      "ĠBorn": 8139,
      "ĠBond": 8140,
      "ĠBarg": 8141,
      "ĠBears": 8142,
      "ĠBoreal": 8143,
      "riek": 8144,
      "Ġreven": 8145,
      "Ġregre": 8146,
      "Ġreplicate": 8147,
      "Ġasks": 8148,
      "ĠGot": 8149,
      "ĠGle": 8150,
      "ĠGem": 8151,
      "ĠGryff": 8152,
      "Ġendure": 8153,
      "Ġended": 8154,
      "Ġplants": 8155,
      "ellor": 8156,
      "Ġspears": 8157,
      "Ġsphinx": 8158,
      "Ġspiders": 8159,
      "Ġdeb": 8160,
      "adia": 8161,
      "aged": 8162,
      "ketra": 8163,
      "Ġstate": 8164,
      "Ġstronghold": 8165,
      "ostly": 8166,
      "egot": 8167,
      "eguard": 8168,
      "Ġplays": 8169,
      "Ġattend": 8170,
      "etery": 8171,
      "ette": 8172,
      "imli": 8173,
      "ĠKro": 8174,
      "ĠKru": 8175,
      "ĠKath": 8176,
      "ĠKuld": 8177,
      "ĠOpp": 8178,
      "ĠOraz": 8179,
      "Ġcob": 8180,
      "Ġcovered": 8181,
      "ĠVr": 8182,
      "ĠVer": 8183,
      "ĠVass": 8184,
      "ĠVarch": 8185,
      "ĠVermin": 8186,
      "ĠVigilant": 8187,
      "bris": 8188,
      "izing": 8189,
      "ĠSpeaker": 8190,
      "que": 8191,
      "ode": 8192,
      "odiment": 8193,
      "ĠNest": 8194,
      "ĠNeed": 8195,
      "ĠNurt": 8196,
      "ĠNatural": 8197,
      "Ġvault": 8198,
      "Ġlibraries": 8199,
      "mentia": 8200,
      "illiant": 8201,
      "igma": 8202,
      "ĠWarchief": 8203,
      "Ġdoors": 8204,
      "Ġshred": 8205,
      "Ġshattered": 8206,
      "Ġshimmer": 8207,
      "emon": 8208,
      "emetery": 8209,
      "ulator": 8210,
      "ulwark": 8211,
      "Ġperhaps": 8212,
      "ĠShow": 8213,
      "ĠShuffle": 8214,
      "isters": 8215,
      "istrate": 8216,
      "ĠXen": 8217,
      "eremon": 8218,
      "unner": 8219,
      "mance": 8220,
      "dder": 8221,
      "Ġdrawing": 8222,
      "Ġkitsune": 8223,
      "ĠAsc": 8224,
      "ĠInvestig": 8225,
      "ĠThird": 8226,
      "ĠThrash": 8227,
      "Ġinstance": 8228,
      "Ġtails": 8229,
      "Ġamid": 8230,
      "ĠScound": 8231,
      "ĠScreeching": 8232,
      "ĠBeing": 8233,
      "Ġrace": 8234,
      "ĠElementals": 8235,
      "arting": 8236,
      "akim": 8237,
      "Ġlock": 8238,
      "ĠStrike": 8239,
      "ustom": 8240,
      "sha": 8241,
      "inko": 8242,
      "phies": 8243,
      "Ġwherever": 8244,
      "ĠChanc": 8245,
      "verb": 8246,
      "ĠJet": 8247,
      "itions": 8248,
      "Ġvalley": 8249,
      "ewor": 8250,
      "Ġweary": 8251,
      "ĠFlayer": 8252,
      "ĠFlames": 8253,
      "ĠSlick": 8254,
      "Ġheed": 8255,
      "Ġmech": 8256,
      "Ġmeals": 8257,
      "Ġdefenders": 8258,
      "ĠConqu": 8259,
      "Ġflies": 8260,
      "Ġflour": 8261,
      "Ġunh": 8262,
      "Ġunm": 8263,
      "Ġunicorn": 8264,
      "Ġunseen": 8265,
      "ĠSkittering": 8266,
      "away": 8267,
      "Ġscar": 8268,
      "Ġjew": 8269,
      "Ġrob": 8270,
      "ilded": 8271,
      "ĠWeb": 8272,
      "ĠAngels": 8273,
      "Ġsoar": 8274,
      "Ġsoars": 8275,
      "ransp": 8276,
      "aba": 8277,
      "abi": 8278,
      "Ġarcane": 8279,
      "Ġoutp": 8280,
      "ĠPlated": 8281,
      "pting": 8282,
      "pters": 8283,
      "Ġcommun": 8284,
      "atched": 8285,
      "Ġsearched": 8286,
      "Ġeverywhere": 8287,
      "Ġprove": 8288,
      "Ġproof": 8289,
      "ĠHek": 8290,
      "Ġmillenn": 8291,
      "ĠConstrict": 8292,
      "Ġsecurity": 8293,
      "Ġpoor": 8294,
      "Ġsweep": 8295,
      "Ġtradition": 8296,
      "Ġmonum": 8297,
      "ĠDinosaurs": 8298,
      "ĠSwine": 8299,
      "Ġfighter": 8300,
      "Ġwhatever": 8301,
      "ggan": 8302,
      "gging": 8303,
      "Ġslight": 8304,
      "plic": 8305,
      "ailer": 8306,
      "reader": 8307,
      "ĠRemember": 8308,
      "ocal": 8309,
      "Ġthroughout": 8310,
      "ĠDooms": 8311,
      "Ġevening": 8312,
      "Ġdevel": 8313,
      "Ġdevoted": 8314,
      "Ġdevoured": 8315,
      "ĠEvil": 8316,
      "beat": 8317,
      "Ġadop": 8318,
      "obite": 8319,
      "vised": 8320,
      "Ġdesire": 8321,
      "Ġbetray": 8322,
      "Ġcreating": 8323,
      "Ġglowing": 8324,
      "ĠImprint": 8325,
      "ĠWarlocks": 8326,
      "riders": 8327,
      "Ġguilt": 8328,
      "Ġguarant": 8329,
      "Ġfinds": 8330,
      "ĠProgress": 8331,
      "Ġdisaster": 8332,
      "Ġserved": 8333,
      "Ġappears": 8334,
      "ĠLeave": 8335,
      "Ġeffic": 8336,
      "Ġkeeping": 8337,
      "Ġcarved": 8338,
      "underer": 8339,
      "ĠSilence": 8340,
      "ĠSilencer": 8341,
      "Ġexploit": 8342,
      "ships": 8343,
      "resher": 8344,
      "ĠCopper": 8345,
      "ĠGods": 8346,
      "Ġskyknight": 8347,
      "ĠHarrier": 8348,
      "ĠArcanist": 8349,
      "ĠGris": 8350,
      "ĠAbs": 8351,
      "ĠColony": 8352,
      "ĠBrown": 8353,
      "ĠBramble": 8354,
      "ĠGnarl": 8355,
      "Ġstandard": 8356,
      "Ġcontain": 8357,
      "Ġcontains": 8358,
      "ouncer": 8359,
      "Ġprayers": 8360,
      "Ġtemper": 8361,
      "Ġfarmer": 8362,
      "ĠResc": 8363,
      "ĠResolute": 8364,
      "Ġcuriosity": 8365,
      "Ġopening": 8366,
      "ĠInfern": 8367,
      "ĠDuke": 8368,
      "ĠDiscord": 8369,
      "ĠSynd": 8370,
      "ĠSymb": 8371,
      "ĠEternals": 8372,
      "ĠValeron": 8373,
      "Ġimpossible": 8374,
      "Ġcareful": 8375,
      "Ġmember": 8376,
      "ĠGorilla": 8377,
      "rusher": 8378,
      "Ġelsewhere": 8379,
      "teller": 8380,
      "ĠGatekeeper": 8381,
      "Ġthousands": 8382,
      "Ġterrifying": 8383,
      "ĠPeace": 8384,
      "ĠAmber": 8385,
      "ĠKarplus": 8386,
      "Ġpacks": 8387,
      "ĠBarrier": 8388,
      "Ġinspired": 8389,
      "ĠBroker": 8390,
      "Ġexperien": 8391,
      "Ġexperiment": 8392,
      "ĠCarrier": 8393,
      "Ġsubjects": 8394,
      "hetto": 8395,
      "Ġvision": 8396,
      "Ġhoard": 8397,
      "Ġhoof": 8398,
      "ĠObserver": 8399,
      "Ġcollection": 8400,
      "ammasu": 8401,
      "itesail": 8402,
      "Ġrespons": 8403,
      "Another": 8404,
      "Ġbrav": 8405,
      "Ġbrave": 8406,
      "ĠDarksteel": 8407,
      "ĠPrimeval": 8408,
      "ĠCurse": 8409,
      "ĠMoor": 8410,
      "ĠMoons": 8411,
      "ĠVolcan": 8412,
      "Ġsquad": 8413,
      "Ġmarsh": 8414,
      "rinker": 8415,
      "Ġanswered": 8416,
      "ĠApex": 8417,
      "ĠAphetto": 8418,
      "ophant": 8419,
      "they": 8420,
      "Ġpersist": 8421,
      "Ġfunction": 8422,
      "ĠWays": 8423,
      "ĠWoodland": 8424,
      "ĠFallaji": 8425,
      "Ġunpredict": 8426,
      "ouncing": 8427,
      "ĠWhisperer": 8428,
      "Ġharmless": 8429,
      "Ġveter": 8430,
      "ĠDefiant": 8431,
      "Ġrequired": 8432,
      "Ġthreaten": 8433,
      "ĠLorehold": 8434,
      "ĠPrahv": 8435,
      "ĠBogardan": 8436,
      "Ġmachin": 8437,
      "Ġresearcher": 8438,
      "Ġsavage": 8439,
      "Ġdemons": 8440,
      "Ġsolid": 8441,
      "ĠHalimar": 8442,
      "rieking": 8443,
      "Ġsuffering": 8444,
      "Ġpleasure": 8445,
      "Ġarchers": 8446,
      "Ġproduces": 8447,
      "ĠGarruk": 8448,
      "Ġpreferred": 8449,
      "Ġswiftly": 8450,
      "Ġempire": 8451,
      "ĠAscendant": 8452,
      "Ġheavens": 8453,
      "Ġcruelty": 8454,
      "Ġtrophies": 8455,
      "Ġcultiv": 8456,
      "Ġbalance": 8457,
      "ĠHistorian": 8458,
      "Ġfortress": 8459,
      "Ġsucceed": 8460,
      "Ġviolent": 8461,
      "ĠDariga": 8462,
      "Ġrebell": 8463,
      "ĠKillbot": 8464,
      "ĠFaithful": 8465,
      "formance": 8466,
      "ĠÃĨ": 8467,
      "ĠÃī": 8468,
      "Ġgranted": 8469,
      "Ġwanders": 8470,
      "ĠRamos": 8471,
      "ĠShambling": 8472,
      "eemed": 8473,
      "ĠTimber": 8474,
      "goblin": 8475,
      "Ġwinged": 8476,
      "Ġhatred": 8477,
      "ĠZhalfirin": 8478,
      "Ġtorment": 8479,
      "Ġtrolls": 8480,
      "ĠDistrict": 8481,
      "Ġspectacle": 8482,
      "ĠAlaborn": 8483,
      "ĠPhantasmal": 8484,
      "ĠSigardian": 8485,
      "sionic": 8486,
      "Ġbonds": 8487,
      "Ġpunish": 8488,
      "ĠMachines": 8489,
      "Ġswarmed": 8490,
      "ĠBruiser": 8491,
      "Ġreflection": 8492,
      "ĠFriend": 8493,
      "othsayer": 8494,
      "graf": 8495,
      "Ġingen": 8496,
      "Ġwoven": 8497,
      "ĠDrana": 8498,
      "ĠScrapper": 8499,
      "Ġsurround": 8500,
      "Ġdisplay": 8501,
      "ĠOmnath": 8502,
      "Ġbargained": 8503,
      "ĠDeceiver": 8504,
      "Ġravenous": 8505,
      "ĠCyberman": 8506,
      "ĠCreation": 8507,
      "ĠCobra": 8508,
      "Ġfetch": 8509,
      "ĠTakeno": 8510,
      "ĠIchor": 8511,
      "ĠLabyrinth": 8512,
      "Ġroute": 8513,
      "Ġjoined": 8514,
      "ĠResearcher": 8515,
      "Ġzombie": 8516,
      "ĠEagle": 8517,
      "ĠPangolin": 8518,
      "ĠPossess": 8519,
      "ĠVerdant": 8520,
      "Ġgladly": 8521,
      "Ġappetite": 8522,
      "Ġrebuild": 8523,
      "Ġinfluence": 8524,
      "Headed": 8525,
      "Ġaugment": 8526,
      "ĠArashin": 8527,
      "ĠKelsinko": 8528,
      "Ġeventually": 8529,
      "Ġinhabitants": 8530,
      "Ġcrimes": 8531,
      "ĠCourser": 8532,
      "othecary": 8533,
      "Ġfrozen": 8534,
      "Ġfertile": 8535,
      "ĠSauron": 8536,
      "ĠDredge": 8537,
      "ĠRankle": 8538,
      "ĠKrark": 8539,
      "Ġsharpen": 8540,
      "Ġscraps": 8541,
      "ĠAbyssal": 8542,
      "ĠAmplify": 8543,
      "While": 8544,
      "Ġzeal": 8545,
      "ĠRitualist": 8546,
      "ĠKongming": 8547,
      "ĠValkyrie": 8548,
      "ĠElectro": 8549,
      "ĠSeasoned": 8550,
      "Phyrexian": 8551,
      "ĠWilson": 8552,
      "Ġlargest": 8553,
      "ĠTolaria": 8554,
      "ĠHeretic": 8555,
      "ĠDethrone": 8556,
      "ĠRasputin": 8557,
      "ĠBargain": 8558,
      "Ġrevenge": 8559,
      "ĠKuldotha": 8560,
      "ĠOrazca": 8561,
      "ĠVassal": 8562,
      "ĠVarchild": 8563,
      "ĠScoundrel": 8564,
      "ĠChancellor": 8565,
      "ĠDarigaaz": 8566,
      "+*<|": 8567,
      "Af": 8568,
      "Con": 8569,
      "Femeref": 8570,
      "HH": 8571,
      "Mer": 8572,
      "On": 8573,
      "One": 8574,
      "Sisay": 8575,
      "aan": 8576,
      "aum": 8577,
      "ables": 8578,
      "bird": 8579,
      "bark": 8580,
      "brid": 8581,
      "creature": 8582,
      "cut": 8583,
      "cons": 8584,
      "cely": 8585,
      "dor": 8586,
      "dri": 8587,
      "ea": 8588,
      "eat": 8589,
      "fell": 8590,
      "finder": 8591,
      "gs": 8592,
      "gill": 8593,
      "gul": 8594,
      "hammer": 8595,
      "ji": 8596,
      "ju": 8597,
      "kh": 8598,
      "kos": 8599,
      "kwood": 8600,
      "khet": 8601,
      "mor": 8602,
      "matic": 8603,
      "oo": 8604,
      "off": 8605,
      "pine": 8606,
      "pents": 8607,
      "point": 8608,
      "rou": 8609,
      "ril": 8610,
      "rand": 8611,
      "rance": 8612,
      "rison": 8613,
      "some": 8614,
      "tes": 8615,
      "tabi": 8616,
      "vold": 8617,
      "vok": 8618,
      "vale": 8619,
      "wain": 8620,
      "worm": 8621,
      "witch": 8622,
      "yan": 8623,
      "ythe": 8624,
      "zawa": 8625,
      "Ãº": 8626,
      "Ġed": 8627,
      "rek": 8628,
      "rey": 8629,
      "rester": 8630,
      "reamed": 8631,
      "repid": 8632,
      "Ġtit": 8633,
      "Ġtight": 8634,
      "Ġtireless": 8635,
      "Ġtonight": 8636,
      "eru": 8637,
      "atami": 8638,
      "atrice": 8639,
      "ounder": 8640,
      "Ġcities": 8641,
      "Ġcats": 8642,
      "Ġcaval": 8643,
      "Ġthiev": 8644,
      "inate": 8645,
      "inker": 8646,
      "anes": 8647,
      "fted": 8648,
      "amri": 8649,
      "itality": 8650,
      "onna": 8651,
      "Ġbend": 8652,
      "Ġbot": 8653,
      "Ġbent": 8654,
      "Ġbait": 8655,
      "ĠCould": 8656,
      "ĠCrow": 8657,
      "ĠCapt": 8658,
      "ĠCrafter": 8659,
      "ĠCemetery": 8660,
      "Ġyield": 8661,
      "exp": 8662,
      "Ġsam": 8663,
      "Ġsit": 8664,
      "Ġstro": 8665,
      "Ġsang": 8666,
      "Ġsens": 8667,
      "Ġsiege": 8668,
      "isse": 8669,
      "isons": 8670,
      "isma": 8671,
      "Ġdise": 8672,
      "Ġdjinn": 8673,
      "Ġdryad": 8674,
      "Ġdagger": 8675,
      "ametra": 8676,
      "Ġfit": 8677,
      "Ġfel": 8678,
      "Ġfix": 8679,
      "Ġfinger": 8680,
      "Ġfungus": 8681,
      "Ġfuse": 8682,
      "Ġfalcon": 8683,
      "Ġfurnace": 8684,
      "Ġfirm": 8685,
      "ĠWy": 8686,
      "ĠWould": 8687,
      "ĠWings": 8688,
      "ĠWrath": 8689,
      "ĠWelcome": 8690,
      "Ġwreck": 8691,
      "Ġwitness": 8692,
      "Ġwaits": 8693,
      "Ġtooth": 8694,
      "Ġtomb": 8695,
      "Ġpier": 8696,
      "Ġpoll": 8697,
      "Ġpolis": 8698,
      "Ġmour": 8699,
      "Ġmood": 8700,
      "Ġmater": 8701,
      "Ġmarch": 8702,
      "Ġmogg": 8703,
      "Ġmidnight": 8704,
      "alanc": 8705,
      "ĠSower": 8706,
      "ĠSle": 8707,
      "ĠSad": 8708,
      "ĠSare": 8709,
      "ĠSeven": 8710,
      "ĠSix": 8711,
      "ĠSail": 8712,
      "ĠSoon": 8713,
      "ĠSouth": 8714,
      "ĠSister": 8715,
      "Ġlink": 8716,
      "Ġlosing": 8717,
      "Ġlatest": 8718,
      "ilon": 8719,
      "ilight": 8720,
      "ilus": 8721,
      "Ġhides": 8722,
      "urist": 8723,
      "urper": 8724,
      "ify": 8725,
      "ifying": 8726,
      "henge": 8727,
      "edient": 8728,
      "ĠAer": 8729,
      "ĠAcl": 8730,
      "ĠAerie": 8731,
      "ĠAmon": 8732,
      "ĠAxe": 8733,
      "ĠAjani": 8734,
      "ĠTusk": 8735,
      "ĠTaze": 8736,
      "ĠTarl": 8737,
      "ĠTunn": 8738,
      "ĠTahngarth": 8739,
      "ĠTireless": 8740,
      "Ġ15": 8741,
      "Ġgale": 8742,
      "Ġglyph": 8743,
      "Ġcondu": 8744,
      "ĠHam": 8745,
      "ĠHover": 8746,
      "ĠHopl": 8747,
      "ĠHonored": 8748,
      "ĠDan": 8749,
      "ĠDam": 8750,
      "ĠDagger": 8751,
      "Ġinch": 8752,
      "Ġnurt": 8753,
      "astria": 8754,
      "Ġbattles": 8755,
      "ĠFen": 8756,
      "ĠFac": 8757,
      "ĠFal": 8758,
      "ĠFell": 8759,
      "ĠFet": 8760,
      "ĠFour": 8761,
      "ĠFive": 8762,
      "ĠFolk": 8763,
      "ĠFlood": 8764,
      "ĠFront": 8765,
      "lement": 8766,
      "utation": 8767,
      "irk": 8768,
      "ithe": 8769,
      "asaur": 8770,
      "Ġturning": 8771,
      "ĠEight": 8772,
[...]
