{
  "version": "1.0",
  "truncation": null,
  "padding": null,
  "added_tokens": [
    {
      "id": 0,
      "content": "<tl>",
      "single_word": false,
      "lstrip": false,
      "rstrip": false,
      "normalized": false,
      "special": true
    },
    {
      "id": 1,
      "content": "<name>",
      "single_word": false,
      "lstrip": false,
      "rstrip": false,
      "normalized": false,
      "special": true
    },
    {
      "id": 2,
      "content": "<mc>",
      "single_word": false,
      "lstrip": false,
      "rstrip": false,
      "normalized": false,
      "special": true
    },
    {
      "id": 3,
      "content": "<ot>",
      "single_word": false,
      "lstrip": false,
      "rstrip": false,
      "normalized": false,
      "special": true
    },
    {
      "id": 4,
      "content": "<power>",
      "single_word": false,
      "lstrip": false,
      "rstrip": false,
      "normalized": false,
      "special": true
    },
    {
      "id": 5,
      "content": "<toughness>",
      "single_word": false,
      "lstrip": false,
      "rstrip": false,
      "normalized": false,
      "special": true
    },
    {
      "id": 6,
      "content": "<ft>",
      "single_word": false,
      "lstrip": false,
      "rstrip": false,
      "normalized": false,
      "special": true
    },
    {
      "id": 7,
      "content": "<|endoftext|>",
      "single_word": false,
      "lstrip": false,
      "rstrip": false,
      "normalized": false,
      "special": true
    },
    {
      "id": 8,
      "content": "<pad>",
      "single_word": false,
      "lstrip": false,
      "rstrip": false,
      "normalized": false,
      "special": true
    },
    {
      "id": 9,
      "content": "<1>",
      "single_word": false,
      "lstrip": false,
      "rstrip": false,
      "normalized": false,
      "special": true
    },
    {
      "id": 10,
      "content": "<U>",
      "single_word": false,
      "lstrip": false,
      "rstrip": false,
      "normalized": false,
      "special": true
    },
    {
      "id": 11,
      "content": "<B>",
      "single_word": false,
      "lstrip": false,
      "rstrip": false,
      "normalized": false,
      "special": true
    },
    {
      "id": 12,
      "content": "<T>",
      "single_word": false,
      "lstrip": false,
      "rstrip": false,
      "normalized": false,
      "special": true
    },
    {
      "id": 13,
      "content": "<G>",
      "single_word": false,
      "lstrip": false,
      "rstrip": false,
      "normalized": false,
      "special": true
    },
    {
      "id": 14,
      "content": "<2>",
      "single_word": false,
      "lstrip": false,
      "rstrip": false,
      "normalized": false,
      "special": true
    },
    {
      "id": 15,
      "content": "<7>",
      "single_word": false,
      "lstrip": false,
      "rstrip": false,
      "normalized": false,
      "special": true
    },
    {
      "id": 16,
      "content": "<C>",
      "single_word": false,
      "lstrip": false,
      "rstrip": false,
      "normalized": false,
      "special": true
    },
    {
      "id": 17,
      "content": "<5>",
      "single_word": false,
      "lstrip": false,
      "rstrip": false,
      "normalized": false,
      "special": true
    },
    {
      "id": 18,
      "content": "<W>",
      "single_word": false,
      "lstrip": false,
      "rstrip": false,
      "normalized": false,
      "special": true
    },
    {
      "id": 19,
      "content": "<3>",
      "single_word": false,
      "lstrip": false,
      "rstrip": false,
      "normalized": false,
      "special": true
    },
    {
      "id": 20,
      "content": "<B/P>",
      "single_word": false,
      "lstrip": false,
      "rstrip": false,
      "normalized": false,
      "special": true
    },
    {
      "id": 21,
      "content": "<R>",
      "single_word": false,
      "lstrip": false,
      "rstrip": false,
      "normalized": false,
      "special": true
    },
    {
      "id": 22,
      "content": "<W/U>",
      "single_word": false,
      "lstrip": false,
      "rstrip": false,
      "normalized": false,
      "special": true
    },
    {
      "id": 23,
      "content": "<U/B>",
      "single_word": false,
      "lstrip": false,
      "rstrip": false,
      "normalized": false,
      "special": true
    },
    {
      "id": 24,
      "content": "<W/B>",
      "single_word": false,
      "lstrip": false,
      "rstrip": false,
      "normalized": false,
      "special": true
    },
    {
      "id": 25,
      "content": "<6>",
      "single_word": false,
      "lstrip": false,
      "rstrip": false,
      "normalized": false,
      "special": true
    },
    {
      "id": 26,
      "content": "<4>",
      "single_word": false,
      "lstrip": false,
      "rstrip": false,
      "normalized": false,
      "special": true
    },
    {
      "id": 27,
      "content": "<R/W>",
      "single_word": false,
      "lstrip": false,
      "rstrip": false,
      "normalized": false,
      "special": true
    },
    {
      "id": 28,
      "content": "<U/R>",
      "single_word": false,
      "lstrip": false,
      "rstrip": false,
      "normalized": false,
      "special": true
    },
    {
      "id": 29,
      "content": "<Q>",
      "single_word": false,
      "lstrip": false,
      "rstrip": false,
      "normalized": false,
      "special": true
    },
    {
      "id": 30,
      "content": "<10>",
      "single_word": false,
      "lstrip": false,
      "rstrip": false,
      "normalized": false,
      "special": true
    },
    {
      "id": 31,
      "content": "<X>",
      "single_word": false,
      "lstrip": false,
      "rstrip": false,
      "normalized": false,
      "special": true
    },
    {
      "id": 32,
      "content": "<G/U>",
      "single_word": false,
      "lstrip": false,
      "rstrip": false,
      "normalized": false,
      "special": true
    },
    {
      "id": 33,
      "content": "<W/P>",
      "single_word": false,
      "lstrip": false,
      "rstrip": false,
      "normalized": false,
      "special": true
    },
    {
      "id": 34,
      "content": "<TK>",
      "single_word": false,
      "lstrip": false,
      "rstrip": false,
      "normalized": false,
      "special": true
    },
    {
      "id": 35,
      "content": "<B/G>",
      "single_word": false,
      "lstrip": false,
      "rstrip": false,
      "normalized": false,
      "special": true
    },
    {
      "id": 36,
      "content": "<S>",
      "single_word": false,
      "lstrip": false,
      "rstrip": false,
      "normalized": false,
      "special": true
    },
    {
      "id": 37,
      "content": "<G/W>",
      "single_word": false,
      "lstrip": false,
      "rstrip": false,
      "normalized": false,
      "special": true
    },
    {
      "id": 38,
      "content": "<E>",
      "single_word": false,
      "lstrip": false,
      "rstrip": false,
      "normalized": false,
      "special": true
    },
    {
      "id": 39,
      "content": "<8>",
      "single_word": false,
      "lstrip": false,
      "rstrip": false,
      "normalized": false,
      "special": true
    },
    {
      "id": 40,
      "content": "<R/G>",
      "single_word": false,
      "lstrip": false,
      "rstrip": false,
      "normalized": false,
      "special": true
    },
    {
      "id": 41,
      "content": "<0>",
      "single_word": false,
      "lstrip": false,
      "rstrip": false,
      "normalized": false,
      "special": true
    },
    {
      "id": 42,
      "content": "<B/R>",
      "single_word": false,
      "lstrip": false,
      "rstrip": false,
      "normalized": false,
      "special": true
    },
    {
      "id": 43,
      "content": "<14>",
      "single_word": false,
      "lstrip": false,
      "rstrip": false,
      "normalized": false,
      "special": true
    },
    {
      "id": 44,
      "content": "<9>",
      "single_word": false,
      "lstrip": false,
      "rstrip": false,
      "normalized": false,
      "special": true
    },
    {
      "id": 45,
      "content": "<11>",
      "single_word": false,
      "lstrip": false,
      "rstrip": false,
      "normalized": false,
      "special": true
    },
    {
      "id": 46,
      "content": "<HR>",
      "single_word": false,
      "lstrip": false,
      "rstrip": false,
      "normalized": false,
      "special": true
    },
    {
      "id": 47,
      "content": "<12>",
      "single_word": false,
      "lstrip": false,
      "rstrip": false,
      "normalized": false,
      "special": true
    },
    {
      "id": 48,
      "content": "<U/P>",
      "single_word": false,
      "lstrip": false,
      "rstrip": false,
      "normalized": false,
      "special": true
    },
    {
      "id": 49,
      "content": "<13>",
      "single_word": false,
      "lstrip": false,
      "rstrip": false,
      "normalized": false,
      "special": true
    },
    {
      "id": 50,
      "content": "<G/P>",
      "single_word": false,
      "lstrip": false,
      "rstrip": false,
      "normalized": false,
      "special": true
    },
    {
      "id": 51,
      "content": "<16>",
      "single_word": false,
      "lstrip": false,
      "rstrip": false,
      "normalized": false,
      "special": true
    },
    {
      "id": 52,
      "content": "<2/W>",
      "single_word": false,
      "lstrip": false,
      "rstrip": false,
      "normalized": false,
      "special": true
    },
    {
      "id": 53,
      "content": "<2/U>",
      "single_word": false,
      "lstrip": false,
      "rstrip": false,
      "normalized": false,
      "special": true
    },
    {
      "id": 54,
      "content": "<2/B>",
      "single_word": false,
      "lstrip": false,
      "rstrip": false,
      "normalized": false,
      "special": true
    },
    {
      "id": 55,
      "content": "<2/R>",
      "single_word": false,
      "lstrip": false,
      "rstrip": false,
      "normalized": false,
      "special": true
    },
    {
      "id": 56,
      "content": "<2/G>",
      "single_word": false,
      "lstrip": false,
      "rstrip": false,
      "normalized": false,
      "special": true
    },
    {
      "id": 57,
      "content": "<R/P>",
      "single_word": false,
      "lstrip": false,
      "rstrip": false,
      "normalized": false,
      "special": true
    },
    {
      "id": 58,
      "content": "<15>",
      "single_word": false,
      "lstrip": false,
      "rstrip": false,
      "normalized": false,
      "special": true
    },
    {
      "id": 59,
      "content": "<HW>",
      "single_word": false,
      "lstrip": false,
      "rstrip": false,
      "normalized": false,
      "special": true
    },
    {
      "id": 60,
      "content": "<½>",
      "single_word": false,
      "lstrip": false,
      "rstrip": false,
      "normalized": false,
      "special": true
    },
    {
      "id": 61,
      "content": "<20>",
      "single_word": false,
      "lstrip": false,
      "rstrip": false,
      "normalized": false,
      "special": true
    },
    {
      "id": 62,
      "content": "<Z>",
      "single_word": false,
      "lstrip": false,
      "rstrip": false,
      "normalized": false,
      "special": true
    },
    {
      "id": 63,
      "content": "<A>",
      "single_word": false,
      "lstrip": false,
      "rstrip": false,
      "normalized": false,
      "special": true
    }
  ],
  "normalizer": null,
  "pre_tokenizer": {
    "type": "ByteLevel",
    "add_prefix_space": false,
    "trim_offsets": true,
    "use_regex": true
  },
  "post_processor": null,
  "decoder": {
    "type": "ByteLevel",
    "add_prefix_space": true,
    "trim_offsets": true,
    "use_regex": true
  },
  "model": {
    "type": "BPE",
    "dropout": null,
    "unk_token": null,
    "continuing_subword_prefix": null,
    "end_of_word_suffix": null,
    "fuse_unk": false,
    "byte_fallback": false,
    "vocab": {
      "<tl>": 0,
      "<name>": 1,
      "<mc>": 2,
      "<ot>": 3,
      "<power>": 4,
      "<toughness>": 5,
      "<ft>": 6,
      "<|endoftext|>": 7,
      "<pad>": 8,
      "<1>": 9,
      "<U>": 10,
      "<B>": 11,
      "<T>": 12,
      "<G>": 13,
      "<2>": 14,
      "<7>": 15,
      "<C>": 16,
      "<5>": 17,
      "<W>": 18,
      "<3>": 19,
      "<B/P>": 20,
      "<R>": 21,
      "<W/U>": 22,
      "<U/B>": 23,
      "<W/B>": 24,
      "<6>": 25,
      "<4>": 26,
      "<R/W>": 27,
      "<U/R>": 28,
      "<Q>": 29,
      "<10>": 30,
      "<X>": 31,
      "<G/U>": 32,
      "<W/P>": 33,
      "<TK>": 34,
      "<B/G>": 35,
      "<S>": 36,
      "<G/W>": 37,
      "<E>": 38,
      "<8>": 39,
      "<R/G>": 40,
      "<0>": 41,
      "<B/R>": 42,
      "<14>": 43,
      "<9>": 44,
      "<11>": 45,
      "<HR>": 46,
      "<12>": 47,
      "<U/P>": 48,
      "<13>": 49,
      "<G/P>": 50,
      "<16>": 51,
      "<2/W>": 52,
      "<2/U>": 53,
      "<2/B>": 54,
      "<2/R>": 55,
      "<2/G>": 56,
      "<R/P>": 57,
      "<15>": 58,
      "<HW>": 59,
      "<½>": 60,
      "<20>": 61,
      "<Z>": 62,
      "<A>": 63,
      "!": 64,
      "#": 65,
      "$": 66,
      "%": 67,
      "&": 68,
      "'": 69,
      "(": 70,
      ")": 71,
      "*": 72,
      "+": 73,
      ",": 74,
      "-": 75,
      ".": 76,
      "/": 77,
      "0": 78,
      "1": 79,
      "2": 80,
      "3": 81,
      "4": 82,
      "5": 83,
      "6": 84,
      "7": 85,
      "8": 86,
      "9": 87,
      ":": 88,
      ";": 89,
      "<": 90,
      "=": 91,
      ">": 92,
      "?": 93,
      "@": 94,
      "A": 95,
      "B": 96,
      "C": 97,
      "D": 98,
      "E": 99,
      "F": 100,
      "G": 101,
      "H": 102,
      "I": 103,
      "J": 104,
      "K": 105,
      "L": 106,
      "M": 107,
      "N": 108,
      "O": 109,
      "P": 110,
      "Q": 111,
      "R": 112,
      "S": 113,
      "T": 114,
      "U": 115,
      "V": 116,
      "W": 117,
      "X": 118,
      "Y": 119,
      "Z": 120,
      "[": 121,
      "\\": 122,
      "]": 123,
      "^": 124,
      "_": 125,
      "a": 126,
      "b": 127,
      "c": 128,
      "d": 129,
      "e": 130,
      "f": 131,
      "g": 132,
      "h": 133,
      "i": 134,
      "j": 135,
      "k": 136,
      "l": 137,
      "m": 138,
      "n": 139,
      "o": 140,
      "p": 141,
      "q": 142,
      "r": 143,
      "s": 144,
      "t": 145,
      "u": 146,
      "v": 147,
      "w": 148,
      "x": 149,
      "y": 150,
      "z": 151,
      "|": 152,
      "~": 153,
      "¡": 154,
      "¢": 155,
      "¦": 156,
      "©": 157,
      "®": 158,
      "¯": 159,
      "°": 160,
      "±": 161,
      "²": 162,
      "³": 163,
      "¶": 164,
      "º": 165,
      "»": 166,
      "¼": 167,
      "½": 168,
      "Â": 169,
      "Ã": 170,
      "Å": 171,
      "â": 172,
      "Ċ": 173,
      "č": 174,
      "Ġ": 175,
      "Ģ": 176,
      "Ħ": 177,
      "Ĩ": 178,
      "Ī": 179,
      "ī": 180,
      "Ĵ": 181,
      "ĵ": 182,
      "Ķ": 183,
      "ŀ": 184,
      "ł": 185,
      "Ń": 186,
      "Ġ<": 187,
      "re": 188,
      "Ġt": 189,
      "er": 190,
      "at": 191,
      "en": 192,
      "ou": 193,
      "Ġc": 194,
      "Ġa": 195,
      "Ġth": 196,
      "Ġo": 197,
      "in": 198,
      "ar": 199,
      "reat": 200,
      "es": 201,
      "ure": 202,
      "reature": 203,
      "an": 204,
      "ft": 205,
      "Ġthe": 206,
      "am": 207,
      "end": 208,
      "it": 209,
      "tl": 210,
      "on": 211,
      "Ġb": 212,
      "ĠC": 213,
      "ot": 214,
      "Ġy": 215,
      "ow": 216,
      "Ġyou": 217,
      "âĢ": 218,
      "gh": 219,
      "âĢĶ": 220,
      "ex": 221,
      "ĠâĢĶ": 222,
      "ess": 223,
      "Ġs": 224,
      "ower": 225,
      "ough": 226,
      "is": 227,
      "Ġd": 228,
      "power": 229,
      "nl": 230,
      "ame": 231,
      "ext": 232,
      "ness": 233,
      "ac": 234,
      "oughness": 235,
      "name": 236,
      "ĠCreature": 237,
      "Ġof": 238,
      "or": 239,
      "oft": 240,
      "mc": 241,
      "<|": 242,
      "|>": 243,
      "čĊ": 244,
      "endoft": 245,
      "endoftext": 246,
      "toughness": 247,
      "Ġf": 248,
      "Ġw": 249,
      "ĠW": 250,
      "el": 251,
      "ro": 252,
      "ing": 253,
      "ard": 254,
      "ge": 255,
      "Ġan": 256,
      "st": 257,
      "Ġto": 258,
      "Ġcreature": 259,
      "Ġp": 260,
      "Ġm": 261,
      "al": 262,
      "Ġ~": 263,
      "ĠS": 264,
      "Ġl": 265,
      "ent": 266,
      "il": 267,
      "Ġit": 268,
      "Ġh": 269,
      "ur": 270,
      "if": 271,
      "nt": 272,
      "ay": 273,
      "Ġ2": 274,
      "hen": 275,
      "ed": 276,
      "ĠA": 277,
      "ĠT": 278,
      "ĠWhen": 279,
      "Ġu": 280,
      "Ġ1": 281,
      "get": 282,
      "ers": 283,
      "ef": 284,
      "Ġg": 285,
      "Ġcard": 286,
      "Ġyour": 287,
      "ra": 288,
      "tro": 289,
      "ve": 290,
      "Ġ3": 291,
      "ic": 292,
      "urn": 293,
      "ĠH": 294,
      "Ġcon": 295,
      ".<|": 296,
      "ĠI": 297,
      "Ġon": 298,
      "ver": 299,
      "om": 300,
      "Ġand": 301,
      "ĠD": 302,
      "trol": 303,
      "Ġcontrol": 304,
      "eld": 305,
      "Ġin": 306,
      "Ġn": 307,
      "attl": 308,
      "ield": 309,
      "Ġbattl": 310,
      "ast": 311,
      "ĠF": 312,
      "le": 313,
      "efield": 314,
      "Ġbattlefield": 315,
      "ut": 316,
      "Ġbe": 317,
      "ir": 318,
      "ith": 319,
      "um": 320,
      "and": 321,
      "Ġe": 322,
      "as": 323,
      "arget": 324,
      "Ġturn": 325,
      "ol": 326,
      "Ġthis": 327,
      "Ġor": 328,
      "ĠE": 329,
      "Ġ(": 330,
      "Ġwith": 331,
      ".)": 332,
      "ever": 333,
      "'s": 334,
      "ly": 335,
      "Ġ+": 336,
      "Ġent": 337,
      "ĠR": 338,
      "he": 339,
      "Ġtarget": 340,
      "/+": 341,
      "ĠM": 342,
      "ĠL": 343,
      "ount": 344,
      "Ġ4": 345,
      "ĠP": 346,
      "ary": 347,
      "ri": 348,
      "ĠB": 349,
      "Ġre": 350,
      "Ġthat": 351,
      "Ġenters": 352,
      "ach": 353,
      "ĠWhenever": 354,
      "Ġat": 355,
      "ĠG": 356,
      "Ġas": 357,
      "Ġcount": 358,
      "ack": 359,
      "rom": 360,
      "ch": 361,
      "Ġfor": 362,
      "Ġunt": 363,
      "Ġde": 364,
      "Ġend": 365,
      "Ġpl": 366,
      "uman": 367,
      "Ġfrom": 368,
      "Ġis": 369,
      "lo": 370,
      "ain": 371,
      "Ġmay": 372,
      "ad": 373,
      "Ġsp": 374,
      "ell": 375,
      "ĠHuman": 376,
      "pp": 377,
      "lying": 378,
      "her": 379,
      "age": 380,
      "Ġst": 381,
      "ke": 382,
      ">:": 383,
      "os": 384,
      "'t": 385,
      "ct": 386,
      "rt": 387,
      "Ġcan": 388,
      "ion": 389,
      "eg": 390,
      "act": 391,
      "Ġuntil": 392,
      "rtif": 393,
      "ant": 394,
      "ck": 395,
      "Ġplay": 396,
      "ep": 397,
      "id": 398,
      "Ġcast": 399,
      "Ġget": 400,
      "Ġatt": 401,
      "Ġeach": 402,
      "Ġput": 403,
      "amage": 404,
      "Ġits": 405,
      "rtifact": 406,
      "Ġspell": 407,
      "Ġdamage": 408,
      "Ġplayer": 409,
      "et": 410,
      "Ġattack": 411,
      "ore": 412,
      ">,": 413,
      "Ġdeal": 414,
      "lock": 415,
      "ĠThe": 416,
      "ĠFlying": 417,
      "ap": 418,
      "ice": 419,
      "Ġcounter": 420,
      "omb": 421,
      "Ġli": 422,
      "Ġcreatures": 423,
      "egend": 424,
      "im": 425,
      "egendary": 426,
      "ĠK": 427,
      "ken": 428,
      "ght": 429,
      "Ġblock": 430,
      "nd": 431,
      "Ġgain": 432,
      "rif": 433,
      "Ġex": 434,
      "ĠLegendary": 435,
      "Ġlif": 436,
      "ĠO": 437,
      "ll": 438,
      "ce": 439,
      "Ġ5": 440,
      "You": 441,
      "Ġgra": 442,
      "acrif": 443,
      "Ġco": 444,
      "ies": 445,
      "ru": 446,
      "yard": 447,
      "amp": 448,
      "Ġhand": 449,
      "Ġgrave": 450,
      "Ġgraveyard": 451,
      "ong": 452,
      "Ġgets": 453,
      "Ġopp": 454,
      "ĠV": 455,
      "onent": 456,
      "Ġman": 457,
      "Ġopponent": 458,
      "Ġup": 459,
      "ate": 460,
      "ave": 461,
      "Ġif": 462,
      "Ġlife": 463,
      "ight": 464,
      "br": 465,
      "acrifice": 466,
      "ho": 467,
      "Ġcards": 468,
      "Ġtoken": 469,
      "ĠSp": 470,
      "ld": 471,
      "ĠIf": 472,
      "ĠN": 473,
      "Ġdeals": 474,
      "ile": 475,
      "iz": 476,
      "Ġany": 477,
      "Ġone": 478,
      "od": 479,
      "his": 480,
      "qu": 481,
      "Ġartifact": 482,
      "to": 483,
      "Ġlibr": 484,
      "ill": 485,
      "Ġlibrary": 486,
      "Ġv": 487,
      "old": 488,
      "us": 489,
      "Ġare": 490,
      "ment": 491,
      "ning": 492,
      "Ġhave": 493,
      "Ġtheir": 494,
      "ear": 495,
      "ue": 496,
      "ose": 497,
      "ig": 498,
      "raw": 499,
      "gin": 500,
      "est": 501,
      "reate": 502,
      "Ġmana": 503,
      "ĠWar": 504,
      "ie": 505,
      "Ġdo": 506,
      "iv": 507,
      "wo": 508,
      "Ġsh": 509,
      "ace": 510,
      "ombat": 511,
      "Ġbegin": 512,
      "ble": 513,
      "ther": 514,
      "Ġby": 515,
      "nly": 516,
      "Ġcombat": 517,
      "ire": 518,
      "Ġcost": 519,
      "Ġbeginning": 520,
      "em": 521,
      "ect": 522,
      "Ġcounters": 523,
      "Ġinto": 524,
      "out": 525,
      "ul": 526,
      "ĠIt": 527,
      "Ġonly": 528,
      "ĠYou": 529,
      "Ġmore": 530,
      "bl": 531,
      "other": 532,
      "Ġper": 533,
      "ber": 534,
      "Ġattacks": 535,
      "Ġhas": 536,
      "Ġtwo": 537,
      "ĠSh": 538,
      "rior": 539,
      "Ġblocked": 540,
      "ier": 541,
      "all": 542,
      "ist": 543,
      "ĠAt": 544,
      "izard": 545,
      "Ġpower": 546,
      "ian": 547,
      "Ġland": 548,
      "ath": 549,
      "ĠWarrior": 550,
      "av": 551,
      "isc": 552,
      "Ġlong": 553,
      "Ġanother": 554,
      "Ġgains": 555,
      "nder": 556,
      "Ġcreate": 557,
      "ere": 558,
      "ĠX": 559,
      "Ġpay": 560,
      "ity": 561,
      "un": 562,
      "Ġ6": 563,
      "ĠSacrifice": 564,
      "ker": 565,
      "ĠGo": 566,
      "Ġ~.": 567,
      "ler": 568,
      "man": 569,
      "Ġab": 570,
      "wn": 571,
      "og": 572,
      "ĠWizard": 573,
      "Ġk": 574,
      "our": 575,
      "ĠZ": 576,
      "th": 577,
      "Ġdraw": 578,
      "This": 579,
      "dd": 580,
      "com": 581,
      "ould": 582,
      "Ġwh": 583,
      "iscard": 584,
      "Ġbl": 585,
      "Ġall": 586,
      "ramp": 587,
      "ĠSold": 588,
      "umber": 589,
      "Ġ0": 590,
      "Ġen": 591,
      "Ġse": 592,
      "aste": 593,
      "rample": 594,
      "manent": 595,
      "ĠArtifact": 596,
      "Ġpermanent": 597,
      "Ġnumber": 598,
      "ĠSoldier": 599,
      "Ġunder": 600,
      "Ġthen": 601,
      "cer": 602,
      "irst": 603,
      "Ġtop": 604,
      "ĠAs": 605,
      "keep": 606,
      "Ġbecom": 607,
      "Ġown": 608,
      "ĠIn": 609,
      "Ġother": 610,
      "ĠEl": 611,
      "irit": 612,
      "blin": 613,
      "ind": 614,
      "ĠTh": 615,
      "Ġthem": 616,
      "Ġthey": 617,
      "Ġdies": 618,
      "ĠU": 619,
      "Ġcol": 620,
      "Ġflying": 621,
      "pped": 622,
      "ag": 623,
      "ance": 624,
      "Ġret": 625,
      "Ġabil": 626,
      "ite": 627,
      "Ġtim": 628,
      "Ġreturn": 629,
      "ĠDra": 630,
      "ous": 631,
      "Ġnon": 632,
      "Ġnot": 633,
      "Ġequ": 634,
      "ĠSpirit": 635,
      "ree": 636,
      ">.": 637,
      "Ġstep": 638,
      "Ġcontrols": 639,
      "ĠEle": 640,
      "Ġexile": 641,
      "ĠZomb": 642,
      "Ġwas": 643,
      "Ġcolor": 644,
      "gon": 645,
      "Ġsor": 646,
      "Ġbecomes": 647,
      "efend": 648,
      "Ġta": 649,
      "Ġless": 650,
      "Ġinst": 651,
      "rike": 652,
      "ĠGoblin": 653,
      "here": 654,
      "ive": 655,
      "are": 656,
      "ry": 657,
      "ok": 658,
      "ĠZombie": 659,
      "hy": 660,
      "Ġthan": 661,
      "Ġsorcer": 662,
      "Ġsorcery": 663,
      "Ġno": 664,
      "ctiv": 665,
      "Ġequal": 666,
      "Ġupkeep": 667,
      "one": 668,
      "Ġstrike": 669,
      "ter": 670,
      "ĠAn": 671,
      "ĠSc": 672,
      "ĠBe": 673,
      "chant": 674,
      "Ġam": 675,
      "Ġcho": 676,
      "own": 677,
      "Ġtime": 678,
      "Ġface": 679,
      "ven": 680,
      "ip": 681,
      "Ġle": 682,
      "mental": 683,
      "ff": 684,
      "ĠRe": 685,
      "ĠElemental": 686,
      "Ġcom": 687,
      "Ġr": 688,
      "veal": 689,
      "art": 690,
      "night": 691,
      "estro": 692,
      "ĠDe": 693,
      "ash": 694,
      "Ġwould": 695,
      "ĠTarget": 696,
      "ĠPut": 697,
      "estroy": 698,
      "Ġal": 699,
      "ĠElf": 700,
      "ak": 701,
      "Ġsacrifice": 702,
      "igil": 703,
      "Ġnext": 704,
      "ĠSt": 705,
      "ĠEx": 706,
      "ust": 707,
      "Ġbut": 708,
      "Ġhaste": 709,
      "leric": 710,
      "Ġlo": 711,
      "ph": 712,
      "Ġch": 713,
      "ĠCleric": 714,
      "hyre": 715,
      "hyrex": 716,
      "ctivate": 717,
      "igilance": 718,
      "ĠDragon": 719,
      "ĠAr": 720,
      "sh": 721,
      "Ġdiscard": 722,
      "ound": 723,
      "Ġhe": 724,
      "ĠPhyrex": 725,
      "Ġfirst": 726,
      "olk": 727,
      "aur": 728,
      "se": 729,
      "Ġthree": 730,
      "ĠKnight": 731,
      "op": 732,
      "ang": 733,
      "Ġreveal": 734,
      "ink": 735,
      "ove": 736,
      "Ġowner": 737,
      "Ġrem": 738,
      "When": 739,
      "ĠCh": 740,
      "ĠPhyrexian": 741,
      "ord": 742,
      "ĠJ": 743,
      "Ġwhere": 744,
      "ĠRog": 745,
      "wal": 746,
      "Ġuntap": 747,
      "ampire": 748,
      "ish": 749,
      "/-": 750,
      "Ġwill": 751,
      "oth": 752,
      "aman": 753,
      "ĠRogue": 754,
      "ition": 755,
      "ĠBeast": 756,
      "ĠTrample": 757,
      "Ġmy": 758,
      "uff": 759,
      "ĠSl": 760,
      "ew": 761,
      "Ġwe": 762,
      "ĠMer": 763,
      "Ġdealt": 764,
      "ept": 765,
      "Ġval": 766,
      "ĠFl": 767,
      "Ġ~:": 768,
      "der": 769,
      "ation": 770,
      "Ġ.": 771,
      "land": 772,
      "ruct": 773,
      "Ġexc": 774,
      "Ġme": 775,
      "ĠVampire": 776,
      "Ġ-": 777,
      "ird": 778,
      "ĠCon": 779,
      "ade": 780,
      "Ġdefend": 781,
      "ĠShaman": 782,
      "Ġadd": 783,
      "Ġfl": 784,
      "Ġability": 785,
      "row": 786,
      "Ġway": 787,
      "Ġattacking": 788,
      "chantment": 789,
      "yp": 790,
      "Ġtapped": 791,
      "ide": 792,
      "Ġvalue": 793,
      "ling": 794,
      "orn": 795,
      "ĠThis": 796,
      "Ġblack": 797,
      "Ġdestroy": 798,
      "ome": 799,
      "Ġ*": 800,
      "less": 801,
      "Ġchoose": 802,
      "ick": 803,
      "nto": 804,
      "Ġun": 805,
      "Ġgreat": 806,
      "oses": 807,
      "Ġonto": 808,
      "Ġhis": 809,
      "Ġcop": 810,
      "earch": 811,
      "ĠSk": 812,
      "Ġgre": 813,
      "ĠActivate": 814,
      "ass": 815,
      "ine": 816,
      "Ġunl": 817,
      "ves": 818,
      "Ġspells": 819,
      "gel": 820,
      "ost": 821,
      "rot": 822,
      "Ġher": 823,
      "uring": 824,
      "Ġwhite": 825,
      "aw": 826,
      "Ġsc": 827,
      "ead": 828,
      "Ġshuff": 829,
      "Ġj": 830,
      "Ġtrample": 831,
      "Ġ7": 832,
      "now": 833,
      "Ġwor": 834,
      "Ġexcept": 835,
      "ĠExile": 836,
      "Ġamong": 837,
      "Ġtoughness": 838,
      "Ġtyp": 839,
      "ark": 840,
      "Ġwithout": 841,
      "lood": 842,
      "folk": 843,
      "ouch": 844,
      "Ġ(<": 845,
      "Ġunless": 846,
      "ĠAdd": 847,
      "Ġro": 848,
      "Ġcopy": 849,
      "Ġloses": 850,
      "iant": 851,
      "ĠRet": 852,
      "iver": 853,
      "ĠThey": 854,
      "ild": 855,
      "Ġshuffle": 856,
      "Ġpre": 857,
      "Ġthose": 858,
      "Ġdown": 859,
      "very": 860,
      "Ġwho": 861,
      "ec": 862,
      "Ġgo": 863,
      "Ġgreen": 864,
      "ĠHor": 865,
      "Ġaddition": 866,
      "Ġinstant": 867,
      "ĠReturn": 868,
      "ake": 869,
      "fter": 870,
      "ĠBird": 871,
      "Ġname": 872,
      "ror": 873,
      "ĠDiscard": 874,
      "ruid": 875,
      "elink": 876,
      "ĠAngel": 877,
      "ĠWe": 878,
      "ĠEn": 879,
      "ss": 880,
      "rotect": 881,
      "ener": 882,
      "Ġtokens": 883,
      "unt": 884,
      "ities": 885,
      "ia": 886,
      "Ġso": 887,
      "Ġdefending": 888,
      "ran": 889,
      "enace": 890,
      "Ġduring": 891,
      "Ġred": 892,
      "Ġar": 893,
      "ise": 894,
      "ĠTre": 895,
      "Ġdeath": 896,
      "Ġout": 897,
      "oul": 898,
      "Ġdon": 899,
      "Ġplan": 900,
      "ĠMerfolk": 901,
      "ger": 902,
      "ĠOther": 903,
      "ond": 904,
      "ott": 905,
      "touch": 906,
      "ort": 907,
      "ĠCat": 908,
      "orm": 909,
      "orph": 910,
      "aster": 911,
      "ĠDruid": 912,
      "ab": 913,
      "ĠDraw": 914,
      "sp": 915,
      "ĠEach": 916,
      "eed": 917,
      "Ġabilities": 918,
      "ĠAl": 919,
      "Ġmany": 920,
      "Ġdoes": 921,
      "uch": 922,
      "Ġwere": 923,
      "ult": 924,
      "Ġtap": 925,
      "ator": 926,
      "Ġnan": 927,
      "ĠOr": 928,
      "Whenever": 929,
      "Ġthere": 930,
      "ĠPl": 931,
      "Ġenchantment": 932,
      "ĠVigilance": 933,
      "red": 934,
      "ĠâĢ": 935,
      "ĠâĢ¢": 936,
      "Ġ~'": 937,
      "vent": 938,
      "eswal": 939,
      "ĠGiant": 940,
      "ĠSliver": 941,
      "Ġinstead": 942,
      "Ġplaneswal": 943,
      "pt": 944,
      "Ġag": 945,
      "iled": 946,
      "uard": 947,
      "Ġlook": 948,
      "ĠHorror": 949,
      "ase": 950,
      "ĠFlash": 951,
      "ings": 952,
      "ĠMy": 953,
      "ĠNo": 954,
      "Ġour": 955,
      "Ġwhen": 956,
      "orest": 957,
      "ered": 958,
      "It": 959,
      "Ġcomm": 960,
      "Ġopponents": 961,
      "Ġsee": 962,
      "az": 963,
      "way": 964,
      "atch": 965,
      "ĠEld": 966,
      "ura": 967,
      "ĠFirst": 968,
      "esh": 969,
      "ĠHaste": 970,
      "ible": 971,
      "Ġadditional": 972,
      "Ġvigilance": 973,
      "Ġfour": 974,
      "yc": 975,
      "ĠDeath": 976,
      "Ġsk": 977,
      "Ġsearch": 978,
      "Ġhad": 979,
      "raz": 980,
      "Ġus": 981,
      "ner": 982,
      "Ġpro": 983,
      "Ġgreater": 984,
      "ally": 985,
      "osaur": 986,
      "ottom": 987,
      "Ġplaneswalker": 988,
      "Ġri": 989,
      "ated": 990,
      "Ġrest": 991,
      "ix": 992,
      "vo": 993,
      "Ġbottom": 994,
      "Ġwar": 995,
      "war": 996,
      "mp": 997,
      "ĠAd": 998,
      "icer": 999,
      "Ġevery": 1000,
      "Ġexp": 1001,
      "Ġcosts": 1002,
      "tle": 1003,
      "ren": 1004,
      "ĠCreate": 1005,
      "Ġonce": 1006,
      "Ġnonland": 1007,
      "rotection": 1008,
      "ĠHe": 1009,
      "Ġcl": 1010,
      "Ġdoesn": 1011,
      "ĠDem": 1012,
      "ron": 1013,
      "estruct": 1014,
      "ĠIns": 1015,
      "Ġable": 1016,
      "ĠDefend": 1017,
      "ĠFa": 1018,
      "ĠConst": 1019,
      "ence": 1020,
      "ial": 1021,
      "ains": 1022,
      "If": 1023,
      "efore": 1024,
      "ĠDefender": 1025,
      "Ġthough": 1026,
      "Ġmill": 1027,
      "Ġlifelink": 1028,
      "inosaur": 1029,
      "Ġknow": 1030,
      "gre": 1031,
      "ious": 1032,
      "ĠWh": 1033,
      "Ġexiled": 1034,
      "ĠFor": 1035,
      "lem": 1036,
      "ĠWall": 1037,
      "Ġlands": 1038,
      "ouble": 1039,
      "Ġmuch": 1040,
      "ĠUnt": 1041,
      "aves": 1042,
      "ood": 1043,
      "ĠArch": 1044,
      "Ġru": 1045,
      "ĠDemon": 1046,
      "fect": 1047,
      "Ġorder": 1048,
      "rtificer": 1049,
      "ĠOn": 1050,
      "ĠHer": 1051,
      "Ġsec": 1052,
      "Ġsur": 1053,
      "ĠInsect": 1054,
      "Ġpo": 1055,
      "asure": 1056,
      "Ġlast": 1057,
      "ĠMon": 1058,
      "ĠUn": 1059,
      "ĠTap": 1060,
      "Ġind": 1061,
      "Ġlike": 1062,
      "urm": 1063,
      "Ġpermanents": 1064,
      "oll": 1065,
      "ĠRo": 1066,
      "rim": 1067,
      "ider": 1068,
      "ather": 1069,
      "ory": 1070,
      "adow": 1071,
      "apt": 1072,
      "Ġsw": 1073,
      "ĠScout": 1074,
      "ud": 1075,
      "vel": 1076,
      "Ġnever": 1077,
      "cl": 1078,
      "Ġtra": 1079,
      "Ġcontroller": 1080,
      "Ġra": 1081,
      "Ġbefore": 1082,
      "Ġmon": 1083,
      "rough": 1084,
      "ĠAll": 1085,
      "ĠDinosaur": 1086,
      "acrific": 1087,
      "!<|": 1088,
      "ors": 1089,
      "Ġlose": 1090,
      "ĠArtificer": 1091,
      "Ġform": 1092,
      "ĠReach": 1093,
      "Ġsacrific": 1094,
      "icker": 1095,
      "Ġblocks": 1096,
      "Ġ~,": 1097,
      "aus": 1098,
      "Ġcould": 1099,
      "'re": 1100,
      "ĠGolem": 1101,
      "Ġnamed": 1102,
      "apped": 1103,
      "ĠY": 1104,
      "andom": 1105,
      "Ġcolorless": 1106,
      "Ġrandom": 1107,
      "ĠSw": 1108,
      "Ġfight": 1109,
      "elf": 1110,
      "ĠSer": 1111,
      "Ġtype": 1112,
      "Ġremove": 1113,
      "ĠReg": 1114,
      "ts": 1115,
      "ĠCl": 1116,
      "ĠBlood": 1117,
      "ĠConstruct": 1118,
      "ved": 1119,
      "Ġjust": 1120,
      "Ġagain": 1121,
      "oud": 1122,
      "ĠBl": 1123,
      "Ġuntapped": 1124,
      "Ġqu": 1125,
      "ĠTurn": 1126,
      "ĠIs": 1127,
      "Ġtri": 1128,
      "Ġpaying": 1129,
      "ĠMin": 1130,
      "Ġisn": 1131,
      "Ġcommand": 1132,
      "estructible": 1133,
      "able": 1134,
      "ook": 1135,
      "Ġblue": 1136,
      "aid": 1137,
      "Ġboth": 1138,
      "Ġgr": 1139,
      "Ġwhat": 1140,
      "Ġ8": 1141,
      "'ve": 1142,
      "ied": 1143,
      "Ġpart": 1144,
      "hin": 1145,
      "gg": 1146,
      "ĠLe": 1147,
      "Ġblocking": 1148,
      "Ġmost": 1149,
      "Ġres": 1150,
      "of": 1151,
      "erie": 1152,
      "razi": 1153,
      "Ġsl": 1154,
      "Ġmust": 1155,
      "ĠEldrazi": 1156,
      "Ġel": 1157,
      "Ġnew": 1158,
      "ĠMenace": 1159,
      "Ġreach": 1160,
      "ign": 1161,
      "Ġworld": 1162,
      "ons": 1163,
      "ĠRem": 1164,
      "Ġtypes": 1165,
      "ater": 1166,
      "ĠTo": 1167,
      "Ġartifacts": 1168,
      "ful": 1169,
      "king": 1170,
      "ub": 1171,
      "read": 1172,
      "alf": 1173,
      "olf": 1174,
      "ĠThat": 1175,
      "Ġleaves": 1176,
      "led": 1177,
      "ĠSn": 1178,
      "ĠPir": 1179,
      "Ġthrough": 1180,
      "Ġdra": 1181,
      "ĠDo": 1182,
      "ions": 1183,
      "ict": 1184,
      "enerate": 1185,
      "igh": 1186,
      "pl": 1187,
      "ens": 1188,
      "ĠDestroy": 1189,
      "ail": 1190,
      "mer": 1191,
      "Ġover": 1192,
      "Ġshe": 1193,
      "Ġday": 1194,
      "Ġdiscards": 1195,
      "Ġnonc": 1196,
      "The": 1197,
      "ĠRegenerate": 1198,
      "ert": 1199,
      "ĠCreatures": 1200,
      "Ġeven": 1201,
      "ĠAss": 1202,
      "ins": 1203,
      "ug": 1204,
      "ĠSe": 1205,
      "Ġstill": 1206,
      "eth": 1207,
      "Ġdid": 1208,
      "ĠDwar": 1209,
      "asic": 1210,
      "so": 1211,
      "ĠTreasure": 1212,
      "ĠRemove": 1213,
      "ĠWurm": 1214,
      "iff": 1215,
      "ĠOrc": 1216,
      "*<|": 1217,
      "ĠForest": 1218,
      "ull": 1219,
      "ream": 1220,
      "osen": 1221,
      "walk": 1222,
      "ĠOgre": 1223,
      "Ġchoice": 1224,
      "Ġindestructible": 1225,
      "oy": 1226,
      "pro": 1227,
      "Ġtargets": 1228,
      "ung": 1229,
      "Ġdeathtouch": 1230,
      "Ġnoncreature": 1231,
      "arg": 1232,
      "ĠDeathtouch": 1233,
      "ĠFaerie": 1234,
      "ift": 1235,
      "ient": 1236,
      "Ġblood": 1237,
      "ison": 1238,
      "ĠThen": 1239,
      "Ġdead": 1240,
      "icked": 1241,
      "mb": 1242,
      "Ġcaus": 1243,
      "tly": 1244,
      "ither": 1245,
      "Ġattach": 1246,
      "aven": 1247,
      "yr": 1248,
      "Ġback": 1249,
      "ĠPirate": 1250,
      "Ġmenace": 1251,
      "ĠDrake": 1252,
      "'ll": 1253,
      "be": 1254,
      "iss": 1255,
      "aut": 1256,
      "ks": 1257,
      "les": 1258,
      "we": 1259,
      "Ġph": 1260,
      "Ġhim": 1261,
      "Ġhear": 1262,
      "ĠNight": 1263,
      "ollow": 1264,
      "kin": 1265,
      "ief": 1266,
      "ĠLif": 1267,
      "ĠIsland": 1268,
      "Ġad": 1269,
      "Ġdev": 1270,
      "Ġenough": 1271,
      "per": 1272,
      "ĠRat": 1273,
      "Ġalso": 1274,
      "Ġchosen": 1275,
      "Ġfe": 1276,
      "oss": 1277,
      "ob": 1278,
      "ĠShe": 1279,
      "ĠEnchantment": 1280,
      "oc": 1281,
      "ars": 1282,
      "otaur": 1283,
      "ĠPre": 1284,
      "ale": 1285,
      "Ġneed": 1286,
      "anger": 1287,
      "ways": 1288,
      "vis": 1289,
      "ving": 1290,
      "thing": 1291,
      "Ġarm": 1292,
      "Ġtot": 1293,
      "Ġsm": 1294,
      "proof": 1295,
      "fin": 1296,
      "ik": 1297,
      "ates": 1298,
      "Ġbr": 1299,
      "Ġsome": 1300,
      "ĠAv": 1301,
      "Ġcomp": 1302,
      "Ġdes": 1303,
      "ĠWolf": 1304,
      "ĠDev": 1305,
      "Ġtotal": 1306,
      "?<|": 1307,
      "ane": 1308,
      "exproof": 1309,
      "Ġhunt": 1310,
      "Ġbet": 1311,
      "au": 1312,
      "hoose": 1313,
      "Ġcreat": 1314,
      "arch": 1315,
      "Ġdie": 1316,
      "ĠGu": 1317,
      "Ġturned": 1318,
      "ĠQ": 1319,
      "Ġprotection": 1320,
      "Ġtru": 1321,
      "Ġbasic": 1322,
      "Ġsay": 1323,
      "ually": 1324,
      "Ġim": 1325,
      "ely": 1326,
      "Ġpe": 1327,
      "Ġgl": 1328,
      "ich": 1329,
      "Ġey": 1330,
      "ĠShap": 1331,
      "ĠSwamp": 1332,
      "ps": 1333,
      "alt": 1334,
      "ĠIts": 1335,
      "Ġpays": 1336,
      "oon": 1337,
      "efolk": 1338,
      "ĠSky": 1339,
      "Ġattached": 1340,
      "ces": 1341,
      "Ġbel": 1342,
      "Ġtw": 1343,
      "Ġac": 1344,
      "ald": 1345,
      "ĠImp": 1346,
      "ĠEqu": 1347,
      "Ġbecome": 1348,
      "Ġalways": 1349,
      "ĠAlly": 1350,
      "af": 1351,
      "cho": 1352,
      "Ġmorph": 1353,
      "Ġlight": 1354,
      "ears": 1355,
      "Ġtake": 1356,
      "Ġsecond": 1357,
      "ans": 1358,
      "its": 1359,
      "ĠDog": 1360,
      "Ġkicked": 1361,
      "cap": 1362,
      "ese": 1363,
      "rid": 1364,
      "erser": 1365,
      "Ġbattle": 1366,
      "Ġwhile": 1367,
      "Ġpoison": 1368,
      "ĠDwarf": 1369,
      "ifter": 1370,
      "itch": 1371,
      "Ġfive": 1372,
      "ĠBerser": 1373,
      "Ġalone": 1374,
      "aker": 1375,
      "ĠSun": 1376,
      "Ġnight": 1377,
      "ĠMount": 1378,
      "ĠMorph": 1379,
      "ĠSpell": 1380,
      "ired": 1381,
      "Ġscry": 1382,
      "ai": 1383,
      "nal": 1384,
      "Ġte": 1385,
      "ari": 1386,
      "Ġsu": 1387,
      "ĠSoul": 1388,
      "ĠPro": 1389,
      "ĠMinotaur": 1390,
      "awn": 1391,
      "Ġsour": 1392,
      "ĠSearch": 1393,
      "ĠAura": 1394,
      "Ġgu": 1395,
      "Ġmonst": 1396,
      "Ġactivate": 1397,
      "Ġoff": 1398,
      "roll": 1399,
      "Ġhow": 1400,
      "ĠBerserker": 1401,
      "vest": 1402,
      "elet": 1403,
      "ĠThere": 1404,
      "Ġlost": 1405,
      "ĠTreefolk": 1406,
      "form": 1407,
      "ze": 1408,
      "int": 1409,
      "Ġser": 1410,
      "Ġsame": 1411,
      "ged": 1412,
      "Ġmake": 1413,
      "ĠGl": 1414,
      "pet": 1415,
      "Ġdouble": 1416,
      "ross": 1417,
      "ĠSqu": 1418,
      "ĠHy": 1419,
      "Ġbeen": 1420,
      "Ġshadow": 1421,
      "chanted": 1422,
      "Ġapp": 1423,
      "arb": 1424,
      "Ġbase": 1425,
      "Ġdiff": 1426,
      "Ġfind": 1427,
      "ents": 1428,
      "Ġstr": 1429,
      "Ġkn": 1430,
      "Ġtr": 1431,
      "Ġband": 1432,
      "Ġdis": 1433,
      "eshifter": 1434,
      "At": 1435,
      "air": 1436,
      "dra": 1437,
      "ox": 1438,
      "Ġafter": 1439,
      "ara": 1440,
      "ĠCyc": 1441,
      "ize": 1442,
      "ipment": 1443,
      "ĠShapeshifter": 1444,
      "Ġef": 1445,
      "inn": 1446,
      "Ġmind": 1447,
      "ĠIll": 1448,
      "usion": 1449,
      "Ġamount": 1450,
      "assin": 1451,
      "Ġgame": 1452,
      "Ġenter": 1453,
      "ĠMut": 1454,
      "ĠSpider": 1455,
      "ĠWarlock": 1456,
      "hinx": 1457,
      "Ġfollow": 1458,
      "ute": 1459,
      "ĠNoble": 1460,
      "ĠUntil": 1461,
      "roud": 1462,
      "Ġkeep": 1463,
      "Ġtre": 1464,
      "Ġtoo": 1465,
      "ĠGuard": 1466,
      "ĠOne": 1467,
      "ĠSnake": 1468,
      "ny": 1469,
      "att": 1470,
      "ĠSam": 1471,
      "ctor": 1472,
      "ĠAssassin": 1473,
      "ĠLifelink": 1474,
      "inger": 1475,
      "ĠSome": 1476,
      "Ġnat": 1477,
      "ĠLand": 1478,
      "inj": 1479,
      "ĠâĢĶ*": 1480,
      "Ġbeing": 1481,
      "token": 1482,
      "Ġkind": 1483,
      "Ġseven": 1484,
      "Ġcar": 1485,
      "ĠWard": 1486,
      "ĠDr": 1487,
      "ĠMerc": 1488,
      "Ġgoblin": 1489,
      "atar": 1490,
      "Ġforest": 1491,
      "Ġnontoken": 1492,
      "ĠAdvis": 1493,
      "ĠPrevent": 1494,
      "aver": 1495,
      "Ġbest": 1496,
      "ored": 1497,
      "riffin": 1498,
      "Ġtimes": 1499,
      "ĠSil": 1500,
      "ĠProtection": 1501,
      "ĠSphinx": 1502,
      "ĠAtt": 1503,
      "ĠMonk": 1504,
      "Ġsacrifices": 1505,
      "ann": 1506,
      "usp": 1507,
      "Ġroll": 1508,
      "ĠUntap": 1509,
      "ĠAdvisor": 1510,
      "und": 1511,
      "ats": 1512,
      "ĠArm": 1513,
      "ĠAvatar": 1514,
      "alm": 1515,
      "Ġ10": 1516,
      "ĠMar": 1517,
      "ĠPart": 1518,
      "Ġdiffere": 1519,
      "arian": 1520,
      "Ġfear": 1521,
      "Ġfire": 1522,
      "Ġpaid": 1523,
      "alken": 1524,
      "ander": 1525,
      "Ġplayers": 1526,
      "Ġperpet": 1527,
      "ists": 1528,
      "phant": 1529,
      "ship": 1530,
      "Ġexplo": 1531,
      "Ġsource": 1532,
      "mage": 1533,
      "ract": 1534,
      "reet": 1535,
      "mare": 1536,
      "ĠCent": 1537,
      "ĠChoose": 1538,
      "Ġfo": 1539,
      "Ġfall": 1540,
      "ĠEquipment": 1541,
      "ĠIllusion": 1542,
      "ax": 1543,
      "Ġmut": 1544,
      "Ġmag": 1545,
      "ĠNinj": 1546,
      "ope": 1547,
      "ĠArcher": 1548,
      "Ġdidn": 1549,
      "Ġperpetually": 1550,
      "ĠMan": 1551,
      "Ġspent": 1552,
      "ared": 1553,
      "Ġleave": 1554,
      "Ġsoul": 1555,
      "fall": 1556,
      "gu": 1557,
      "res": 1558,
      "Ġthink": 1559,
      "als": 1560,
      "Ġlit": 1561,
      "ĠTra": 1562,
      "earth": 1563,
      "Ġenem": 1564,
      "gr": 1565,
      "Ġcall": 1566,
      "Ġsix": 1567,
      "elp": 1568,
      "ros": 1569,
      "Ġhigh": 1570,
      "Ġint": 1571,
      "Ġnow": 1572,
      "ĠKor": 1573,
      "urai": 1574,
      "aptain": 1575,
      "Ġcity": 1576,
      "arn": 1577,
      "Ġword": 1578,
      "Ġpass": 1579,
      "rab": 1580,
      "ithkin": 1581,
      "Ġeffect": 1582,
      "gth": 1583,
      "ami": 1584,
      "amil": 1585,
      "rog": 1586,
      "Ġlegendary": 1587,
      "ĠDes": 1588,
      "Ġass": 1589,
      "ĠKicker": 1590,
      "atter": 1591,
      "arm": 1592,
      "ĠCo": 1593,
      "Ġdark": 1594,
      "Ġwon": 1595,
      "Ġev": 1596,
      "ĠBut": 1597,
      "ampion": 1598,
      "bel": 1599,
      "cient": 1600,
      "ting": 1601,
      "wor": 1602,
      "ined": 1603,
      "ided": 1604,
      "ush": 1605,
      "ĠWhat": 1606,
      "wise": 1607,
      "ating": 1608,
      "Ġactiv": 1609,
      "Ġward": 1610,
      "ĠFire": 1611,
      "ĠGod": 1612,
      "rans": 1613,
      "ĠQu": 1614,
      "rous": 1615,
      "ĠLord": 1616,
      "avu": 1617,
      "ĠHydra": 1618,
      "where": 1619,
      "ancer": 1620,
      "ĠCom": 1621,
      "ĠBo": 1622,
      "aper": 1623,
      "ĠSamurai": 1624,
      "ah": 1625,
      "arth": 1626,
      "otion": 1627,
      "Ġlet": 1628,
      "ĠHell": 1629,
      "ĠDouble": 1630,
      "ĠBr": 1631,
      "ĠGh": 1632,
      "ivers": 1633,
      "Ġleast": 1634,
      "Ġremains": 1635,
      "ĠSkelet": 1636,
      "voke": 1637,
      "rength": 1638,
      "Ġmills": 1639,
      "born": 1640,
      "ike": 1641,
      "Ġgrow": 1642,
      "raft": 1643,
      "Ġattacked": 1644,
      "ime": 1645,
      "Ġkill": 1646,
      "Ġsky": 1647,
      "ĠCentaur": 1648,
      "Ġsom": 1649,
      "edalken": 1650,
      "hem": 1651,
      "earn": 1652,
      "ĠShadow": 1653,
      "uk": 1654,
      "Ġdist": 1655,
      "Ġplus": 1656,
      "eph": 1657,
      "Ġshare": 1658,
      "ective": 1659,
      "pe": 1660,
      "Ġ'": 1661,
      "reak": 1662,
      "Ġwant": 1663,
      "eep": 1664,
      "ince": 1665,
      "Ġwatch": 1666,
      "Ġhexproof": 1667,
      "ĠTr": 1668,
      "ĠGriffin": 1669,
      "Ġabout": 1670,
      "ggers": 1671,
      "jinn": 1672,
      "pen": 1673,
      "Ġsing": 1674,
      "Ġmight": 1675,
      "angel": 1676,
      "ations": 1677,
      "Ġgood": 1678,
      "Ġtriggers": 1679,
      "cape": 1680,
      "ĠPartner": 1681,
      "pent": 1682,
      "up": 1683,
      "ones": 1684,
      "Ġfa": 1685,
      "Ġfew": 1686,
      "ĠFood": 1687,
      "Ġreg": 1688,
      "Ġdraws": 1689,
      "ĠArc": 1690,
      "ĠPlant": 1691,
      "ĠUnearth": 1692,
      "uck": 1693,
      "ye": 1694,
      "erg": 1695,
      "ative": 1696,
      "ĠHar": 1697,
      "ĠDet": 1698,
      "ĠPay": 1699,
      "izen": 1700,
      "ĠChampion": 1701,
      "Ġsacrificed": 1702,
      "Ġdragon": 1703,
      "ĠMercen": 1704,
      "Ġlittle": 1705,
      "oved": 1706,
      "rel": 1707,
      "Ġthings": 1708,
      "ĠAnd": 1709,
      "ĠMir": 1710,
      "ĠVi": 1711,
      "Ġcome": 1712,
      "Ġprevent": 1713,
      "Ġeyes": 1714,
      "ced": 1715,
      "ev": 1716,
      "Ġcame": 1717,
      "ĠAb": 1718,
      "ĠBack": 1719,
      "ĠGr": 1720,
      "Ġdefender": 1721,
      "ipped": 1722,
      "ino": 1723,
      "Ġsnow": 1724,
      "Ġdied": 1725,
      "Ġfri": 1726,
      "uth": 1727,
      "ĠBattl": 1728,
      "ĠElephant": 1729,
      "ĠMyr": 1730,
      "Ġcommanders": 1731,
      "Ġmonstrous": 1732,
      "ines": 1733,
      "ĠSent": 1734,
      "Ġlearn": 1735,
      "ĠAfter": 1736,
      "ĠPh": 1737,
      "Ġste": 1738,
      "Ġstrength": 1739,
      "ĠKavu": 1740,
      "ager": 1741,
      "ecial": 1742,
      "ĠDevil": 1743,
      "ĠSkeleton": 1744,
      "con": 1745,
      "light": 1746,
      "te": 1747,
      "err": 1748,
      "Ġdiv": 1749,
      "Ġguard": 1750,
      "Ġcasts": 1751,
      "Ġright": 1752,
      "ĠDoctor": 1753,
      "ĠMutant": 1754,
      "ĠLandfall": 1755,
      "kes": 1756,
      "ress": 1757,
      "Ġage": 1758,
      "ĠDjinn": 1759,
      "ĠMaster": 1760,
      "ĠLizard": 1761,
      "ĠGn": 1762,
      "ternal": 1763,
      "ashino": 1764,
      "Ġrevealed": 1765,
      "Ġgreatest": 1766,
      "Ġsecre": 1767,
      "vestig": 1768,
      "'m": 1769,
      "Ġcle": 1770,
      "Ġaway": 1771,
      "Ġoil": 1772,
      "ange": 1773,
      "Ġhere": 1774,
      "Ġgod": 1775,
      "ĠHunt": 1776,
      "ĠMag": 1777,
      "Ġstand": 1778,
      "ĠKithkin": 1779,
      "wood": 1780,
      "thers": 1781,
      "Ġlead": 1782,
      "Ġhead": 1783,
      "Ġsurv": 1784,
      "Damage": 1785,
      "ait": 1786,
      "rent": 1787,
      "lect": 1788,
      "ĠPer": 1789,
      "ĠNow": 1790,
      "Ġvict": 1791,
      "ople": 1792,
      "Ġprey": 1793,
      "void": 1794,
      "ween": 1795,
      "ĠDetective": 1796,
      "'d": 1797,
      ">.)": 1798,
      "itter": 1799,
      "Ġbu": 1800,
      "Ġfore": 1801,
      "Ġfound": 1802,
      "Ġhelp": 1803,
      "ĠAven": 1804,
      "ĠTroll": 1805,
      "ĠEvery": 1806,
      "ĠMage": 1807,
      "ogg": 1808,
      "akes": 1809,
      "ien": 1810,
      "itor": 1811,
      "ĠCit": 1812,
      "Ġwin": 1813,
      "ĠSo": 1814,
      "icate": 1815,
      "ĠEmp": 1816,
      "Ġitself": 1817,
      "ĠVedalken": 1818,
      "ody": 1819,
      "Ġdifferent": 1820,
      "ĠViashino": 1821,
      "for": 1822,
      "hing": 1823,
      "iers": 1824,
      "rer": 1825,
      "Ġsil": 1826,
      "Ġmaster": 1827,
      "ilt": 1828,
      "Ġcont": 1829,
      "Ġever": 1830,
      "Ġeither": 1831,
      "Ġanything": 1832,
      "Ġleft": 1833,
      "Ġagainst": 1834,
      "ĠMercenary": 1835,
      "ey": 1836,
      "lif": 1837,
      "mon": 1838,
      "yn": 1839,
      "Ġart": 1840,
      "add": 1841,
      "ĠHero": 1842,
      "Ġsword": 1843,
      "Ġcauses": 1844,
      "Ġdevotion": 1845,
      "Ġbetween": 1846,
      "ium": 1847,
      "oun": 1848,
      "aces": 1849,
      "ster": 1850,
      "Ġmer": 1851,
      "Ġgive": 1852,
      "Ġanywhere": 1853,
      "ĠUr": 1854,
      "Ġwork": 1855,
      "Ġrun": 1856,
      "ĠSerpent": 1857,
      "Ġtrue": 1858,
      "Ġstrong": 1859,
      "jure": 1860,
      "sc": 1861,
      "Ġsun": 1862,
      "Ġpr": 1863,
      "Ġhome": 1864,
      "ĠAc": 1865,
      "ĠHis": 1866,
      "ĠProw": 1867,
      "Ġspirit": 1868,
      "pper": 1869,
      "usk": 1870,
      "Ġreveals": 1871,
      "Ġweap": 1872,
      "ĠOtherwise": 1873,
      "ĠNightmare": 1874,
      "cend": 1875,
      "under": 1876,
      "vish": 1877,
      "ying": 1878,
      "Ġclo": 1879,
      "Ġthese": 1880,
      "Ġyet": 1881,
      "Ġprotect": 1882,
      "alker": 1883,
      "aya": 1884,
      "Ġinvestig": 1885,
      "ĠEm": 1886,
      "Ġpeople": 1887,
      "side": 1888,
      "ward": 1889,
      "Ġtem": 1890,
      "ales": 1891,
      "ĠSur": 1892,
      "olt": 1893,
      "ants": 1894,
      "Ġupon": 1895,
      "ĠElder": 1896,
      "Ġcause": 1897,
      "not": 1898,
      "oze": 1899,
      "orp": 1900,
      "elves": 1901,
      "Ġem": 1902,
      "ĠEven": 1903,
      "rider": 1904,
      "ungus": 1905,
      "Ġphase": 1906,
      "Any": 1907,
      "ser": 1908,
      "Ġ9": 1909,
      "Ġes": 1910,
      "ĠCol": 1911,
      "Ġsold": 1912,
      "Ġfin": 1913,
      "Ġmount": 1914,
      "ury": 1915,
      "ĠRanger": 1916,
      "ĠLook": 1917,
      "adness": 1918,
      "Ġliving": 1919,
      "aga": 1920,
      "Ġbanding": 1921,
      "zz": 1922,
      "Ġcyc": 1923,
      "ĠWith": 1924,
      "rop": 1925,
      "Ġhist": 1926,
      "ĠDom": 1927,
      "Ġeas": 1928,
      "ether": 1929,
      "hop": 1930,
      "ĠYour": 1931,
      "Ġenerg": 1932,
      "ĠThose": 1933,
      "Ġnothing": 1934,
      "Ġground": 1935,
      "ĠMountain": 1936,
      "Ġnature": 1937,
      "Ġext": 1938,
      "enix": 1939,
      "Ġdef": 1940,
      "Ġdream": 1941,
      "Ġfar": 1942,
      "alk": 1943,
      "iles": 1944,
      "Ġhard": 1945,
      "Ġhuman": 1946,
      "ĠAk": 1947,
      "riest": 1948,
      "ĠBear": 1949,
      "hoenix": 1950,
      "Ġwhich": 1951,
      "ryad": 1952,
      "Ġrather": 1953,
      "Ġremain": 1954,
      "Ġ*<|": 1955,
      "Ġheart": 1956,
      "Ġactivated": 1957,
      "ĠCitizen": 1958,
      "As": 1959,
      "eer": 1960,
      "ends": 1961,
      "Ġsn": 1962,
      "Ġmet": 1963,
      "ĠSap": 1964,
      "ĠGra": 1965,
      "Ġshould": 1966,
      "Ġenchanted": 1967,
      "Ġflip": 1968,
      "ĠDrone": 1969,
      "Ġsingle": 1970,
      "master": 1971,
      "Ġsince": 1972,
      "Ġwild": 1973,
      "Ġbec": 1974,
      "Ġecho": 1975,
      "ĠRes": 1976,
      "ĠLet": 1977,
      "ĠGreat": 1978,
      "ĠKeep": 1979,
      "inder": 1980,
      "Ġcommander": 1981,
      "ĠCycling": 1982,
      "guise": 1983,
      "eak": 1984,
      "ira": 1985,
      "ense": 1986,
      "Ġcur": 1987,
      "ony": 1988,
      "Ġbro": 1989,
      "ots": 1990,
      "Ġsusp": 1991,
      "Ġwind": 1992,
      "roc": 1993,
      "Ġmade": 1994,
      "Ġeat": 1995,
      "ĠBarb": 1996,
      "ĠGre": 1997,
      "ĠNec": 1998,
      "ousand": 1999,
      "They": 2000,
      "ĠGuardian": 2001,
      "Ġinvestigate": 2002,
      "du": 2003,
      "ech": 2004,
      "oice": 2005,
      "selves": 2006,
      "iti": 2007,
      "tless": 2008,
      "Ġwell": 2009,
      "Ġhope": 2010,
      "ical": 2011,
      "Ġcons": 2012,
      "ĠGarg": 2013,
      "Ġplace": 2014,
      "ĠOoze": 2015,
      "Ġshield": 2016,
      "Ġremoved": 2017,
      "Ġseek": 2018,
      "Ġthought": 2019,
      "ething": 2020,
      "Put": 2021,
      "aired": 2022,
      "Ġcru": 2023,
      "alad": 2024,
      "eful": 2025,
      "ĠHalf": 2026,
      "olves": 2027,
      "Ġstart": 2028,
      "ĠRebel": 2029,
      "aze": 2030,
      "ground": 2031,
      "de": 2032,
      "vers": 2033,
      "resh": 2034,
      "ĠWild": 2035,
      "ayer": 2036,
      "ĠFungus": 2037,
      "ĠPhoenix": 2038,
      "Ġren": 2039,
      "ĠKra": 2040,
      "hino": 2041,
      "Ġresult": 2042,
      "na": 2043,
      "onor": 2044,
      "ics": 2045,
      "ĠFear": 2046,
      "ĠRav": 2047,
      "Ġdec": 2048,
      "ives": 2049,
      "Ġcomes": 2050,
      "Ġbring": 2051,
      "ĠNinja": 2052,
      "Ġopen": 2053,
      "inel": 2054,
      "Ġfeed": 2055,
      "Ġpur": 2056,
      "ĠDon": 2057,
      "ĠDryad": 2058,
      "ĠLeg": 2059,
      "right": 2060,
      "aller": 2061,
      "Ġtwice": 2062,
      "ib": 2063,
      "Ġthing": 2064,
      "Ġothers": 2065,
      "Ġset": 2066,
      "ayers": 2067,
      "Ġrep": 2068,
      "Ġgraveyards": 2069,
      "ular": 2070,
      "Ġflesh": 2071,
      "To": 2072,
      "aim": 2073,
      "cess": 2074,
      "iar": 2075,
      "ience": 2076,
      "lord": 2077,
      "self": 2078,
      "reed": 2079,
      "Ġten": 2080,
      "Ġhor": 2081,
      "ĠAur": 2082,
      "ica": 2083,
      "ĠOnly": 2084,
      "Ġshall": 2085,
      "Ġperfect": 2086,
      "Ġheal": 2087,
      "ĠPlains": 2088,
      "ĠOnce": 2089,
      "ĠClue": 2090,
      "Ġbelie": 2091,
      "Ġmutate": 2092,
      "Ġenergy": 2093,
      "Look": 2094,
      "aken": 2095,
      "fl": 2096,
      "ted": 2097,
      "ering": 2098,
      "Ġburn": 2099,
      "ought": 2100,
      "Ġmin": 2101,
      "ĠSnow": 2102,
      "ĠAg": 2103,
      "ĠBand": 2104,
      "acking": 2105,
      "Ġbless": 2106,
      "Ġsea": 2107,
      "owned": 2108,
      "Ġfeel": 2109,
      "ĠBarbarian": 2110,
      "back": 2111,
      "ek": 2112,
      "ana": 2113,
      "Ġdisc": 2114,
      "Ġuse": 2115,
      "rage": 2116,
      "Ġinc": 2117,
      "Ġbey": 2118,
      "ĠRhino": 2119,
      "bles": 2120,
      "ĠUnder": 2121,
      "ĠReveal": 2122,
      "ĠArmy": 2123,
      "lan": 2124,
      "ng": 2125,
      "su": 2126,
      "xic": 2127,
      "za": 2128,
      "amorph": 2129,
      "roling": 2130,
      "ural": 2131,
      "ĠInd": 2132,
      "ĠMoon": 2133,
      "ĠLight": 2134,
      "ĠGor": 2135,
      "lops": 2136,
      "imes": 2137,
      "Your": 2138,
      "Ġhands": 2139,
      "ĠSpect": 2140,
      "ĠInf": 2141,
      "Ġflash": 2142,
      "rime": 2143,
      "ĠBoar": 2144,
      "ues": 2145,
      "anc": 2146,
      "anking": 2147,
      "oward": 2148,
      "Ġsy": 2149,
      "Ġsuch": 2150,
      "Ġsaf": 2151,
      "ality": 2152,
      "ĠDisc": 2153,
      "key": 2154,
      "ĠNot": 2155,
      "Ġseen": 2156,
      "ĠAny": 2157,
      "aws": 2158,
      "Ġwarrior": 2159,
      "aught": 2160,
      "ephal": 2161,
      "app": 2162,
      "eath": 2163,
      "reath": 2164,
      "anion": 2165,
      "Ġwings": 2166,
      "Ġhide": 2167,
      "icorn": 2168,
      "Ġconjure": 2169,
      "ĠTheir": 2170,
      "Ġthemselves": 2171,
      "ouse": 2172,
      "Ġcolors": 2173,
      "ĠScaven": 2174,
      "ĠDevoid": 2175,
      "ĠStorm": 2176,
      "ĠExp": 2177,
      "Ġmean": 2178,
      "eneral": 2179,
      "ready": 2180,
      "Ġphas": 2181,
      "Ġsomething": 2182,
      "ma": 2183,
      "ple": 2184,
      "sw": 2185,
      "enge": 2186,
      "Ġold": 2187,
      "Ġyears": 2188,
      "acle": 2189,
      "Ġwait": 2190,
      "geon": 2191,
      "stone": 2192,
      "Ġpath": 2193,
      "ĠSy": 2194,
      "Ġhalf": 2195,
      "ĠDis": 2196,
      "idd": 2197,
      "blade": 2198,
      "Ġloy": 2199,
      "Ġaround": 2200,
      "Ġdraft": 2201,
      "ĠSaproling": 2202,
      "ae": 2203,
      "aunt": 2204,
      "cest": 2205,
      "Ġbig": 2206,
      "ĠCaptain": 2207,
      "ĠInt": 2208,
      "izes": 2209,
      "use": 2210,
      "une": 2211,
      "arec": 2212,
      "Ġalready": 2213,
      "Ġchild": 2214,
      "shaper": 2215,
      "warm": 2216,
      "Ġhistor": 2217,
      "bor": 2218,
      "dom": 2219,
      "Ġcare": 2220,
      "ames": 2221,
      "Ġbo": 2222,
      "ĠCount": 2223,
      "Ġsize": 2224,
      "Ġmove": 2225,
      "ĠTy": 2226,
      "veil": 2227,
      "Ġne": 2228,
      "irrel": 2229,
      "oly": 2230,
      "ĠEternal": 2231,
      "ĠBal": 2232,
      "ids": 2233,
      "etimes": 2234,
      "rus": 2235,
      "avor": 2236,
      "Ġblade": 2237,
      "ĠInc": 2238,
      "Ġroom": 2239,
      "Ġelse": 2240,
      "alty": 2241,
      "Ġacross": 2242,
      "Ġgoblins": 2243,
      "angeling": 2244,
      "ĠSentinel": 2245,
      "hopter": 2246,
      "Ġbeyond": 2247,
      "Create": 2248,
      "tell": 2249,
      "aring": 2250,
      "ows": 2251,
      "Ġdel": 2252,
      "rol": 2253,
      "Ġpat": 2254,
      "Ġmem": 2255,
      "Ġgiant": 2256,
      "Ġbeaut": 2257,
      "ĠMa": 2258,
      "ĠBen": 2259,
      "Ġref": 2260,
      "ades": 2261,
      "Ġstop": 2262,
      "ides": 2263,
      "unger": 2264,
      "Ġparty": 2265,
      "ĠGuild": 2266,
      "Ġmagic": 2267,
      "ĠBackground": 2268,
      "craft": 2269,
      "tra": 2270,
      "aries": 2271,
      "ĠCast": 2272,
      "âĢĶ<": 2273,
      "Ġancient": 2274,
      "ĠHexproof": 2275,
      "omad": 2276,
      "ĠPat": 2277,
      "Ġrec": 2278,
      "Ġdeck": 2279,
      "Ġdeep": 2280,
      "ady": 2281,
      "egamorph": 2282,
      "ĠSpend": 2283,
      "igure": 2284,
      "eman": 2285,
      "Ġequipped": 2286,
      "ĠJust": 2287,
      "Ġtravel": 2288,
      "Ġquick": 2289,
      "Ġpartner": 2290,
      "Ġimp": 2291,
      "work": 2292,
      "ĠGargoy": 2293,
      "Ġthousand": 2294,
      "Ġfamil": 2295,
      "Ġwr": 2296,
      "ĠWind": 2297,
      "Ġhold": 2298,
      "ĠTur": 2299,
      "ĠThopter": 2300,
      "ras": 2301,
      "ĠDu": 2302,
      "Ġentered": 2303,
      "ĠRen": 2304,
      "ĠGold": 2305,
      "Ġspecial": 2306,
      "arer": 2307,
      "Ġworth": 2308,
      "Ġquest": 2309,
      "Ġenemies": 2310,
      "arecrow": 2311,
      "hind": 2312,
      "Ġter": 2313,
      "itan": 2314,
      "Ġsound": 2315,
      "Ġdanger": 2316,
      "ele": 2317,
      "Ġmakes": 2318,
      "Ġlater": 2319,
      "ils": 2320,
      "ĠFox": 2321,
      "rier": 2322,
      "ĠGate": 2323,
      "ĠNy": 2324,
      "ĠShade": 2325,
      "Ġseem": 2326,
      "Ġsoon": 2327,
      "ĠRob": 2328,
      "Ġhistoric": 2329,
      "emanship": 2330,
      "ĠGargoyle": 2331,
      "ov": 2332,
      "Ġtouch": 2333,
      "Ġair": 2334,
      "Ġpast": 2335,
      "ily": 2336,
      "ĠFrog": 2337,
      "uture": 2338,
      "asc": 2339,
      "ĠEcho": 2340,
      "ĠRak": 2341,
      "ĠPe": 2342,
      "ĠPar": 2343,
      "eter": 2344,
      "ected": 2345,
      "Ġenchant": 2346,
      "ĠThese": 2347,
      "Ġdiscarded": 2348,
      "ĠChangeling": 2349,
      "ished": 2350,
      "Ġdestroyed": 2351,
      "ĠEnchanted": 2352,
      "atherlight": 2353,
      "Ġdays": 2354,
      ").": 2355,
      "mith": 2356,
      "rew": 2357,
      "Ġtell": 2358,
      "atyr": 2359,
      "arp": 2360,
      "ories": 2361,
      "aler": 2362,
      "rag": 2363,
      "Ġins": 2364,
      "leep": 2365,
      "Ġbeast": 2366,
      "ĠLo": 2367,
      "Ġputs": 2368,
      "Ġvot": 2369,
      "aval": 2370,
      "Ġchar": 2371,
      "Ġunb": 2372,
      "Ġredu": 2373,
      "Ġbetter": 2374,
      "aladin": 2375,
      "ĠHalfling": 2376,
      "Each": 2377,
      "ric": 2378,
      "vol": 2379,
      "Ġob": 2380,
      "ften": 2381,
      "Ġwall": 2382,
      "ĠWor": 2383,
      "els": 2384,
      "gether": 2385,
      "rix": 2386,
      "Ġcountered": 2387,
      "ĠKami": 2388,
      "ĠNe": 2389,
      "ires": 2390,
      "ĠScarecrow": 2391,
      "iple": 2392,
      "Ġarmy": 2393,
      "ĠSpells": 2394,
      "Ġenemy": 2395,
      "rocod": 2396,
      "sed": 2397,
      "eng": 2398,
      "Ġcry": 2399,
      "Ġoften": 2400,
      "ĠCrab": 2401,
      "Ġwater": 2402,
      "elt": 2403,
      "Ġpack": 2404,
      "ĠAm": 2405,
      "Ġearth": 2406,
      "ĠPil": 2407,
      "ĠGe": 2408,
      "ĠGru": 2409,
      "ĠKar": 2410,
      "ĠKing": 2411,
      "Ġexert": 2412,
      "rull": 2413,
      "rawler": 2414,
      "ĠZh": 2415,
      "ĠElves": 2416,
      "ĠThresh": 2417,
      "ption": 2418,
      "Ġsmall": 2419,
      "Ġcreates": 2420,
      "ĠRavn": 2421,
      "Human": 2422,
      "eker": 2423,
      "mit": 2424,
      "vant": 2425,
      "iner": 2426,
      "Ġsaw": 2427,
      "ori": 2428,
      "rod": 2429,
      "entor": 2430,
      "ĠDel": 2431,
      "ĠMet": 2432,
      "ĠBar": 2433,
      "Ġexist": 2434,
      "ĠOur": 2435,
      "odon": 2436,
      "Ġexcess": 2437,
      "ĠHorse": 2438,
      "ĠWhile": 2439,
      "ĠHerald": 2440,
      "ĠSpellshaper": 2441,
      "ĠCyclops": 2442,
      "Ġwords": 2443,
      "Ġsoldiers": 2444,
      "ĠCounter": 2445,
      "rocodile": 2446,
      "ĠThreshold": 2447,
      "Ar": 2448,
      "kers": 2449,
      "ring": 2450,
      "Ġz": 2451,
      "Ġtrans": 2452,
      "era": 2453,
      "ining": 2454,
      "Ġben": 2455,
      "ĠCor": 2456,
      "Ġsaid": 2457,
      "oros": 2458,
      "Ġfuture": 2459,
      "Ġmort": 2460,
      "Ġinsp": 2461,
      "Ġnear": 2462,
      "olog": 2463,
      "ĠRing": 2464,
      "ĠMind": 2465,
      "rib": 2466,
      "ĠBat": 2467,
      "Ġcannot": 2468,
      "ety": 2469,
      "Ġcoin": 2470,
      "iving": 2471,
      "ĠDeep": 2472,
      "Ġjour": 2473,
      "ĠUnicorn": 2474,
      "Ġeye": 2475,
      "Ġtrees": 2476,
      "ĠComm": 2477,
      "ĠArcane": 2478,
      "ination": 2479,
      "Ġbreak": 2480,
      "ĠCar": 2481,
      "ĠCrocodile": 2482,
      "Ġdun": 2483,
      "Ġangel": 2484,
      "Ġmadness": 2485,
      "Ġleg": 2486,
      "Ġho": 2487,
      "Ġhonor": 2488,
      "ĠAug": 2489,
      "ĠFish": 2490,
      "Ġbehind": 2491,
      "ols": 2492,
      "ĠMentor": 2493,
      "Ġrel": 2494,
      "cher": 2495,
      "loom": 2496,
      "Ġspend": 2497,
      "Ġstud": 2498,
      "ket": 2499,
      "Ġlives": 2500,
      "ĠVe": 2501,
      "Ġvis": 2502,
      "erer": 2503,
      "Ġremem": 2504,
      "ĠSquirrel": 2505,
      "ĠMany": 2506,
      "Ġdarkness": 2507,
      "EL": 2508,
      "cul": 2509,
      "eel": 2510,
      "gan": 2511,
      "Ġcrime": 2512,
      "Ġsub": 2513,
      "Ġdri": 2514,
      "Ġfree": 2515,
      "Ġmo": 2516,
      "Ġmatter": 2517,
      "ĠAether": 2518,
      "ĠTime": 2519,
      "ĠDawn": 2520,
      "Ġwithin": 2521,
      "ĠRed": 2522,
      "het": 2523,
      "ĠPaladin": 2524,
      "ĠBro": 2525,
      "egas": 2526,
      "Ġcasting": 2527,
      "imic": 2528,
      "illed": 2529,
      "aving": 2530,
      "keeper": 2531,
      "Ġcollect": 2532,
      "Ġwasn": 2533,
      "rows": 2534,
      "Ġexper": 2535,
      "Ġtrig": 2536,
      "annel": 2537,
      "Ġcycle": 2538,
      "aj": 2539,
      "aos": 2540,
      "hic": 2541,
      "iend": 2542,
      "sided": 2543,
      "atic": 2544,
      "Ġcou": 2545,
      "Ġact": 2546,
      "amm": 2547,
      "ites": 2548,
      "Ġsim": 2549,
      "ĠWatch": 2550,
      "stic": 2551,
      "Ġmod": 2552,
      "ĠSatyr": 2553,
      "ĠAz": 2554,
      "ĠTrans": 2555,
      "ĠHom": 2556,
      "ĠIm": 2557,
      "ĠDusk": 2558,
      "ask": 2559,
      "ĠEf": 2560,
      "Ġstone": 2561,
      "Ġstorm": 2562,
      "Ġsticker": 2563,
      "ims": 2564,
      "ruit": 2565,
      "quis": 2566,
      "Ġshroud": 2567,
      "ages": 2568,
      "Ġeverything": 2569,
      "Ġmonarch": 2570,
      "Ġfights": 2571,
      "ĠLevel": 2572,
      "Ġgods": 2573,
      "ĠProwess": 2574,
      "Ġrenowned": 2575,
      "ĠTyran": 2576,
      "ault": 2577,
      "bers": 2578,
      "iath": 2579,
      "reaker": 2580,
      "Ġtry": 2581,
      "Ġbones": 2582,
      "ĠCephal": 2583,
      "Ġwhis": 2584,
      "Ġtogether": 2585,
      "Ġpaired": 2586,
      "Ġmark": 2587,
      "ĠSor": 2588,
      "urg": 2589,
      "ĠTem": 2590,
      "Ġgift": 2591,
      "rash": 2592,
      "ĠFrom": 2593,
      "Ġemer": 2594,
      "olored": 2595,
      "ĠNaga": 2596,
      "Ġvol": 2597,
      "ulk": 2598,
      "Ġlonger": 2599,
      "opy": 2600,
      "ĠChim": 2601,
      "ĠMonst": 2602,
      "ause": 2603,
      "Ġelves": 2604,
      "ride": 2605,
      "Ġknown": 2606,
      "ĠBattle": 2607,
      "Ġsecrets": 2608,
      "ĠLegion": 2609,
      "Ġbelieve": 2610,
      "egasus": 2611,
      "EV": 2612,
      "hold": 2613,
      "Ġ|": 2614,
      "erate": 2615,
      "Ġcr": 2616,
      "Ġbra": 2617,
      "Ġbreath": 2618,
      "Ġmult": 2619,
      "ĠApp": 2620,
      "ĠTer": 2621,
      "Ġund": 2622,
      "Ġgot": 2623,
      "rak": 2624,
      "ĠDark": 2625,
      "Ġinv": 2626,
      "Ġnec": 2627,
      "ĠMo": 2628,
      "ĠMist": 2629,
      "ĠLEV": 2630,
      "ĠBas": 2631,
      "Ġresp": 2632,
      "Ġdecl": 2633,
      "locked": 2634,
      "Ġexiles": 2635,
      "ĠOb": 2636,
      "ĠInst": 2637,
      "ĠAncient": 2638,
      "ĠSlivers": 2639,
      "enerated": 2640,
      "Ġcloud": 2641,
      "Ġknows": 2642,
      "Ġrage": 2643,
      "ĠMinion": 2644,
      "Ġlearned": 2645,
      "ĠKraken": 2646,
      "Ġphases": 2647,
      "ĠTurtle": 2648,
      "ĠRavnica": 2649,
      "ĠLEVEL": 2650,
      "An": 2651,
      "__": 2652,
      "co": 2653,
      "guard": 2654,
      "ject": 2655,
      "rath": 2656,
      "ual": 2657,
      "ret": 2658,
      "Ġtext": 2659,
      "Ġtoward": 2660,
      "ened": 2661,
      "Ġcor": 2662,
      "inity": 2663,
      "onin": 2664,
      "Ġborn": 2665,
      "Ġsent": 2666,
      "isk": 2667,
      "isher": 2668,
      "Ġfield": 2669,
      "Ġpain": 2670,
      "ĠSm": 2671,
      "ĠSav": 2672,
      "Ġlegend": 2673,
      "ĠTitan": 2674,
      "rap": 2675,
      "ĠHow": 2676,
      "ĠHost": 2677,
      "Ġcontrolled": 2678,
      "ĠFamil": 2679,
      "utsu": 2680,
      "asm": 2681,
      "head": 2682,
      "ĠPrim": 2683,
      "Ġask": 2684,
      "Ġlive": 2685,
      "ĠOut": 2686,
      "Ġabove": 2687,
      "Ġwhy": 2688,
      "ĠInsp": 2689,
      "ĠElvish": 2690,
      "ĠUnd": 2691,
      "Ġcreated": 2692,
      "ĠGhoul": 2693,
      "ĠSpecter": 2694,
      "Ġdungeon": 2695,
      "We": 2696,
      "ao": 2697,
      "bit": 2698,
      "cy": 2699,
      "cyc": 2700,
      "ki": 2701,
      "oke": 2702,
      "ern": 2703,
      "Ġaw": 2704,
      "arl": 2705,
      "ender": 2706,
      "owing": 2707,
      "Ġfier": 2708,
      "ĠDread": 2709,
      "ets": 2710,
      "rupt": 2711,
      "Ġking": 2712,
      "ĠInfect": 2713,
      "ague": 2714,
      "othing": 2715,
      "ĠFlame": 2716,
      "Ġprec": 2717,
      "Ġpred": 2718,
      "ront": 2719,
      "Ġglory": 2720,
      "Ġcarry": 2721,
      "rosity": 2722,
      "liferate": 2723,
      "borg": 2724,
      "Ġunblocked": 2725,
      "ders": 2726,
      "pose": 2727,
      "ris": 2728,
      "Ġge": 2729,
      "Ġbody": 2730,
      "ĠCaval": 2731,
      "Ġdu": 2732,
      "ĠWhy": 2733,
      "ĠSwarm": 2734,
      "Ġiniti": 2735,
      "Ġnor": 2736,
      "ĠRaven": 2737,
      "ĠMay": 2738,
      "ĠPriest": 2739,
      "ries": 2740,
      "ĠGol": 2741,
      "Ġspeak": 2742,
      "ĠOx": 2743,
      "ized": 2744,
      "Ġaren": 2745,
      "ments": 2746,
      "ĠThough": 2747,
      "ĠThrull": 2748,
      "Ġsteps": 2749,
      "ĠZombies": 2750,
      "aking": 2751,
      "Ġlove": 2752,
      "ounded": 2753,
      "ĠRats": 2754,
      "Ġcomple": 2755,
      "Ġfriends": 2756,
      "Ġloyalty": 2757,
      "ĠBenal": 2758,
      "Ġspecializes": 2759,
      "ĠTyranid": 2760,
      "ci": 2761,
      "ges": 2762,
      "utl": 2763,
      "ited": 2764,
      "Ġsure": 2765,
      "Ġdone": 2766,
      "Ġfle": 2767,
      "Ġwis": 2768,
      "eless": 2769,
      "elcom": 2770,
      "Ġmere": 2771,
      "ĠArt": 2772,
      "ĠTor": 2773,
      "Ġgold": 2774,
      "ĠFore": 2775,
      "ason": 2776,
      "Ġturns": 2777,
      "ĠEnt": 2778,
      "ches": 2779,
      "Ġdep": 2780,
      "iders": 2781,
      "idence": 2782,
      "ĠVol": 2783,
      "aging": 2784,
      "Ġreturned": 2785,
      "Ġlesser": 2786,
      "ĠScion": 2787,
      "Ġoutside": 2788,
      "ĠPlot": 2789,
      "plicate": 2790,
      "raction": 2791,
      "Ġregenerated": 2792,
      "ĠPhant": 2793,
      "ĠGnome": 2794,
      "Ġsurviv": 2795,
      "Ġbuild": 2796,
      "Ġforever": 2797,
      "ĠDisciple": 2798,
      "ĠFamiliar": 2799,
      "fire": 2800,
      "horn": 2801,
      "wing": 2802,
      "zan": 2803,
      "inct": 2804,
      "ĠCur": 2805,
      "owar": 2806,
      "Ġfell": 2807,
      "rost": 2808,
      "ĠSu": 2809,
      "ĠAff": 2810,
      "ĠHigh": 2811,
      "ĠDream": 2812,
      "ummon": 2813,
      "ĠRun": 2814,
      "ĠRiver": 2815,
      "Ġspore": 2816,
      "Ġvill": 2817,
      "Ġshow": 2818,
      "Ġtakes": 2819,
      "ĠDead": 2820,
      "Ġcommon": 2821,
      "igns": 2822,
      "ĠSea": 2823,
      "alted": 2824,
      "Ġsupp": 2825,
      "former": 2826,
      "Ġknew": 2827,
      "Ġtruth": 2828,
      "Ġexplores": 2829,
      "Ġsouls": 2830,
      "Ġdragons": 2831,
      "Ġweapons": 2832,
      "Ġescape": 2833,
      "Ġbecame": 2834,
      "lanowar": 2835,
      "culus": 2836,
      "ĠEfreet": 2837,
      "ĠCephalid": 2838,
      "ĠChimera": 2839,
      "Weatherlight": 2840,
      "cycling": 2841,
      "Choose": 2842,
      "cle": 2843,
      "ha": 2844,
      "hi": 2845,
      "oot": 2846,
      "pers": 2847,
      "ral": 2848,
      "scape": 2849,
      "Ġcent": 2850,
      "ani": 2851,
      "ĠCan": 2852,
      "Ġsqu": 2853,
      "Ġdestruct": 2854,
      "ĠWitch": 2855,
      "stand": 2856,
      "Ġmar": 2857,
      "ĠSage": 2858,
      "Ġhunger": 2859,
      "irt": 2860,
      "olar": 2861,
      "ĠEmb": 2862,
      "ada": 2863,
      "Ġspread": 2864,
      "ĠKam": 2865,
      "ĠSpy": 2866,
      "ills": 2867,
      "iege": 2868,
      "Ġshap": 2869,
      "ĠGoblins": 2870,
      "ĠPhyrexia": 2871,
      "ĠOrder": 2872,
      "Ġprodu": 2873,
      "Ġsurveil": 2874,
      "ĠCloud": 2875,
      "ledge": 2876,
      "Ġserve": 2877,
      "ĠNinjutsu": 2878,
      "Ġfaith": 2879,
      "ĠHunter": 2880,
      "ĠHeroic": 2881,
      "Ġweapon": 2882,
      "Ġpurpose": 2883,
      "ĠIndestructible": 2884,
      "cept": 2885,
      "ures": 2886,
      "itz": 2887,
      "Ġdire": 2888,
      "Ġwish": 2889,
      "ĠWhere": 2890,
      "Ġansw": 2891,
      "Ġtook": 2892,
      "Ġhar": 2893,
      "ific": 2894,
      "edge": 2895,
      "ĠAut": 2896,
      "Ġgener": 2897,
      "ices": 2898,
      "icolored": 2899,
      "omat": 2900,
      "ley": 2901,
      "irin": 2902,
      "umbl": 2903,
      "ĠMor": 2904,
      "ĠMult": 2905,
      "ĠLike": 2906,
      "romancer": 2907,
      "aps": 2908,
      "ĠNew": 2909,
      "ĠNomad": 2910,
      "ĠElite": 2911,
      "ĠThunder": 2912,
      "Ġchooses": 2913,
      "ĠArg": 2914,
      "ĠChannel": 2915,
      "otten": 2916,
      "ĠMystic": 2917,
      "Ġskies": 2918,
      "Ġpoint": 2919,
      "Ġdeadly": 2920,
      "ĠUrza": 2921,
      "Ġmetal": 2922,
      "Ġstarting": 2923,
      "Ġblessing": 2924,
      "Ġsymb": 2925,
      "ĠExplo": 2926,
      "Ġbeneath": 2927,
      "ĠMonstrosity": 2928,
      "cc": 2929,
      "kite": 2930,
      "the": 2931,
      "ately": 2932,
      "oup": 2933,
      "ĠCou": 2934,
      "Ġfury": 2935,
      "Ġpers": 2936,
      "ĠSire": 2937,
      "Ġline": 2938,
      "Ġhors": 2939,
      "eds": 2940,
      "ĠAp": 2941,
      "ĠTyr": 2942,
      "ĠRa": 2943,
      "ĠBush": 2944,
      "ader": 2945,
      "ĠOutl": 2946,
      "Ġvampire": 2947,
      "outh": 2948,
      "iance": 2949,
      "Ġowners": 2950,
      "iper": 2951,
      "ĠStone": 2952,
      "Ġflame": 2953,
      "gress": 2954,
      "ĠToxic": 2955,
      "Ġcompanion": 2956,
      "ĠGuide": 2957,
      "Ġteeth": 2958,
      "Ġevidence": 2959,
      "ĠComp": 2960,
      "Ġsteel": 2961,
      "Ġeasy": 2962,
      "ascade": 2963,
      "Re": 2964,
      "dos": 2965,
      "rin": 2966,
      "well": 2967,
      "ĠCy": 2968,
      "Ġdr": 2969,
      "ĠWay": 2970,
      "rov": 2971,
      "Ġmom": 2972,
      "alking": 2973,
      "ĠSal": 2974,
      "ĠTw": 2975,
      "icore": 2976,
      "Ġones": 2977,
      "ĠFall": 2978,
      "leg": 2979,
      "ution": 2980,
      "asant": 2981,
      "ĠRu": 2982,
      "ĠRapt": 2983,
      "ĠRaid": 2984,
      "heart": 2985,
      "ĠPegasus": 2986,
      "Ġreal": 2987,
      "acker": 2988,
      "ido": 2989,
      "Ġattackers": 2990,
      "imid": 2991,
      "Ġgained": 2992,
      "ĠShield": 2993,
      "unculus": 2994,
      "Ġkami": 2995,
      "ths": 2996,
      "Ġlevel": 2997,
      "Ġchange": 2998,
      "Ġunp": 2999,
      "Ġrock": 3000,
      "pts": 3001,
      "Ġclaim": 3002,
      "ertain": 3003,
      "ĠSquad": 3004,
      "Ġnatural": 3005,
      "Ġeffects": 3006,
      "ĠDesert": 3007,
      "Ġsurvive": 3008,
      "rentice": 3009,
      "oggart": 3010,
      "ĠDomin": 3011,
      "ĠDisguise": 3012,
      "Ġquickly": 3013,
      "ĠRakdos": 3014,
      "figure": 3015,
      "ipp": 3016,
      "Ġ.<|": 3017,
      "itt": 3018,
      "Ġbur": 3019,
      "Ġside": 3020,
      "Ġfun": 3021,
      "ĠWill": 3022,
      "ĠWood": 3023,
      "Ġharm": 3024,
      "iful": 3025,
      "edition": 3026,
      "ĠApe": 3027,
      "ĠTief": 3028,
      "Ġconn": 3029,
      "eldor": 3030,
      "umul": 3031,
      "ĠLi": 3032,
      "ĠLlanowar": 3033,
      "ĠPy": 3034,
      "ĠBest": 3035,
      "Ġforce": 3036,
      "Ġattacker": 3037,
      "ĠKeld": 3038,
      "hov": 3039,
      "ister": 3040,
      "Ġcopies": 3041,
      "ĠSkir": 3042,
      "Ġhero": 3043,
      "Ġarri": 3044,
      "ators": 3045,
      "ĠSeer": 3046,
      "ungle": 3047,
      "issary": 3048,
      "Ġdisguise": 3049,
      "ĠWarden": 3050,
      "ĠHellion": 3051,
      "Ġvictims": 3052,
      "Ġrepres": 3053,
      "Ġmeaning": 3054,
      "Ġdangerous": 3055,
      "Ġjournal": 3056,
      "ĠTiefling": 3057,
      "Ch": 3058,
      "can": 3059,
      "caller": 3060,
      "een": 3061,
      "iqu": 3062,
      "jeldor": 3063,
      "min": 3064,
      "Ġvery": 3065,
      "Ġsol": 3066,
      "Ġsadd": 3067,
      "ised": 3068,
      "ora": 3069,
      "Ġwood": 3070,
      "Ġposs": 3071,
      "ĠSom": 3072,
      "ĠSec": 3073,
      "rad": 3074,
      "ician": 3075,
      "ĠHag": 3076,
      "Ġconst": 3077,
      "asters": 3078,
      "ĠFer": 3079,
      "ĠPower": 3080,
      "ched": 3081,
      "rush": 3082,
      "ĠVeter": 3083,
      "ĠNat": 3084,
      "Ġship": 3085,
      "avim": 3086,
      "Ġenc": 3087,
      "ĠRecon": 3088,
      "ops": 3089,
      "ĠCons": 3090,
      "Ġflanking": 3091,
      "Ġgoad": 3092,
      "sper": 3093,
      "venture": 3094,
      "Ġrule": 3095,
      "ĠYavim": 3096,
      "ĠSwampwalk": 3097,
      "undred": 3098,
      "hemoth": 3099,
      "Ġclear": 3100,
      "Ġdreams": 3101,
      "Ġbeauty": 3102,
      "ĠVehic": 3103,
      "Ġwisdom": 3104,
      "umulative": 3105,
      "El": 3106,
      "eal": 3107,
      "gotten": 3108,
      "ka": 3109,
      "me": 3110,
      "uro": 3111,
      "val": 3112,
      "Ġve": 3113,
      "Ġcut": 3114,
      "anct": 3115,
      "owed": 3116,
      "acred": 3117,
      "Ġfood": 3118,
      "Ġwalk": 3119,
      "ĠWho": 3120,
      "ĠWhis": 3121,
      "Ġancest": 3122,
      "Ġpair": 3123,
      "Ġmain": 3124,
      "Ġmist": 3125,
      "ĠSusp": 3126,
      "ility": 3127,
      "ĠAst": 3128,
      "umm": 3129,
      "ĠEye": 3130,
      "ĠRad": 3131,
      "ĠMal": 3132,
      "ĠMant": 3133,
      "ĠMost": 3134,
      "ĠProt": 3135,
      "Ġplaces": 3136,
      "imir": 3137,
      "ĠKob": 3138,
      "ĠKjeldor": 3139,
      "Ġvoice": 3140,
      "isted": 3141,
      "unn": 3142,
      "ĠThief": 3143,
      "ĠUl": 3144,
      "ĠBee": 3145,
      "Ġrise": 3146,
      "ĠChar": 3147,
      "Ġmeans": 3148,
      "icks": 3149,
      "Ġscout": 3150,
      "range": 3151,
      "abal": 3152,
      "Ġproliferate": 3153,
      "ĠArchon": 3154,
      "ĠBlack": 3155,
      "ĠBlade": 3156,
      "ĠLife": 3157,
      "Ġteach": 3158,
      "Ġguild": 3159,
      "Ġserv": 3160,
      "Ġtreasure": 3161,
      "attered": 3162,
      "ĠSilver": 3163,
      "ĠAttraction": 3164,
      "ĠPerformer": 3165,
      "Ġspirits": 3166,
      "Ġchildren": 3167,
      "ĠRobot": 3168,
      "ĠVeteran": 3169,
      "ĠYavimaya": 3170,
      "ĠKobold": 3171,
      "Pl": 3172,
      "ging": 3173,
      "iet": 3174,
      "li": 3175,
      "ock": 3176,
      "rator": 3177,
      "Ġtree": 3178,
      "Ġcatch": 3179,
      "endik": 3180,
      "Ġsleep": 3181,
      "Ġdruid": 3182,
      "Ġfull": 3183,
      "Ġpot": 3184,
      "ĠSand": 3185,
      "enture": 3186,
      "ĠTe": 3187,
      "icious": 3188,
      "ĠHand": 3189,
      "ĠIron": 3190,
      "Ġbegan": 3191,
      "Ġeight": 3192,
      "asion": 3193,
      "Ġrealm": 3194,
      "Ġstay": 3195,
      "Ġstreet": 3196,
      "ueen": 3197,
      "ulate": 3198,
      "ĠZendik": 3199,
      "Ġwhose": 3200,
      "ĠConvoke": 3201,
      "awa": 3202,
      "ortun": 3203,
      "ĠAlien": 3204,
      "Ġsurf": 3205,
      "ĠSerra": 3206,
      "ĠLeech": 3207,
      "Ġdivide": 3208,
      "ĠGuildmage": 3209,
      "ĠHomunculus": 3210,
      "Ġsymbol": 3211,
      "..": 3212,
      "bound": 3213,
      "breaker": 3214,
      "fer": 3215,
      "ne": 3216,
      "two": 3217,
      "Ġ/": 3218,
      "Ġtreat": 3219,
      "Ġcold": 3220,
      "ank": 3221,
      "ĠCumulative": 3222,
      "Ġsong": 3223,
      "Ġsight": 3224,
      "aced": 3225,
      "gered": 3226,
      "alan": 3227,
      "Ġluck": 3228,
      "ĠTru": 3229,
      "ĠDef": 3230,
      "ĠFle": 3231,
      "irium": 3232,
      "ĠRamp": 3233,
      "Ġrequ": 3234,
      "Ġstun": 3235,
      "idar": 3236,
      "ĠVer": 3237,
      "ĠVal": 3238,
      "ĠNim": 3239,
      "ĠNothing": 3240,
      "ĠShroud": 3241,
      "Ġknight": 3242,
      "Ġdrawn": 3243,
      "ĠElk": 3244,
      "Ġreturns": 3245,
      "ĠScry": 3246,
      "ĠStr": 3247,
      "Ġjo": 3248,
      "Ġplaneswalkers": 3249,
      "Ġwarning": 3250,
      "ĠRoot": 3251,
      "Ġgroup": 3252,
      "Ġadv": 3253,
      "Ġkeeps": 3254,
      "Ġbestow": 3255,
      "ĠAttach": 3256,
      "ĠMarsh": 3257,
      "ounc": 3258,
      "ĠDomain": 3259,
      "Ġbecause": 3260,
      "ĠKeeper": 3261,
      "Ġwarriors": 3262,
      "Ġfamily": 3263,
      "elebr": 3264,
      "Ġbeasts": 3265,
      "ĠGruul": 3266,
      "Ġmulticolored": 3267,
      "Ġdeclared": 3268,
      "ĠSiren": 3269,
      "Ġhorsemanship": 3270,
      "ĠTyrant": 3271,
      "ĠRaptor": 3272,
      "ĠReconfigure": 3273,
      "cat": 3274,
      "down": 3275,
      "ms": 3276,
      "oh": 3277,
      "son": 3278,
      "tacking": 3279,
      "uv": 3280,
      "viv": 3281,
      "vok": 3282,
      "Ġir": 3283,
      "Ġtact": 3284,
      "Ġtied": 3285,
      "Ġcross": 3286,
      "Ġthreat": 3287,
      "ended": 3288,
      "Ġyoung": 3289,
      "Ġsign": 3290,
      "Ġwizard": 3291,
      "Ġwelcom": 3292,
      "rove": 3293,
      "Ġhorn": 3294,
      "Ġhost": 3295,
      "Ġhundred": 3296,
      "ĠAer": 3297,
      "ĠTal": 3298,
      "ĠHo": 3299,
      "ĠHear": 3300,
      "ĠRider": 3301,
      "ĠLore": 3302,
      "ĠPo": 3303,
      "ĠBog": 3304,
      "ĠBoros": 3305,
      "Ġready": 3306,
      "ĠGeneral": 3307,
      "ching": 3308,
      "Ġforces": 3309,
      "ained": 3310,
      "cerer": 3311,
      "ĠSpawn": 3312,
      "Ġvi": 3313,
      "uls": 3314,
      "ĠAnother": 3315,
      "anguard": 3316,
      "ĠJack": 3317,
      "ishing": 3318,
      "claw": 3319,
      "ĠLev": 3320,
      "ĠOrcs": 3321,
      "Ġadapt": 3322,
      "Ġtruly": 3323,
      "Ġshadows": 3324,
      "Attacking": 3325,
      "Ġevil": 3326,
      "orpion": 3327,
      "Ġbroken": 3328,
      "ĠAuras": 3329,
      "ĠGeist": 3330,
      "ĠDelirium": 3331,
      "Ġremember": 3332,
      "Ġdestruction": 3333,
      "ĠBushido": 3334,
      "ĠBestow": 3335,
      "Ġrepresents": 3336,
      "ĠZendikar": 3337,
      "10": 3338,
      "ee": 3339,
      "gar": 3340,
      "line": 3341,
      "most": 3342,
      "nce": 3343,
      "naut": 3344,
      "Ġterr": 3345,
      "Ġche": 3346,
      "Ġcour": 3347,
      "Ġthird": 3348,
      "Ġbad": 3349,
      "ĠCry": 3350,
      "ision": 3351,
      "acious": 3352,
      "Ġwake": 3353,
      "roach": 3354,
      "Ġmiss": 3355,
      "alcon": 3356,
      "ĠSel": 3357,
      "ĠSag": 3358,
      "ĠSadd": 3359,
      "uries": 3360,
      "ĠAmb": 3361,
      "uty": 3362,
      "Ġeager": 3363,
      "ased": 3364,
      "ĠPra": 3365,
      "ĠPack": 3366,
      "ĠBard": 3367,
      "Ġstrange": 3368,
      "egade": 3369,
      "immer": 3370,
      "riff": 3371,
      "run": 3372,
      "iven": 3373,
      "Ġshaman": 3374,
      "ĠStalker": 3375,
      "ĠDragons": 3376,
      "ĠJun": 3377,
      "Ġscream": 3378,
      "ĠWhite": 3379,
      "ĠRole": 3380,
      "Ġrare": 3381,
      "Ġele": 3382,
      "issa": 3383,
      "Ġteam": 3384,
      "ĠMutate": 3385,
      "Ġfollowing": 3386,
      "Ġfoot": 3387,
      "Ġfriend": 3388,
      "Ġcontin": 3389,
      "orpse": 3390,
      "ĠAgent": 3391,
      "Ġneither": 3392,
      "ĠPeasant": 3393,
      "Ġcharge": 3394,
      "imidate": 3395,
      "Ġsaddled": 3396,
      "ĠSuspend": 3397,
      "Players": 3398,
      "ĠLeviath": 3399,
      "eaker": 3400,
      "io": 3401,
      "va": 3402,
      "wh": 3403,
      "zhov": 3404,
      "Ġgh": 3405,
      "rest": 3406,
      "enom": 3407,
      "iny": 3408,
      "init": 3409,
      "aria": 3410,
      "acy": 3411,
      "stalker": 3412,
      "Ġmach": 3413,
      "urt": 3414,
      "Ġgone": 3415,
      "utter": 3416,
      "ĠEnd": 3417,
      "Ġtargeted": 3418,
      "ĠMur": 3419,
      "ĠPur": 3420,
      "rie": 3421,
      "chief": 3422,
      "adem": 3423,
      "kets": 3424,
      "ction": 3425,
      "ĠKal": 3426,
      "ĠKros": 3427,
      "bringer": 3428,
      "izz": 3429,
      "tooth": 3430,
      "ests": 3431,
      "black": 3432,
      "ĠBehemoth": 3433,
      "Ġcoming": 3434,
      "Ġrounded": 3435,
      "ĠExalted": 3436,
      "ounds": 3437,
      "angle": 3438,
      "ĠContra": 3439,
      "Ġshuffles": 3440,
      "ĠWeaver": 3441,
      "ĠOrzhov": 3442,
      "Ġenchantments": 3443,
      "Ġago": 3444,
      "Ġresearch": 3445,
      "ugger": 3446,
      "ĠIslandwalk": 3447,
      "Ġtrust": 3448,
      "Ġpeace": 3449,
      "ĠMirrod": 3450,
      "ĠAvenger": 3451,
      "idden": 3452,
      "Ġwalls": 3453,
      "Ġclouds": 3454,
      "Ġduplicate": 3455,
      "ĠRavenous": 3456,
      "Ġsurface": 3457,
      "ĠFleet": 3458,
      "ĠSaddle": 3459,
      "initely": 3460,
      "ĠMirrodin": 3461,
      "20": 3462,
      "Unt": 3463,
      "day": 3464,
      "gen": 3465,
      "ns": 3466,
      "tide": 3467,
      "Ġaff": 3468,
      "Ġthunder": 3469,
      "ammer": 3470,
      "ĠCap": 3471,
      "ĠCabal": 3472,
      "Ġsav": 3473,
      "Ġsummon": 3474,
      "iser": 3475,
      "actly": 3476,
      "Ġwurm": 3477,
      "roat": 3478,
      "Ġmegamorph": 3479,
      "ĠSimic": 3480,
      "Ġlaw": 3481,
      "ilisk": 3482,
      "Ġhit": 3483,
      "Ġhop": 3484,
      "Ġyourself": 3485,
      "ĠHal": 3486,
      "ĠFrost": 3487,
      "ĠEv": 3488,
      "hether": 3489,
      "ĠMem": 3490,
      "ĠProtect": 3491,
      "ribe": 3492,
      "ĠBel": 3493,
      "ĠBra": 3494,
      "ĠBald": 3495,
      "Ġdem": 3496,
      "aph": 3497,
      "iment": 3498,
      "Ġexactly": 3499,
      "ĠOl": 3500,
      "ĠOm": 3501,
      "ĠOver": 3502,
      "iest": 3503,
      "ĠVoice": 3504,
      "dden": 3505,
      "Ġnotes": 3506,
      "ĠKnights": 3507,
      "Ġways": 3508,
      "ĠHors": 3509,
      "ĠEngin": 3510,
      "ĠAdept": 3511,
      "Ġsurp": 3512,
      "Ġslow": 3513,
      "Ġfeet": 3514,
      "Ġhunter": 3515,
      "Ġguide": 3516,
      "Ġmutates": 3517,
      "Ġhigher": 3518,
      "world": 3519,
      "ĠHellkite": 3520,
      "Ġsometimes": 3521,
      "Ġshares": 3522,
      "errard": 3523,
      "Ġvictory": 3524,
      "Ġsilent": 3525,
      "Ġclose": 3526,
      "Ġtempts": 3527,
      "ĠGreen": 3528,
      "ĠBands": 3529,
      "aughter": 3530,
      "Ġwaiting": 3531,
      "olyte": 3532,
      "ĠApprentice": 3533,
      "omaton": 3534,
      "Reveal": 3535,
      "ĠJackal": 3536,
      "uggernaut": 3537,
      "Until": 3538,
      "bt": 3539,
      "dge": 3540,
      "gari": 3541,
      "han": 3542,
      "ned": 3543,
      "Ġeld": 3544,
      "enn": 3545,
      "ambl": 3546,
      "itu": 3547,
      "Ġbone": 3548,
      "ĠCrus": 3549,
      "ĠCopy": 3550,
      "Ġsuff": 3551,
      "Ġdice": 3552,
      "Ġfly": 3553,
      "Ġfade": 3554,
      "ĠWere": 3555,
      "Ġple": 3556,
      "Ġprom": 3557,
      "Ġmus": 3558,
      "alion": 3559,
      "Ġlar": 3560,
      "Ġlist": 3561,
      "urb": 3562,
      "urnace": 3563,
      "ĠFiend": 3564,
      "Ġemb": 3565,
      "asa": 3566,
      "ĠEmer": 3567,
      "ĠRaz": 3568,
      "ĠMe": 3569,
      "ĠMadness": 3570,
      "ĠMegamorph": 3571,
      "ĠLoy": 3572,
      "ĠPers": 3573,
      "rion": 3574,
      "rible": 3575,
      "iding": 3576,
      "ĠVanguard": 3577,
      "Ġventure": 3578,
      "thirst": 3579,
      "ĠThorn": 3580,
      "ĠUnl": 3581,
      "Ġnone": 3582,
      "Ġnonblack": 3583,
      "ĠScorpion": 3584,
      "Ġamass": 3585,
      "ĠStreet": 3586,
      "shift": 3587,
      "Ġherd": 3588,
      "Ġpres": 3589,
      "Ġarch": 3590,
      "Ġruins": 3591,
      "Ġdesign": 3592,
      "Ġhunting": 3593,
      "ĠQueen": 3594,
      "Ġcalled": 3595,
      "ĠSentry": 3596,
      "Ġsecret": 3597,
      "Ġleader": 3598,
      "Ġforetell": 3599,
      "ĠSurviv": 3600,
      "ĠColoss": 3601,
      "Ġhumans": 3602,
      "ĠGorgon": 3603,
      "ĠPatrol": 3604,
      "Ġtransform": 3605,
      "ĠAugment": 3606,
      "Ġtriggered": 3607,
      "ĠGolgari": 3608,
      "Ġmerely": 3609,
      "Ġvampires": 3610,
      "ĠSometimes": 3611,
      "ĠVehicle": 3612,
      "ĠLeviathan": 3613,
      "Artifact": 3614,
      "bond": 3615,
      "fish": 3616,
      "ty": 3617,
      "Ġou": 3618,
      "ena": 3619,
      "ently": 3620,
      "aming": 3621,
      "Ġbird": 3622,
      "Ġbright": 3623,
      "ĠCao": 3624,
      "Ġsave": 3625,
      "Ġden": 3626,
      "orrow": 3627,
      "Ġfer": 3628,
      "Ġfavor": 3629,
      "ĠWither": 3630,
      "Ġang": 3631,
      "ĠStro": 3632,
      "ĠSet": 3633,
      "Ġhapp": 3634,
      "Ġhaunt": 3635,
      "ĠAnt": 3636,
      "ĠHel": 3637,
      "Ġinn": 3638,
      "ĠFar": 3639,
      "Ġbear": 3640,
      "irl": 3641,
      "iration": 3642,
      "ĠRel": 3643,
      "ĠBu": 3644,
      "Ġcounts": 3645,
      "Ġendless": 3646,
      "Ġspec": 3647,
      "ellation": 3648,
      "Ġstar": 3649,
      "ckless": 3650,
      "Ġlies": 3651,
      "ĠSpr": 3652,
      "ects": 3653,
      "eret": 3654,
      "unning": 3655,
      "ourge": 3656,
      "ĠInn": 3657,
      "ĠIniti": 3658,
      "aren": 3659,
      "Ġalong": 3660,
      "ĠSteel": 3661,
      "ĠJuggernaut": 3662,
      "ype": 3663,
      "Ġgrew": 3664,
      "Ġroots": 3665,
      "Ġprep": 3666,
      "unter": 3667,
      "Ġweren": 3668,
      "Ġprov": 3669,
      "ĠConstellation": 3670,
      "Ġmilled": 3671,
      "Ġswamp": 3672,
      "Ġtrained": 3673,
      "ĠDwarven": 3674,
      "ocus": 3675,
      "Ġarms": 3676,
      "Ġcreations": 3677,
      "Ġmonsters": 3678,
      "Ġdifference": 3679,
      "axim": 3680,
      "Ġhighest": 3681,
      "Ġassigns": 3682,
      "ĠEmissary": 3683,
      "oltari": 3684,
      "Ġmountain": 3685,
      "ĠNecron": 3686,
      "Ġcrush": 3687,
      "ĠLightning": 3688,
      "Ġsafe": 3689,
      "Ġreduced": 3690,
      "Ġcourage": 3691,
      "ĠBenalish": 3692,
      "ĠEmbalm": 3693,
      "Ġcourse": 3694,
      "ĠSagas": 3695,
      "ĠContraption": 3696,
      ".'": 3697,
      "book": 3698,
      "basic": 3699,
      "dig": 3700,
      "oz": 3701,
      "oid": 3702,
      "rr": 3703,
      "ys": 3704,
      "yal": 3705,
      "Ġtaste": 3706,
      "Ġtown": 3707,
      "ening": 3708,
      "Ġcertain": 3709,
      "Ġap": 3710,
      "ina": 3711,
      "ament": 3712,
      "Ġsend": 3713,
      "amed": 3714,
      "Ġfoul": 3715,
      "ĠWorm": 3716,
      "ards": 3717,
      "Ġmaxim": 3718,
      "enty": 3719,
      "Ġhom": 3720,
      "Ġhung": 3721,
      "ifact": 3722,
      "ĠTower": 3723,
      "raith": 3724,
      "oms": 3725,
      "ĠDimir": 3726,
      "Ġinf": 3727,
      "astes": 3728,
      "olas": 3729,
      "ĠEvoke": 3730,
      "ĠRep": 3731,
      "ĠMod": 3732,
      "ĠLav": 3733,
      "ĠPr": 3734,
      "ĠPath": 3735,
      "ĠBurn": 3736,
      "ĠGar": 3737,
      "cholar": 3738,
      "ading": 3739,
      "ĠHumans": 3740,
      "Ġstir": 3741,
      "ctop": 3742,
      "ĠSpike": 3743,
      "odies": 3744,
      "igator": 3745,
      "Ġsharp": 3746,
      "ulpt": 3747,
      "thy": 3748,
      "Ġunderstand": 3749,
      "artifact": 3750,
      "Ġchaos": 3751,
      "wald": 3752,
      "ishra": 3753,
      "Ġweak": 3754,
      "ably": 3755,
      "Ġknowledge": 3756,
      "Ġlasts": 3757,
      "Ġarmor": 3758,
      "ĠDevour": 3759,
      "Ġbelow": 3760,
      "ĠHarvest": 3761,
      "ĠGrand": 3762,
      "Ġsteal": 3763,
      "ittering": 3764,
      "life": 3765,
      "Ġswords": 3766,
      "Ġprice": 3767,
      "ĠGrave": 3768,
      "Ġwilds": 3769,
      "ĠScavenge": 3770,
      "Ġworthy": 3771,
      "ĠWorld": 3772,
      "ĠMetal": 3773,
      "Ġzone": 3774,
      "ribute": 3775,
      "ĠCommander": 3776,
      "Ġmoment": 3777,
      "Ex": 3778,
      "bs": 3779,
      "da": 3780,
      "hunter": 3781,
      "rict": 3782,
      "van": 3783,
      "wolf": 3784,
      "Ġill": 3785,
      "Ġide": 3786,
      "reck": 3787,
      "eries": 3788,
      "aters": 3789,
      "Ġcaptain": 3790,
      "ured": 3791,
      "itory": 3792,
      "Ġfail": 3793,
      "elly": 3794,
      "Ġpar": 3795,
      "Ġpure": 3796,
      "Ġmage": 3797,
      "Ġmaking": 3798,
      "ilit": 3799,
      "ified": 3800,
      "efinitely": 3801,
      "Ġgave": 3802,
      "uten": 3803,
      "irth": 3804,
      "ume": 3805,
      "Ġemp": 3806,
      "asher": 3807,
      "ĠRig": 3808,
      "riad": 3809,
      "ĠBy": 3810,
      "change": 3811,
      "Ġspeed": 3812,
      "Ġstat": 3813,
      "Ġstru": 3814,
      "ĠOctop": 3815,
      "ights": 3816,
      "ĠSpl": 3817,
      "izier": 3818,
      "igawa": 3819,
      "Ġdoor": 3820,
      "ĠShiv": 3821,
      "ours": 3822,
      "Ġnonartifact": 3823,
      "tern": 3824,
      "ĠScar": 3825,
      "ĠRecl": 3826,
      "ĠStar": 3827,
      "Ġheav": 3828,
      "ĠFlanking": 3829,
      "Ġwhole": 3830,
      "ĠEnfor": 3831,
      "Ġindefinitely": 3832,
      "Ġswift": 3833,
      "ĠYet": 3834,
      "Ġtrib": 3835,
      "Ġresol": 3836,
      "Ġslivers": 3837,
      "ĠForests": 3838,
      "Ġhearts": 3839,
      "ĠGuest": 3840,
      "Ġfool": 3841,
      "Ġgrows": 3842,
      "Ġfewer": 3843,
      "ĠHarp": 3844,
      "Ġescap": 3845,
      "Ġeasily": 3846,
      "ĠMoonfolk": 3847,
      "ĠPilot": 3848,
      "orius": 3849,
      "Ġmortal": 3850,
      "Ġangels": 3851,
      "Ġlegendaries": 3852,
      "ĠCavalry": 3853,
      "ĠAffinity": 3854,
      "ĠKamigawa": 3855,
      "Ġadvance": 3856,
      "ĠProtector": 3857,
      "Artifacts": 3858,
      "ĠStrom": 3859,
      "Th": 3860,
      "aun": 3861,
      "gm": 3862,
      "ior": 3863,
      "ml": 3864,
      "sy": 3865,
      "tain": 3866,
      "uge": 3867,
      "wart": 3868,
      "Ġtro": 3869,
      "Ġcult": 3870,
      "Ġcapt": 3871,
      "Ġogre": 3872,
      "ona": 3873,
      "essig": 3874,
      "Ġsick": 3875,
      "Ġself": 3876,
      "Ġsail": 3877,
      "Ġsacred": 3878,
      "owers": 3879,
      "isa": 3880,
      "Ġdawn": 3881,
      "Ġflo": 3882,
      "Ġanim": 3883,
      "Ġtoxic": 3884,
      "Ġpet": 3885,
      "Ġmess": 3886,
      "Ġmasters": 3887,
      "ĠSanct": 3888,
      "Ġlot": 3889,
      "enth": 3890,
      "iling": 3891,
      "ĠTwo": 3892,
      "ĠTangle": 3893,
      "Ġgiven": 3894,
      "icid": 3895,
      "ĠHist": 3896,
      "ĠIzz": 3897,
      "Ġearn": 3898,
      "Ġeternal": 3899,
      "olver": 3900,
      "Ġentire": 3901,
      "ĠRi": 3902,
      "ĠMishra": 3903,
      "ĠBone": 3904,
      "ĠGho": 3905,
      "Ġforgotten": 3906,
      "loye": 3907,
      "herd": 3908,
      "Ġlie": 3909,
      "ĠVor": 3910,
      "ĠSpecial": 3911,
      "Ġanyone": 3912,
      "ivil": 3913,
      "Ġbegins": 3914,
      "Ġpowerful": 3915,
      "iana": 3916,
      "ĠAsh": 3917,
      "ĠAscend": 3918,
      "oka": 3919,
      "term": 3920,
      "ĠRev": 3921,
      "Ġheard": 3922,
      "angu": 3923,
      "orde": 3924,
      "Ġunf": 3925,
      "oster": 3926,
      "Ġjungle": 3927,
      "Ġrose": 3928,
      "ĠPlague": 3929,
      "atcher": 3930,
      "Ġskin": 3931,
      "Ġride": 3932,
      "renz": 3933,
      "ĠServant": 3934,
      "ĠBloodthirst": 3935,
      "authi": 3936,
      "weaver": 3937,
      "ĠIslands": 3938,
      "Ġdescend": 3939,
      "Ġtwisted": 3940,
      "ĠUrborg": 3941,
      "ĠAcolyte": 3942,
      "Ġextra": 3943,
      "Ġhorror": 3944,
      "ĠInfilt": 3945,
      "Ġflashback": 3946,
      "Ġpatrol": 3947,
      "Ġvotes": 3948,
      "Ġexerted": 3949,
      "ologist": 3950,
      "Ġstudy": 3951,
      "Ġexperience": 3952,
      "ĠImm": 3953,
      "Ġancestors": 3954,
      "ouncil": 3955,
      "uvian": 3956,
      "Ġterritory": 3957,
      "Ġoutl": 3958,
      "ĠOctopus": 3959,
      "ĠIzzet": 3960,
      "ĠGhost": 3961,
      "loyee": 3962,
      "*,": 3963,
      "Rather": 3964,
      "ba": 3965,
      "iok": 3966,
      "kn": 3967,
      "kir": 3968,
      "ni": 3969,
      "ney": 3970,
      "oph": 3971,
      "water": 3972,
      "Ġign": 3973,
      "Ġcomb": 3974,
      "Ġcraft": 3975,
      "Ġaven": 3976,
      "Ġocc": 3977,
      "iness": 3978,
      "tling": 3979,
      "ont": 3980,
      "Ġban": 3981,
      "Ġbran": 3982,
      "ĠCut": 3983,
      "ĠCall": 3984,
      "ĠCelebr": 3985,
      "oted": 3986,
      "ises": 3987,
      "ising": 3988,
      "Ġdance": 3989,
      "aceful": 3990,
      "Ġfelt": 3991,
      "Ġwhether": 3992,
      "ĠWell": 3993,
      "ĠWander": 3994,
      "geant": 3995,
      "Ġloss": 3996,
      "ede": 3997,
      "ĠTree": 3998,
      "Ġ12": 3999,
      "ĠHarb": 4000,
      "ĠDire": 4001,
      "lector": 4002,
      "utt": 4003,
      "iring": 4004,
      "andon": 4005,
      "ĠEnl": 4006,
      "ĠEver": 4007,
      "ĠRub": 4008,
      "ĠMark": 4009,
      "ĠLie": 4010,
      "ĠLead": 4011,
      "ĠBell": 4012,
      "ĠBefore": 4013,
      "ĠBatt": 4014,
      "Ġreally": 4015,
      "Ġfort": 4016,
      "ĠKessig": 4017,
      "ĠOj": 4018,
      "ĠOld": 4019,
      "ongue": 4020,
      "ĠNor": 4021,
      "Ġvan": 4022,
      "Ġshell": 4023,
      "Ġshort": 4024,
      "athom": 4025,
      "Ġabs": 4026,
      "ĠZeal": 4027,
      "Ġsees": 4028,
      "inding": 4029,
      "Ġnonbasic": 4030,
      "ĠAnim": 4031,
      "Ġrats": 4032,
      "shroud": 4033,
      "overe": 4034,
      "ĠPhyrexians": 4035,
      "walker": 4036,
      "ĠFlesh": 4037,
      "ĠVampires": 4038,
      "pty": 4039,
      "Ġused": 4040,
      "Ġrules": 4041,
      "ude": 4042,
      "clave": 4043,
      "Ġparts": 4044,
      "ĠForestwalk": 4045,
      "beast": 4046,
      "Ġneeds": 4047,
      "Ġsomeone": 4048,
      "Ġcompan": 4049,
      "Ġlightning": 4050,
      "ridge": 4051,
      "ĠSoulshift": 4052,
      "Ġminds": 4053,
      "ĠBackup": 4054,
      "Ġbuilt": 4055,
      "ĠEmployee": 4056,
      "ĠProwler": 4057,
      "Ġdefense": 4058,
      "Ġdisco": 4059,
      "ĠIncub": 4060,
      "ĠIncarn": 4061,
      "ĠSorcerer": 4062,
      "ĠBasilisk": 4063,
      "ĠCourier": 4064,
      "ĠRaider": 4065,
      "ĠCompanion": 4066,
      "ique": 4067,
      "ĠPowerstone": 4068,
      "Ġviol": 4069,
      "ĠLoyal": 4070,
      "utenant": 4071,
      "ĠInfiltrator": 4072,
      "TK": 4073,
      "aab": 4074,
      "bo": 4075,
      "bon": 4076,
      "bane": 4077,
      "cr": 4078,
      "cent": 4079,
      "cate": 4080,
      "chem": 4081,
      "haps": 4082,
      "knight": 4083,
      "oj": 4084,
      "pherd": 4085,
      "ray": 4086,
      "rum": 4087,
      "uel": 4088,
      "uber": 4089,
      "ym": 4090,
      "Ġke": 4091,
      "reep": 4092,
      "Ġtide": 4093,
      "Ġtales": 4094,
      "Ġcas": 4095,
      "ĠCal": 4096,
      "otype": 4097,
      "Ġsand": 4098,
      "Ġdest": 4099,
      "Ġfate": 4100,
      "Ġfill": 4101,
      "Ġfears": 4102,
      "ĠWraith": 4103,
      "Ġpie": 4104,
      "Ġmis": 4105,
      "Ġmouth": 4106,
      "aled": 4107,
      "alian": 4108,
      "ilos": 4109,
      "iliana": 4110,
      "Ġhive": 4111,
      "ifest": 4112,
      "edd": 4113,
      "ĠTher": 4114,
      "Ġgen": 4115,
      "Ġgriffin": 4116,
      "Ġgives": 4117,
      "ĠHouse": 4118,
      "ĠDar": 4119,
      "ĠDri": 4120,
      "ĠDrom": 4121,
      "ĠDash": 4122,
      "ĠDauthi": 4123,
      "ĠFew": 4124,
      "ĠForm": 4125,
      "let": 4126,
      "Ġevoke": 4127,
      "ĠEvol": 4128,
      "ĠRage": 4129,
      "ĠRab": 4130,
      "ĠLur": 4131,
      "ĠLost": 4132,
      "ĠBet": 4133,
      "Ġreb": 4134,
      "ĠGrim": 4135,
      "adian": 4136,
      "Ġstory": 4137,
      "ores": 4138,
      "omber": 4139,
      "ĠKill": 4140,
      "ĠNon": 4141,
      "ĠNever": 4142,
      "ector": 4143,
      "ĠShip": 4144,
      "Ġkicker": 4145,
      "Ġblades": 4146,
      "ĠAsp": 4147,
      "Ġnoble": 4148,
      "ĠScourge": 4149,
      "Ġran": 4150,
      "artes": 4151,
      "Ġalmost": 4152,
      "Ġflavor": 4153,
      "Ġprefer": 4154,
      "Ġlooked": 4155,
      "Ġcommit": 4156,
      "Ġexpress": 4157,
      "ĠMonkey": 4158,
      "rought": 4159,
      "Ġfighting": 4160,
      "ĠBlight": 4161,
      "Ġfeast": 4162,
      "Ġdeser": 4163,
      "Ġsaying": 4164,
      "ĠEquipped": 4165,
      "Ġsuc": 4166,
      "atters": 4167,
      "Ġexploits": 4168,
      "Ġfoes": 4169,
      "Ġmighty": 4170,
      "uphe": 4171,
      "ĠMagecraft": 4172,
      "Ġmountains": 4173,
      "Ġminotaur": 4174,
      "ĠScavenger": 4175,
      "engeance": 4176,
      "Ġbeautiful": 4177,
      "ĠNyx": 4178,
      "Ġvisit": 4179,
      "ĠAetherborn": 4180,
      "ĠBrood": 4181,
      "rupted": 4182,
      "ĠPhantom": 4183,
      "Ġunpaired": 4184,
      "ĠNature": 4185,
      "ĠAstartes": 4186,
      "ĠManticore": 4187,
      "Ġpotent": 4188,
      "ĠHeart": 4189,
      "ĠBalduvian": 4190,
      "ĠHorsemanship": 4191,
      "ĠInitiate": 4192,
      "ĠMetalcraft": 4193,
      "Exile": 4194,
      "ĠLieutenant": 4195,
      "ĠBattalion": 4196,
      "Activate": 4197,
      "St": 4198,
      "agh": 4199,
      "agin": 4200,
      "core": 4201,
      "iam": 4202,
      "ios": 4203,
      "rone": 4204,
      "wind": 4205,
      "ya": 4206,
      "yed": 4207,
      "zen": 4208,
      "ĠÃ": 4209,
      "Ġtal": 4210,
      "Ġtale": 4211,
      "Ġcrew": 4212,
      "aro": 4213,
      "amander": 4214,
      "ĠCult": 4215,
      "owstone": 4216,
      "isan": 4217,
      "Ġdash": 4218,
      "Ġdust": 4219,
      "Ġduty": 4220,
      "Ġfast": 4221,
      "ardu": 4222,
      "Ġprow": 4223,
      "Ġmatch": 4224,
      "ala": 4225,
      "alwart": 4226,
      "Ġlab": 4227,
      "urk": 4228,
      "ays": 4229,
      "ayed": 4230,
      "Ġ20": 4231,
      "ĠHa": 4232,
      "ĠHope": 4233,
      "Ġconf": 4234,
      "Ġnum": 4235,
      "ump": 4236,
      "andra": 4237,
      "olarian": 4238,
      "ĠEsper": 4239,
      "ĠMardu": 4240,
      "ĠLicid": 4241,
      "ĠPred": 4242,
      "rig": 4243,
      "ĠBoggart": 4244,
      "Ġrepl": 4245,
      "ĠGri": 4246,
      "ĠGain": 4247,
      "acks": 4248,
      "Ġforge": 4249,
      "Ġspark": 4250,
      "pping": 4251,
      "osing": 4252,
      "ĠSpark": 4253,
      "Ġvenom": 4254,
      "iger": 4255,
      "ulf": 4256,
      "Ġpowers": 4257,
      "Ġallies": 4258,
      "Ġens": 4259,
      "ĠThal": 4260,
      "hys": 4261,
      "ĠRec": 4262,
      "Ġalive": 4263,
      "ĠStrider": 4264,
      "ĠJund": 4265,
      "Ġmeal": 4266,
      "ĠWeird": 4267,
      "abit": 4268,
      "ĠOracle": 4269,
      "Ġwarm": 4270,
      "ĠHealer": 4271,
      "Ġclash": 4272,
      "Ġclaws": 4273,
      "rongh": 4274,
      "ĠForce": 4275,
      "Ġgrand": 4276,
      "ĠLeonin": 4277,
      "enses": 4278,
      "bearer": 4279,
      "finite": 4280,
      "Ġhunters": 4281,
      "Ġimagin": 4282,
      "pses": 4283,
      "ĠSoulbond": 4284,
      "ĠSilent": 4285,
      "Ġwonder": 4286,
      "Ġletter": 4287,
      "uko": 4288,
      "Ġclean": 4289,
      "Ġsoldier": 4290,
      "Ġfinal": 4291,
      "Ġsuspected": 4292,
      "Ġsafety": 4293,
      "Ġmemory": 4294,
      "Ġsimp": 4295,
      "Ġvolcan": 4296,
      "ĠUndying": 4297,
      "Ġcenturies": 4298,
      "ĠExploit": 4299,
      "ĠKeldon": 4300,
      "ĠPrototype": 4301,
      "Ġstreets": 4302,
      "Ġtactics": 4303,
      "ĠPersist": 4304,
      "Ġangry": 4305,
      "Ġmaximum": 4306,
      "overeign": 4307,
      "General": 4308,
      "aff": 4309,
      "city": 4310,
      "caster": 4311,
      "eash": 4312,
      "fang": 4313,
      "gers": 4314,
      "hil": 4315,
      "iac": 4316,
      "mo": 4317,
      "mir": 4318,
      "maw": 4319,
      "pered": 4320,
      "rise": 4321,
      "uous": 4322,
      "Ġice": 4323,
      "Ġtall": 4324,
      "eror": 4325,
      "Ġcap": 4326,
      "Ġavoid": 4327,
      "inner": 4328,
      "anged": 4329,
      "itness": 4330,
      "itting": 4331,
      "onic": 4332,
      "ĠCr": 4333,
      "ĠCer": 4334,
      "ĠCome": 4335,
      "Ġsho": 4336,
      "Ġsense": 4337,
      "ism": 4338,
      "Ġdinosaur": 4339,
      "Ġfur": 4340,
      "Ġfine": 4341,
      "Ġwield": 4342,
      "Ġwand": 4343,
      "ĠWu": 4344,
      "ĠWater": 4345,
      "Ġtoday": 4346,
      "Ġpir": 4347,
      "Ġpride": 4348,
      "Ġmass": 4349,
      "Ġhum": 4350,
      "edic": 4351,
      "vered": 4352,
      "omination": 4353,
      "ĠDuring": 4354,
      "Ġincl": 4355,
      "ĠFe": 4356,
      "ĠFang": 4357,
      "umi": 4358,
      "olly": 4359,
      "ĠEt": 4360,
      "ĠRam": 4361,
      "ĠRath": 4362,
      "ĠRip": 4363,
      "ĠLong": 4364,
      "ĠPit": 4365,
      "ĠBrawler": 4366,
      "Ġdeterm": 4367,
      "ident": 4368,
      "idnight": 4369,
      "Ġspellbook": 4370,
      "ĠOuphe": 4371,
      "ĠVod": 4372,
      "Ġdog": 4373,
      "ĠShambl": 4374,
      "ĠWarriors": 4375,
      "erest": 4376,
      "mane": 4377,
      "ourn": 4378,
      "ĠExt": 4379,
      "Ġchose": 4380,
      "angler": 4381,
      "ĠChaos": 4382,
      "ĠConclave": 4383,
      "rowth": 4384,
      "ĠSkull": 4385,
      "Ġworse": 4386,
      "Ġgoing": 4387,
      "ortal": 4388,
      "Ġridd": 4389,
      "ĠAdventure": 4390,
      "Ġeveryone": 4391,
      "ĠFaith": 4392,
      "Ġtraining": 4393,
      "ĠServo": 4394,
      "Ġjustice": 4395,
      "Ġgrant": 4396,
      "ĠSeeker": 4397,
      "Ġbelong": 4398,
      "ĠImper": 4399,
      "Ġappear": 4400,
      "Ġfallen": 4401,
      "Ġpasses": 4402,
      "ĠCoal": 4403,
      "ĠMagus": 4404,
      "Ġempty": 4405,
      "ĠUnderworld": 4406,
      "ĠSyl": 4407,
      "Ġwrong": 4408,
      "ĠDuel": 4409,
      "ĠCommand": 4410,
      "Ġmarks": 4411,
      "Ġrespect": 4412,
      "ĠInspired": 4413,
      "ĠRuin": 4414,
      "ĠDominaria": 4415,
      "ĠMarshal": 4416,
      "Ġwelcome": 4417,
      "ĠCrypt": 4418,
      "ĠColossus": 4419,
      "ĠEnforcer": 4420,
      "ĠYeti": 4421,
      "ronghold": 4422,
      "Ġsimply": 4423,
      "Ent": 4424,
      "break": 4425,
      "cing": 4426,
      "cast": 4427,
      "eem": 4428,
      "fort": 4429,
      "gl": 4430,
      "grim": 4431,
      "ls": 4432,
      "lers": 4433,
      "mph": 4434,
      "ram": 4435,
      "rine": 4436,
      "tail": 4437,
      "Ã»": 4438,
      "ery": 4439,
      "ateg": 4440,
      "Ġcaught": 4441,
      "ances": 4442,
      "Ġbite": 4443,
      "Ġbound": 4444,
      "Ġbreed": 4445,
      "Ġbodies": 4446,
      "ĠCascade": 4447,
      "ote": 4448,
      "orious": 4449,
      "Ġwear": 4450,
      "elest": 4451,
      "strike": 4452,
      "Ġtold": 4453,
      "ĠSig": 4454,
      "ĠSoltari": 4455,
      "ĠScholar": 4456,
      "ĠSovereign": 4457,
      "iler": 4458,
      "ĠTro": 4459,
      "ĠTim": 4460,
      "ĠHollow": 4461,
      "ĠHipp": 4462,
      "Ġinter": 4463,
      "irc": 4464,
      "umb": 4465,
      "umgar": 4466,
      "Ġears": 4467,
      "asing": 4468,
      "ĠRid": 4469,
      "ĠMast": 4470,
      "ĠMelet": 4471,
      "ĠLion": 4472,
      "ĠLaw": 4473,
      "ĠLiving": 4474,
      "ried": 4475,
      "ĠBur": 4476,
      "ĠGae": 4477,
      "Ġspl": 4478,
      "antuko": 4479,
      "lockwork": 4480,
      "ĠKy": 4481,
      "ĠVan": 4482,
      "Ġvast": 4483,
      "emere": 4484,
      "ĠShu": 4485,
      "athers": 4486,
      "ĠGoat": 4487,
      "Ġabandon": 4488,
      "ĠInquis": 4489,
      "ĠThought": 4490,
      "agon": 4491,
      "ĠRevel": 4492,
      "ĠStalwart": 4493,
      "shot": 4494,
      "Ġheat": 4495,
      "ords": 4496,
      "order": 4497,
      "Ġflames": 4498,
      "Ġunsp": 4499,
      "ĠEnrage": 4500,
      "Ġarrows": 4501,
      "Ġlooks": 4502,
      "Ġriver": 4503,
      "ĠWhale": 4504,
      "Ġrad": 4505,
      "Ġraised": 4506,
      "Ġquite": 4507,
      "Ġgrace": 4508,
      "ĠOrcish": 4509,
      "ĠShepherd": 4510,
      "Ġsmash": 4511,
      "Ġimm": 4512,
      "itcher": 4513,
      "Ġsources": 4514,
      "Ġguess": 4515,
      "Ġforestwalk": 4516,
      "ĠAttend": 4517,
      "Ġdisturb": 4518,
      "Ġmerfolk": 4519,
      "ĠAuriok": 4520,
      "Ġbooster": 4521,
      "ĠEternalize": 4522,
      "ĠBaloth": 4523,
      "Ġgiants": 4524,
      "ĠRenegade": 4525,
      "ĠGolden": 4526,
      "Ġquestion": 4527,
      "Ġtrigger": 4528,
      "ĠAzorius": 4529,
      "Ġawaken": 4530,
      "ĠForetell": 4531,
      "ĠAutomaton": 4532,
      "Ġgenerations": 4533,
      "ĠOutlast": 4534,
      "ĠCharger": 4535,
      "Ġjoin": 4536,
      "ĠPraet": 4537,
      "Ġrarely": 4538,
      "ĠKrosan": 4539,
      "ĠSetess": 4540,
      "ĠModular": 4541,
      "Ġtribute": 4542,
      "ĠHarpy": 4543,
      "ĠIncubator": 4544,
      "Ġexpression": 4545,
      "Enter": 4546,
      "ĠGaea": 4547,
      "emeref": 4548,
      "Vec": 4549,
      "by": 4550,
      "but": 4551,
      "eous": 4552,
      "go": 4553,
      "iator": 4554,
      "oint": 4555,
      "rate": 4556,
      "wall": 4557,
      "ench": 4558,
      "Ġaether": 4559,
      "amer": 4560,
      "ĠChe": 4561,
      "ĠComb": 4562,
      "ĠCho": 4563,
      "Ġdou": 4564,
      "Ġdrop": 4565,
      "acyn": 4566,
      "Ġfish": 4567,
      "Ġfought": 4568,
      "Ġfigure": 4569,
      "Ġwander": 4570,
      "ĠWolves": 4571,
      "ĠWolver": 4572,
      "Ġpile": 4573,
      "Ġmor": 4574,
      "Ġmine": 4575,
      "alks": 4576,
      "ĠSar": 4577,
      "Ġlow": 4578,
      "ilder": 4579,
      "Ġhat": 4580,
      "Ġhur": 4581,
      "Ġhers": 4582,
      "ĠTin": 4583,
      "Ġ11": 4584,
      "ĠHorn": 4585,
      "ĠHaunt": 4586,
      "ĠIx": 4587,
      "omancer": 4588,
      "Ġinvent": 4589,
      "Ġnames": 4590,
      "ĠFalcon": 4591,
      "ĠFurnace": 4592,
      "olis": 4593,
      "ĠEid": 4594,
      "ĠEgg": 4595,
      "ĠEarth": 4596,
      "Ġentry": 4597,
      "ĠRot": 4598,
      "ĠBody": 4599,
      "ĠGen": 4600,
      "Ġash": 4601,
      "Ġsto": 4602,
      "Ġstri": 4603,
      "antry": 4604,
      "ĠKin": 4605,
      "ĠOh": 4606,
      "onger": 4607,
      "hok": 4608,
      "izon": 4609,
      "tog": 4610,
      "illa": 4611,
      "Ġvers": 4612,
      "Ġkor": 4613,
      "Ġblitz": 4614,
      "ĠSoldiers": 4615,
      "Ġinstinct": 4616,
      "ips": 4617,
      "Ġrich": 4618,
      "Ġweight": 4619,
      "ideon": 4620,
      "lessed": 4621,
      "ĠSkyc": 4622,
      "ĠSkaab": 4623,
      "awk": 4624,
      "iable": 4625,
      "ĠAdapt": 4626,
      "Ġexpedition": 4627,
      "Ġtrain": 4628,
      "ĠSeraph": 4629,
      "ĠBlitz": 4630,
      "Ġqueen": 4631,
      "Ġquiet": 4632,
      "Ġresist": 4633,
      "Ġdrakes": 4634,
      "Ġarmies": 4635,
      "ĠAvacyn": 4636,
      "Ġdesp": 4637,
      "augh": 4638,
      "ĠSkyshroud": 4639,
      "itsune": 4640,
      "Ġnightmare": 4641,
      "ĠMountains": 4642,
      "Ġsudden": 4643,
      "ĠProp": 4644,
      "Ġoffer": 4645,
      "ĠSilumgar": 4646,
      "ĠTracker": 4647,
      "Ġregular": 4648,
      "ĠMirror": 4649,
      "ĠAbzan": 4650,
      "Ġwinter": 4651,
      "ĠEmpire": 4652,
      "force": 4653,
      "Ġdefe": 4654,
      "ĠIntimidate": 4655,
      "ĠNeuro": 4656,
      "ĠZhalf": 4657,
      "Ġlegs": 4658,
      "ĠTransform": 4659,
      "Ġwhispers": 4660,
      "ĠOutrider": 4661,
      "Ġpredators": 4662,
      "Ġinitiative": 4663,
      "ĠArgoth": 4664,
      "Ġperson": 4665,
      "ĠSalamander": 4666,
      "ĠConsulate": 4667,
      "Ġelder": 4668,
      "ĠWerewolf": 4669,
      "Ġferoc": 4670,
      "chemist": 4671,
      "ĠNeurok": 4672,
      "AN": 4673,
      "Ph": 4674,
      "Sc": 4675,
      "bly": 4676,
      "gest": 4677,
      "hide": 4678,
      "hort": 4679,
      "pur": 4680,
      "ters": 4681,
      "ux": 4682,
      "ught": 4683,
      "vy": 4684,
      "wolves": 4685,
      "xe": 4686,
      "yl": 4687,
      "Ġtest": 4688,
      "Ġtroll": 4689,
      "eri": 4690,
      "ata": 4691,
      "Ġcascade": 4692,
      "Ġcivil": 4693,
      "esa": 4694,
      "anos": 4695,
      "Ġbal": 4696,
      "Ġbirth": 4697,
      "ĠCity": 4698,
      "ĠCinder": 4699,
      "ĠCouncil": 4700,
      "isi": 4701,
      "Ġdwell": 4702,
      "Ġfil": 4703,
      "Ġfact": 4704,
      "Ġfolk": 4705,
      "Ġfaces": 4706,
      "Ġwing": 4707,
      "Ġwond": 4708,
      "stem": 4709,
      "storm": 4710,
      "Ġpri": 4711,
      "Ġpick": 4712,
      "Ġpract": 4713,
      "Ġpriest": 4714,
      "Ġhate": 4715,
      "nth": 4716,
      "ĠTel": 4717,
      "ĠTri": 4718,
      "eferi": 4719,
      "rax": 4720,
      "rafter": 4721,
      "ĠHob": 4722,
      "ĠDen": 4723,
      "ĠDist": 4724,
      "Ġinfect": 4725,
      "Ġinside": 4726,
      "ĠFan": 4727,
      "lease": 4728,
      "utai": 4729,
      "umn": 4730,
      "asp": 4731,
      "aser": 4732,
      "ĠRim": 4733,
      "ĠMore": 4734,
      "ĠMill": 4735,
      "ĠLox": 4736,
      "ĠPain": 4737,
      "ĠPet": 4738,
      "ĠBant": 4739,
      "Ġreward": 4740,
      "chie": 4741,
      "Ġforget": 4742,
      "ads": 4743,
      "Ġspect": 4744,
      "Ġstom": 4745,
      "Ġstick": 4746,
      "Ġputting": 4747,
      "ĠKirin": 4748,
      "Ġexamp": 4749,
      "ĠOw": 4750,
      "Ġmanifest": 4751,
      "brand": 4752,
      "Ġvengeance": 4753,
      "ivien": 4754,
      "alli": 4755,
      "ĠWizards": 4756,
      "Ġkin": 4757,
      "Ġkithkin": 4758,
      "ĠZuber": 4759,
      "throat": 4760,
      "ĠInk": 4761,
      "ĠThass": 4762,
      "ĠThrab": 4763,
      "Ġtaking": 4764,
      "ĠAncest": 4765,
      "ĠReaper": 4766,
      "Ġwouldn": 4767,
      "aked": 4768,
      "overed": 4769,
      "ĠJelly": 4770,
      "Ġwilling": 4771,
      "Ġmyr": 4772,
      "Ġflight": 4773,
      "Ġroar": 4774,
      "Ġgoes": 4775,
      "speaker": 4776,
      "ĠAlab": 4777,
      "ĠPlayers": 4778,
      "azing": 4779,
      "Ġskull": 4780,
      "voker": 4781,
      "ĠMonster": 4782,
      "ĠRock": 4783,
      "udge": 4784,
      "Ġformer": 4785,
      "Ġelvish": 4786,
      "fully": 4787,
      "ĠPirates": 4788,
      "ĠAssem": 4789,
      "ĠSee": 4790,
      "Ġhimself": 4791,
      "Ġbrings": 4792,
      "Ġsays": 4793,
      "Ġtwenty": 4794,
      "Ġaccept": 4795,
      "ĠProdig": 4796,
      "Ġfollows": 4797,
      "Ġfires": 4798,
      "Ġmages": 4799,
      "ĠDesp": 4800,
      "ĠAbomination": 4801,
      "ĠEmber": 4802,
      "olten": 4803,
      "ĠCollector": 4804,
      "Ġcurrent": 4805,
      "Ġwinds": 4806,
      "ĠGreml": 4807,
      "rasher": 4808,
      "ĠRenown": 4809,
      "ĠPhantasm": 4810,
      "Ġvillage": 4811,
      "Ġanswer": 4812,
      "ĠWhisper": 4813,
      "riffins": 4814,
      "ĠBurning": 4815,
      "ulptor": 4816,
      "ĠRigger": 4817,
      "Ġbranches": 4818,
      "ĠZealot": 4819,
      "Ġdiscover": 4820,
      "ĠIncarnation": 4821,
      "ĠEvolve": 4822,
      "ĠRecruit": 4823,
      "ĠDuelist": 4824,
      "ĠSigard": 4825,
      "ĠWolverine": 4826,
      "ĠThassa": 4827,
      "ĠThraben": 4828,
      "Al": 4829,
      "Captain": 4830,
      "Sh": 4831,
      "Target": 4832,
      "bow": 4833,
      "ca": 4834,
      "foot": 4835,
      "hir": 4836,
      "iod": 4837,
      "ius": 4838,
      "joy": 4839,
      "oves": 4840,
      "sl": 4841,
      "sion": 4842,
      "uat": 4843,
      "upp": 4844,
      "uld": 4845,
      "wurm": 4846,
      "zumi": 4847,
      "Ġer": 4848,
      "reci": 4849,
      "Ġtor": 4850,
      "Ġtask": 4851,
      "Ġtunn": 4852,
      "Ġcorpse": 4853,
      "Ġaut": 4854,
      "Ġawo": 4855,
      "esk": 4856,
      "esny": 4857,
      "ftain": 4858,
      "ama": 4859,
      "Ġbar": 4860,
      "Ġbri": 4861,
      "Ġbond": 4862,
      "ĠCle": 4863,
      "ĠCarn": 4864,
      "ĠCrawler": 4865,
      "oter": 4866,
      "isay": 4867,
      "Ġdwar": 4868,
      "orous": 4869,
      "Ġfang": 4870,
      "Ġfreed": 4871,
      "Ġfilled": 4872,
      "Ġfront": 4873,
      "Ġwaste": 4874,
      "Ġwise": 4875,
      "Ġwaves": 4876,
      "Ġwaters": 4877,
      "ĠWing": 4878,
      "Ġpun": 4879,
      "Ġmad": 4880,
      "Ġmoon": 4881,
      "aly": 4882,
      "ĠSim": 4883,
      "ĠSyr": 4884,
      "ĠSleep": 4885,
      "ĠSeng": 4886,
      "ĠSiege": 4887,
      "Ġlack": 4888,
      "Ġhaven": 4889,
      "ĠAh": 4890,
      "ĠTiger": 4891,
      "raid": 4892,
      "icken": 4893,
      "ĠHaven": 4894,
      "ĠHonor": 4895,
      "ĠHunger": 4896,
      "ĠIce": 4897,
      "Ġinh": 4898,
      "ĠFound": 4899,
      "irm": 4900,
      "Ġegg": 4901,
      "olon": 4902,
      "ĠRho": 4903,
      "ĠRoll": 4904,
      "ĠMach": 4905,
      "ĠLancer": 4906,
      "ĠBall": 4907,
      "ĠGer": 4908,
      "ĠGive": 4909,
      "ĠGrix": 4910,
      "Ġisland": 4911,
      "antu": 4912,
      "epar": 4913,
      "Ġgetting": 4914,
      "etic": 4915,
      "imate": 4916,
      "ĠKol": 4917,
      "ĠKher": 4918,
      "ĠOf": 4919,
      "ruk": 4920,
      "ĠVold": 4921,
      "brace": 4922,
      "oldred": 4923,
      "ieftain": 4924,
      "bled": 4925,
      "allid": 4926,
      "eren": 4927,
      "Ġnoted": 4928,
      "Ġtaught": 4929,
      "oney": 4930,
      "ipl": 4931,
      "ĠReckless": 4932,
      "ĠSte": 4933,
      "Ġchance": 4934,
      "seeker": 4935,
      "ĠSlug": 4936,
      "Ġmeasure": 4937,
      "ĠConjure": 4938,
      "Ġunatt": 4939,
      "Ġworry": 4940,
      "ĠWei": 4941,
      "ĠEncore": 4942,
      "untie": 4943,
      "Ġwhenever": 4944,
      "atchling": 4945,
      "Ġusing": 4946,
      "vocate": 4947,
      "Ġclan": 4948,
      "ĠFair": 4949,
      "ĠWalls": 4950,
      "Ġsacrificing": 4951,
      "ĠDoom": 4952,
      "ensity": 4953,
      "ĠAssist": 4954,
      "Ġphilos": 4955,
      "ĠNightstalker": 4956,
      "Ġsmell": 4957,
      "ika": 4958,
      "Ġacc": 4959,
      "Ġtech": 4960,
      "Ġappreci": 4961,
      "Ġcalls": 4962,
      "Ġintensity": 4963,
      "ĠDescend": 4964,
      "ĠCoven": 4965,
      "ĠCohort": 4966,
      "ĠButcher": 4967,
      "Ġkilled": 4968,
      "Ġdistance": 4969,
      "ĠArcbound": 4970,
      "Ġdivided": 4971,
      "Ġheads": 4972,
      "Ġsilence": 4973,
      "Ġartist": 4974,
      "Ġcloser": 4975,
      "Ġsuspect": 4976,
      "Ġconsists": 4977,
      "Ġbigger": 4978,
      "ĠNymph": 4979,
      "Ġseems": 4980,
      "Ġvote": 4981,
      "ĠPilgrim": 4982,
      "ĠAugur": 4983,
      "ĠWatcher": 4984,
      "ĠTransm": 4985,
      "Ġcompleted": 4986,
      "Ġflee": 4987,
      "Ġgolden": 4988,
      "Ġdepths": 4989,
      "Ġharvest": 4990,
      "ifications": 4991,
      "ĠExplorer": 4992,
      "ĠCyborg": 4993,
      "Ġconnives": 4994,
      "ĠKjeldoran": 4995,
      "ĠBeetle": 4996,
      "ĠSelesny": 4997,
      "ĠJunk": 4998,
      "Ġsummoning": 4999,
      "ĠRazor": 5000,
      "ĠSprite": 5001,
      "ĠSpecialize": 5002,
      "Ġhorrors": 5003,
      "ĠMarkov": 5004,
      "ĠLeader": 5005,
      "ĠVodalian": 5006,
      "ĠCoalition": 5007,
      "ĠPraetor": 5008,
      "ĠEidolon": 5009,
      "ANG": 5010,
      "ĠLoxodon": 5011,
      "Ġexample": 5012,
      "ĠZubera": 5013,
      "Targeting": 5014,
      "uatli": 5015,
      "ĠSengir": 5016,
      "ĠGrixis": 5017,
      "ĠVoldaren": 5018,
      "ĠSelesnya": 5019,
      "Clan": 5020,
      "During": 5021,
      "Ta": 5022,
      "eet": 5023,
      "growth": 5024,
      "ige": 5025,
      "kki": 5026,
      "ti": 5027,
      "tam": 5028,
      "vation": 5029,
      "zed": 5030,
      "Ġver": 5031,
      "Ġedge": 5032,
      "Ġtend": 5033,
      "Ġcat": 5034,
      "Ġcoun": 5035,
      "Ġodd": 5036,
      "inter": 5037,
      "anar": 5038,
      "antly": 5039,
      "endary": 5040,
      "itude": 5041,
      "tles": 5042,
      "Ġbol": 5043,
      "Ġbell": 5044,
      "Ġbus": 5045,
      "ĠClo": 5046,
      "ĠCru": 5047,
      "ĠCaller": 5048,
      "Ġsat": 5049,
      "Ġswarm": 5050,
      "Ġdim": 5051,
      "Ġdig": 5052,
      "Ġfruit": 5053,
      "Ġfuel": 5054,
      "Ġwave": 5055,
      "roan": 5056,
      "Ġtom": 5057,
      "Ġmilit": 5058,
      "ĠSub": 5059,
      "Ġlines": 5060,
      "ention": 5061,
      "iless": 5062,
      "Ġheld": 5063,
      "Ġhaving": 5064,
      "urch": 5065,
      "ĠTales": 5066,
      "ĠTaj": 5067,
      "Ġgn": 5068,
      "Ġgriffins": 5069,
      "ĠHound": 5070,
      "ĠHead": 5071,
      "ĠDep": 5072,
      "ĠDale": 5073,
      "asted": 5074,
      "ĠFort": 5075,
      "ircle": 5076,
      "umin": 5077,
      "ands": 5078,
      "anded": 5079,
      "anderer": 5080,
      "ĠEr": 5081,
      "ĠEscape": 5082,
      "heel": 5083,
      "ĠLor": 5084,
      "ounty": 5085,
      "rik": 5086,
      "ĠBad": 5087,
      "Ġdemon": 5088,
      "Ġstood": 5089,
      "Ġstories": 5090,
      "idian": 5091,
      "idable": 5092,
      "ĠOt": 5093,
      "ruits": 5094,
      "ĠVision": 5095,
      "ĠVoid": 5096,
      "hod": 5097,
      "ĠNaya": 5098,
      "igan": 5099,
      "ĠWarlord": 5100,
      "ivia": 5101,
      "blem": 5102,
      "therium": 5103,
      "uler": 5104,
      "ĠShark": 5105,
      "alls": 5106,
      "athar": 5107,
      "Ġengin": 5108,
      "Ġseed": 5109,
      "ĠInvoker": 5110,
      "ĠSpirits": 5111,
      "ĠBehold": 5112,
      "akos": 5113,
      "Ġchall": 5114,
      "opl": 5115,
      "ĠChain": 5116,
      "ĠChron": 5117,
      "others": 5118,
      "Ġmyth": 5119,
      "Ġmyself": 5120,
      "Ġjob": 5121,
      "Ġworks": 5122,
      "Ġroam": 5123,
      "ĠAngelic": 5124,
      "ĠMyriad": 5125,
      "azer": 5126,
      "Ġskill": 5127,
      "razen": 5128,
      "Ġclaw": 5129,
      "Ġthoughts": 5130,
      "claim": 5131,
      "ĠAlliance": 5132,
      "ĠYu": 5133,
      "Ġsliver": 5134,
      "Ġreaches": 5135,
      "arging": 5136,
      "Ġadm": 5137,
      "auder": 5138,
      "Ġoffering": 5139,
      "Ġapproach": 5140,
      "araoh": 5141,
      "ĠAttacking": 5142,
      "ĠMarauder": 5143,
      "Ġfoe": 5144,
      "Ġassem": 5145,
      "Ġevol": 5146,
      "belt": 5147,
      "Ġactivating": 5148,
      "Ġgrowth": 5149,
      "Ġprevented": 5150,
      "ĠDevils": 5151,
      "Ġdivinity": 5152,
      "Ġstrongest": 5153,
      "ĠAcadem": 5154,
      "Ġhistory": 5155,
      "ĠRestless": 5156,
      "Ġbrood": 5157,
      "ĠNecromancer": 5158,
      "verseer": 5159,
      "Ġhealing": 5160,
      "Ġincub": 5161,
      "Ġphased": 5162,
      "ĠInter": 5163,
      "Ġdelight": 5164,
      "Ġreflect": 5165,
      "Ġtravelers": 5166,
      "Ġimport": 5167,
      "Ġholds": 5168,
      "Ġemerge": 5169,
      "ĠInstant": 5170,
      "Ġcorpses": 5171,
      "Ġfierce": 5172,
      "Ġshape": 5173,
      "legendary": 5174,
      "Ġservice": 5175,
      "Ġtreated": 5176,
      "Ġrequires": 5177,
      "Ġknights": 5178,
      "ĠEngine": 5179,
      "Ġtransforms": 5180,
      "Ġbirds": 5181,
      "Ġhungry": 5182,
      "sych": 5183,
      "ĠCutthroat": 5184,
      "ĠHarbinger": 5185,
      "ĠRubble": 5186,
      "ĠOjutai": 5187,
      "ĠDromoka": 5188,
      "aghan": 5189,
      "ĠPredator": 5190,
      "moor": 5191,
      "ĠRiptide": 5192,
      "Ġriddle": 5193,
      "ĠInquisitor": 5194,
      "ĠAttendant": 5195,
      "ĠCombine": 5196,
      "ĠProdigy": 5197,
      "Ġawoke": 5198,
      "ĠGeralf": 5199,
      "ĠKolaghan": 5200,
      "Ġunattach": 5201,
      "Equ": 5202,
      "Gerrard": 5203,
      "Pay": 5204,
      "bur": 5205,
      "cutter": 5206,
      "den": 5207,
      "fast": 5208,
      "ko": 5209,
      "lave": 5210,
      "narch": 5211,
      "vin": 5212,
      "yll": 5213,
      "Ġramp": 5214,
      "Ġelf": 5215,
      "reg": 5216,
      "entless": 5217,
      "oum": 5218,
      "Ġcalm": 5219,
      "Ġaf": 5220,
      "Ġaid": 5221,
      "Ġartificer": 5222,
      "Ġahead": 5223,
      "inth": 5224,
      "ending": 5225,
      "itual": 5226,
      "onaut": 5227,
      "Ġbow": 5228,
      "Ġbug": 5229,
      "Ġboon": 5230,
      "Ġboggart": 5231,
      "Ġbrought": 5232,
      "ĠCave": 5233,
      "ĠCreep": 5234,
      "ĠCelest": 5235,
      "essian": 5236,
      "Ġsought": 5237,
      "Ġsepar": 5238,
      "Ġfal": 5239,
      "Ġfocus": 5240,
      "Ġwent": 5241,
      "Ġwolves": 5242,
      "Ġwalks": 5243,
      "ĠWanderer": 5244,
      "elter": 5245,
      "Ġanger": 5246,
      "Ġmen": 5247,
      "ĠSol": 5248,
      "Ġlate": 5249,
      "Ġlav": 5250,
      "Ġlaws": 5251,
      "Ġhon": 5252,
      "Ġhell": 5253,
      "urity": 5254,
      "ĠTact": 5255,
      "ĠTry": 5256,
      "ĠTolarian": 5257,
      "Ġgard": 5258,
      "Ġgather": 5259,
      "Ġyours": 5260,
      "Ġconqu": 5261,
      "ĠIg": 5262,
      "ĠDay": 5263,
      "Ġinfl": 5264,
      "attle": 5265,
      "ĠFri": 5266,
      "ĠFalken": 5267,
      "ĠFury": 5268,
      "Ġbeings": 5269,
      "Ġbears": 5270,
      "ĠRef": 5271,
      "ĠLady": 5272,
      "ĠBru": 5273,
      "ĠBolas": 5274,
      "ĠBlessed": 5275,
      "ĠBANG": 5276,
      "ĠBrazen": 5277,
      "Ġread": 5278,
      "Ġreality": 5279,
      "acher": 5280,
      "ĠGal": 5281,
      "Ġstra": 5282,
      "Ġsteed": 5283,
      "Ġstones": 5284,
      "Ġattem": 5285,
      "ĠKn": 5286,
      "ĠKen": 5287,
      "Ġexchange": 5288,
      "ĠOff": 5289,
      "Ġcover": 5290,
      "Ġopportun": 5291,
      "ĠVess": 5292,
      "ĠVir": 5293,
      "ĠVenge": 5294,
      "ĠVizier": 5295,
      "hoira": 5296,
      "thern": 5297,
      "emage": 5298,
      "ĠShrine": 5299,
      "avigator": 5300,
      "Ġenjoy": 5301,
      "ĠThousand": 5302,
      "ĠThallid": 5303,
      "ĠUp": 5304,
      "agg": 5305,
      "agger": 5306,
      "ĠDraft": 5307,
      "Ġnonlegendary": 5308,
      "Ġnote": 5309,
      "Ġtaken": 5310,
      "ĠScrap": 5311,
      "ĠBearer": 5312,
      "Ġamb": 5313,
      "Ġleaving": 5314,
      "Ġrot": 5315,
      "ĠChild": 5316,
      "ĠChandra": 5317,
      "ĠJo": 5318,
      "Ġuns": 5319,
      "assins": 5320,
      "Ġroot": 5321,
      "Ġpret": 5322,
      "Ġarrow": 5323,
      "Ġplane": 5324,
      "spass": 5325,
      "Ġlooking": 5326,
      "Ġseeking": 5327,
      "Ġseeks": 5328,
      "Ġprocess": 5329,
      "ĠWhip": 5330,
      "ĠForge": 5331,
      "ĠArchangel": 5332,
      "ĠRoc": 5333,
      "Ġforms": 5334,
      "ĠBlad": 5335,
      "bey": 5336,
      "perate": 5337,
      "Ġneeded": 5338,
      "Ata": 5339,
      "Ġrolled": 5340,
      "Ġpassed": 5341,
      "Ġassault": 5342,
      "ĠQuicks": 5343,
      "ĠBoast": 5344,
      "ahng": 5345,
      "ĠBrute": 5346,
      "iverse": 5347,
      "Ġwatches": 5348,
      "Ġfright": 5349,
      "uthless": 5350,
      "ĠMagic": 5351,
      "Ġstands": 5352,
      "itorial": 5353,
      "Ġmerchant": 5354,
      "ĠAcc": 5355,
      "ĠEmrak": 5356,
      "Ġembrace": 5357,
      "ĠMountainwalk": 5358,
      "ĠAkki": 5359,
      "ĠAkoum": 5360,
      "Ġcurse": 5361,
      "Ġsuspend": 5362,
      "Ġcruel": 5363,
      "Ġresults": 5364,
      "Ġfeeding": 5365,
      "Ġburns": 5366,
      "Ġblessed": 5367,
      "Ġdiscovered": 5368,
      "Ġincre": 5369,
      "Ġsystem": 5370,
      "Ġmemories": 5371,
      "Ġterror": 5372,
      "Ġterrible": 5373,
      "elee": 5374,
      "Ġmortals": 5375,
      "Ġsimple": 5376,
      "Ġmodified": 5377,
      "Ġstorms": 5378,
      "ĠTemur": 5379,
      "Ġcrack": 5380,
      "ĠInstead": 5381,
      "biter": 5382,
      "Ġkingdom": 5383,
      "Ġprecious": 5384,
      "ĠCavalier": 5385,
      "ĠBenalia": 5386,
      "umbled": 5387,
      "ĠFallen": 5388,
      "Ġrealized": 5389,
      "Ġrocks": 5390,
      "Ġmistake": 5391,
      "Ġdruids": 5392,
      "Ġelemental": 5393,
      "Ġmachines": 5394,
      "Ġsurpris": 5395,
      "ĠCrusader": 5396,
      "Ġinnoc": 5397,
      "ĠRecluse": 5398,
      "Ġescapes": 5399,
      "ĠHistory": 5400,
      "ĠRiot": 5401,
      "Ġdescended": 5402,
      "Ġcompanions": 5403,
      "Ġinclud": 5404,
      "ĠAncestor": 5405,
      "ĠGremlin": 5406,
      "Ġtechn": 5407,
      "Ġtomorrow": 5408,
      "ĠVisionary": 5409,
      "ĠAcademy": 5410,
      "Ġincubate": 5411,
      "Equipment": 5412,
      "ĠFalkenrath": 5413,
      "ahngarth": 5414,
      "ĠEmrakul": 5415,
      "Gh": 5416,
      "Mir": 5417,
      "Tail": 5418,
      "bb": 5419,
      "dog": 5420,
      "fess": 5421,
      "fiend": 5422,
      "gra": 5423,
      "jo": 5424,
      "lict": 5425,
      "ming": 5426,
      "mate": 5427,
      "mark": 5428,
      "no": 5429,
      "rill": 5430,
      "ration": 5431,
      "tered": 5432,
      "ued": 5433,
      "ware": 5434,
      "Ġing": 5435,
      "Ġil": 5436,
      "oured": 5437,
      "Ġcamp": 5438,
      "Ġartif": 5439,
      "Ġaim": 5440,
      "Ġthrow": 5441,
      "inal": 5442,
      "fts": 5443,
      "iter": 5444,
      "itation": 5445,
      "Ġbit": 5446,
      "Ġbog": 5447,
      "ĠCold": 5448,
      "Ġyear": 5449,
      "Ġsoft": 5450,
      "Ġdom": 5451,
      "orus": 5452,
      "Ġfather": 5453,
      "Ġfair": 5454,
      "Ġwo": 5455,
      "Ġwitch": 5456,
      "ĠWalker": 5457,
      "ingers": 5458,
      "ste": 5459,
      "steel": 5460,
      "Ġpen": 5461,
      "Ġpull": 5462,
      "Ġmiles": 5463,
      "alist": 5464,
      "ĠSa": 5465,
      "ĠSult": 5466,
      "Ġled": 5467,
      "Ġlord": 5468,
      "Ġlaugh": 5469,
      "ilver": 5470,
      "Ġhour": 5471,
      "Ġhair": 5472,
      "Ġhouse": 5473,
      "uri": 5474,
      "ife": 5475,
      "ifier": 5476,
      "edron": 5477,
      "ĠAuntie": 5478,
      "ĠTell": 5479,
      "ĠTenth": 5480,
      "Ġgarg": 5481,
      "ĠDran": 5482,
      "Ġinfinite": 5483,
      "ĠFel": 5484,
      "ĠField": 5485,
      "olen": 5486,
      "olute": 5487,
      "Ġorders": 5488,
      "ĠEdge": 5489,
      "ĠRaging": 5490,
      "heim": 5491,
      "ĠMeph": 5492,
      "ĠMogg": 5493,
      "ĠLich": 5494,
      "ĠLiliana": 5495,
      "ĠPest": 5496,
      "ĠGore": 5497,
      "Ġasp": 5498,
      "chs": 5499,
      "Ġforth": 5500,
      "log": 5501,
      "loss": 5502,
      "Ġspear": 5503,
      "Ġspring": 5504,
      "ellig": 5505,
      "Ġstars": 5506,
      "ĠOthers": 5507,
      "hood": 5508,
      "ĠNak": 5509,
      "ĠNorn": 5510,
      "ĠNull": 5511,
      "ĠNephal": 5512,
      "ĠNantuko": 5513,
      "Ġvie": 5514,
      "empl": 5515,
      "ians": 5516,
      "ĠGoad": 5517,
      "though": 5518,
      "Ġwhom": 5519,
      "Ġblind": 5520,
      "Ġowns": 5521,
      "ĠScient": 5522,
      "venant": 5523,
      "Ġleonin": 5524,
      "artyr": 5525,
      "pha": 5526,
      "seen": 5527,
      "angers": 5528,
      "ĠChrom": 5529,
      "ĠChief": 5530,
      "oths": 5531,
      "Ġmeet": 5532,
      "ickster": 5533,
      "ĠSkulk": 5534,
      "ondor": 5535,
      "Ġskills": 5536,
      "Ġusually": 5537,
      "Ġprop": 5538,
      "ĠHeav": 5539,
      "Ġruin": 5540,
      "Ġsurr": 5541,
      "Ġsurve": 5542,
      "rimson": 5543,
      "Ġtrapped": 5544,
      "Ġrain": 5545,
      "iffs": 5546,
      "oyf": 5547,
      "Ġadventure": 5548,
      "Ġdevour": 5549,
      "itched": 5550,
      "Ġtrick": 5551,
      "Ġdispl": 5552,
      "Ġafterlife": 5553,
      "Ġexplorer": 5554,
      "Ġpassion": 5555,
      "ĠGhira": 5556,
      "Ġdistribute": 5557,
      "ĠTruth": 5558,
      "ĠTrickster": 5559,
      "Ġleads": 5560,
      "Ġleaders": 5561,
      "ĠPerhaps": 5562,
      "ĠEmpires": 5563,
      "Ġstronger": 5564,
      "ĠLookout": 5565,
      "Ġgrounds": 5566,
      "cessor": 5567,
      "Ġburned": 5568,
      "ĠInfantry": 5569,
      "ancers": 5570,
      "ĠExpedition": 5571,
      "sworn": 5572,
      "Ġtouching": 5573,
      "ĠParagon": 5574,
      "ĠCorrupted": 5575,
      "Ġinspiration": 5576,
      "Ġhooves": 5577,
      "Ġmodifications": 5578,
      "ĠTemp": 5579,
      "ĠTerror": 5580,
      "Ġfiery": 5581,
      "Ġsupport": 5582,
      "ĠWayf": 5583,
      "Ġpossess": 5584,
      "Ġpossible": 5585,
      "Ġgoaded": 5586,
      "Elvish": 5587,
      "Ġveins": 5588,
      "Ġguilds": 5589,
      "ĠTrust": 5590,
      "Ġiron": 5591,
      "Ġghoul": 5592,
      "ĠMurasa": 5593,
      "ĠMemnarch": 5594,
      "ĠOmn": 5595,
      "Ġlarge": 5596,
      "ĠHarvester": 5597,
      "Ġtroops": 5598,
      "Ġsickness": 5599,
      "nihil": 5600,
      "Ġoccasion": 5601,
      "Ġdinosaurs": 5602,
      "ĠExtort": 5603,
      "ĠImperial": 5604,
      "Ġdoubt": 5605,
      "Ġherself": 5606,
      "Ġstomach": 5607,
      "ĠJellyfish": 5608,
      "eskai": 5609,
      "Ġfreedom": 5610,
      "ĠRhox": 5611,
      "Ġphilosop": 5612,
      "tamun": 5613,
      "ĠTactician": 5614,
      "ĠSultai": 5615,
      "ĠGhirapur": 5616,
      "19": 5617,
      "Le": 5618,
      "Sk": 5619,
      "Sp": 5620,
      "Sarp": 5621,
      "Ur": 5622,
      "bot": 5623,
      "bid": 5624,
      "body": 5625,
      "dent": 5626,
      "fist": 5627,
      "got": 5628,
      "hon": 5629,
      "ially": 5630,
      "lt": 5631,
      "mind": 5632,
      "sa": 5633,
      "sk": 5634,
      "smith": 5635,
      "ugg": 5636,
      "var": 5637,
      "wyn": 5638,
      "yss": 5639,
      "Ġtear": 5640,
      "erm": 5641,
      "enger": 5642,
      "ourer": 5643,
      "Ġcrow": 5644,
      "Ġcorn": 5645,
      "Ġoath": 5646,
      "incl": 5647,
      "ints": 5648,
      "inforce": 5649,
      "amog": 5650,
      "itive": 5651,
      "itable": 5652,
      "onian": 5653,
      "onder": 5654,
      "Ġble": 5655,
      "Ġbarg": 5656,
      "ĠCos": 5657,
      "ĠCog": 5658,
      "ĠCare": 5659,
      "ĠCorpse": 5660,
      "ĠClockwork": 5661,
      "Ġdue": 5662,
      "Ġdare": 5663,
      "acles": 5664,
      "orb": 5665,
      "orker": 5666,
      "Ġfrag": 5667,
      "Ġwins": 5668,
      "Ġwastes": 5669,
      "ĠWest": 5670,
      "ĠWire": 5671,
      "sto": 5672,
      "Ġpost": 5673,
      "Ġmot": 5674,
      "Ġmists": 5675,
      "ĠSure": 5676,
      "ĠSto": 5677,
      "ĠSaga": 5678,
      "Ġlangu": 5679,
      "Ġhot": 5680,
      "ĠAre": 5681,
      "ĠActiv": 5682,
      "ĠTom": 5683,
      "ĠTid": 5684,
      "Ġgle": 5685,
      "Ġgaze": 5686,
      "ĠHyp": 5687,
      "ĠHorde": 5688,
      "ĠHatchling": 5689,
      "Ġoni": 5690,
      "oma": 5691,
      "ĠDig": 5692,
      "Ġnet": 5693,
      "ĠFo": 5694,
      "ĠFree": 5695,
      "lea": 5696,
      "Ġevent": 5697,
      "Ġeats": 5698,
      "ĠRally": 5699,
      "ĠRiders": 5700,
      "ĠMother": 5701,
      "ĠMog": 5702,
      "ĠMite": 5703,
      "ĠMort": 5704,
      "ĠMoss": 5705,
      "ĠMara": 5706,
      "ĠLiege": 5707,
      "ĠPass": 5708,
      "ĠPride": 5709,
      "ĠBig": 5710,
      "ĠBane": 5711,
      "Ġrepe": 5712,
      "ĠGy": 5713,
      "ĠGix": 5714,
      "Ġspr": 5715,
      "Ġstack": 5716,
      "kem": 5717,
      "osition": 5718,
      "rtai": 5719,
      "idross": 5720,
      "Ġlimit": 5721,
      "ĠKh": 5722,
      "ĠKoz": 5723,
      "rifying": 5724,
      "ĠOverseer": 5725,
      "ĠVill": 5726,
      "ĠSpit": 5727,
      "ĠSpire": 5728,
      "ilek": 5729,
      "ization": 5730,
      "Ġvedalken": 5731,
      "usher": 5732,
      "Ġdoom": 5733,
      "Ġshift": 5734,
      "ireless": 5735,
      "ully": 5736,
      "bler": 5737,
      "bling": 5738,
      "Ġhasn": 5739,
      "ĠAtark": 5740,
      "avan": 5741,
      "avel": 5742,
      "avoc": 5743,
      "unch": 5744,
      "ĠSoldev": 5745,
      "ĠInv": 5746,
      "inders": 5747,
      "ĠThree": 5748,
      "Ġequip": 5749,
      "ĠScra": 5750,
      "Ġcompl": 5751,
      "ĠDec": 5752,
      "ĠDece": 5753,
      "ĠStand": 5754,
      "ĠStew": 5755,
      "ĠExc": 5756,
      "phoros": 5757,
      "ĠJeskai": 5758,
      "ishes": 5759,
      "ĠSlayer": 5760,
      "ewer": 5761,
      "Ġvalues": 5762,
      "ĠFlowstone": 5763,
      "Ġmeant": 5764,
      "ĠCondu": 5765,
      "linger": 5766,
      "Ġunn": 5767,
      "Ġscent": 5768,
      "Ġscrap": 5769,
      "Ġgolem": 5770,
      "ĠReturned": 5771,
      "ĠWeatherlight": 5772,
      "ĠEnchant": 5773,
      "onda": 5774,
      "otted": 5775,
      "azot": 5776,
      "Ġprogress": 5777,
      "Ġrid": 5778,
      "ĠFabr": 5779,
      "Ġknowing": 5780,
      "iously": 5781,
      "Ġpoet": 5782,
      "Ġraven": 5783,
      "ĠYaw": 5784,
      "ĠSwift": 5785,
      "ĠSergeant": 5786,
      "Ġresolves": 5787,
      "Ġelite": 5788,
      "ubborn": 5789,
      "ailing": 5790,
      "Ġdesert": 5791,
      "ĠSwamps": 5792,
      "Ġseconds": 5793,
      "Ġsuper": 5794,
      "Ġfollowed": 5795,
      "ĠLands": 5796,
      "Ġkinds": 5797,
      "Ġcarrion": 5798,
      "Ġforests": 5799,
      "avern": 5800,
      "ĠArmored": 5801,
      "ĠMana": 5802,
      "rabras": 5803,
      "Ġassign": 5804,
      "attering": 5805,
      "Ġwatched": 5806,
      "Ġfailed": 5807,
      "Ġdivine": 5808,
      "ĠEverything": 5809,
      "Ġfinest": 5810,
      "ĠAkroan": 5811,
      "Ġbroke": 5812,
      "Ġsuspended": 5813,
      "Ġeaten": 5814,
      "Ġdecided": 5815,
      "Ġfeeds": 5816,
      "Ġperfection": 5817,
      "Ġburning": 5818,
      "ĠGorger": 5819,
      "ancy": 5820,
      "Ġloyal": 5821,
      "Ġrefuge": 5822,
      "Ġreduces": 5823,
      "Ġinspire": 5824,
      "Ġjourney": 5825,
      "Ġtrying": 5826,
      "Ġfields": 5827,
      "ĠPrimal": 5828,
      "Ġpredator": 5829,
      "ĠGoliath": 5830,
      "Ġspeaks": 5831,
      "ĠSupp": 5832,
      "Ġanswers": 5833,
      "Ġharsh": 5834,
      "ĠCyber": 5835,
      "Ġdrink": 5836,
      "ĠRaiders": 5837,
      "itten": 5838,
      "ĠWillow": 5839,
      "Ġheroes": 5840,
      "ĠUlamog": 5841,
      "Ġservants": 5842,
      "Ġtreasures": 5843,
      "Ġlucky": 5844,
      "Ġhorns": 5845,
      "ĠPurphoros": 5846,
      "Ġhoping": 5847,
      "Ġmusic": 5848,
      "ĠUnleash": 5849,
      "Ġhomes": 5850,
      "ĠRepl": 5851,
      "ĠLava": 5852,
      "ĠShivan": 5853,
      "Ġresolved": 5854,
      "Ġfloor": 5855,
      "Ġmessage": 5856,
      "known": 5857,
      "ĠWandering": 5858,
      "ĠEnlist": 5859,
      "Ġsuccess": 5860,
      "Ġnumbers": 5861,
      "ĠThalakos": 5862,
      "Ã»l": 5863,
      "ĠMeletis": 5864,
      "ĠVanishing": 5865,
      "Pharaoh": 5866,
      "ĠAssembly": 5867,
      "Ġimportant": 5868,
      "ĠRubblebelt": 5869,
      "ĠVengeful": 5870,
      "ĠMephidross": 5871,
      "ĠNaktamun": 5872,
      "ĠNephalia": 5873,
      "ĠScientist": 5874,
      "Sarpadian": 5875,
      "Ġlanguage": 5876,
      "ĠActivated": 5877,
      "ĠMogis": 5878,
      "ĠKozilek": 5879,
      "ĠAtarka": 5880,
      "ĠSoldevi": 5881,
      "rabrask": 5882,
      "+*": 5883,
      "Bar": 5884,
      "Eye": 5885,
      "For": 5886,
      "II": 5887,
      "Or": 5888,
      "Tap": 5889,
      "Tales": 5890,
      "Worker": 5891,
      "blood": 5892,
      "bloom": 5893,
      "bably": 5894,
      "dition": 5895,
      "gor": 5896,
      "gald": 5897,
      "hip": 5898,
      "iad": 5899,
      "jack": 5900,
      "la": 5901,
      "oa": 5902,
      "oen": 5903,
      "pens": 5904,
      "ses": 5905,
      "tec": 5906,
      "vage": 5907,
      "vail": 5908,
      "yes": 5909,
      "Ġkey": 5910,
      "reb": 5911,
      "Ġtongue": 5912,
      "atl": 5913,
      "atog": 5914,
      "enna": 5915,
      "Ġcase": 5916,
      "Ġcreed": 5917,
      "Ġcries": 5918,
      "Ġachie": 5919,
      "Ġthri": 5920,
      "Ġthirst": 5921,
      "inc": 5922,
      "arika": 5923,
      "esis": 5924,
      "any": 5925,
      "ito": 5926,
      "Ġbare": 5927,
      "Ġbounty": 5928,
      "ĠCob": 5929,
      "Ġyes": 5930,
      "essary": 5931,
      "Ġsal": 5932,
      "isf": 5933,
      "isen": 5934,
      "Ġdying": 5935,
      "Ġfed": 5936,
      "Ġfet": 5937,
      "Ġfaster": 5938,
      "Ġwolf": 5939,
      "ĠWr": 5940,
      "ĠWalking": 5941,
      "ĠWitness": 5942,
      "elope": 5943,
      "ingu": 5944,
      "Ġphys": 5945,
      "Ġmal": 5946,
      "Ġmid": 5947,
      "ĠSomber": 5948,
      "Ġhidden": 5949,
      "urs": 5950,
      "uru": 5951,
      "ursed": 5952,
      "ĠAtog": 5953,
      "ĠTomb": 5954,
      "ĠTaken": 5955,
      "Ġ13": 5956,
      "Ġgiving": 5957,
      "icult": 5958,
      "ically": 5959,
      "ĠHex": 5960,
      "ĠHur": 5961,
      "ĠHaz": 5962,
      "ĠIch": 5963,
      "ĠIcat": 5964,
      "Ġnest": 5965,
      "Ġnomad": 5966,
      "ĠFight": 5967,
      "ĠFemeref": 5968,
      "leader": 5969,
      "utal": 5970,
      "Ġeating": 5971,
      "asons": 5972,
      "ĠRose": 5973,
      "ĠRust": 5974,
      "ĠMine": 5975,
      "ĠMidnight": 5976,
      "ĠPsych": 5977,
      "ĠBi": 5978,
      "Ġrevel": 5979,
      "Ġreason": 5980,
      "ĠGraft": 5981,
      "ĠGloom": 5982,
      "ĠGondor": 5983,
      "Ġaside": 5984,
      "Ġdet": 5985,
      "Ġdece": 5986,
      "adi": 5987,
      "Ġsproc": 5988,
      "Ġstuff": 5989,
      "Ġstench": 5990,
      "osed": 5991,
      "ctic": 5992,
      "antern": 5993,
      "eturn": 5994,
      "Ġliz": 5995,
      "Ġlived": 5996,
      "ĠKnow": 5997,
      "ĠOak": 5998,
      "Ġcool": 5999,
      "ĠVault": 6000,
      "izens": 6001,
      "used": 6002,
      "igree": 6003,
      "ester": 6004,
      "ived": 6005,
      "ĠYoung": 6006,
      "Ġperil": 6007,
      "istrad": 6008,
      "Ġkavu": 6009,
      "Ġseason": 6010,
      "ĠThrough": 6011,
      "ĠUk": 6012,
      "agers": 6013,
      "reeching": 6014,
      "Ġtail": 6015,
      "hered": 6016,
      "hyr": 6017,
      "ĠScor": 6018,
      "ĠSculptor": 6019,
      "ĠReaver": 6020,
      "ashi": 6021,
      "ĠStor": 6022,
      "ĠStri": 6023,
      "ĠStud": 6024,
      "Ġchain": 6025,
      "ĠArbiter": 6026,
      "ĠArctic": 6027,
      "ĠJor": 6028,
      "ĠJuk": 6029,
      "ewing": 6030,
      "ĠMerrow": 6031,
      "Ġmeat": 6032,
      "ĠCont": 6033,
      "Ġunknown": 6034,
      "Ġscaven": 6035,
      "eady": 6036,
      "ecution": 6037,
      "Ġsoci": 6038,
      "otting": 6039,
      "abor": 6040,
      "ĠAlthough": 6041,
      "Ġuseful": 6042,
      "Ġproblem": 6043,
      "Ġrider": 6044,
      "Ġexpect": 6045,
      "ronze": 6046,
      "ĠFaeries": 6047,
      "ĠArchers": 6048,
      "ĠMonitor": 6049,
      "Ġtrap": 6050,
      "Ġcouldn": 6051,
      "ĠRegent": 6052,
      "ĠClan": 6053,
      "ĠClown": 6054,
      "Ġtried": 6055,
      "igned": 6056,
      "Ġnoncombat": 6057,
      "ĠTreasures": 6058,
      "Ġadvant": 6059,
      "Ġsmart": 6060,
      "Ġbrother": 6061,
      "Ġcompet": 6062,
      "ĠDevourer": 6063,
      "Ġhunts": 6064,
      "Ġpeaceful": 6065,
      "ĠShaper": 6066,
      "ĠSouls": 6067,
      "ĠGlider": 6068,
      "ĠGlory": 6069,
      "ĠSquid": 6070,
      "Ġdifficult": 6071,
      "Ġtrouble": 6072,
      "airs": 6073,
      "Ġentering": 6074,
      "ĠSamite": 6075,
      "ĠDrac": 6076,
      "anna": 6077,
      "Ġfools": 6078,
      "ĠTrained": 6079,
      "Ġintru": 6080,
      "Ġinterest": 6081,
      "Ġpassage": 6082,
      "ĠGhitu": 6083,
      "Ġgrowing": 6084,
      "Ġwanted": 6085,
      "eval": 6086,
      "Ġrighteous": 6087,
      "ĠEmperor": 6088,
      "scri": 6089,
      "Ġsuns": 6090,
      "server": 6091,
      "ĠWithin": 6092,
      "Ġremained": 6093,
      "ĠResearch": 6094,
      "Ġconsum": 6095,
      "Ġshields": 6096,
      "Ġdecayed": 6097,
      "ĠBanding": 6098,
      "Ġsounds": 6099,
      "ragorn": 6100,
      "rodo": 6101,
      "Arrim": 6102,
      "Ġzomb": 6103,
      "ĠCarrion": 6104,
      "Ġsubtle": 6105,
      "Ġmoves": 6106,
      "Ġcourt": 6107,
      "Ġemerged": 6108,
      "Ġbrain": 6109,
      "Ġundead": 6110,
      "____": 6111,
      "jects": 6112,
      "Ġcomplet": 6113,
      "ĠVolrath": 6114,
      "Ġsurvival": 6115,
      "ĠRunner": 6116,
      "Ġproduce": 6117,
      "Ġdirect": 6118,
      "umbling": 6119,
      "ĠMorbid": 6120,
      "rovax": 6121,
      "Ġharmony": 6122,
      "Ġarrived": 6123,
      "Ġconstant": 6124,
      "ummy": 6125,
      "ĠRampaging": 6126,
      "Ġwizards": 6127,
      "ĠAeronaut": 6128,
      "runner": 6129,
      "Ġscreams": 6130,
      "Ġsaved": 6131,
      "ĠOltec": 6132,
      "ĠEngineer": 6133,
      "Ġpresence": 6134,
      "Ġspecies": 6135,
      "ĠInnistrad": 6136,
      "Ġprepare": 6137,
      "Ġstrugg": 6138,
      "ternity": 6139,
      "ĠStromkir": 6140,
      "ĠStromgald": 6141,
      "Ġogres": 6142,
      "Ġanimals": 6143,
      "Ġearned": 6144,
      "ĠImmortal": 6145,
      "ĠRabbit": 6146,
      "Ġminotaurs": 6147,
      "Ġpotential": 6148,
      "ĠSetessan": 6149,
      "ĠProphet": 6150,
      "Ġferocity": 6151,
      "Ġpractice": 6152,
      "ĠOwl": 6153,
      "uppet": 6154,
      "Ġcountless": 6155,
      "ĠCelestial": 6156,
      "Ġattempt": 6157,
      "Ġview": 6158,
      "ĠSteward": 6159,
      "ĠFabricate": 6160,
      "Ġsprockets": 6161,
      "ĠJukai": 6162,
      "ĠStromkirk": 6163,
      "!'": 6164,
      "Disa": 6165,
      "Jil": 6166,
      "Return": 6167,
      "Sor": 6168,
      "Vivien": 6169,
      "fly": 6170,
      "fec": 6171,
      "how": 6172,
      "hart": 6173,
      "hurg": 6174,
      "jani": 6175,
      "kind": 6176,
      "men": 6177,
      "more": 6178,
      "mother": 6179,
      "maker": 6180,
      "monger": 6181,
      "pid": 6182,
      "rs": 6183,
      "rac": 6184,
      "rated": 6185,
      "rint": 6186,
      "uzz": 6187,
      "word": 6188,
      "watch": 6189,
      "wreck": 6190,
      "reme": 6191,
      "erve": 6192,
      "atiable": 6193,
      "encer": 6194,
      "ency": 6195,
      "Ġcunning": 6196,
      "Ġakki": 6197,
      "Ġow": 6198,
      "inia": 6199,
      "arr": 6200,
      "arum": 6201,
      "anist": 6202,
      "Ġbreat": 6203,
      "Ġbas": 6204,
      "Ġbook": 6205,
      "Ġbits": 6206,
      "Ġbitter": 6207,
      "Ġbloom": 6208,
      "ĠCreat": 6209,
      "ĠCame": 6210,
      "ĠCust": 6211,
      "ĠCub": 6212,
      "ĠCunning": 6213,
      "Ġsever": 6214,
      "Ġsap": 6215,
      "Ġsust": 6216,
      "Ġscho": 6217,
      "Ġdro": 6218,
      "acing": 6219,
      "Ġfresh": 6220,
      "Ġwounds": 6221,
      "Ġwilder": 6222,
      "ĠWo": 6223,
      "elst": 6224,
      "Ġann": 6225,
      "step": 6226,
      "Ġpit": 6227,
      "Ġprim": 6228,
      "Ġproud": 6229,
      "Ġpatter": 6230,
      "Ġmur": 6231,
      "Ġmoney": 6232,
      "aling": 6233,
      "ĠSong": 6234,
      "ĠSho": 6235,
      "ĠSummon": 6236,
      "Ġlay": 6237,
      "ĠAir": 6238,
      "ĠAmp": 6239,
      "ĠAragorn": 6240,
      "ĠTide": 6241,
      "ĠTark": 6242,
      "ĠTake": 6243,
      "ĠTerr": 6244,
      "ĠTeferi": 6245,
      "ragon": 6246,
      "icator": 6247,
      "ĠHold": 6248,
      "ĠHere": 6249,
      "ĠHulk": 6250,
      "ĠHawk": 6251,
      "omer": 6252,
      "ĠDid": 6253,
      "ĠDiv": 6254,
      "ĠDancer": 6255,
      "asty": 6256,
      "ĠFin": 6257,
      "ĠFrenz": 6258,
      "ĠFrodo": 6259,
      "irion": 6260,
      "andalf": 6261,
      "Ġet": 6262,
      "ashen": 6263,
      "Ġorc": 6264,
      "ĠEz": 6265,
      "ĠRuthless": 6266,
      "ĠMight": 6267,
      "ĠMold": 6268,
      "ĠMak": 6269,
      "ĠMob": 6270,
      "ĠMarch": 6271,
      "ĠMech": 6272,
      "ĠLu": 6273,
      "ĠLast": 6274,
      "ĠLun": 6275,
      "ĠPang": 6276,
      "ĠBoss": 6277,
      "ĠBreath": 6278,
      "Ġrece": 6279,
      "Ġrelease": 6280,
      "Ġate": 6281,
      "ĠGet": 6282,
      "ĠGav": 6283,
      "ĠGerrard": 6284,
      "Ġforged": 6285,
      "Ġforward": 6286,
      "Ġdeeds": 6287,
      "ainted": 6288,
      "Ġspo": 6289,
      "Ġspy": 6290,
      "Ġspies": 6291,
      "Ġspider": 6292,
      "Ġstage": 6293,
      "Ġstubborn": 6294,
      "ĠKa": 6295,
      "ĠKeen": 6296,
      "ĠOath": 6297,
      "ĠOper": 6298,
      "ĠVuls": 6299,
      "ĠSpring": 6300,
      "izer": 6301,
      "iller": 6302,
      "usive": 6303,
      "ested": 6304,
      "ierce": 6305,
      "ĠGood": 6306,
      "Ġallow": 6307,
      "Ġseeds": 6308,
      "Ġundercity": 6309,
      "ĠInform": 6310,
      "heres": 6311,
      "Ġthank": 6312,
      "ĠReid": 6313,
      "Ġcomfort": 6314,
      "Ġrout": 6315,
      "ashion": 6316,
      "Ġally": 6317,
      "ĠStinger": 6318,
      "Ġchampion": 6319,
      "Ġchorus": 6320,
      "oper": 6321,
      "anging": 6322,
      "ĠChosen": 6323,
      "ĠChieftain": 6324,
      "ĠCharging": 6325,
      "ĠJam": 6326,
      "ĠJungle": 6327,
      "ĠJhoira": 6328,
      "ĠRogues": 6329,
      "Ġweb": 6330,
      "ĠMerchant": 6331,
      "lands": 6332,
      "Ġflow": 6333,
      "ĠSkul": 6334,
      "ĠSkanos": 6335,
      "eadow": 6336,
      "Ġworst": 6337,
      "Ġroad": 6338,
      "ĠRetri": 6339,
      "Ġarc": 6340,
      "ability": 6341,
      "ĠAlpha": 6342,
      "Ġwerewolves": 6343,
      "Ġsearches": 6344,
      "ĠAdvocate": 6345,
      "Ġexpl": 6346,
      "ĠHeir": 6347,
      "Ġclim": 6348,
      "ĠArchmage": 6349,
      "ĠArchae": 6350,
      "ĠRoil": 6351,
      "Ġtrail": 6352,
      "ĠAllies": 6353,
      "ĠClam": 6354,
      "ĠBloodrush": 6355,
      "ĠIsle": 6356,
      "ĠLeaf": 6357,
      "Ġreached": 6358,
      "ĠToo": 6359,
      "ĠDwarves": 6360,
      "ikicker": 6361,
      "Ġimpro": 6362,
      "Ġglad": 6363,
      "ĠImprov": 6364,
      "ĠDogs": 6365,
      "ĠProject": 6366,
      "ĠProcessor": 6367,
      "Ġmonster": 6368,
      "Ġoffers": 6369,
      "ĠSquee": 6370,
      "Ġappet": 6371,
      "Ġstrateg": 6372,
      "Ġtrack": 6373,
      "Ġmindless": 6374,
      "Ġtreefolk": 6375,
      "Ġfalls": 6376,
      "ĠTraining": 6377,
      "Ġintimidate": 6378,
      "ĠWhatever": 6379,
      "ĠHellb": 6380,
      "ĠBringer": 6381,
      "Ġkilling": 6382,
      "Ġwatching": 6383,
      "Ġfaerie": 6384,
      "ĠBattlemage": 6385,
      "Ġguards": 6386,
      "Ġguarded": 6387,
      "Ġsecretly": 6388,
      "Ġclever": 6389,
      "ĠEveryone": 6390,
      "oggle": 6391,
      "Ġmercy": 6392,
      "Ġrunning": 6393,
      "warden": 6394,
      "Ġfinality": 6395,
      "Ġcyclops": 6396,
      "Ġeasier": 6397,
      "Ġharder": 6398,
      "ĠSapraz": 6399,
      "Ġconsider": 6400,
      "Ġconsume": 6401,
      "Ġhorizon": 6402,
      "ĠSpectral": 6403,
      "ĠSynth": 6404,
      "Ġpatience": 6405,
      "ĠPatron": 6406,
      "Ġrecruit": 6407,
      "Ġquestions": 6408,
      "ĠNylea": 6409,
      "Ġcharged": 6410,
      "Ġstudents": 6411,
      "Ġmoving": 6412,
      "ĠImoen": 6413,
      "Ġgifts": 6414,
      "Ġbrains": 6415,
      "ĠSavage": 6416,
      "Ġasked": 6417,
      "ĠUndead": 6418,
      "Ġgeists": 6419,
      "Ġsurvived": 6420,
      "Ġproduced": 6421,
      "ĠMultikicker": 6422,
      "ĠChanneler": 6423,
      "Ġburst": 6424,
      "ĠSkirk": 6425,
      "ĠSecret": 6426,
      "ĠFeral": 6427,
      "Ġships": 6428,
      "urochs": 6429,
      "ĠRadiant": 6430,
      "alanx": 6431,
      "ĠVerd": 6432,
      "ĠValor": 6433,
      "ĠAerial": 6434,
      "Ġghost": 6435,
      "ĠEvangel": 6436,
      "ĠBrass": 6437,
      "ĠCrusher": 6438,
      "Ġpresent": 6439,
      "ĠSurvivor": 6440,
      "Ġfavorite": 6441,
      "ĠAntelope": 6442,
      "ĠHeliod": 6443,
      "Ġstruck": 6444,
      "gmoth": 6445,
      "ĠVoracious": 6446,
      "Ġcombination": 6447,
      "Ġkept": 6448,
      "Ġfearsome": 6449,
      "Ġpieces": 6450,
      "ĠTheriad": 6451,
      "Ġgentle": 6452,
      "Ġrebu": 6453,
      "ĠNyxborn": 6454,
      "Ġprowl": 6455,
      "ĠGrizz": 6456,
      "Ġvolcano": 6457,
      "Ġmassive": 6458,
      "ĠShambler": 6459,
      "ĠCommando": 6460,
      "Ġmorning": 6461,
      "ĠSkyclave": 6462,
      "Ġdespair": 6463,
      "Ġnightmares": 6464,
      "ĠFanatic": 6465,
      "Ġcurrents": 6466,
      "ĠRecruiter": 6467,
      "Ġfangs": 6468,
      "Ġbolster": 6469,
      "Ġbusiness": 6470,
      "Ġsatisf": 6471,
      "ĠBadger": 6472,
      "ĠBeholder": 6473,
      "Ġassembles": 6474,
      "Ġafraid": 6475,
      "ĠCreeper": 6476,
      "ĠQuicksilver": 6477,
      "Mirri": 6478,
      "Leaf": 6479,
      "inclex": 6480,
      "ĠWirewood": 6481,
      "ĠMaraud": 6482,
      "Ġrepeat": 6483,
      "ĠYawgmoth": 6484,
      "ĠSomberwald": 6485,
      "Ġsociety": 6486,
      "Ġintruders": 6487,
      "Ġcompletely": 6488,
      "fectly": 6489,
      "hurgoyf": 6490,
      "elstrom": 6491,
      "ĠTarkir": 6492,
      "ĠVulshok": 6493,
      "ĠImprovise": 6494,
      "00": 6495,
      "Ad": 6496,
      "Az": 6497,
      "Bl": 6498,
      "Dal": 6499,
      "Draw": 6500,
      "DÃ»l": 6501,
      "Gl": 6502,
      "Head": 6503,
      "Huatli": 6504,
      "Kin": 6505,
      "Mana": 6506,
      "Mizz": 6507,
      "Nissa": 6508,
      "Rief": 6509,
      "Su": 6510,
      "Tribe": 6511,
      "Wall": 6512,
      "ailed": 6513,
      "cers": 6514,
      "clo": 6515,
      "eks": 6516,
      "fe": 6517,
      "fit": 6518,
      "ga": 6519,
      "hound": 6520,
      "haven": 6521,
      "ias": 6522,
      "iary": 6523,
      "mos": 6524,
      "ole": 6525,
      "ophant": 6526,
      "pact": 6527,
      "rall": 6528,
      "sis": 6529,
      "taker": 6530,
      "uary": 6531,
      "ynd": 6532,
      "zon": 6533,
      "Ġid": 6534,
      "reach": 6535,
      "rets": 6536,
      "Ġtread": 6537,
      "Ġtalk": 6538,
      "atile": 6539,
      "atural": 6540,
      "enment": 6541,
      "Ġce": 6542,
      "Ġcit": 6543,
      "Ġcal": 6544,
      "Ġcrash": 6545,
      "Ġaud": 6546,
      "Ġaxe": 6547,
      "Ġthop": 6548,
      "arant": 6549,
      "amble": 6550,
      "iton": 6551,
      "ital": 6552,
      "itors": 6553,
      "tled": 6554,
      "onight": 6555,
      "Ġbox": 6556,
      "ĠCrimson": 6557,
      "otic": 6558,
      "otter": 6559,
      "ghtly": 6560,
      "Ġdread": 6561,
      "Ġdirt": 6562,
      "acon": 6563,
      "orian": 6564,
      "Ġfre": 6565,
      "Ġflock": 6566,
      "Ġflood": 6567,
      "ela": 6568,
      "ingly": 6569,
      "ardic": 6570,
      "Ġpop": 6571,
      "Ġport": 6572,
      "Ġpets": 6573,
      "Ġmed": 6574,
      "Ġmother": 6575,
      "ĠSaw": 6576,
      "ĠSuch": 6577,
      "Ġlur": 6578,
      "Ġhel": 6579,
      "Ġhammer": 6580,
      "Ġhiding": 6581,
      "ĠAx": 6582,
      "ĠAge": 6583,
      "ĠArash": 6584,
      "ĠTribute": 6585,
      "Ġut": 6586,
      "Ġult": 6587,
      "Ġgru": 6588,
      "ravel": 6589,
      "iced": 6590,
      "icers": 6591,
      "icial": 6592,
      "ĠHall": 6593,
      "ĠHenge": 6594,
      "ĠHidden": 6595,
      "Ġconcer": 6596,
      "vern": 6597,
      "ĠDun": 6598,
      "ĠDross": 6599,
      "Ġnim": 6600,
      "Ġnine": 6601,
      "ĠFre": 6602,
      "ĠFil": 6603,
      "ĠFist": 6604,
      "ĠFeed": 6605,
      "ĠFading": 6606,
      "Ġbeg": 6607,
      "uma": 6608,
      "umpet": 6609,
      "andal": 6610,
      "andrix": 6611,
      "Ġear": 6612,
      "Ġorig": 6613,
      "ĠEd": 6614,
      "ĠEag": 6615,
      "ĠEreb": 6616,
      "lyph": 6617,
      "ĠRag": 6618,
      "ĠRift": 6619,
      "ĠMad": 6620,
      "ĠMuse": 6621,
      "ĠMamm": 6622,
      "ĠMartyr": 6623,
      "ĠLess": 6624,
      "ĠLocus": 6625,
      "ĠLhurgoyf": 6626,
      "ĠPal": 6627,
      "ĠPol": 6628,
      "ĠPill": 6629,
      "ĠBan": 6630,
      "ĠBound": 6631,
      "ĠBreaker": 6632,
      "ĠBrush": 6633,
      "ĠBrig": 6634,
      "Ġreclaim": 6635,
      "ĠGw": 6636,
      "ĠGard": 6637,
      "ĠGed": 6638,
      "ĠGut": 6639,
      "ĠGith": 6640,
      "ĠGear": 6641,
      "ĠGideon": 6642,
      "cha": 6643,
      "Ġdear": 6644,
      "aint": 6645,
      "aders": 6646,
      "adox": 6647,
      "Ġspoke": 6648,
      "ephyr": 6649,
      "oreal": 6650,
      "aphe": 6651,
      "imp": 6652,
      "ĠKaz": 6653,
      "ĠKels": 6654,
      "ĠKitsune": 6655,
      "ĠKonda": 6656,
      "ĠOd": 6657,
      "rup": 6658,
      "rust": 6659,
      "ĠVis": 6660,
      "ĠVine": 6661,
      "ĠVict": 6662,
      "ĠNar": 6663,
      "odiac": 6664,
      "Ġvow": 6665,
      "Ġvicious": 6666,
      "ieves": 6667,
      "ival": 6668,
      "ivator": 6669,
      "blazer": 6670,
      "ĠShar": 6671,
      "ĠAth": 6672,
      "Ġlandwalk": 6673,
      "athran": 6674,
      "lert": 6675,
      "ogn": 6676,
      "ĠZodiac": 6677,
      "Ġblow": 6678,
      "Ġblink": 6679,
      "Ġenlight": 6680,
      "ĠArtifacts": 6681,
      "ĠElend": 6682,
      "ĠThran": 6683,
      "ĠUs": 6684,
      "Ġcoll": 6685,
      "ryff": 6686,
      "ĠBeware": 6687,
      "Ġchoices": 6688,
      "venge": 6689,
      "ĠRealm": 6690,
      "ĠDeade": 6691,
      "aks": 6692,
      "akir": 6693,
      "igilant": 6694,
      "ĠStarn": 6695,
      "ĠStrength": 6696,
      "ĠExempl": 6697,
      "Ġloc": 6698,
      "phin": 6699,
      "Ġchanged": 6700,
      "inking": 6701,
      "ordial": 6702,
      "ĠJark": 6703,
      "ĠSlith": 6704,
      "ĠSlinger": 6705,
      "ewind": 6706,
      "Ġunw": 6707,
      "Ġunearth": 6708,
      "Ġunique": 6709,
      "Ġscars": 6710,
      "Ġrope": 6711,
      "Ġpress": 6712,
      "Ġpreser": 6713,
      "speth": 6714,
      "ĠAlt": 6715,
      "redict": 6716,
      "ĠMyra": 6717,
      "Ġrivers": 6718,
      "voy": 6719,
      "ĠAdam": 6720,
      "Ġclick": 6721,
      "Ġclass": 6722,
      "ĠWhelp": 6723,
      "Ġrust": 6724,
      "Ġsweet": 6725,
      "udev": 6726,
      "ĠYes": 6727,
      "ĠSword": 6728,
      "ĠBladem": 6729,
      "Ġslain": 6730,
      "Ġslumber": 6731,
      "Ġworlds": 6732,
      "ĠDoes": 6733,
      "ension": 6734,
      "Ġfeathers": 6735,
      "ĠSheoldred": 6736,
      "visa": 6737,
      "Ġdesperate": 6738,
      "Ġcreation": 6739,
      "alties": 6740,
      "ĠSkyknight": 6741,
      "ĠGlade": 6742,
      "Ġknock": 6743,
      "Ġtrem": 6744,
      "Ġcarries": 6745,
      "Ġthinks": 6746,
      "Ġthinking": 6747,
      "Ġintellig": 6748,
      "Ġdarkest": 6749,
      "ĠQuirion": 6750,
      "ĠQuandrix": 6751,
      "ĠMirran": 6752,
      "ĠGrace": 6753,
      "ĠPhalanx": 6754,
      "ĠMagn": 6755,
      "Ġsilver": 6756,
      "eysa": 6757,
      "scale": 6758,
      "Ġclosed": 6759,
      "Ġprotects": 6760,
      "Ġfinally": 6761,
      "Ġdefenses": 6762,
      "Ġrenegade": 6763,
      "ĠRavager": 6764,
      "Ġhorse": 6765,
      "Ġhealers": 6766,
      "Ġbelieved": 6767,
      "ĠUndergrowth": 6768,
      "iddle": 6769,
      "Ġdrafted": 6770,
      "ĠBala": 6771,
      "ĠMaelstrom": 6772,
      "Ġfamiliar": 6773,
      "Ġreduce": 6774,
      "ĠWorker": 6775,
      "ĠNezumi": 6776,
      "Ġcryst": 6777,
      "elty": 6778,
      "ĠBaron": 6779,
      "Ġvisions": 6780,
      "Ġremembers": 6781,
      "Ġdriven": 6782,
      "aji": 6783,
      "ĠAzra": 6784,
      "ĠHomar": 6785,
      "asked": 6786,
      "Ġnecrom": 6787,
      "Ġdeclare": 6788,
      "retched": 6789,
      "ĠSavant": 6790,
      "ĠOutcast": 6791,
      "Ġprecision": 6792,
      "Ġinitiate": 6793,
      "Ġinitiates": 6794,
      "Ġcomplete": 6795,
      "Ġfleet": 6796,
      "ĠArtist": 6797,
      "ĠArtisan": 6798,
      "ĠTorment": 6799,
      "Ġsurvivors": 6800,
      "Ġbuilding": 6801,
      "Ġmarket": 6802,
      "Ġshapes": 6803,
      "Ġdirection": 6804,
      "ĠOutlaw": 6805,
      "Ġmoments": 6806,
      "Ġburied": 6807,
      "ĠLibr": 6808,
      "ĠLiber": 6809,
      "ĠSkirm": 6810,
      "Ġwoods": 6811,
      "ĠRadha": 6812,
      "ĠMalakir": 6813,
      "Ġteaching": 6814,
      "ortunately": 6815,
      "ĠDefiler": 6816,
      "ĠNimble": 6817,
      "ĠTalas": 6818,
      "Ġshamans": 6819,
      "Ġcontinue": 6820,
      "ĠKalonian": 6821,
      "ĠCapashen": 6822,
      "Ġwurms": 6823,
      "Ġhopes": 6824,
      "Ġsurprise": 6825,
      "Ġlarger": 6826,
      "Ġlisten": 6827,
      "ĠEmerge": 6828,
      "ĠEmeria": 6829,
      "Ġdesigned": 6830,
      "Ġhappy": 6831,
      "ĠRelic": 6832,
      "Ġprovide": 6833,
      "Ġswampwalk": 6834,
      "Ġidea": 6835,
      "Ġheavy": 6836,
      "ĠRevane": 6837,
      "ĠRevolt": 6838,
      "utton": 6839,
      "Ġkeen": 6840,
      "Ġmischief": 6841,
      "ĠFormidable": 6842,
      "ĠLurking": 6843,
      "Ġtalent": 6844,
      "Ġensure": 6845,
      "Ġdetermined": 6846,
      "Ġbelongs": 6847,
      "Ġappearance": 6848,
      "ĠSylvan": 6849,
      "ĠRidge": 6850,
      "Ġabandoned": 6851,
      "ĠKinship": 6852,
      "Ġsuddenly": 6853,
      "ĠZhalfir": 6854,
      "ĠWhispering": 6855,
      "Ġinhabit": 6856,
      "ĠSteam": 6857,
      "Ġappreciate": 6858,
      "ĠTransmute": 6859,
      "ĠTajuru": 6860,
      "ĠDalek": 6861,
      "iganjo": 6862,
      "Ġbugs": 6863,
      "Ġboggarts": 6864,
      "Ġinflu": 6865,
      "Ġopportunity": 6866,
      "Ġinnocent": 6867,
      "fessor": 6868,
      "ĠHeavy": 6869,
      "nihilator": 6870,
      "honas": 6871,
      "Ġcrowd": 6872,
      "ĠExcav": 6873,
      "Jilad": 6874,
      "ĠCamel": 6875,
      "ĠCustod": 6876,
      "ĠTerritorial": 6877,
      "ĠGavony": 6878,
      "ĠOperative": 6879,
      "ĠHellbent": 6880,
      "ĠErebos": 6881,
      "ĠDeadeye": 6882,
      "ĠJarkeld": 6883,
      "udevic": 6884,
      "*-": 6885,
      "Bru": 6886,
      "Kor": 6887,
      "Ol": 6888,
      "Song": 6889,
      "aits": 6890,
      "bble": 6891,
      "bered": 6892,
      "col": 6893,
      "dy": 6894,
      "dem": 6895,
      "ean": 6896,
      "eared": 6897,
      "far": 6898,
      "fic": 6899,
      "field": 6900,
      "hus": 6901,
      "iq": 6902,
      "iy": 6903,
      "kar": 6904,
      "lies": 6905,
      "meadow": 6906,
      "nith": 6907,
      "nch": 6908,
      "ping": 6909,
      "rant": 6910,
      "rice": 6911,
      "riss": 6912,
      "sess": 6913,
      "tic": 6914,
      "time": 6915,
      "uc": 6916,
      "uit": 6917,
      "udd": 6918,
      "vous": 6919,
      "¼d": 6920,
      "Ã¼d": 6921,
      "Ġess": 6922,
      "Ġur": 6923,
      "Ġest": 6924,
      "Ġ____": 6925,
      "Ġcand": 6926,
      "Ġcraw": 6927,
      "Ġcrim": 6928,
      "Ġcoward": 6929,
      "Ġcirc": 6930,
      "Ġaug": 6931,
      "Ġoce": 6932,
      "inary": 6933,
      "esmer": 6934,
      "urel": 6935,
      "urer": 6936,
      "anic": 6937,
      "amo": 6938,
      "tline": 6939,
      "Ġbark": 6940,
      "ĠCra": 6941,
      "ĠCad": 6942,
      "ĠCombat": 6943,
      "ĠCour": 6944,
      "Ġsanct": 6945,
      "isp": 6946,
      "Ġdiss": 6947,
      "Ġdiet": 6948,
      "orc": 6949,
      "Ġfro": 6950,
      "Ġfav": 6951,
      "Ġfert": 6952,
      "Ġfarm": 6953,
      "Ġwide": 6954,
      "ĠWave": 6955,
      "ĠWren": 6956,
      "ĠWicked": 6957,
      "eled": 6958,
      "eland": 6959,
      "root": 6960,
      "Ġtool": 6961,
      "Ġtoll": 6962,
      "Ġtools": 6963,
      "Ġpal": 6964,
      "Ġpol": 6965,
      "Ġmast": 6966,
      "Ġmap": 6967,
      "Ġmob": 6968,
      "Ġmourn": 6969,
      "Ġmolten": 6970,
      "alg": 6971,
      "ĠSaur": 6972,
      "ĠSeed": 6973,
      "ĠSacred": 6974,
      "ĠSisay": 6975,
      "Ġlantern": 6976,
      "Ġholy": 6977,
      "Ġhabit": 6978,
      "aying": 6979,
      "ĠAw": 6980,
      "ĠAurochs": 6981,
      "ĠTen": 6982,
      "ĠTet": 6983,
      "ĠTho": 6984,
      "ĠTask": 6985,
      "raiser": 6986,
      "ĠHan": 6987,
      "ĠHier": 6988,
      "ĠHammer": 6989,
      "Ġconfl": 6990,
      "ĠIma": 6991,
      "omes": 6992,
      "ĠDro": 6993,
      "ĠDamage": 6994,
      "ĠDred": 6995,
      "Ġinner": 6996,
      "asting": 6997,
      "ĠFollow": 6998,
      "ĠFada": 6999,
      "uts": 7000,
      "irant": 7001,
      "irling": 7002,
      "Ġetherium": 7003,
      "ases": 7004,
      "olation": 7005,
      "ĠEp": 7006,
      "ĠEbon": 7007,
      "ĠEyes": 7008,
      "ĠEiganjo": 7009,
      "ĠRay": 7010,
      "ĠRune": 7011,
      "ĠMen": 7012,
      "ĠMus": 7013,
      "ĠMass": 7014,
      "ĠMaze": 7015,
      "ĠLar": 7016,
      "ĠLum": 7017,
      "ĠLob": 7018,
      "ĠPri": 7019,
      "ĠPear": 7020,
      "ĠPak": 7021,
      "ĠPoss": 7022,
      "ĠPuppet": 7023,
      "ria": 7024,
      "riar": 7025,
      "riarch": 7026,
      "ĠBent": 7027,
      "ĠBeg": 7028,
      "ĠBrim": 7029,
      "ĠBright": 7030,
      "Ġreckless": 7031,
      "ĠGro": 7032,
      "ĠGener": 7033,
      "ĠGale": 7034,
      "ĠGilt": 7035,
      "ĠGisa": 7036,
      "chi": 7037,
      "Ġends": 7038,
      "Ġplains": 7039,
      "Ġplague": 7040,
      "los": 7041,
      "loon": 7042,
      "ador": 7043,
      "ppel": 7044,
      "Ġstream": 7045,
      "Ġcanopy": 7046,
      "ckon": 7047,
      "oret": 7048,
      "Ġlikes": 7049,
      "imen": 7050,
      "iments": 7051,
      "ĠKr": 7052,
      "ĠKins": 7053,
      "kenzan": 7054,
      "ĠOnd": 7055,
      "ĠOran": 7056,
      "ĠOona": 7057,
      "ceed": 7058,
      "Ġgrasp": 7059,
      "Ġcook": 7060,
      "ĠSpore": 7061,
      "ldron": 7062,
      "ĠNet": 7063,
      "ĠNiv": 7064,
      "ĠNala": 7065,
      "ĠNavigator": 7066,
      "oday": 7067,
      "illing": 7068,
      "Ġvile": 7069,
      "Ġvirt": 7070,
      "Ġvizier": 7071,
      "uss": 7072,
      "Ġdoing": 7073,
      "ivore": 7074,
      "Ġshar": 7075,
      "ection": 7076,
      "ula": 7077,
      "Ġperform": 7078,
      "Ġperfectly": 7079,
      "ĠShore": 7080,
      "mantle": 7081,
      "ĠZephyr": 7082,
      "ĠUrabrask": 7083,
      "Ġnonatt": 7084,
      "ĠScut": 7085,
      "ĠBei": 7086,
      "venwald": 7087,
      "ipe": 7088,
      "Ġrum": 7089,
      "Ġrhy": 7090,
      "Ġrising": 7091,
      "arts": 7092,
      "ĠSteed": 7093,
      "ĠStrix": 7094,
      "ĠStronghold": 7095,
      "Ġloose": 7096,
      "Ġloved": 7097,
      "Ġchant": 7098,
      "ĠClerics": 7099,
      "ĠArson": 7100,
      "Ġheights": 7101,
      "ĠJace": 7102,
      "ĠJura": 7103,
      "otha": 7104,
      "Ġmyster": 7105,
      "Ġweep": 7106,
      "Ġweave": 7107,
      "Ġ...": 7108,
      "lings": 7109,
      "Ġunity": 7110,
      "Ġunited": 7111,
      "ĠSkitter": 7112,
      "Ġherald": 7113,
      "Ġscra": 7114,
      "Ġjump": 7115,
      "ĠEnvoy": 7116,
      "Ġsoil": 7117,
      "rank": 7118,
      "ĠCater": 7119,
      "ĠAlchemist": 7120,
      "Ġagent": 7121,
      "esha": 7122,
      "Ġskip": 7123,
      "nerÃ¼d": 7124,
      "Ġprobably": 7125,
      "ĠFae": 7126,
      "Ġmonks": 7127,
      "ĠYot": 7128,
      "ĠSwitch": 7129,
      "ĠClaw": 7130,
      "Ġcommands": 7131,
      "Ġpartic": 7132,
      "ightly": 7133,
      "Ġoverhead": 7134,
      "ĠSeek": 7135,
      "beats": 7136,
      "Ġadept": 7137,
      "Ġsmith": 7138,
      "Ġbrothers": 7139,
      "auldron": 7140,
      "Ġglorious": 7141,
      "Ġbelief": 7142,
      "Ġhowever": 7143,
      "Ġapply": 7144,
      "Ġfinding": 7145,
      "Ġdisp": 7146,
      "ĠMarket": 7147,
      "arians": 7148,
      "Ġfalling": 7149,
      "Ġmagical": 7150,
      "ĠTrail": 7151,
      "Ġcalling": 7152,
      "Ġpassing": 7153,
      "Ġeffective": 7154,
      "Ġassist": 7155,
      "ĠFirebrand": 7156,
      "ĠShadowmoor": 7157,
      "ukarum": 7158,
      "Ġdistant": 7159,
      "Ġmightiest": 7160,
      "Ġfae": 7161,
      "ĠMercenaries": 7162,
      "ĠAbyss": 7163,
      "ĠGray": 7164,
      "ĠPharika": 7165,
      "ressed": 7166,
      "ĠSokenzan": 7167,
      "Ġsilently": 7168,
      "Ġcontent": 7169,
      "eyes": 7170,
      "Ġclos": 7171,
      "Ġprotecting": 7172,
      "ĠSurrak": 7173,
      "serv": 7174,
      "Ġenergies": 7175,
      "Ġhumanity": 7176,
      "Ġsnake": 7177,
      "ibility": 7178,
      "Ġsets": 7179,
      "Ġsettle": 7180,
      "Ġhorrible": 7181,
      "flame": 7182,
      "Ġminus": 7183,
      "ĠBandit": 7184,
      "apping": 7185,
      "Ġpaths": 7186,
      "Ġneigh": 7187,
      "ĠMauler": 7188,
      "Ġrefuse": 7189,
      "ĠGuildpact": 7190,
      "Ġtraveler": 7191,
      "raska": 7192,
      "Ġseemed": 7193,
      "ĠDelve": 7194,
      "ĠMetathran": 7195,
      "Ġnearly": 7196,
      "Ġlegacy": 7197,
      "ĠRedeem": 7198,
      "quisite": 7199,
      "Ġwhisper": 7200,
      "Ġnecessary": 7201,
      "ĠMistform": 7202,
      "ĠCursed": 7203,
      "ĠAfflict": 7204,
      "Ġshaped": 7205,
      "ĠTwin": 7206,
      "ĠSecrets": 7207,
      "Ġconstruct": 7208,
      "ĠFeroc": 7209,
      "ĠUlvenwald": 7210,
      "...": 7211,
      "Ġadapted": 7212,
      "ĠAmbusher": 7213,
      "ĠJuniper": 7214,
      "Ġscreaming": 7215,
      "rested": 7216,
      "Ġdemand": 7217,
      "ĠOverlord": 7218,
      "Ġslowly": 7219,
      "Ġsuffer": 7220,
      "Ġpromise": 7221,
      "Ġhaunting": 7222,
      "ĠFarmer": 7223,
      "ĠRelentless": 7224,
      "yalise": 7225,
      "Ġapart": 7226,
      "ĠSplit": 7227,
      "Ġresolve": 7228,
      "Ġcapture": 7229,
      "ĠSanctum": 7230,
      "Ġoutlaws": 7231,
      "ĠCelebration": 7232,
      "Ġviolence": 7233,
      "Ġcasu": 7234,
      "Ġpiece": 7235,
      "ĠShipwreck": 7236,
      "Ġranks": 7237,
      "iosity": 7238,
      "Ġclashing": 7239,
      "Ġvolcanic": 7240,
      "Ġpirates": 7241,
      "Ġdogs": 7242,
      "ĠHippo": 7243,
      "ĠMasticore": 7244,
      "ointed": 7245,
      "walla": 7246,
      "ĠIxalan": 7247,
      "Ġstrikes": 7248,
      "Ġdefeat": 7249,
      "Ġcivilization": 7250,
      "Ġwonders": 7251,
      "ĠRimewind": 7252,
      "ĠAlabaster": 7253,
      "ĠSigarda": 7254,
      "ĠFoundry": 7255,
      "Ġislandwalk": 7256,
      "Ġmilitary": 7257,
      "burst": 7258,
      "ĠKennerÃ¼d": 7259,
      "ĠViridian": 7260,
      "Ġincrease": 7261,
      "Ġkingdoms": 7262,
      "ĠColdeyes": 7263,
      "ĠTempest": 7264,
      "Ġcorner": 7265,
      "ĠConduit": 7266,
      "Ġunnatural": 7267,
      "ĠReplica": 7268,
      "Ġphysical": 7269,
      "ĠIcatian": 7270,
      "Ġlizard": 7271,
      "ĠKnowledge": 7272,
      "ĠStormc": 7273,
      "Ġadvantage": 7274,
      "Ġseveral": 7275,
      "Ġwilderness": 7276,
      "Ġmurder": 7277,
      "ĠAmplif": 7278,
      "ĠJamura": 7279,
      "ĠRetriever": 7280,
      "Mizzet": 7281,
      "Suq": 7282,
      "ĠStarnheim": 7283,
      "ĠBlademaster": 7284,
      "ĠImagin": 7285,
      "ĠNalaar": 7286,
      "Ġnonattacking": 7287,
      "ukarumel": 7288,
      "Bra": 7289,
      "Dragon": 7290,
      "Eyed": 7291,
      "Gor": 7292,
      "Lo": 7293,
      "Rukarumel": 7294,
      "Wh": 7295,
      "Zh": 7296,
      "apper": 7297,
      "bar": 7298,
      "bear": 7299,
      "chen": 7300,
      "ctly": 7301,
      "catcher": 7302,
      "crafter": 7303,
      "dag": 7304,
      "dotter": 7305,
      "gy": 7306,
      "gard": 7307,
      "gul": 7308,
      "gged": 7309,
      "hend": 7310,
      "house": 7311,
      "iro": 7312,
      "ipper": 7313,
      "iora": 7314,
      "ja": 7315,
      "just": 7316,
      "lain": 7317,
      "met": 7318,
      "mun": 7319,
      "mara": 7320,
      "mages": 7321,
      "ners": 7322,
      "och": 7323,
      "oices": 7324,
      "pin": 7325,
      "perer": 7326,
      "rayer": 7327,
      "wen": 7328,
      "wild": 7329,
      "wright": 7330,
      "xious": 7331,
      "yrie": 7332,
      "Ã³": 7333,
      "Ġze": 7334,
      "Ġerr": 7335,
      "reos": 7336,
      "rehend": 7337,
      "Ġtower": 7338,
      "Ġtang": 7339,
      "Ġtides": 7340,
      "Ġtowers": 7341,
      "eral": 7342,
      "atron": 7343,
      "ourt": 7344,
      "Ġcro": 7345,
      "Ġcra": 7346,
      "Ġcaves": 7347,
      "Ġthin": 7348,
      "Ġthick": 7349,
      "Ġthread": 7350,
      "Ġthrull": 7351,
      "anity": 7352,
      "itary": 7353,
      "itect": 7354,
      "ittle": 7355,
      "tler": 7356,
      "onored": 7357,
      "Ġbed": 7358,
      "Ġbord": 7359,
      "Ġbarb": 7360,
      "Ġbolt": 7361,
      "ĠCa": 7362,
      "ĠCross": 7363,
      "ĠCircle": 7364,
      "ĠCathar": 7365,
      "owl": 7366,
      "essenger": 7367,
      "Ġsin": 7368,
      "Ġsle": 7369,
      "Ġsell": 7370,
      "isaur": 7371,
      "Ġdry": 7372,
      "Ġdrew": 7373,
      "acer": 7374,
      "acatl": 7375,
      "orium": 7376,
      "Ġfoll": 7377,
      "Ġfift": 7378,
      "Ġfingers": 7379,
      "Ġfashion": 7380,
      "Ġwicked": 7381,
      "Ġwears": 7382,
      "Ġwoke": 7383,
      "ĠWait": 7384,
      "ĠWoj": 7385,
      "eling": 7386,
      "elun": 7387,
      "roas": 7388,
      "rochi": 7389,
      "inging": 7390,
      "geist": 7391,
      "Ġanew": 7392,
      "Ġtoler": 7393,
      "Ġpush": 7394,
      "Ġpegasus": 7395,
      "Ġmir": 7396,
      "Ġmant": 7397,
      "Ġmuff": 7398,
      "Ġmoved": 7399,
      "Ġmaze": 7400,
      "Ġmatters": 7401,
      "alia": 7402,
      "ĠSou": 7403,
      "ĠSin": 7404,
      "ĠSum": 7405,
      "ĠSly": 7406,
      "ĠSigil": 7407,
      "ĠSelf": 7408,
      "ĠSinger": 7409,
      "ĠSangu": 7410,
      "Ġlion": 7411,
      "ilim": 7412,
      "Ġhills": 7413,
      "Ġhurt": 7414,
      "Ġhym": 7415,
      "urid": 7416,
      "ĠAy": 7417,
      "ĠAce": 7418,
      "ĠAren": 7419,
      "ĠTan": 7420,
      "Ġ16": 7421,
      "Ġgro": 7422,
      "Ġgeneral": 7423,
      "raged": 7424,
      "ication": 7425,
      "ĠHu": 7426,
      "ĠHard": 7427,
      "ĠHoly": 7428,
      "Ġconver": 7429,
      "ĠIroas": 7430,
      "omin": 7431,
      "omper": 7432,
      "ĠDust": 7433,
      "ĠDiss": 7434,
      "ĠDari": 7435,
      "ĠDaun": 7436,
      "Ġinev": 7437,
      "ĠFoul": 7438,
      "ĠFathom": 7439,
      "Ġbee": 7440,
      "Ġbeat": 7441,
      "iri": 7442,
      "ithing": 7443,
      "umph": 7444,
      "olin": 7445,
      "ĠEs": 7446,
      "ĠEss": 7447,
      "ĠErr": 7448,
      "Ġwithstand": 7449,
      "ĠRest": 7450,
      "ĠRitual": 7451,
      "hec": 7452,
      "hew": 7453,
      "ĠMong": 7454,
      "ĠMove": 7455,
      "ĠMoth": 7456,
      "ĠMori": 7457,
      "ĠMelee": 7458,
      "ĠMummy": 7459,
      "ĠMessenger": 7460,
      "ĠLan": 7461,
      "ĠLim": 7462,
      "ĠPact": 7463,
      "ĠPara": 7464,
      "ĠPup": 7465,
      "ĠPheres": 7466,
      "riers": 7467,
      "ĠBow": 7468,
      "ĠBook": 7469,
      "ĠBones": 7470,
      "ĠBronze": 7471,
      "Ġrevenge": 7472,
      "ĠGit": 7473,
      "ĠGust": 7474,
      "ĠGamer": 7475,
      "ĠGoma": 7476,
      "ackling": 7477,
      "chaser": 7478,
      "Ġfors": 7479,
      "Ġdebt": 7480,
      "Ġplant": 7481,
      "loy": 7482,
      "aded": 7483,
      "Ġspare": 7484,
      "ellow": 7485,
      "ppable": 7486,
      "Ġsteady": 7487,
      "osk": 7488,
      "osp": 7489,
      "cking": 7490,
      "idow": 7491,
      "Ġattract": 7492,
      "Ġattention": 7493,
      "etime": 7494,
      "apult": 7495,
      "Ġlik": 7496,
      "ima": 7497,
      "imar": 7498,
      "ĠKong": 7499,
      "ĠKind": 7500,
      "ĠKrov": 7501,
      "Ġexists": 7502,
      "Ġexalted": 7503,
      "ĠOk": 7504,
      "ĠOp": 7505,
      "ĠOpen": 7506,
      "Ġgraves": 7507,
      "ĠVh": 7508,
      "ĠVig": 7509,
      "ĠValk": 7510,
      "ightened": 7511,
      "hoof": 7512,
      "ĠSpear": 7513,
      "ĠSpec": 7514,
      "ĠNeph": 7515,
      "ĠNessian": 7516,
      "Ġvines": 7517,
      "Ġvoices": 7518,
      "Ġtheirs": 7519,
      "earning": 7520,
      "iga": 7521,
      "ivian": 7522,
      "woop": 7523,
      "Ġshore": 7524,
      "Ġshelter": 7525,
      "ember": 7526,
      "outing": 7527,
      "uli": 7528,
      "ĠShin": 7529,
      "ĠShuff": 7530,
      "allids": 7531,
      "Ġki": 7532,
      "that": 7533,
      "three": 7534,
      "come": 7535,
      "compl": 7536,
      "Ġblaze": 7537,
      "Ġenfor": 7538,
      "Ġseas": 7539,
      "ĠIngest": 7540,
      "indi": 7541,
      "Ġsort": 7542,
      "Ġsorrow": 7543,
      "Ġinstrum": 7544,
      "hereal": 7545,
      "ĠRevenant": 7546,
      "ĠReinforce": 7547,
      "Ġround": 7548,
      "Ġrises": 7549,
      "Ġalike": 7550,
      "akers": 7551,
      "ĠStamp": 7552,
      "ĠStalking": 7553,
      "ĠExper": 7554,
      "Ġlox": 7555,
      "Ġchurch": 7556,
      "Ġreminder": 7557,
      "ĠChap": 7558,
      "ĠCharm": 7559,
      "ĠChange": 7560,
      "ĠJh": 7561,
      "ĠSlaughter": 7562,
      "Ġwebs": 7563,
      "Ġvalu": 7564,
      "ĠFlip": 7565,
      "ĠConver": 7566,
      "Ġadds": 7567,
      "Ġflows": 7568,
      "ickle": 7569,
      "Ġgreed": 7570,
      "Ġscr": 7571,
      "Ġscales": 7572,
      "eadfast": 7573,
      "Ġjoy": 7574,
      "Ġworship": 7575,
      "arkhan": 7576,
      "ĠWeap": 7577,
      "sson": 7578,
      "Ġplans": 7579,
      "abo": 7580,
      "ĠAlley": 7581,
      "ĠPlan": 7582,
      "ĠPlay": 7583,
      "Ġages": 7584,
      "Ġaggress": 7585,
      "ĠMyoj": 7586,
      "ĠNov": 7587,
      "Ġours": 7588,
      "aza": 7589,
      "azav": 7590,
      "razed": 7591,
      "Ġproper": 7592,
      "Ġripp": 7593,
      "Ġriders": 7594,
      "ials": 7595,
      "ĠArchfiend": 7596,
      "Ġrush": 7597,
      "ĠOni": 7598,
      "ĠHerd": 7599,
      "Ġpoints": 7600,
      "ĠRoyal": 7601,
      "cles": 7602,
      "Ġrapt": 7603,
      "ĠBlue": 7604,
      "Ġgrat": 7605,
      "Ġnews": 7606,
      "Ġdrake": 7607,
      "plus": 7608,
      "ensive": 7609,
      "ission": 7610,
      "weft": 7611,
      "Ġdevast": 7612,
      "Ġfeather": 7613,
      "Ġfeared": 7614,
      "ossible": 7615,
      "visible": 7616,
      "Ġsmile": 7617,
      "Ġcomprehend": 7618,
      "Ġimage": 7619,
      "Ġglass": 7620,
      "ĠSkys": 7621,
      "Ġtwist": 7622,
      "Ġnights": 7623,
      "ĠProliferate": 7624,
      "Ġsergeant": 7625,
      "ĠGlint": 7626,
      "ĠGlutton": 7627,
      "dragon": 7628,
      "Ġtrespass": 7629,
      "Ġcarve": 7630,
      "Ġmagn": 7631,
      "ĠTravel": 7632,
      "Ġnowhere": 7633,
      "rogen": 7634,
      "rogant": 7635,
      "ĠDesec": 7636,
      "worthy": 7637,
      "ĠQuick": 7638,
      "ahl": 7639,
      "ahr": 7640,
      "Ġletters": 7641,
      "ĠShadowheart": 7642,
      "Ġdistract": 7643,
      "Ġwants": 7644,
      "ĠTriton": 7645,
      "Ġfaeries": 7646,
      "Ġregard": 7647,
      "ucky": 7648,
      "eva": 7649,
      "ĠAfterlife": 7650,
      "ĠPhasing": 7651,
      "ecializes": 7652,
      "teers": 7653,
      "ĠHunted": 7654,
      "Ġstanding": 7655,
      "Ġvictim": 7656,
      "Ġsilk": 7657,
      "Ġmerc": 7658,
      "Ġruns": 7659,
      "Ġprayer": 7660,
      "Ġprotectors": 7661,
      "Ġtemper": 7662,
      "Ġtemple": 7663,
      "Ġemissary": 7664,
      "zzeret": 7665,
      "Ġextinct": 7666,
      "ĠAkros": 7667,
      "Ġechoes": 7668,
      "ĠGreater": 7669,
      "Ġstarted": 7670,
      "naire": 7671,
      "ĠFearless": 7672,
      "Ġbringing": 7673,
      "Ġopened": 7674,
      "Ġcares": 7675,
      "Ġdelicate": 7676,
      "Ġmembers": 7677,
      "Ġstops": 7678,
      "Ġrecruits": 7679,
      "Ġrecogn": 7680,
      "ĠRobber": 7681,
      "Ġtouched": 7682,
      "Ġinsult": 7683,
      "Ġinsects": 7684,
      "Ġobst": 7685,
      "ĠZhang": 7686,
      "Ġsmallest": 7687,
      "ĠHeralds": 7688,
      "Arna": 7689,
      "ĠCoral": 7690,
      "ology": 7691,
      "Ġaction": 7692,
      "ammers": 7693,
      "Ġmarked": 7694,
      "ĠTerisi": 7695,
      "Ġinvasion": 7696,
      "Ġinvaders": 7697,
      "ĠMole": 7698,
      "cover": 7699,
      "Ġsentry": 7700,
      "ĠTitania": 7701,
      "ĠPrimordial": 7702,
      "ĠInspiring": 7703,
      "elcome": 7704,
      "Ġbuildings": 7705,
      "Ġcentaur": 7706,
      "ĠAutumn": 7707,
      "ĠThundering": 7708,
      "ĠArgivian": 7709,
      "ĠCourt": 7710,
      "ĠSquadron": 7711,
      "ĠLiu": 7712,
      "ĠPyromancer": 7713,
      "Ġarrival": 7714,
      "Ġencount": 7715,
      "vala": 7716,
      "ĠKobolds": 7717,
      "ĠTeam": 7718,
      "Ġrealms": 7719,
      "ĠTrue": 7720,
      "ĠRampage": 7721,
      "ĠRootwater": 7722,
      "ĠHoard": 7723,
      "Ġmission": 7724,
      "ĠAmbush": 7725,
      "ĠKrosa": 7726,
      "ĠHalo": 7727,
      "ĠBeleren": 7728,
      "ĠBrain": 7729,
      "ĠOlivia": 7730,
      "Ġhaunts": 7731,
      "Ġprepared": 7732,
      "ĠPrince": 7733,
      "Ġstirred": 7734,
      "Ġstatues": 7735,
      "Ġescaped": 7736,
      "ĠCallaphe": 7737,
      "ĠCelebrant": 7738,
      "ĠAnima": 7739,
      "bonder": 7740,
      "ĠDaru": 7741,
      "ĠAspirant": 7742,
      "ĠCultivator": 7743,
      "Ġlabor": 7744,
      "miral": 7745,
      "Ġcapable": 7746,
      "ĠCerat": 7747,
      "Ġfurther": 7748,
      "Ġpirate": 7749,
      "ĠRathi": 7750,
      "ĠAdventurer": 7751,
      "Ġunspecializes": 7752,
      "ĠBodyguard": 7753,
      "Ġstopped": 7754,
      "Ġresistance": 7755,
      "ĠDespite": 7756,
      "Ġtunnels": 7757,
      "Ġdwarves": 7758,
      "ĠAssistant": 7759,
      "Ġfleeing": 7760,
      "Ġlava": 7761,
      "Ġgarden": 7762,
      "ĠIgn": 7763,
      "Ġstraight": 7764,
      "Ġambush": 7765,
      "Ġpretty": 7766,
      "Ġincludes": 7767,
      "ĠSaber": 7768,
      "Ġgargantu": 7769,
      "lossom": 7770,
      "Ġexplorers": 7771,
      "Ġphilosopher": 7772,
      "uggler": 7773,
      "Ġfragile": 7774,
      "stoppable": 7775,
      "Ġnetwork": 7776,
      "Ġachieve": 7777,
      "ĠIchor": 7778,
      "ĠJoraga": 7779,
      "ecutioner": 7780,
      "ĠSummoner": 7781,
      "ĠFrenzied": 7782,
      "ĠMakindi": 7783,
      "ĠSaprazzan": 7784,
      "Ġaudience": 7785,
      "Ġlurks": 7786,
      "ĠMammoth": 7787,
      "ĠAthreos": 7788,
      "Ġenlightenment": 7789,
      "ĠExemplar": 7790,
      "ĠAdamant": 7791,
      "ĠHomarid": 7792,
      "ĠSkirmisher": 7793,
      "husi": 7794,
      "Ġ_____": 7795,
      "ĠAwaken": 7796,
      "ĠOndu": 7797,
      "ĠArsonist": 7798,
      "Ġparticular": 7799,
      "Lovisa": 7800,
      "Ġborders": 7801,
      "Ġfollowers": 7802,
      "ĠWojek": 7803,
      "ĠDarien": 7804,
      "ĠDauntless": 7805,
      "ĠEssence": 7806,
      "ĠMoriok": 7807,
      "ĠParables": 7808,
      "ĠNephilim": 7809,
      "ĠMyojin": 7810,
      "ĠTerisiare": 7811,
      ",'": 7812,
      "12": 7813,
      "Band": 7814,
      "Gideon": 7815,
      "Jace": 7816,
      "Liliana": 7817,
      "Mer": 7818,
      "Phyrex": 7819,
      "Tahngarth": 7820,
      "aul": 7821,
      "bender": 7822,
      "bridge": 7823,
      "combat": 7824,
      "call": 7825,
      "eor": 7826,
      "eur": 7827,
      "eers": 7828,
      "even": 7829,
      "gling": 7830,
      "hv": 7831,
      "hor": 7832,
      "hulk": 7833,
      "iel": 7834,
      "iends": 7835,
      "je": 7836,
      "jud": 7837,
      "joice": 7838,
      "ku": 7839,
      "kull": 7840,
      "nation": 7841,
      "oo": 7842,
      "ped": 7843,
      "uer": 7844,
      "vity": 7845,
      "wark": 7846,
      "wagg": 7847,
      "widow": 7848,
      "yon": 7849,
      "zel": 7850,
      "Ġident": 7851,
      "render": 7852,
      "Ġtough": 7853,
      "Ġtur": 7854,
      "Ġtyr": 7855,
      "Ġtears": 7856,
      "ernal": 7857,
      "atest": 7858,
      "athered": 7859,
      "Ġcath": 7860,
      "Ġcleric": 7861,
      "Ġcub": 7862,
      "Ġcaut": 7863,
      "Ġcrop": 7864,
      "Ġcelebr": 7865,
      "Ġalert": 7866,
      "Ġthr": 7867,
      "Ġthorn": 7868,
      "Ġthroat": 7869,
      "Ġthallids": 7870,
      "Ġobl": 7871,
      "inch": 7872,
      "esp": 7873,
      "aning": 7874,
      "anced": 7875,
      "amorous": 7876,
      "endor": 7877,
      "endent": 7878,
      "itchen": 7879,
      "onia": 7880,
      "Ġbred": 7881,
      "Ġborrow": 7882,
      "Ġborder": 7883,
      "ĠCann": 7884,
      "ĠCoward": 7885,
      "ĠCrew": 7886,
      "ĠCrasher": 7887,
      "exing": 7888,
      "ĠâĢĶ~": 7889,
      "Ġsum": 7890,
      "Ġslo": 7891,
      "Ġsigil": 7892,
      "Ġsalt": 7893,
      "Ġsides": 7894,
      "Ġsenses": 7895,
      "isans": 7896,
      "Ġda": 7897,
      "Ġdar": 7898,
      "Ġdam": 7899,
      "Ġdusk": 7900,
      "Ġdrove": 7901,
      "orter": 7902,
      "Ġfest": 7903,
      "Ġfog": 7904,
      "Ġfaced": 7905,
      "ĠWise": 7906,
      "ĠWils": 7907,
      "rob": 7908,
      "rook": 7909,
      "ardan": 7910,
      "Ġant": 7911,
      "stable": 7912,
      "stones": 7913,
      "Ġpul": 7914,
      "Ġpity": 7915,
      "Ġposition": 7916,
      "ĠSz": 7917,
      "ĠSen": 7918,
      "ĠSak": 7919,
      "ĠSaf": 7920,
      "ĠSyn": 7921,
      "Ġlore": 7922,
      "Ġlarg": 7923,
      "Ġlearning": 7924,
      "Ġhy": 7925,
      "Ġhollow": 7926,
      "Ġhint": 7927,
      "nts": 7928,
      "eding": 7929,
      "ĠTuk": 7930,
      "ĠTolar": 7931,
      "ĠToday": 7932,
      "Ġgri": 7933,
      "Ġgang": 7934,
      "Ġgates": 7935,
      "vere": 7936,
      "icy": 7937,
      "ĠHat": 7938,
      "ĠHum": 7939,
      "ĠHul": 7940,
      "ĠHive": 7941,
      "ĠHeret": 7942,
      "ĠHours": 7943,
      "ĠHedron": 7944,
      "Ġconce": 7945,
      "Ġconvoke": 7946,
      "verb": 7947,
      "ĠDak": 7948,
      "ĠDeth": 7949,
      "ĠDaring": 7950,
      "Ġinvisible": 7951,
      "Ġnav": 7952,
      "ielder": 7953,
      "astic": 7954,
      "ĠFest": 7955,
      "ĠFind": 7956,
      "ĠFug": 7957,
      "ĠFract": 7958,
      "utin": 7959,
      "asu": 7960,
      "asia": 7961,
      "ĠEater": 7962,
      "ĠEsc": 7963,
      "ĠErtai": 7964,
      "Ġwither": 7965,
      "ĠRow": 7966,
      "ĠRive": 7967,
      "ĠRush": 7968,
      "ĠRager": 7969,
      "ĠRonin": 7970,
      "ĠRasp": 7971,
      "ĠRhonas": 7972,
      "ĠMul": 7973,
      "ĠMade": 7974,
      "ĠMaw": 7975,
      "ĠMilit": 7976,
      "ĠMedic": 7977,
      "ĠMolten": 7978,
      "ĠLin": 7979,
      "ĠLon": 7980,
      "ĠLot": 7981,
      "ĠLamp": 7982,
      "ĠLumber": 7983,
      "ĠLab": 7984,
      "ĠPen": 7985,
      "ĠPant": 7986,
      "ĠPale": 7987,
      "ĠPiper": 7988,
      "ĠPardic": 7989,
      "ĠBor": 7990,
      "ĠBoth": 7991,
      "ĠBond": 7992,
      "ĠBarg": 7993,
      "ĠBoreal": 7994,
      "Ġregre": 7995,
      "Ġreplicate": 7996,
      "ĠGot": 7997,
      "ĠGle": 7998,
      "ĠGem": 7999,
      "ĠGryff": 8000,
      "Ġasks": 8001,
      "Ġdeb": 8002,
      "Ġdevel": 8003,
      "Ġendure": 8004,
      "Ġended": 8005,
      "Ġplants": 8006,
      "adia": 8007,
      "Ġspears": 8008,
      "Ġsphinx": 8009,
      "Ġspiders": 8010,
      "ellor": 8011,
      "Ġstate": 8012,
      "Ġstronghold": 8013,
      "ketra": 8014,
      "ostly": 8015,
      "egot": 8016,
      "cks": 8017,
      "Ġplays": 8018,
      "Ġattend": 8019,
      "aping": 8020,
      "imin": 8021,
      "imli": 8022,
      "ĠKro": 8023,
      "ĠKru": 8024,
      "ĠKath": 8025,
      "ĠKuld": 8026,
      "ĠOpp": 8027,
      "ĠOraz": 8028,
      "Ġcob": 8029,
      "Ġcovered": 8030,
      "ĠVr": 8031,
      "ĠVass": 8032,
      "ĠVarch": 8033,
      "ĠValer": 8034,
      "ĠViper": 8035,
      "ĠVigilant": 8036,
      "bris": 8037,
      "ĠSpeaker": 8038,
      "ĠNi": 8039,
      "ĠNest": 8040,
      "ĠNem": 8041,
      "ĠNeed": 8042,
      "ĠNurt": 8043,
      "izing": 8044,
      "ode": 8045,
      "odiment": 8046,
      "illiant": 8047,
      "Ġvault": 8048,
      "mentia": 8049,
      "igma": 8050,
      "estic": 8051,
      "ĠWarchief": 8052,
      "ieving": 8053,
      "Ġdoors": 8054,
      "Ġshred": 8055,
      "Ġshattered": 8056,
      "emon": 8057,
      "emeter": 8058,
      "ulator": 8059,
      "ulwark": 8060,
      "Ġperhaps": 8061,
      "ĠShow": 8062,
      "isters": 8063,
      "istic": 8064,
      "istrate": 8065,
      "eremon": 8066,
      "ĠXen": 8067,
      "unk": 8068,
      "unner": 8069,
      "mance": 8070,
      "mancer": 8071,
      "Ġkitsune": 8072,
      "dder": 8073,
      "ĠAsc": 8074,
      "ĠInvent": 8075,
      "ĠInvestig": 8076,
      "ĠThrash": 8077,
      "Ġtails": 8078,
      "ĠAng": 8079,
      "ĠAnnihilator": 8080,
      "ĠScound": 8081,
      "ĠScreeching": 8082,
      "ĠBeing": 8083,
      "ĠElementals": 8084,
      "Ġrace": 8085,
      "Ġalleg": 8086,
      "akim": 8087,
      "ustom": 8088,
      "phies": 8089,
      "Ġheed": 8090,
      "Ġheir": 8091,
      "inko": 8092,
      "ĠChanc": 8093,
      "Ġwherever": 8094,
      "itions": 8095,
      "Ġmyst": 8096,
      "Ġmyriad": 8097,
      "ĠSlick": 8098,
      "ewor": 8099,
      "Ġweary": 8100,
      "Ġvalley": 8101,
      "ĠFlayer": 8102,
      "ĠFlames": 8103,
      "Ġmech": 8104,
      "Ġmeals": 8105,
      "ĠConqu": 8106,
      "Ġdefenders": 8107,
      "Ġfled": 8108,
      "Ġflies": 8109,
      "Ġflour": 8110,
      "Ġunicorn": 8111,
      "Ġscar": 8112,
      "Ġjew": 8113,
      "Ġrob": 8114,
      "ilded": 8115,
      "ĠAngels": 8116,
      "ĠWeb": 8117,
      "Ġsoars": 8118,
      "ransp": 8119,
      "Ġdeaths": 8120,
      "Ġoutp": 8121,
      "aba": 8122,
      "abi": 8123,
      "ĠPlated": 8124,
      "pting": 8125,
      "pters": 8126,
      "Ġagents": 8127,
      "azri": 8128,
      "atched": 8129,
      "Ġsearched": 8130,
      "nery": 8131,
      "Ġprove": 8132,
      "Ġproof": 8133,
      "Ġrip": 8134,
      "Ġeverywhere": 8135,
      "ĠConstrict": 8136,
      "Ġmillenn": 8137,
      "ĠForgotten": 8138,
      "Ġlandscape": 8139,
      "ĠHermit": 8140,
      "Ġsecurity": 8141,
      "Ġpoor": 8142,
      "Ġswim": 8143,
      "Ġtradition": 8144,
      "Ġmonum": 8145,
      "ĠDinosaurs": 8146,
      "ĠSwine": 8147,
      "Ġfighter": 8148,
      "ĠServ": 8149,
      "ĠCliff": 8150,
      "Ġwhatever": 8151,
      "ggan": 8152,
      "ĠLeave": 8153,
      "ĠRemember": 8154,
      "reader": 8155,
      "ĠSneak": 8156,
      "Ġthroughout": 8157,
      "Ġevening": 8158,
      "ĠSeason": 8159,
      "beat": 8160,
      "Ġadop": 8161,
      "Ġdevoted": 8162,
      "Ġdevoured": 8163,
      "ocal": 8164,
      "ĠPrec": 8165,
      "vised": 8166,
      "Ġdesire": 8167,
      "Ġbetray": 8168,
      "Ġcreating": 8169,
      "Ġglowing": 8170,
      "ĠImprint": 8171,
      "rides": 8172,
      "riders": 8173,
      "ĠProgress": 8174,
      "ĠProgen": 8175,
      "Ġguilt": 8176,
      "ĠSquire": 8177,
      "Ġappears": 8178,
      "arbage": 8179,
      "Ġfinds": 8180,
      "Ġdisaster": 8181,
      "Ġdisapp": 8182,
      "Ġeffic": 8183,
      "ĠWarlocks": 8184,
      "Ġkeeping": 8185,
      "Ġcarved": 8186,
      "ĠSilence": 8187,
      "ĠSilencer": 8188,
      "underer": 8189,
      "ĠParty": 8190,
      "ships": 8191,
      "Ġexploit": 8192,
      "resher": 8193,
      "ĠTrapper": 8194,
      "ĠCopper": 8195,
      "ĠGods": 8196,
      "ĠBrown": 8197,
      "Ġskyknight": 8198,
      "ĠFoods": 8199,
      "ĠArcanist": 8200,
      "ĠHarrier": 8201,
      "ĠAbs": 8202,
      "ĠGnarl": 8203,
      "ĠPermanent": 8204,
      "formance": 8205,
      "Ġcontains": 8206,
      "ynx": 8207,
      "Ġprayers": 8208,
      "ĠSurveil": 8209,
      "ĠColony": 8210,
      "ĠWithout": 8211,
      "Ġfarmer": 8212,
      "ĠResolute": 8213,
      "Ġcuriosity": 8214,
      "echn": 8215,
      "ĠGargantu": 8216,
      "Ġcruelty": 8217,
      "ĠWilds": 8218,
      "ĠAurora": 8219,
      "ĠAgents": 8220,
      "Ġblessings": 8221,
      "ĠGorilla": 8222,
      "ĠInfern": 8223,
      "ĠInfernal": 8224,
      "ĠSynd": 8225,
      "ĠSymb": 8226,
      "Ġcareful": 8227,
      "ĠEternals": 8228,
      "rusher": 8229,
      "Ġelsewhere": 8230,
      "teller": 8231,
      "Ġmember": 8232,
      "Ġimpossible": 8233,
      "Ġthousands": 8234,
      "ĠDuke": 8235,
      "Ġterrifying": 8236,
      "ĠRaksh": 8237,
      "ĠPeace": 8238,
      "ĠLooter": 8239,
      "volution": 8240,
      "Ġpacks": 8241,
      "ĠAmong": 8242,
      "ĠAmber": 8243,
      "ĠKarplus": 8244,
      "ĠBarrier": 8245,
      "Ġinspired": 8246,
      "ĠCarrier": 8247,
      "Ġhoard": 8248,
      "Ġhoof": 8249,
      "Ġvision": 8250,
      "hetto": 8251,
      "ĠBroker": 8252,
      "Ġcollection": 8253,
      "Ġexperien": 8254,
      "Ġexperiment": 8255,
      "ammasu": 8256,
      "itesail": 8257,
      "Ġwhispered": 8258,
      "ĠDarksteel": 8259,
      "ĠMoor": 8260,
      "ĠMoons": 8261,
      "Ġrespons": 8262,
      "ĠObserver": 8263,
      "Another": 8264,
      "ĠSavior": 8265,
      "ĠPrimeval": 8266,
      "Ġprecombat": 8267,
      "Ġcarrying": 8268,
      "ĠMaybe": 8269,
      "ĠVolcan": 8270,
      "ĠCurse": 8271,
      "Ġsquad": 8272,
      "Ġsquirrel": 8273,
      "Ġdestructive": 8274,
      "Ġproduces": 8275,
      "Ġwishes": 8276,
      "they": 8277,
      "Ġpersist": 8278,
      "ĠApex": 8279,
      "ĠAphetto": 8280,
      "ĠWays": 8281,
      "ĠFallaji": 8282,
      "Ġunpredict": 8283,
      "Ġfunction": 8284,
      "ĠWoodland": 8285,
      "Ġharmless": 8286,
      "Ġsolid": 8287,
      "ĠNatural": 8288,
      "Ġveter": 8289,
      "ĠWhisperer": 8290,
      "ĠDefiant": 8291,
      "ĠVermin": 8292,
      "Ġjoined": 8293,
      "ouncing": 8294,
      "Ġthreaten": 8295,
      "ĠLorehold": 8296,
      "ĠBogardan": 8297,
      "ĠPrahv": 8298,
      "rieking": 8299,
      "Ġresearcher": 8300,
      "Ġsavage": 8301,
      "ĠHalimar": 8302,
      "ĠEvil": 8303,
      "Ġdemons": 8304,
      "Ġsuffering": 8305,
      "Ġpleasure": 8306,
      "Ġarchers": 8307,
      "ĠGarruk": 8308,
      "Ġempire": 8309,
      "Ġheavens": 8310,
      "Ġtrophies": 8311,
      "Ġcultiv": 8312,
      "ĠAscendant": 8313,
      "Ġfortress": 8314,
      "Ġviolent": 8315,
      "Ġdestiny": 8316,
      "eddler": 8317,
      "ĠDariga": 8318,
      "ĠLurker": 8319,
      "Ġrebell": 8320,
      "ĠKillbot": 8321,
      "ĠÃĨ": 8322,
      "ĠÃī": 8323,
      "Ġprowess": 8324,
      "Ġwanders": 8325,
      "ĠRamos": 8326,
      "ĠShambling": 8327,
      "eemed": 8328,
      "Ġwearing": 8329,
      "ĠTimber": 8330,
      "Ġunspent": 8331,
      "goblin": 8332,
      "Ġhatred": 8333,
      "ĠZhalfirin": 8334,
      "Ġtrolls": 8335,
      "Ġbalance": 8336,
      "Ġwinged": 8337,
      "ĠDistrict": 8338,
      "Ġspectacle": 8339,
      "ĠAlaborn": 8340,
      "ĠPhantasmal": 8341,
      "ĠSigardian": 8342,
      "sionic": 8343,
      "Ġbrief": 8344,
      "Ġbonds": 8345,
      "Ġpunish": 8346,
      "ĠMachines": 8347,
      "Ġswarmed": 8348,
      "Ġchallenge": 8349,
      "Ġreflection": 8350,
      "Ġseparately": 8351,
      "ĠFriend": 8352,
      "graf": 8353,
      "Ġingen": 8354,
      "Ġwoven": 8355,
      "ĠDrana": 8356,
      "Ġsurround": 8357,
      "Ġdisplay": 8358,
      "ĠOmnath": 8359,
      "Ġbargained": 8360,
      "Ġpostcombat": 8361,
      "Ġeventually": 8362,
      "ĠScrapper": 8363,
      "ĠDeceiver": 8364,
      "Ġravenous": 8365,
      "ĠCyberman": 8366,
      "ĠCobra": 8367,
      "Ġfetch": 8368,
      "ĠTakeno": 8369,
      "ĠResearcher": 8370,
      "Ġzombie": 8371,
      "ĠMarchesa": 8372,
      "ĠPangolin": 8373,
      "Ġarcane": 8374,
      "Ġclimb": 8375,
      "Ġgladly": 8376,
      "Ġappetite": 8377,
      "ĠVerdant": 8378,
      "Ġrebuild": 8379,
      "Blade": 8380,
      "Headed": 8381,
      "ĠArashin": 8382,
      "ĠKelsinko": 8383,
      "Ġinhabitants": 8384,
      "Ġinfluence": 8385,
      "Ġcrimes": 8386,
      "Ġaugment": 8387,
      "ĠCourser": 8388,
      "Ġfrozen": 8389,
      "Ġfertile": 8390,
      "ĠSauron": 8391,
      "ĠDredge": 8392,
      "ĠPearl": 8393,
      "ĠBenthic": 8394,
      "ĠKrark": 8395,
      "Ġsharpen": 8396,
      "Ġscraps": 8397,
      "ĠAbyssal": 8398,
      "ĠFerocious": 8399,
      "ĠAmplify": 8400,
      "While": 8401,
      "Ġzeal": 8402,
      "ĠRitualist": 8403,
      "Ġlikely": 8404,
      "ĠKongming": 8405,
      "ĠValkyrie": 8406,
      "ĠShuffle": 8407,
      "Phyrexian": 8408,
      "ĠWilson": 8409,
      "Ġlargest": 8410,
      "ĠTolaria": 8411,
      "ĠHeretic": 8412,
      "ĠDethrone": 8413,
      "ĠEscort": 8414,
      "ĠRasputin": 8415,
      "ĠBargain": 8416,
      "Ġdevelop": 8417,
      "ĠKuldotha": 8418,
      "ĠOrazca": 8419,
      "ĠVassal": 8420,
      "ĠVarchild": 8421,
      "ĠValeron": 8422,
      "emetery": 8423,
      "ĠScoundrel": 8424,
      "ĠChancellor": 8425,
      "ĠDarigaaz": 8426,
      "Af": 8427,
      "Con": 8428,
      "Discard": 8429,
      "Femeref": 8430,
      "HH": 8431,
      "Mage": 8432,
      "On": 8433,
      "One": 8434,
      "Sacrifice": 8435,
      "Sisay": 8436,
      "aan": 8437,
      "ael": 8438,
      "aum": 8439,
      "ahe": 8440,
      "ables": 8441,
      "bal": 8442,
      "bark": 8443,
      "bug": 8444,
      "brid": 8445,
      "binder": 8446,
      "cut": 8447,
      "cons": 8448,
      "cely": 8449,
      "coon": 8450,
      "ccess": 8451,
      "ea": 8452,
      "eat": 8453,
      "finder": 8454,
      "gs": 8455,
      "gill": 8456,
      "hel": 8457,
      "hall": 8458,
      "hammer": 8459,
      "ji": 8460,
      "ju": 8461,
      "kh": 8462,
      "kos": 8463,
      "kwood": 8464,
      "khet": 8465,
      "mor": 8466,
      "matic": 8467,
      "net": 8468,
      "off": 8469,
      "pents": 8470,
      "rou": 8471,
      "rand": 8472,
      "rance": 8473,
      "rison": 8474,
      "some": 8475,
      "tes": 8476,
      "tabi": 8477,
      "vil": 8478,
      "vold": 8479,
      "vious": 8480,
      "wain": 8481,
      "worm": 8482,
      "witch": 8483,
      "yre": 8484,
      "yan": 8485,
      "ythe": 8486,
      "zawa": 8487,
      "Ãº": 8488,
      "Ġed": 8489,
      "rek": 8490,
      "rem": 8491,
      "rester": 8492,
      "reamed": 8493,
      "Ġtit": 8494,
      "Ġtight": 8495,
      "Ġtitan": 8496,
      "Ġtastes": 8497,
      "Ġtonight": 8498,
      "eru": 8499,
      "atami": 8500,
      "atrice": 8501,
      "ences": 8502,
      "ounder": 8503,
      "Ġcage": 8504,
      "Ġcities": 8505,
      "Ġcats": 8506,
      "Ġcaval": 8507,
      "Ġthieves": 8508,
      "inker": 8509,
      "arry": 8510,
      "fted": 8511,
      "iting": 8512,
      "itality": 8513,
      "onna": 8514,
      "Ġbi": 8515,
      "Ġbend": 8516,
      "Ġbot": 8517,
      "Ġbent": 8518,
      "Ġbait": 8519,
      "ĠCould": 8520,
      "ĠCrow": 8521,
      "ĠCrag": 8522,
      "ĠCrafter": 8523,
      "ĠCemetery": 8524,
      "othec": 8525,
      "Ġyield": 8526,
      "exp": 8527,
      "Ġsam": 8528,
      "Ġsit": 8529,
      "Ġstro": 8530,
      "Ġsang": 8531,
      "Ġsens": 8532,
      "Ġsiege": 8533,
      "isse": 8534,
      "isons": 8535,
      "isma": 8536,
      "Ġdive": 8537,
      "Ġdise": 8538,
      "Ġdjinn": 8539,
      "Ġdryad": 8540,
      "Ġdinner": 8541,
      "ametra": 8542,
      "Ġfit": 8543,
      "Ġfel": 8544,
      "Ġfix": 8545,
      "Ġfinger": 8546,
      "Ġfungus": 8547,
      "Ġfuse": 8548,
      "Ġfalcon": 8549,
      "Ġfurnace": 8550,
      "Ġfrenz": 8551,
      "Ġfirm": 8552,
      "Ġwreck": 8553,
      "Ġwitness": 8554,
      "Ġwaits": 8555,
      "ĠWy": 8556,
      "ĠWings": 8557,
      "ĠWrath": 8558,
      "ĠWelcome": 8559,
      "Ġtooth": 8560,
      "Ġtomb": 8561,
      "Ġpier": 8562,
      "Ġpoll": 8563,
      "Ġpolis": 8564,
      "Ġmour": 8565,
      "Ġmood": 8566,
      "Ġmarch": 8567,
      "Ġmidnight": 8568,
      "ĠSower": 8569,
      "ĠSle": 8570,
      "ĠSad": 8571,
      "ĠSare": 8572,
      "ĠSail": 8573,
      "ĠSoon": 8574,
      "ĠSouth": 8575,
      "ĠSister": 8576,
      "ĠSewer": 8577,
      "Ġlink": 8578,
      "Ġlosing": 8579,
      "Ġlatest": 8580,
      "ilon": 8581,
      "ilight": 8582,
      "ilus": 8583,
      "Ġhook": 8584,
      "Ġhides": 8585,
      "Ġhours": 8586,
      "urist": 8587,
      "urry": 8588,
      "urper": 8589,
      "ifying": 8590,
      "henge": 8591,
      "edient": 8592,
      "ĠAber": 8593,
      "ĠAcl": 8594,
      "ĠAmon": 8595,
      "ĠAxe": 8596,
      "ĠAjani": 8597,
      "ĠTusk": 8598,
      "ĠTaze": 8599,
      "ĠTarl": 8600,
      "ĠTunn": 8601,
      "ĠTahngarth": 8602,
      "ĠTireless": 8603,
      "Ġ15": 8604,
      "Ġgale": 8605,
      "Ġglyph": 8606,
      "ican": 8607,
      "ĠHopl": 8608,
      "Ġconv": 8609,
      "Ġcondu": 8610,
      "verguard": 8611,
      "oman": 8612,
      "ĠDan": 8613,
      "ĠDam": 8614,
      "Ġinch": 8615,
      "Ġinvol": 8616,
      "Ġnurt": 8617,
      "Ġbattles": 8618,
      "astria": 8619,
      "ĠFr": 8620,
      "ĠFen": 8621,
      "ĠFal": 8622,
      "ĠFell": 8623,
      "ĠFour": 8624,
      "ĠFive": 8625,
      "ĠFolk": 8626,
      "ĠFront": 8627,
      "utation": 8628,
      "irk": 8629,
      "ithe": 8630,
      "Ġeag": 8631,
      "Ġease": 8632,
      "Ġeternity": 8633,
      "asaur": 8634,
      "Ġturning": 8635,
      "oles": 8636,
      "ĠEight": 8637,
      "ĠRain": 8638,
      "ĠRap": 8639,
      "ĠRish": 8640,
      "ĠMac": 8641,
      "ĠMol": 8642,
      "ĠMap": 8643,
      "ĠMimic": 8644,
      "ĠMesa": 8645,
      "ĠMasked": 8646,
      "ĠLy": 8647,
      "ĠLat": 8648,
      "ĠLine": 8649,
      "ĠLuk": 8650,
      "ĠLittle": 8651,
      "ĠLynx": 8652,
      "ĠPix": 8653,
      "ĠProud": 8654,
      "ĠPeak": 8655,
      "ĠPony": 8656,
      "ĠPrime": 8657,
      "ĠPris": 8658,
      "riage": 8659,
      "riek": 8660,
      "ĠBay": 8661,
      "ĠBlo": 8662,
      "ĠBomb": 8663,
      "ĠBree": 8664,
      "ĠBorn": 8665,
      "ĠBull": 8666,
      "ĠBann": 8667,
      "ĠBreak": 8668,
      "ĠBridge": 8669,
      "ĠBorder": 8670,
      "ĠGig": 8671,
      "ĠGrot": 8672,
      "ĠGalad": 8673,
      "ĠGrove": 8674,
      "ĠGandalf": 8675,
      "ackle": 8676,
      "roma": 8677,
      "Ġforb": 8678,
      "Ġforges": 8679,
      "Ġmayhem": 8680,
      "adil": 8681,
      "adier": 8682,
      "Ġspot": 8683,
      "Ġspawn": 8684,
      "ellan": 8685,
      "ellent": 8686,
      "Ġsting": 8687,
      "Ġstitch": 8688,
      "Ġstuck": 8689,
      "Ġstolen": 8690,
      "Ġcann": 8691,
      "egis": 8692,
      "eguard": 8693,
      "antic": 8694,
      "ckatrice": 8695,
      "etah": 8696,
      "Ġliqu": 8697,
      "imber": 8698,
      "ĠKer": 8699,
      "ĠKelp": 8700,
      "ĠKalad": 8701,
      "ĠKitchen": 8702,
      "Ġlifetime": 8703,
      "ĠOcc": 8704,
      "Ġgrass": 8705,
      "ruum": 8706,
      "ruption": 8707,
      "ampions": 8708,
      "ĠVind": 8709,
      "ĠVirt": 8710,
      "ĠVenom": 8711,
      "ĠVandal": 8712,
      "ĠVraska": 8713,
      "aveti": 8714,
      "brute": 8715,
      "ĠSpitting": 8716,
      "ĠNef": 8717,
      "ĠNum": 8718,
      "ĠNear": 8719,
      "ĠNoggle": 8720,
      "Ġanymore": 8721,
      "odons": 8722,
      "Ġlibraries": 8723,
      "using": 8724,
      "ively": 8725,
      "Ġshows": 8726,
      "Ġshimmer": 8727,
      "Ġshores": 8728,
      "emble": 8729,
      "Ġperformance": 8730,
      "ĠShire": 8731,
      "ĠShattered": 8732,
      "alline": 8733,
      "ista": 8734,
      "aved": 8735,
      "ogriff": 8736,
      "Ġkick": 8737,
      "Ġdrawing": 8738,
      "comp": 8739,
      "Ġeng": 8740,
      "ĠAshen": 8741,
      "ĠInfinite": 8742,
      "inds": 8743,
      "ĠThird": 8744,
      "ĠUgin": 8745,
      "ĠUme": 8746,
      "Ġcolored": 8747,
      "ĠDraz": 8748,
      "Ġnotice": 8749,
      "ĠElec": 8750,
      "Ġinstances": 8751,
      "hyl": 8752,
      "Ġequally": 8753,
      "ĠAnn": 8754,
      "ĠScal": 8755,
      "ĠScri": 8756,
      "ĠBec": 8757,
      "Ġamid": 8758,
      "iples": 8759,
      "ipline": 8760,
      "Ġring": 8761,
      "Ġrange": 8762,
      "arting": 8763,
      "aki": 8764,
      "ĠSton": 8765,
      "ĠStrike": 8766,
      "ĠStens": 8767,
      "ĠSteadfast": 8768,
      "ĠExchange": 8769,
      "ĠExecutioner": 8770,
      "phix": 8771,
      "Ġchains": 8772,
      "Ġchannel": 8773,
      "ĠArdent": 8774,
      "ĠArwen": 8775,
      "shell": 8776,
      "shark": 8777,
      "opard": 8778,
      "Ġremn": 8779,
      "ĠChicken": 8780,
      "ĠJab": 8781,
      "ĠJavel": 8782,
      "ishana": 8783,
      "Ġweal": 8784,
      "Ġweird": 8785,
      "Ġweather": 8786,
      "Ġweeks": 8787,
      "ĠMerry": 8788,
      "ĠFlint": 8789,
      "ĠFlaming": 8790,
      "Ġflicker": 8791,
      "Ġflowstone": 8792,
      "Ġunm": 8793,
      "Ġunseen": 8794,
      "Ġunravel": 8795,
      "Ġunexp": 8796,
      "ĠSkittering": 8797,
      "assion": 8798,
      "ineer": 8799,
      "Ġunleash": 8800,
      "Ġherbs": 8801,
      "Ġscale": 8802,
      "Ġschem": 8803,
      "Ġworsh": 8804,
      "Ġpref": 8805,
      "ecially": 8806,
      "Ġsoar": 8807,
      "Ġarcher": 8808,
      "Ġouts": 8809,
      "ĠCats": 8810,
      "ormant": 8811,
      "aby": 8812,
      "spire": 8813,
      "atory": 8814,
      "ĠPlunderer": 8815,
      "ptions": 8816,
      "Ġourselves": 8817,
      "Ġcommun": 8818,
      "azi": 8819,
      "azz": 8820,
      "Ġskilled": 8821,
      "Ġskips": 8822,
[...]
