{
  "version": "1.0",
  "truncation": {
    "direction": "Right",
    "max_length": 125,
    "strategy": "LongestFirst",
    "stride": 0
  },
  "padding": {
    "strategy": {
      "Fixed": 125
    },
    "direction": "Right",
    "pad_to_multiple_of": null,
    "pad_id": 0,
    "pad_type_id": 0,
    "pad_token": "<pad>"
  },
  "added_tokens": [
    {
      "id": 0,
      "content": "<pad>",
      "single_word": false,
      "lstrip": false,
      "rstrip": false,
      "normalized": false,
      "special": true
    },
    {
      "id": 1,
      "content": "<sos>",
      "single_word": false,
      "lstrip": false,
      "rstrip": false,
      "normalized": false,
      "special": true
    },
    {
      "id": 2,
      "content": "<eos>",
      "single_word": false,
      "lstrip": false,
      "rstrip": false,
      "normalized": false,
      "special": true
    },
    {
      "id": 3,
      "content": "<unk>",
      "single_word": false,
      "lstrip": false,
      "rstrip": false,
      "normalized": false,
      "special": true
    },
    {
      "id": 4,
      "content": "<tl>",
      "single_word": false,
      "lstrip": false,
      "rstrip": false,
      "normalized": false,
      "special": true
    },
    {
      "id": 5,
      "content": "<name>",
      "single_word": false,
      "lstrip": false,
      "rstrip": false,
      "normalized": false,
      "special": true
    },
    {
      "id": 6,
      "content": "<mc>",
      "single_word": false,
      "lstrip": false,
      "rstrip": false,
      "normalized": false,
      "special": true
    },
    {
      "id": 7,
      "content": "<ot>",
      "single_word": false,
      "lstrip": false,
      "rstrip": false,
      "normalized": false,
      "special": true
    },
    {
      "id": 8,
      "content": "<power>",
      "single_word": false,
      "lstrip": false,
      "rstrip": false,
      "normalized": false,
      "special": true
    },
    {
      "id": 9,
      "content": "<toughness>",
      "single_word": false,
      "lstrip": false,
      "rstrip": false,
      "normalized": false,
      "special": true
    },
    {
      "id": 10,
      "content": "<loyalty>",
      "single_word": false,
      "lstrip": false,
      "rstrip": false,
      "normalized": false,
      "special": true
    },
    {
      "id": 11,
      "content": "<ft>",
      "single_word": false,
      "lstrip": false,
      "rstrip": false,
      "normalized": false,
      "special": true
    },
    {
      "id": 12,
      "content": "<nl>",
      "single_word": false,
      "lstrip": false,
      "rstrip": false,
      "normalized": false,
      "special": true
    },
    {
      "id": 13,
      "content": "<\\tl>",
      "single_word": false,
      "lstrip": false,
      "rstrip": false,
      "normalized": false,
      "special": true
    },
    {
      "id": 14,
      "content": "<\\name>",
      "single_word": false,
      "lstrip": false,
      "rstrip": false,
      "normalized": false,
      "special": true
    },
    {
      "id": 15,
      "content": "<\\mc>",
      "single_word": false,
      "lstrip": false,
      "rstrip": false,
      "normalized": false,
      "special": true
    },
    {
      "id": 16,
      "content": "<\\ot>",
      "single_word": false,
      "lstrip": false,
      "rstrip": false,
      "normalized": false,
      "special": true
    },
    {
      "id": 17,
      "content": "<\\power>",
      "single_word": false,
      "lstrip": false,
      "rstrip": false,
      "normalized": false,
      "special": true
    },
    {
      "id": 18,
      "content": "<\\toughness>",
      "single_word": false,
      "lstrip": false,
      "rstrip": false,
      "normalized": false,
      "special": true
    },
    {
      "id": 19,
      "content": "<\\loyalty>",
      "single_word": false,
      "lstrip": false,
      "rstrip": false,
      "normalized": false,
      "special": true
    },
    {
      "id": 20,
      "content": "<\\ft>",
      "single_word": false,
      "lstrip": false,
      "rstrip": false,
      "normalized": false,
      "special": true
    },
    {
      "id": 21,
      "content": "{W}",
      "single_word": false,
      "lstrip": false,
      "rstrip": false,
      "normalized": false,
      "special": true
    },
    {
      "id": 22,
      "content": "{U}",
      "single_word": false,
      "lstrip": false,
      "rstrip": false,
      "normalized": false,
      "special": true
    },
    {
      "id": 23,
      "content": "{B}",
      "single_word": false,
      "lstrip": false,
      "rstrip": false,
      "normalized": false,
      "special": true
    },
    {
      "id": 24,
      "content": "{R}",
      "single_word": false,
      "lstrip": false,
      "rstrip": false,
      "normalized": false,
      "special": true
    },
    {
      "id": 25,
      "content": "{G}",
      "single_word": false,
      "lstrip": false,
      "rstrip": false,
      "normalized": false,
      "special": true
    },
    {
      "id": 26,
      "content": "{C}",
      "single_word": false,
      "lstrip": false,
      "rstrip": false,
      "normalized": false,
      "special": true
    },
    {
      "id": 27,
      "content": "{X}",
      "single_word": false,
      "lstrip": false,
      "rstrip": false,
      "normalized": false,
      "special": true
    },
    {
      "id": 28,
      "content": "{1}",
      "single_word": false,
      "lstrip": false,
      "rstrip": false,
      "normalized": false,
      "special": true
    },
    {
      "id": 29,
      "content": "{2}",
      "single_word": false,
      "lstrip": false,
      "rstrip": false,
      "normalized": false,
      "special": true
    },
    {
      "id": 30,
      "content": "{3}",
      "single_word": false,
      "lstrip": false,
      "rstrip": false,
      "normalized": false,
      "special": true
    },
    {
      "id": 31,
      "content": "{4}",
      "single_word": false,
      "lstrip": false,
      "rstrip": false,
      "normalized": false,
      "special": true
    },
    {
      "id": 32,
      "content": "{5}",
      "single_word": false,
      "lstrip": false,
      "rstrip": false,
      "normalized": false,
      "special": true
    },
    {
      "id": 33,
      "content": "{6}",
      "single_word": false,
      "lstrip": false,
      "rstrip": false,
      "normalized": false,
      "special": true
    },
    {
      "id": 34,
      "content": "{7}",
      "single_word": false,
      "lstrip": false,
      "rstrip": false,
      "normalized": false,
      "special": true
    },
    {
      "id": 35,
      "content": "{8}",
      "single_word": false,
      "lstrip": false,
      "rstrip": false,
      "normalized": false,
      "special": true
    },
    {
      "id": 36,
      "content": "{9}",
      "single_word": false,
      "lstrip": false,
      "rstrip": false,
      "normalized": false,
      "special": true
    },
    {
      "id": 37,
      "content": "{10}",
      "single_word": false,
      "lstrip": false,
      "rstrip": false,
      "normalized": false,
      "special": true
    },
    {
      "id": 38,
      "content": "{11}",
      "single_word": false,
      "lstrip": false,
      "rstrip": false,
      "normalized": false,
      "special": true
    },
    {
      "id": 39,
      "content": "{12}",
      "single_word": false,
      "lstrip": false,
      "rstrip": false,
      "normalized": false,
      "special": true
    },
    {
      "id": 40,
      "content": "{13}",
      "single_word": false,
      "lstrip": false,
      "rstrip": false,
      "normalized": false,
      "special": true
    },
    {
      "id": 41,
      "content": "{14}",
      "single_word": false,
      "lstrip": false,
      "rstrip": false,
      "normalized": false,
      "special": true
    },
    {
      "id": 42,
      "content": "{15}",
      "single_word": false,
      "lstrip": false,
      "rstrip": false,
      "normalized": false,
      "special": true
    },
    {
      "id": 43,
      "content": "+1/+1",
      "single_word": false,
      "lstrip": false,
      "rstrip": false,
      "normalized": false,
      "special": true
    }
  ],
  "normalizer": null,
  "pre_tokenizer": {
    "type": "Whitespace"
  },
  "post_processor": null,
  "decoder": null,
  "model": {
    "type": "WordPiece",
    "unk_token": "[UNK]",
    "continuing_subword_prefix": "##",
    "max_input_chars_per_word": 100,
    "vocab": {
      "<pad>": 0,
      "<sos>": 1,
      "<eos>": 2,
      "<unk>": 3,
      "<tl>": 4,
      "<name>": 5,
      "<mc>": 6,
      "<ot>": 7,
      "<power>": 8,
      "<toughness>": 9,
      "<loyalty>": 10,
      "<ft>": 11,
      "<nl>": 12,
      "<\\tl>": 13,
      "<\\name>": 14,
      "<\\mc>": 15,
      "<\\ot>": 16,
      "<\\power>": 17,
      "<\\toughness>": 18,
      "<\\loyalty>": 19,
      "<\\ft>": 20,
      "{W}": 21,
      "{U}": 22,
      "{B}": 23,
      "{R}": 24,
      "{G}": 25,
      "{C}": 26,
      "{X}": 27,
      "{1}": 28,
      "{2}": 29,
      "{3}": 30,
      "{4}": 31,
      "{5}": 32,
      "{6}": 33,
      "{7}": 34,
      "{8}": 35,
      "{9}": 36,
      "{10}": 37,
      "{11}": 38,
      "{12}": 39,
      "{13}": 40,
      "{14}": 41,
      "{15}": 42,
      "+1/+1": 43,
      "!": 44,
      "\"": 45,
      "#": 46,
      "$": 47,
      "%": 48,
      "&": 49,
      "'": 50,
      "(": 51,
      ")": 52,
      "*": 53,
      "+": 54,
      ",": 55,
      "-": 56,
      ".": 57,
      "/": 58,
      "0": 59,
      "1": 60,
      "2": 61,
      "3": 62,
      "4": 63,
      "5": 64,
      "6": 65,
      "7": 66,
      "8": 67,
      "9": 68,
      ":": 69,
      ";": 70,
      "<": 71,
      "=": 72,
      ">": 73,
      "?": 74,
      "@": 75,
      "A": 76,
      "B": 77,
      "C": 78,
      "D": 79,
      "E": 80,
      "F": 81,
      "G": 82,
      "H": 83,
      "I": 84,
      "J": 85,
      "K": 86,
      "L": 87,
      "M": 88,
      "N": 89,
      "O": 90,
      "P": 91,
      "Q": 92,
      "R": 93,
      "S": 94,
      "T": 95,
      "U": 96,
      "V": 97,
      "W": 98,
      "X": 99,
      "Y": 100,
      "Z": 101,
      "[": 102,
      "\\": 103,
      "]": 104,
      "^": 105,
      "_": 106,
      "a": 107,
      "b": 108,
      "c": 109,
      "d": 110,
      "e": 111,
      "f": 112,
      "g": 113,
      "h": 114,
      "i": 115,
      "j": 116,
      "k": 117,
      "l": 118,
      "m": 119,
      "n": 120,
      "o": 121,
      "p": 122,
      "q": 123,
      "r": 124,
      "s": 125,
      "t": 126,
      "u": 127,
      "v": 128,
      "w": 129,
      "x": 130,
      "y": 131,
      "z": 132,
      "{": 133,
      "|": 134,
      "}": 135,
      "~": 136,
      "¡": 137,
      "®": 138,
      "°": 139,
      "²": 140,
      "½": 141,
      "Ä": 142,
      "Æ": 143,
      "É": 144,
      "Ó": 145,
      "à": 146,
      "á": 147,
      "â": 148,
      "ä": 149,
      "æ": 150,
      "è": 151,
      "é": 152,
      "í": 153,
      "î": 154,
      "ï": 155,
      "ñ": 156,
      "ó": 157,
      "ö": 158,
      "ú": 159,
      "û": 160,
      "ü": 161,
      "ý": 162,
      "ī": 163,
      "œ": 164,
      "˝": 165,
      "̶": 166,
      "π": 167,
      "—": 168,
      "•": 169,
      "™": 170,
      "→": 171,
      "−": 172,
      "√": 173,
      "∞": 174,
      "☐": 175,
      "꞉": 176,
      "##e": 177,
      "##a": 178,
      "##c": 179,
      "##l": 180,
      "##i": 181,
      "##f": 182,
      "##u": 183,
      "##x": 184,
      "##r": 185,
      "##y": 186,
      "##o": 187,
      "##m": 188,
      "##t": 189,
      "##d": 190,
      "##g": 191,
      "##n": 192,
      "##h": 193,
      "##s": 194,
      "##k": 195,
      "##b": 196,
      "##p": 197,
      "##z": 198,
      "##w": 199,
      "##v": 200,
      "##O": 201,
      "##M": 202,
      "##û": 203,
      "##)": 204,
      "##q": 205,
      "##9": 206,
      "##0": 207,
      "##j": 208,
      "##B": 209,
      "##C": 210,
      "##,": 211,
      "##é": 212,
      "##S": 213,
      "##A": 214,
      "##R": 215,
      "##D": 216,
      "##I": 217,
      "##2": 218,
      "##4": 219,
      "##5": 220,
      "##3": 221,
      "##E": 222,
      "##L": 223,
      "##P": 224,
      "##\\": 225,
      "##V": 226,
      "##1": 227,
      "##N": 228,
      "##:": 229,
      "##ó": 230,
      "##6": 231,
      "##∞": 232,
      "##}": 233,
      "##.": 234,
      "##̶": 235,
      "##â": 236,
      "##\"": 237,
      "##<": 238,
      "##K": 239,
      "##Y": 240,
      "##U": 241,
      "##T": 242,
      "##W": 243,
      "##H": 244,
      "##?": 245,
      "##_": 246,
      "##—": 247,
      "##7": 248,
      "##X": 249,
      "##/": 250,
      "##'": 251,
      "##>": 252,
      "##8": 253,
      "##F": 254,
      "##ö": 255,
      "##œ": 256,
      "##è": 257,
      "##æ": 258,
      "##G": 259,
      "##^": 260,
      "##á": 261,
      "##ú": 262,
      "##+": 263,
      "##²": 264,
      "##ñ": 265,
      "##ü": 266,
      "##*": 267,
      "##½": 268,
      "##î": 269,
      "##]": 270,
      "##[": 271,
      "##-": 272,
      "##ý": 273,
      "##à": 274,
      "##J": 275,
      "##í": 276,
      "##−": 277,
      "##(": 278,
      "##;": 279,
      "##!": 280,
      "##=": 281,
      "##{": 282,
      "##ī": 283,
      "##~": 284,
      "##ä": 285,
      "##$": 286,
      "##|": 287,
      "##ï": 288,
      "<\\": 289,
      "##er": 290,
      "##ou": 291,
      "##re": 292,
      "##es": 293,
      "##al": 294,
      "##at": 295,
      "##nt": 296,
      "##am": 297,
      "th": 298,
      "##ow": 299,
      "##gh": 300,
      "##ess": 301,
      "##ar": 302,
      "lo": 303,
      "##ty": 304,
      "##ower": 305,
      "##ame": 306,
      "##ough": 307,
      "power": 308,
      "ot": 309,
      "##ness": 310,
      "name": 311,
      "tough": 312,
      "toughness": 313,
      "##yal": 314,
      "loyal": 315,
      "loyalty": 316,
      "ft": 317,
      "mc": 318,
      "tl": 319,
      "##reat": 320,
      "##nd": 321,
      "##ure": 322,
      "##reature": 323,
      "the": 324,
      "##in": 325,
      "##os": 326,
      "you": 327,
      "##an": 328,
      "##ac": 329,
      "##en": 330,
      "of": 331,
      "##or": 332,
      "\"<": 333,
      ">\"": 334,
      "><": 335,
      "eos": 336,
      "nl": 337,
      "##ro": 338,
      "##ard": 339,
      "creature": 340,
      "##ge": 341,
      "to": 342,
      "##st": 343,
      "##on": 344,
      "##ing": 345,
      "##is": 346,
      "##ed": 347,
      "##il": 348,
      "##ay": 349,
      "##ur": 350,
      "co": 351,
      "it": 352,
      "##it": 353,
      "##if": 354,
      "##el": 355,
      "card": 356,
      "##ent": 357,
      "Creature": 358,
      "on": 359,
      "##hen": 360,
      "##nter": 361,
      "##ra": 362,
      "##le": 363,
      "your": 364,
      "##ant": 365,
      "##ch": 366,
      "and": 367,
      "##ve": 368,
      "##arge": 369,
      "When": 370,
      "##rol": 371,
      "##et": 372,
      "##and": 373,
      "##arget": 374,
      "##ic": 375,
      "##urn": 376,
      "cont": 377,
      "control": 378,
      "an": 379,
      "##ut": 380,
      "##as": 381,
      "##ast": 382,
      "or": 383,
      "this": 384,
      "##ver": 385,
      "target": 386,
      "be": 387,
      "##ith": 388,
      "Th": 389,
      "##ir": 390,
      "##ly": 391,
      "turn": 392,
      "in": 393,
      "that": 394,
      "with": 395,
      "##nters": 396,
      ".)": 397,
      "##ach": 398,
      "de": 399,
      "pl": 400,
      "##um": 401,
      "##ell": 402,
      "sp": 403,
      "##om": 404,
      "##pp": 405,
      "##ot": 406,
      "for": 407,
      "##rom": 408,
      "##act": 409,
      "##her": 410,
      "##rt": 411,
      "cou": 412,
      "##ary": 413,
      "##nch": 414,
      "##ever": 415,
      "##nchant": 416,
      "/+": 417,
      "from": 418,
      "##rtif": 419,
      "unt": 420,
      "##age": 421,
      "is": 422,
      "##ain": 423,
      "may": 424,
      "##ion": 425,
      "at": 426,
      "##rtifact": 427,
      "end": 428,
      "##ad": 429,
      "as": 430,
      "enters": 431,
      "##ment": 432,
      "play": 433,
      "##ol": 434,
      "##ack": 435,
      "Whenever": 436,
      "spell": 437,
      "##ri": 438,
      "st": 439,
      "}:": 440,
      "##est": 441,
      "cast": 442,
      "player": 443,
      "##ep": 444,
      "its": 445,
      "##ct": 446,
      "##amage": 447,
      "each": 448,
      "damage": 449,
      "Enchant": 450,
      "until": 451,
      "bl": 452,
      "get": 453,
      "li": 454,
      "},": 455,
      "put": 456,
      "##ke": 457,
      "deal": 458,
      "You": 459,
      "can": 460,
      "In": 461,
      "##cer": 462,
      "re": 463,
      "The": 464,
      "cards": 465,
      "##id": 466,
      "##ice": 467,
      "##qu": 468,
      "##ap": 469,
      "##orcer": 470,
      "##ore": 471,
      "##ken": 472,
      "##orcery": 473,
      "ex": 474,
      "If": 475,
      "##nto": 476,
      "##rif": 477,
      "hand": 478,
      "gra": 479,
      "man": 480,
      "lif": 481,
      "##ho": 482,
      "creatures": 483,
      "##ck": 484,
      "##yard": 485,
      "grave": 486,
      "##lying": 487,
      "att": 488,
      "graveyard": 489,
      "gain": 490,
      "counter": 491,
      "##acrif": 492,
      "##stant": 493,
      "##ost": 494,
      "##ce": 495,
      "##br": 496,
      "##im": 497,
      "##att": 498,
      "##ll": 499,
      "##dd": 500,
      "##raw": 501,
      "one": 502,
      "##ile": 503,
      "life": 504,
      "##ose": 505,
      "##uman": 506,
      "##ght": 507,
      "opp": 508,
      "token": 509,
      "##eld": 510,
      "libr": 511,
      "up": 512,
      "##onent": 513,
      "library": 514,
      "Human": 515,
      "opponent": 516,
      "gets": 517,
      "deals": 518,
      "any": 519,
      "##ld": 520,
      "attack": 521,
      "mana": 522,
      "##acrifice": 523,
      "##ock": 524,
      "##ield": 525,
      "##attle": 526,
      "com": 527,
      "artifact": 528,
      "tw": 529,
      "their": 530,
      "##ate": 531,
      "sh": 532,
      "if": 533,
      "battle": 534,
      "##ies": 535,
      "Le": 536,
      "Instant": 537,
      "##ave": 538,
      "Enchantment": 539,
      "##ers": 540,
      "##ear": 541,
      "Artifact": 542,
      "##reate": 543,
      "##ill": 544,
      "##ight": 545,
      "cost": 546,
      "It": 547,
      "##gend": 548,
      "##field": 549,
      "two": 550,
      "battlefield": 551,
      "##ning": 552,
      "##od": 553,
      "into": 554,
      "Sorcery": 555,
      "##ue": 556,
      "##us": 557,
      "land": 558,
      "##gendary": 559,
      "block": 560,
      "##gin": 561,
      "##em": 562,
      "##erm": 563,
      "##pped": 564,
      "At": 565,
      "are": 566,
      "##amp": 567,
      "do": 568,
      "##ng": 569,
      "has": 570,
      "begin": 571,
      "all": 572,
      "have": 573,
      "##ber": 574,
      "##ble": 575,
      "Legendary": 576,
      "Flying": 577,
      "##erman": 578,
      "}.": 579,
      "Sp": 580,
      "beginning": 581,
      "##ermanent": 582,
      "##eturn": 583,
      "##ul": 584,
      "##iv": 585,
      "##ip": 586,
      "permanent": 587,
      "pay": 588,
      "then": 589,
      "more": 590,
      "##ace": 591,
      "##ie": 592,
      "only": 593,
      "##ig": 594,
      "ne": 595,
      "##isc": 596,
      "draw": 597,
      "##wn": 598,
      "This": 599,
      "##ru": 600,
      "##iz": 601,
      "Sacrifice": 602,
      "##lor": 603,
      "counters": 604,
      "##ect": 605,
      "As": 606,
      "##hoose": 607,
      "wh": 608,
      "##umber": 609,
      "by": 610,
      "##bat": 611,
      "top": 612,
      "Target": 613,
      "##ity": 614,
      "##ire": 615,
      "##iscard": 616,
      "number": 617,
      "##all": 618,
      "Add": 619,
      "ta": 620,
      "##old": 621,
      "own": 622,
      "##ff": 623,
      "Sh": 624,
      "##end": 625,
      "##av": 626,
      "combat": 627,
      "ab": 628,
      "##roy": 629,
      "##estroy": 630,
      "create": 631,
      "Equ": 632,
      "##less": 633,
      "##ker": 634,
      "##ath": 635,
      "##ree": 636,
      "##ere": 637,
      "other": 638,
      "##ist": 639,
      "they": 640,
      "color": 641,
      "##se": 642,
      "##ler": 643,
      "them": 644,
      "##ter": 645,
      "##com": 646,
      "exile": 647,
      "##th": 648,
      "##ind": 649,
      "gains": 650,
      "se": 651,
      "equ": 652,
      "##bl": 653,
      "le": 654,
      "ch": 655,
      "Re": 656,
      "##ag": 657,
      "##veal": 658,
      "##un": 659,
      "~.": 660,
      "was": 661,
      "War": 662,
      "##other": 663,
      "un": 664,
      "nan": 665,
      "attacks": 666,
      "Put": 667,
      "becom": 668,
      "Ex": 669,
      "enchant": 670,
      "##ould": 671,
      "##ite": 672,
      "##ian": 673,
      "step": 674,
      "no": 675,
      "##ime": 676,
      "long": 677,
      "##ood": 678,
      "non": 679,
      "add": 680,
      "##out": 681,
      "St": 682,
      "not": 683,
      "##ura": 684,
      "another": 685,
      "abil": 686,
      "flying": 687,
      "##ok": 688,
      "##keep": 689,
      "##irst": 690,
      "reveal": 691,
      "sorcery": 692,
      "blocked": 693,
      "tapped": 694,
      "##ead": 695,
      "##our": 696,
      "##ition": 697,
      "##ive": 698,
      "##here": 699,
      "equal": 700,
      "##ance": 701,
      "Equip": 702,
      "##ash": 703,
      "am": 704,
      "##xt": 705,
      "upkeep": 706,
      "less": 707,
      "would": 708,
      "##ry": 709,
      "##izard": 710,
      "##aste": 711,
      "##ier": 712,
      "##op": 713,
      "##nder": 714,
      "than": 715,
      "##og": 716,
      "##are": 717,
      "Draw": 718,
      "return": 719,
      "##rior": 720,
      "time": 721,
      "##ous": 722,
      "controls": 723,
      "De": 724,
      "##ample": 725,
      "Aura": 726,
      "becomes": 727,
      "three": 728,
      "##uff": 729,
      "discard": 730,
      "##ctiv": 731,
      "##own": 732,
      "##ation": 733,
      "next": 734,
      "##rample": 735,
      "An": 736,
      "Go": 737,
      "##ong": 738,
      "owner": 739,
      "but": 740,
      "##ust": 741,
      "Warrior": 742,
      "##wal": 743,
      "way": 744,
      "##one": 745,
      "~:": 746,
      "al": 747,
      "Exile": 748,
      "choose": 749,
      "##ven": 750,
      "sacrifice": 751,
      "addition": 752,
      "##land": 753,
      "Ar": 754,
      "dies": 755,
      "##earch": 756,
      "Wizard": 757,
      "fl": 758,
      "##ak": 759,
      "Fl": 760,
      "Sc": 761,
      "val": 762,
      "##hy": 763,
      "##ound": 764,
      "wor": 765,
      "face": 766,
      "Land": 767,
      "cop": 768,
      "Ch": 769,
      "he": 770,
      "##omb": 771,
      "Create": 772,
      "shuff": 773,
      "onto": 774,
      "bot": 775,
      "##rag": 776,
      "first": 777,
      "##yp": 778,
      "where": 779,
      "##irit": 780,
      "Return": 781,
      "##rike": 782,
      "##blin": 783,
      "El": 784,
      "rem": 785,
      "Sold": 786,
      "value": 787,
      "we": 788,
      "will": 789,
      "untap": 790,
      "Destroy": 791,
      "Each": 792,
      "Soldier": 793,
      "##art": 794,
      "typ": 795,
      "plan": 796,
      "##ses": 797,
      "strike": 798,
      "inst": 799,
      "##ctivate": 800,
      "haste": 801,
      "##ove": 802,
      "copy": 803,
      "me": 804,
      "Be": 805,
      "en": 806,
      "/-": 807,
      "Ele": 808,
      "({": 809,
      "under": 810,
      "those": 811,
      "Zomb": 812,
      "##ink": 813,
      "Spirit": 814,
      "##der": 815,
      "shuffle": 816,
      "Enchanted": 817,
      "##ragon": 818,
      "Choose": 819,
      "##ide": 820,
      "##eswal": 821,
      "dealt": 822,
      "##igil": 823,
      "##ling": 824,
      "##ick": 825,
      "my": 826,
      "##uring": 827,
      "##ish": 828,
      "gre": 829,
      "instead": 830,
      "among": 831,
      "controller": 832,
      "##fend": 833,
      "##ark": 834,
      "##ine": 835,
      "destroy": 836,
      "pro": 837,
      "planeswal": 838,
      "spells": 839,
      "Zombie": 840,
      "Phy": 841,
      "don": 842,
      "white": 843,
      "Goblin": 844,
      "Bl": 845,
      "black": 846,
      "Phyre": 847,
      "##row": 848,
      "without": 849,
      "##ph": 850,
      "enchantment": 851,
      "Phyrex": 852,
      "##mental": 853,
      "tokens": 854,
      "additional": 855,
      "##igilance": 856,
      "##ass": 857,
      "great": 858,
      "##now": 859,
      "They": 860,
      "##ome": 861,
      "##ade": 862,
      "Elemental": 863,
      "##very": 864,
      "his": 865,
      "##ruct": 866,
      "who": 867,
      "unless": 868,
      "ability": 869,
      "##ept": 870,
      "green": 871,
      "##aw": 872,
      "For": 873,
      "##ities": 874,
      "Pl": 875,
      "Unt": 876,
      "##night": 877,
      "loses": 878,
      "##ran": 879,
      "##ther": 880,
      "out": 881,
      "sc": 882,
      "Con": 883,
      "Phyrexian": 884,
      "attacking": 885,
      "Dragon": 886,
      "##ise": 887,
      "Then": 888,
      "planeswalker": 889,
      "pre": 890,
      "##ves": 891,
      "Activate": 892,
      "Equipment": 893,
      "##ake": 894,
      "##ipped": 895,
      "down": 896,
      "her": 897,
      "We": 898,
      "##ia": 899,
      "rest": 900,
      "##vent": 901,
      "exc": 902,
      "Discard": 903,
      "red": 904,
      "##ount": 905,
      "so": 906,
      "##sh": 907,
      "instant": 908,
      "nonland": 909,
      "##mp": 910,
      "trample": 911,
      "##ence": 912,
      "##ond": 913,
      "##erf": 914,
      "##olk": 915,
      "##mand": 916,
      "##ort": 917,
      "##orn": 918,
      "##ang": 919,
      "##ild": 920,
      "abilities": 921,
      "during": 922,
      "Elf": 923,
      "##tom": 924,
      "##iver": 925,
      "##fter": 926,
      "bas": 927,
      "bottom": 928,
      "##orm": 929,
      "##ne": 930,
      "ar": 931,
      "exil": 932,
      "##ult": 933,
      "cl": 934,
      "there": 935,
      "enchanted": 936,
      "##aur": 937,
      "##leric": 938,
      "Knight": 939,
      "##ord": 940,
      "Flash": 941,
      "does": 942,
      "Lo": 943,
      "##ird": 944,
      "Cleric": 945,
      "Sk": 946,
      "death": 947,
      "##ouch": 948,
      "##oll": 949,
      "##ated": 950,
      "##pt": 951,
      "con": 952,
      "defend": 953,
      "Sl": 954,
      "##ampire": 955,
      "costs": 956,
      "Rog": 957,
      "##sp": 958,
      "##gel": 959,
      "Beast": 960,
      "Wh": 961,
      "##ab": 962,
      "TK": 963,
      "when": 964,
      "except": 965,
      "Creatures": 966,
      "had": 967,
      "permanents": 968,
      "order": 969,
      "many": 970,
      "tap": 971,
      "Cl": 972,
      "##oul": 973,
      "##ings": 974,
      "Rogue": 975,
      "##yc": 976,
      "fe": 977,
      "four": 978,
      "lands": 979,
      "##aman": 980,
      "every": 981,
      "##ft": 982,
      "##way": 983,
      "##ains": 984,
      "To": 985,
      "##au": 986,
      "##ener": 987,
      "Trample": 988,
      "were": 989,
      "##uch": 990,
      "type": 991,
      "##tect": 992,
      "##osen": 993,
      "##acrific": 994,
      "Vampire": 995,
      "sacrific": 996,
      "paying": 997,
      "##az": 998,
      "Search": 999,
      "exiled": 1000,
      "look": 1001,
      "##aster": 1002,
      "cho": 1003,
      "go": 1004,
      "Tap": 1005,
      "##ather": 1006,
      "opponents": 1007,
      "chosen": 1008,
      "res": 1009,
      "Other": 1010,
      "Sw": 1011,
      "##fer": 1012,
      "##ror": 1013,
      "ag": 1014,
      "lose": 1015,
      "##elink": 1016,
      "He": 1017,
      "Or": 1018,
      "##ible": 1019,
      "##iant": 1020,
      "##ec": 1021,
      "search": 1022,
      "our": 1023,
      "##oth": 1024,
      "Un": 1025,
      "##orest": 1026,
      "Shaman": 1027,
      "know": 1028,
      "Att": 1029,
      "Cou": 1030,
      "after": 1031,
      "##vel": 1032,
      "All": 1033,
      "command": 1034,
      "new": 1035,
      "Eld": 1036,
      "war": 1037,
      "##oss": 1038,
      "##andom": 1039,
      "greater": 1040,
      "random": 1041,
      "sec": 1042,
      "mill": 1043,
      "##fore": 1044,
      "##estruct": 1045,
      "##raz": 1046,
      "##ud": 1047,
      "Al": 1048,
      "##enace": 1049,
      "##red": 1050,
      "vigilance": 1051,
      "exp": 1052,
      "No": 1053,
      "##ger": 1054,
      "##atch": 1055,
      "discards": 1056,
      "##asure": 1057,
      "##aid": 1058,
      "Bird": 1059,
      "My": 1060,
      "##ss": 1061,
      "like": 1062,
      "see": 1063,
      "##vo": 1064,
      "##ix": 1065,
      "blue": 1066,
      "us": 1067,
      "##ious": 1068,
      "though": 1069,
      "doesn": 1070,
      "sur": 1071,
      "##esh": 1072,
      "That": 1073,
      "attach": 1074,
      "Look": 1075,
      "##rough": 1076,
      "##ory": 1077,
      "Equipped": 1078,
      "sk": 1079,
      "##touch": 1080,
      "Hor": 1081,
      "ve": 1082,
      "##ane": 1083,
      "game": 1084,
      "##ful": 1085,
      "Angel": 1086,
      "types": 1087,
      "once": 1088,
      "colorless": 1089,
      "Is": 1090,
      "Tre": 1091,
      "never": 1092,
      "could": 1093,
      "##back": 1094,
      "targets": 1095,
      "Until": 1096,
      "##ved": 1097,
      "what": 1098,
      "Pro": 1099,
      "ind": 1100,
      "##aves": 1101,
      "before": 1102,
      "basic": 1103,
      "defending": 1104,
      "sw": 1105,
      "##ors": 1106,
      "##ruid": 1107,
      "##ict": 1108,
      "##sc": 1109,
      "##ift": 1110,
      "##able": 1111,
      "##ase": 1112,
      "world": 1113,
      "just": 1114,
      "last": 1115,
      "po": 1116,
      "tra": 1117,
      "##led": 1118,
      "##erfolk": 1119,
      "##ner": 1120,
      "much": 1121,
      "~,": 1122,
      "##uard": 1123,
      "##les": 1124,
      "##read": 1125,
      "remove": 1126,
      "##rim": 1127,
      "##ied": 1128,
      "Em": 1129,
      "##igh": 1130,
      "Co": 1131,
      "able": 1132,
      "##icker": 1133,
      "Rem": 1134,
      "##ial": 1135,
      "qu": 1136,
      "##apped": 1137,
      "hu": 1138,
      "Ro": 1139,
      "still": 1140,
      "both": 1141,
      "##elf": 1142,
      "##hing": 1143,
      "fight": 1144,
      "ph": 1145,
      "##cl": 1146,
      "##int": 1147,
      "Merfolk": 1148,
      "tr": 1149,
      "##orph": 1150,
      "##ons": 1151,
      "Cat": 1152,
      "##ions": 1153,
      "Se": 1154,
      "##tection": 1155,
      "Pre": 1156,
      "untapped": 1157,
      "##estructible": 1158,
      "lifelink": 1159,
      "##ail": 1160,
      "##ouble": 1161,
      "Counter": 1162,
      "Death": 1163,
      "again": 1164,
      "same": 1165,
      "##tal": 1166,
      "##ron": 1167,
      "artifacts": 1168,
      "##razi": 1169,
      "Eldrazi": 1170,
      "##gener": 1171,
      "##aus": 1172,
      "total": 1173,
      "Ad": 1174,
      "su": 1175,
      "On": 1176,
      "pays": 1177,
      "tri": 1178,
      "Your": 1179,
      "##arm": 1180,
      "Vigilance": 1181,
      "##eep": 1182,
      "##ator": 1183,
      "##apt": 1184,
      "##per": 1185,
      "Ass": 1186,
      "Druid": 1187,
      "ro": 1188,
      "te": 1189,
      "through": 1190,
      "##ange": 1191,
      "even": 1192,
      "##ull": 1193,
      "must": 1194,
      "mon": 1195,
      "Sliver": 1196,
      "Dem": 1197,
      "II": 1198,
      "Giant": 1199,
      "Do": 1200,
      "##ater": 1201,
      "##iss": 1202,
      "leaves": 1203,
      "Blood": 1204,
      "Fa": 1205,
      "most": 1206,
      "Treasure": 1207,
      "sacrifices": 1208,
      "Remove": 1209,
      "Her": 1210,
      "over": 1211,
      "##ret": 1212,
      "Horror": 1213,
      "##so": 1214,
      "##ison": 1215,
      "##imes": 1216,
      "Ins": 1217,
      "##ens": 1218,
      "##oud": 1219,
      "form": 1220,
      "reach": 1221,
      "##ycling": 1222,
      "##of": 1223,
      "##ream": 1224,
      "##ely": 1225,
      "First": 1226,
      "back": 1227,
      "pe": 1228,
      "##ert": 1229,
      "##itt": 1230,
      "Untap": 1231,
      "day": 1232,
      "five": 1233,
      "##ins": 1234,
      "##osaur": 1235,
      "Com": 1236,
      "##ign": 1237,
      "die": 1238,
      "sl": 1239,
      "##ract": 1240,
      "##icked": 1241,
      "named": 1242,
      "Ve": 1243,
      "indestructible": 1244,
      "~'": 1245,
      "creat": 1246,
      "choice": 1247,
      "Sag": 1248,
      "Ser": 1249,
      "hear": 1250,
      "did": 1251,
      "Forest": 1252,
      "##adow": 1253,
      "bet": 1254,
      "##thing": 1255,
      "also": 1256,
      "##round": 1257,
      "Sn": 1258,
      "isn": 1259,
      "she": 1260,
      "##mb": 1261,
      "##chem": 1262,
      "legendary": 1263,
      "Const": 1264,
      "Haste": 1265,
      "el": 1266,
      "##gre": 1267,
      "##ffect": 1268,
      "say": 1269,
      "##lem": 1270,
      "blood": 1271,
      "Demon": 1272,
      "##alf": 1273,
      "enter": 1274,
      "##creature": 1275,
      "Mon": 1276,
      "Turn": 1277,
      "sour": 1278,
      "##ally": 1279,
      "##icer": 1280,
      "light": 1281,
      "attached": 1282,
      "##ring": 1283,
      "##inosaur": 1284,
      "blocking": 1285,
      "Wall": 1286,
      "##we": 1287,
      "dead": 1288,
      "Island": 1289,
      "mind": 1290,
      "##oon": 1291,
      "flash": 1292,
      "him": 1293,
      "There": 1294,
      "Arch": 1295,
      "##ik": 1296,
      "##xp": 1297,
      "##ither": 1298,
      "Arc": 1299,
      "##ush": 1300,
      "noncreature": 1301,
      "ad": 1302,
      "Its": 1303,
      "##ient": 1304,
      "##ces": 1305,
      "##oc": 1306,
      "##ple": 1307,
      "##ways": 1308,
      "some": 1309,
      "##ug": 1310,
      "##uild": 1311,
      "Prevent": 1312,
      "##vest": 1313,
      "##omet": 1314,
      "need": 1315,
      "become": 1316,
      "ll": 1317,
      "10": 1318,
      "sm": 1319,
      "##hic": 1320,
      "##ks": 1321,
      "##ider": 1322,
      "Mount": 1323,
      "##oy": 1324,
      "blocks": 1325,
      "ac": 1326,
      "des": 1327,
      "mag": 1328,
      "##ich": 1329,
      "En": 1330,
      "Man": 1331,
      "##urm": 1332,
      "##erie": 1333,
      "##ans": 1334,
      "draws": 1335,
      "Insect": 1336,
      "##ving": 1337,
      "second": 1338,
      "Dinosaur": 1339,
      "##king": 1340,
      "##roof": 1341,
      "##aven": 1342,
      "charge": 1343,
      "Swamp": 1344,
      "Ne": 1345,
      "##rtificer": 1346,
      "Imp": 1347,
      "Defend": 1348,
      "Arm": 1349,
      "how": 1350,
      "##ale": 1351,
      "Scout": 1352,
      "been": 1353,
      "Reach": 1354,
      "##xproof": 1355,
      "Night": 1356,
      "players": 1357,
      "##ears": 1358,
      "enough": 1359,
      "Gl": 1360,
      "Mir": 1361,
      "deathtouch": 1362,
      "##mer": 1363,
      "##ates": 1364,
      "##ged": 1365,
      "##ize": 1366,
      "effect": 1367,
      "##ax": 1368,
      "##fin": 1369,
      "##olf": 1370,
      "equipped": 1371,
      "Saga": 1372,
      "caus": 1373,
      "##af": 1374,
      "always": 1375,
      "Vehic": 1376,
      "Min": 1377,
      "dis": 1378,
      "dif": 1379,
      "part": 1380,
      "Defender": 1381,
      "Bar": 1382,
      "Tra": 1383,
      "ey": 1384,
      "##erc": 1385,
      "dev": 1386,
      "spent": 1387,
      "reveals": 1388,
      "Construct": 1389,
      "Des": 1390,
      "activ": 1391,
      "##arch": 1392,
      "while": 1393,
      "revealed": 1394,
      "##ren": 1395,
      "##atter": 1396,
      "protection": 1397,
      "activate": 1398,
      "kicked": 1399,
      "##ntoken": 1400,
      "arm": 1401,
      "##ollow": 1402,
      "menace": 1403,
      "Ur": 1404,
      "fire": 1405,
      "##ze": 1406,
      "seven": 1407,
      "find": 1408,
      "Squ": 1409,
      "##ob": 1410,
      "take": 1411,
      "Golem": 1412,
      "source": 1413,
      "Cycling": 1414,
      "##ars": 1415,
      "Pir": 1416,
      "rep": 1417,
      "##gg": 1418,
      "##lect": 1419,
      "Hu": 1420,
      "Pay": 1421,
      "nontoken": 1422,
      "scry": 1423,
      "Gra": 1424,
      "Sun": 1425,
      "##folk": 1426,
      "##nal": 1427,
      "##ape": 1428,
      "double": 1429,
      "make": 1430,
      "##awn": 1431,
      "##ene": 1432,
      "Attach": 1433,
      "poison": 1434,
      "Dra": 1435,
      "high": 1436,
      "##ub": 1437,
      "##itch": 1438,
      "Vehicle": 1439,
      "Lif": 1440,
      "night": 1441,
      "##rew": 1442,
      "now": 1443,
      "##ai": 1444,
      "##war": 1445,
      "share": 1446,
      "Spell": 1447,
      "##cheme": 1448,
      "Artificer": 1449,
      "bel": 1450,
      "##hin": 1451,
      "Assass": 1452,
      "differ": 1453,
      "##otion": 1454,
      "stre": 1455,
      "##ope": 1456,
      "word": 1457,
      "##generate": 1458,
      "One": 1459,
      "##air": 1460,
      "##ute": 1461,
      "What": 1462,
      "Menace": 1463,
      "##de": 1464,
      "##ature": 1465,
      "Sur": 1466,
      "##ah": 1467,
      "##ten": 1468,
      "##ether": 1469,
      "##pen": 1470,
      "lost": 1471,
      "Any": 1472,
      "Food": 1473,
      "##pl": 1474,
      "casts": 1475,
      "mills": 1476,
      "app": 1477,
      "dark": 1478,
      "##elp": 1479,
      "Regenerate": 1480,
      "III": 1481,
      "##usp": 1482,
      "##wise": 1483,
      "##rong": 1484,
      "##its": 1485,
      "##walk": 1486,
      "paid": 1487,
      "##vil": 1488,
      "amount": 1489,
      "kind": 1490,
      "##ari": 1491,
      "Orc": 1492,
      "Arcane": 1493,
      "cr": 1494,
      "fo": 1495,
      "##mon": 1496,
      "Reveal": 1497,
      "##rans": 1498,
      "base": 1499,
      "Fire": 1500,
      "call": 1501,
      "##ery": 1502,
      "##ami": 1503,
      "commander": 1504,
      "Gh": 1505,
      "##ating": 1506,
      "##kin": 1507,
      "}.)": 1508,
      "Av": 1509,
      "Some": 1510,
      "Soul": 1511,
      "Tr": 1512,
      "##ese": 1513,
      "Rat": 1514,
      "let": 1515,
      "best": 1516,
      "fear": 1517,
      "##cho": 1518,
      "phase": 1519,
      "Qu": 1520,
      "Te": 1521,
      "Tree": 1522,
      "##be": 1523,
      "##erg": 1524,
      "##ngth": 1525,
      "She": 1526,
      "##ations": 1527,
      "prevent": 1528,
      "gl": 1529,
      "##blem": 1530,
      "Bo": 1531,
      "ser": 1532,
      "soul": 1533,
      "—*": 1534,
      "##arn": 1535,
      "##str": 1536,
      "##ided": 1537,
      "rather": 1538,
      "tre": 1539,
      "win": 1540,
      "##ored": 1541,
      "six": 1542,
      "##eel": 1543,
      "too": 1544,
      "##ets": 1545,
      "imp": 1546,
      "##nts": 1547,
      "Assassin": 1548,
      "times": 1549,
      "##eth": 1550,
      "##ption": 1551,
      "heart": 1552,
      "Kicker": 1553,
      "age": 1554,
      "##als": 1555,
      "hands": 1556,
      "didn": 1557,
      "Mar": 1558,
      "##vis": 1559,
      "##ared": 1560,
      "fall": 1561,
      "turned": 1562,
      "hexproof": 1563,
      "Faerie": 1564,
      "But": 1565,
      "##arg": 1566,
      "enem": 1567,
      "Pirate": 1568,
      "Every": 1569,
      "think": 1570,
      "##raft": 1571,
      "##uth": 1572,
      "##anger": 1573,
      "Sky": 1574,
      "keep": 1575,
      "least": 1576,
      "Dwar": 1577,
      "##ting": 1578,
      "##ief": 1579,
      "follow": 1580,
      "##viv": 1581,
      "##idd": 1582,
      "##mage": 1583,
      "weap": 1584,
      "activated": 1585,
      "help": 1586,
      "sing": 1587,
      "##aker": 1588,
      "##ired": 1589,
      "##ists": 1590,
      "Snake": 1591,
      "flashback": 1592,
      "grow": 1593,
      "somet": 1594,
      "want": 1595,
      "plus": 1596,
      "remains": 1597,
      "greatest": 1598,
      "city": 1599,
      "##na": 1600,
      "##alm": 1601,
      "##oses": 1602,
      "nothing": 1603,
      "Sil": 1604,
      "Wurm": 1605,
      "car": 1606,
      "##oved": 1607,
      "##ald": 1608,
      "##acy": 1609,
      "secret": 1610,
      "right": 1611,
      "##rel": 1612,
      "goblin": 1613,
      "lear": 1614,
      "roll": 1615,
      "##ung": 1616,
      "##ality": 1617,
      "##ents": 1618,
      "Those": 1619,
      "puts": 1620,
      "alone": 1621,
      "Cast": 1622,
      "Wolf": 1623,
      "##form": 1624,
      "##wor": 1625,
      "##where": 1626,
      "sacrificed": 1627,
      "Mag": 1628,
      "forest": 1629,
      "good": 1630,
      "##roud": 1631,
      "Plains": 1632,
      "few": 1633,
      "Cont": 1634,
      "##rog": 1635,
      "##ancer": 1636,
      "Deathtouch": 1637,
      "god": 1638,
      "##cess": 1639,
      "##lock": 1640,
      "##fl": 1641,
      "##uck": 1642,
      "##zz": 1643,
      "ass": 1644,
      "kill": 1645,
      "##side": 1646,
      "Mountain": 1647,
      "Ogre": 1648,
      "shadow": 1649,
      "gu": 1650,
      "open": 1651,
      "##aver": 1652,
      "off": 1653,
      "##rop": 1654,
      "being": 1655,
      "Dom": 1656,
      "Drake": 1657,
      "Merc": 1658,
      "##za": 1659,
      "##arth": 1660,
      "Shap": 1661,
      "##ittle": 1662,
      "Lizard": 1663,
      "away": 1664,
      "##reak": 1665,
      "##ara": 1666,
      "##ople": 1667,
      "Scry": 1668,
      "With": 1669,
      "master": 1670,
      "set": 1671,
      "sun": 1672,
      "##ray": 1673,
      "chooses": 1674,
      "magic": 1675,
      "Damage": 1676,
      "here": 1677,
      "##fall": 1678,
      "##ily": 1679,
      "##usion": 1680,
      "left": 1681,
      "Reb": 1682,
      "energ": 1683,
      "Otherwise": 1684,
      "Cur": 1685,
      "##cient": 1686,
      "Ab": 1687,
      "Dis": 1688,
      "God": 1689,
      "##light": 1690,
      "Dog": 1691,
      "fin": 1692,
      "perf": 1693,
      "##ward": 1694,
      "about": 1695,
      "learn": 1696,
      "Hy": 1697,
      "cle": 1698,
      "##ced": 1699,
      "##roll": 1700,
      "##riend": 1701,
      "##voke": 1702,
      "##otaur": 1703,
      "##scape": 1704,
      "Ph": 1705,
      "div": 1706,
      "dragon": 1707,
      "comp": 1708,
      "Command": 1709,
      "##vestig": 1710,
      "Mut": 1711,
      "##mare": 1712,
      "leave": 1713,
      "##ween": 1714,
      "Har": 1715,
      "So": 1716,
      "pri": 1717,
      "##ines": 1718,
      "##ifter": 1719,
      "thought": 1720,
      "different": 1721,
      "bo": 1722,
      "give": 1723,
      "##ones": 1724,
      "##aze": 1725,
      "And": 1726,
      "sil": 1727,
      "##ait": 1728,
      "##ative": 1729,
      "Lord": 1730,
      "fore": 1731,
      "##ross": 1732,
      "things": 1733,
      "##ster": 1734,
      "start": 1735,
      "come": 1736,
      "Flashback": 1737,
      "Ill": 1738,
      "Now": 1739,
      "band": 1740,
      "little": 1741,
      "##ium": 1742,
      "##vol": 1743,
      "##ats": 1744,
      "##rab": 1745,
      "##ress": 1746,
      "Storm": 1747,
      "Play": 1748,
      "##void": 1749,
      "sky": 1750,
      "strength": 1751,
      "Su": 1752,
      "##ering": 1753,
      "##adness": 1754,
      "which": 1755,
      "single": 1756,
      "energy": 1757,
      "Ward": 1758,
      "##ann": 1759,
      "##elet": 1760,
      "graveyards": 1761,
      "##ody": 1762,
      "Ally": 1763,
      "people": 1764,
      "between": 1765,
      "##ib": 1766,
      "##erser": 1767,
      "##aptain": 1768,
      "After": 1769,
      "art": 1770,
      "found": 1771,
      "ward": 1772,
      "itself": 1773,
      "ext": 1774,
      "Berser": 1775,
      "Guard": 1776,
      "Light": 1777,
      "Sam": 1778,
      "watch": 1779,
      "##ury": 1780,
      "expl": 1781,
      "Gre": 1782,
      "##yond": 1783,
      "##aya": 1784,
      "##avor": 1785,
      "Wor": 1786,
      "ent": 1787,
      "##app": 1788,
      "##cend": 1789,
      "eyes": 1790,
      "par": 1791,
      "strong": 1792,
      "##eshifter": 1793,
      "head": 1794,
      "##te": 1795,
      "Let": 1796,
      "bro": 1797,
      "tem": 1798,
      "##ying": 1799,
      "colors": 1800,
      "destroyed": 1801,
      "Emblem": 1802,
      "Tem": 1803,
      "run": 1804,
      "##ted": 1805,
      "removed": 1806,
      "true": 1807,
      "morph": 1808,
      "##ma": 1809,
      "##not": 1810,
      "##kers": 1811,
      "##err": 1812,
      "attacked": 1813,
      "twice": 1814,
      "Army": 1815,
      "Shapeshifter": 1816,
      "Berserker": 1817,
      "Back": 1818,
      "Even": 1819,
      "fa": 1820,
      "##aken": 1821,
      "stand": 1822,
      "flip": 1823,
      "shuffles": 1824,
      "Sy": 1825,
      "vict": 1826,
      "wind": 1827,
      "##under": 1828,
      "##reath": 1829,
      "place": 1830,
      "Urza": 1831,
      "Treefolk": 1832,
      "Pe": 1833,
      "##isit": 1834,
      "##ical": 1835,
      "upon": 1836,
      "lead": 1837,
      "burn": 1838,
      "Gate": 1839,
      "Morph": 1840,
      "pass": 1841,
      "##aim": 1842,
      "##ike": 1843,
      "##org": 1844,
      "##orp": 1845,
      "##itter": 1846,
      "Fe": 1847,
      "Out": 1848,
      "ever": 1849,
      "hist": 1850,
      "made": 1851,
      "##ouse": 1852,
      "##rid": 1853,
      "##akes": 1854,
      "phas": 1855,
      "Tal": 1856,
      "—{": 1857,
      "##ox": 1858,
      "##kes": 1859,
      "##veil": 1860,
      "##right": 1861,
      "cons": 1862,
      "against": 1863,
      "##hinx": 1864,
      "During": 1865,
      "rel": 1866,
      "use": 1867,
      "won": 1868,
      "##ilt": 1869,
      "dec": 1870,
      "anywhere": 1871,
      "Warlock": 1872,
      "flesh": 1873,
      "Minotaur": 1874,
      "Battle": 1875,
      "Cent": 1876,
      "Res": 1877,
      "nature": 1878,
      "##arian": 1879,
      "##olves": 1880,
      "Clue": 1881,
      "sword": 1882,
      "Val": 1883,
      "either": 1884,
      "##ual": 1885,
      "##ros": 1886,
      "##tle": 1887,
      "##ames": 1888,
      "##ship": 1889,
      "result": 1890,
      "Noble": 1891,
      "creates": 1892,
      "perfect": 1893,
      "met": 1894,
      "##eal": 1895,
      "##atar": 1896,
      "##aces": 1897,
      "##ony": 1898,
      "##irrel": 1899,
      "Spider": 1900,
      "##ternal": 1901,
      "##raction": 1902,
      "Dwarf": 1903,
      "home": 1904,
      "int": 1905,
      "ten": 1906,
      "##dra": 1907,
      "lore": 1908,
      "##leep": 1909,
      "bless": 1910,
      "##earth": 1911,
      "##ective": 1912,
      "something": 1913,
      "##vestigate": 1914,
      "Del": 1915,
      "cur": 1916,
      "snow": 1917,
      "##alken": 1918,
      "##atur": 1919,
      "##aries": 1920,
      "##ined": 1921,
      "work": 1922,
      "##ready": 1923,
      "##reams": 1924,
      "Br": 1925,
      "Gu": 1926,
      "Tri": 1927,
      "br": 1928,
      "friend": 1929,
      "mod": 1930,
      "Part": 1931,
      "Tw": 1932,
      "Vol": 1933,
      "gift": 1934,
      "##ault": 1935,
      "##sel": 1936,
      "##ense": 1937,
      "shall": 1938,
      "owners": 1939,
      "change": 1940,
      "##ops": 1941,
      "already": 1942,
      "##spir": 1943,
      "came": 1944,
      "oil": 1945,
      "yet": 1946,
      "##ics": 1947,
      "def": 1948,
      "should": 1949,
      "##aunt": 1950,
      "Protection": 1951,
      "Don": 1952,
      "dist": 1953,
      "##ee": 1954,
      "these": 1955,
      "deck": 1956,
      "regener": 1957,
      "Only": 1958,
      "died": 1959,
      "ground": 1960,
      "sy": 1961,
      "scheme": 1962,
      "##over": 1963,
      "##rod": 1964,
      "beyond": 1965,
      "anything": 1966,
      "Lifelink": 1967,
      "Det": 1968,
      "Kor": 1969,
      "Snow": 1970,
      "path": 1971,
      "##gu": 1972,
      "##sw": 1973,
      "##ought": 1974,
      "##ince": 1975,
      "##ithkin": 1976,
      "countered": 1977,
      "quest": 1978,
      "causes": 1979,
      "Mage": 1980,
      "hor": 1981,
      "kn": 1982,
      "pur": 1983,
      "well": 1984,
      "##self": 1985,
      "##inn": 1986,
      "spirit": 1987,
      "##ctor": 1988,
      "##afe": 1989,
      "Ac": 1990,
      "gr": 1991,
      "ru": 1992,
      "##ira": 1993,
      "##rone": 1994,
      "protect": 1995,
      "Advis": 1996,
      "Avatar": 1997,
      "Sap": 1998,
      "hope": 1999,
      "col": 2000,
      "living": 2001,
      "##aws": 2002,
      "Col": 2003,
      "Hell": 2004,
      "Par": 2005,
      "might": 2006,
      "##pe": 2007,
      "bec": 2008,
      "Sphinx": 2009,
      "around": 2010,
      "commanders": 2011,
      "regenerated": 2012,
      "Cr": 2013,
      "Mind": 2014,
      "Over": 2015,
      "bring": 2016,
      "susp": 2017,
      "##tell": 2018,
      "##une": 2019,
      "remain": 2020,
      "##ggers": 2021,
      "Pri": 2022,
      "##acle": 2023,
      "Landfall": 2024,
      "triggers": 2025,
      "effects": 2026,
      "Advisor": 2027,
      "Great": 2028,
      "Master": 2029,
      "Wild": 2030,
      "mut": 2031,
      "##ey": 2032,
      "##cy": 2033,
      "##inger": 2034,
      "Ty": 2035,
      "eas": 2036,
      "guard": 2037,
      "sim": 2038,
      "##resh": 2039,
      "thing": 2040,
      "##ander": 2041,
      "beh": 2042,
      "##riffin": 2043,
      "Devoid": 2044,
      "defender": 2045,
      "Squirrel": 2046,
      "Aur": 2047,
      "mom": 2048,
      "##uk": 2049,
      "##ues": 2050,
      "##wood": 2051,
      "Shadow": 2052,
      "Ak": 2053,
      "Ey": 2054,
      "Ind": 2055,
      "Me": 2056,
      "vot": 2057,
      "##bs": 2058,
      "Spend": 2059,
      "hunt": 2060,
      "Players": 2061,
      "##selves": 2062,
      "Dark": 2063,
      "Emp": 2064,
      "Ring": 2065,
      "Rav": 2066,
      "far": 2067,
      "hold": 2068,
      "##mm": 2069,
      "##born": 2070,
      "##ants": 2071,
      "Inf": 2072,
      "heal": 2073,
      "Hero": 2074,
      "Illusion": 2075,
      "Under": 2076,
      "half": 2077,
      "tru": 2078,
      "##und": 2079,
      "##alk": 2080,
      "casting": 2081,
      "Inc": 2082,
      "##ampion": 2083,
      "##nger": 2084,
      "others": 2085,
      "Hydra": 2086,
      "Gain": 2087,
      "human": 2088,
      "##oke": 2089,
      "##got": 2090,
      "##ground": 2091,
      "##stone": 2092,
      "rec": 2093,
      "##atural": 2094,
      "cyc": 2095,
      "mount": 2096,
      "##ius": 2097,
      "##enge": 2098,
      "##eds": 2099,
      "ref": 2100,
      "Leg": 2101,
      "##aught": 2102,
      "Nightmare": 2103,
      "##edalken": 2104,
      "Mercen": 2105,
      "Nec": 2106,
      "hard": 2107,
      "mem": 2108,
      "sold": 2109,
      "wild": 2110,
      "##bit": 2111,
      "##use": 2112,
      "Monk": 2113,
      "min": 2114,
      "##ris": 2115,
      "spe": 2116,
      "##ction": 2117,
      "shield": 2118,
      "aren": 2119,
      "feel": 2120,
      "belie": 2121,
      "words": 2122,
      "Bol": 2123,
      "aw": 2124,
      "##onor": 2125,
      "seen": 2126,
      "Attraction": 2127,
      "Desert": 2128,
      ").": 2129,
      "Double": 2130,
      "##ience": 2131,
      "##icate": 2132,
      "deep": 2133,
      "##aper": 2134,
      "Myr": 2135,
      "else": 2136,
      "Cit": 2137,
      "Will": 2138,
      "mer": 2139,
      "##ras": 2140,
      "##ots": 2141,
      "comes": 2142,
      "##ular": 2143,
      "worth": 2144,
      "Skelet": 2145,
      "size": 2146,
      "touch": 2147,
      "##ev": 2148,
      "##ien": 2149,
      "##nic": 2150,
      "##pent": 2151,
      "##ousand": 2152,
      "##ished": 2153,
      "##phant": 2154,
      "exiles": 2155,
      "##ledge": 2156,
      "weapon": 2157,
      "Crew": 2158,
      "His": 2159,
      "Time": 2160,
      "##iers": 2161,
      "##ov": 2162,
      "##rage": 2163,
      "inc": 2164,
      "##ives": 2165,
      "##ager": 2166,
      "prey": 2167,
      "##ransform": 2168,
      "Bear": 2169,
      "Just": 2170,
      "Not": 2171,
      "Wind": 2172,
      "del": 2173,
      "main": 2174,
      "##inj": 2175,
      "##ides": 2176,
      "##usk": 2177,
      "##ogg": 2178,
      "Plant": 2179,
      "everything": 2180,
      "warrior": 2181,
      "Doctor": 2182,
      "##strous": 2183,
      "Am": 2184,
      "End": 2185,
      "em": 2186,
      "old": 2187,
      "such": 2188,
      "years": 2189,
      "##ination": 2190,
      "##asic": 2191,
      "##acking": 2192,
      "stud": 2193,
      "##avu": 2194,
      "##urai": 2195,
      "Archer": 2196,
      "Centaur": 2197,
      "Partner": 2198,
      "Kithkin": 2199,
      "Up": 2200,
      "got": 2201,
      "later": 2202,
      "##up": 2203,
      "##rath": 2204,
      "##ories": 2205,
      "cannot": 2206,
      "##izen": 2207,
      "mean": 2208,
      "##ortal": 2209,
      "devotion": 2210,
      "Detective": 2211,
      "Az": 2212,
      "Bor": 2213,
      "kne": 2214,
      "safe": 2215,
      "##oric": 2216,
      "within": 2217,
      "Level": 2218,
      "Devil": 2219,
      "Change": 2220,
      "text": 2221,
      "better": 2222,
      "cause": 2223,
      "ter": 2224,
      "##elt": 2225,
      "##lory": 2226,
      "sea": 2227,
      "##reed": 2228,
      "##alc": 2229,
      "##ores": 2230,
      "themselves": 2231,
      "copies": 2232,
      "Unearth": 2233,
      "Once": 2234,
      "Saprol": 2235,
      "Ag": 2236,
      "Call": 2237,
      "Sent": 2238,
      "##res": 2239,
      "##gether": 2240,
      "##iti": 2241,
      "read": 2242,
      "disc": 2243,
      "wait": 2244,
      "##cle": 2245,
      "##erate": 2246,
      "##rant": 2247,
      "reg": 2248,
      "surviv": 2249,
      "Dead": 2250,
      "Keep": 2251,
      "Power": 2252,
      "breath": 2253,
      "angel": 2254,
      "##eph": 2255,
      "##opy": 2256,
      "Champion": 2257,
      "sub": 2258,
      "enemies": 2259,
      "Aven": 2260,
      "Po": 2261,
      "fam": 2262,
      "past": 2263,
      "said": 2264,
      "tell": 2265,
      "##aos": 2266,
      "show": 2267,
      "outside": 2268,
      "phases": 2269,
      "Bro": 2270,
      "Captain": 2271,
      "Frog": 2272,
      "Griffin": 2273,
      "How": 2274,
      "Moon": 2275,
      "Ninj": 2276,
      "Rak": 2277,
      "##icol": 2278,
      "##uture": 2279,
      "##asc": 2280,
      "soon": 2281,
      "##idden": 2282,
      "Contra": 2283,
      "Mutant": 2284,
      "Sm": 2285,
      "Scheme": 2286,
      "emp": 2287,
      "##gan": 2288,
      "##vish": 2289,
      "##oward": 2290,
      "investigate": 2291,
      "##alls": 2292,
      "##inder": 2293,
      "travel": 2294,
      "Samurai": 2295,
      "historic": 2296,
      "cry": 2297,
      "##aut": 2298,
      "##oice": 2299,
      "coin": 2300,
      "spend": 2301,
      "##add": 2302,
      "##ades": 2303,
      "##ments": 2304,
      "Their": 2305,
      "##rupt": 2306,
      "##aking": 2307,
      "enc": 2308,
      "fights": 2309,
      "monstrous": 2310,
      "peace": 2311,
      "Serpent": 2312,
      "darkness": 2313,
      "Gru": 2314,
      "##oom": 2315,
      "##du": 2316,
      "##dom": 2317,
      "##rent": 2318,
      "##atic": 2319,
      "##els": 2320,
      "controlled": 2321,
      "##ols": 2322,
      "blade": 2323,
      "##ized": 2324,
      "##aving": 2325,
      "##unge": 2326,
      "quick": 2327,
      "party": 2328,
      "Mercenary": 2329,
      "Aether": 2330,
      "Cry": 2331,
      "Guild": 2332,
      "prom": 2333,
      "zone": 2334,
      "##cest": 2335,
      "##ject": 2336,
      "##aring": 2337,
      "ancient": 2338,
      "Rec": 2339,
      "Dev": 2340,
      "Skeleton": 2341,
      "Dr": 2342,
      "Eternal": 2343,
      "Fear": 2344,
      "Gn": 2345,
      "Oo": 2346,
      "bu": 2347,
      "hide": 2348,
      "##fire": 2349,
      "##head": 2350,
      "##rap": 2351,
      "exist": 2352,
      "Weather": 2353,
      "point": 2354,
      "Saproling": 2355,
      "Du": 2356,
      "bene": 2357,
      "fell": 2358,
      "madness": 2359,
      "##aint": 2360,
      "##mit": 2361,
      "##gger": 2362,
      "ask": 2363,
      "##rie": 2364,
      "##bles": 2365,
      "##ryad": 2366,
      "discarded": 2367,
      "Flame": 2368,
      "While": 2369,
      "behind": 2370,
      "Ent": 2371,
      "Kavu": 2372,
      "care": 2373,
      "echo": 2374,
      "mark": 2375,
      "motion": 2376,
      "##yr": 2377,
      "##aria": 2378,
      "##ils": 2379,
      "##ask": 2380,
      "inf": 2381,
      "whis": 2382,
      "Elephant": 2383,
      "room": 2384,
      "enemy": 2385,
      "Curse": 2386,
      "Gold": 2387,
      "Pal": 2388,
      "Troll": 2389,
      "Vedalken": 2390,
      "big": 2391,
      "har": 2392,
      "pers": 2393,
      "since": 2394,
      "##ipp": 2395,
      "##to": 2396,
      "ins": 2397,
      "##rix": 2398,
      "steps": 2399,
      "Blade": 2400,
      "goblins": 2401,
      "Commander": 2402,
      "moment": 2403,
      "Disc": 2404,
      "Kam": 2405,
      "Rep": 2406,
      "San": 2407,
      "air": 2408,
      "break": 2409,
      "##ani": 2410,
      "##andon": 2411,
      "beast": 2412,
      "storm": 2413,
      "##ires": 2414,
      "##ages": 2415,
      "Elder": 2416,
      "##rime": 2417,
      "trigger": 2418,
      "across": 2419,
      "Domin": 2420,
      "Ravnic": 2421,
      "May": 2422,
      "Prow": 2423,
      "Sim": 2424,
      "earth": 2425,
      "ho": 2426,
      "sol": 2427,
      "##eer": 2428,
      "##ae": 2429,
      "##rolif": 2430,
      "##ution": 2431,
      "##ember": 2432,
      "child": 2433,
      "longer": 2434,
      "Stre": 2435,
      "Cor": 2436,
      "Met": 2437,
      "Why": 2438,
      "pain": 2439,
      "sn": 2440,
      "sure": 2441,
      "##eat": 2442,
      "##ifest": 2443,
      "stop": 2444,
      "planeswalkers": 2445,
      "enchantments": 2446,
      "##ause": 2447,
      "symb": 2448,
      "##reshold": 2449,
      "Our": 2450,
      "Run": 2451,
      "done": 2452,
      "danger": 2453,
      "kami": 2454,
      "pr": 2455,
      "##han": 2456,
      "often": 2457,
      "##stic": 2458,
      "##ility": 2459,
      "##ummon": 2460,
      "##eart": 2461,
      "Spl": 2462,
      "##lord": 2463,
      "pres": 2464,
      "secrets": 2465,
      "Rebel": 2466,
      "Contraption": 2467,
      "##roliferate": 2468,
      "Cro": 2469,
      "Mem": 2470,
      "Sec": 2471,
      "ev": 2472,
      "future": 2473,
      "move": 2474,
      "##aj": 2475,
      "##master": 2476,
      "##ision": 2477,
      "##romancer": 2478,
      "##rib": 2479,
      "Spect": 2480,
      "Phyrexia": 2481,
      "gods": 2482,
      "Background": 2483,
      "Bra": 2484,
      "Dj": 2485,
      "Ru": 2486,
      "body": 2487,
      "eat": 2488,
      "jour": 2489,
      "##line": 2490,
      "##ys": 2491,
      "##iny": 2492,
      "Threshold": 2493,
      "inv": 2494,
      "##umb": 2495,
      "sticker": 2496,
      "lives": 2497,
      "##ulate": 2498,
      "Ash": 2499,
      "##opter": 2500,
      "Cons": 2501,
      "##guise": 2502,
      "Citizen": 2503,
      "knew": 2504,
      "Red": 2505,
      "bra": 2506,
      "det": 2507,
      "saw": 2508,
      "wings": 2509,
      "##gn": 2510,
      "thousand": 2511,
      "##ili": 2512,
      "##ites": 2513,
      "##ycl": 2514,
      "surveil": 2515,
      "Guardian": 2516,
      "cycle": 2517,
      "Ooze": 2518,
      "Mult": 2519,
      "Ny": 2520,
      "escape": 2521,
      "makes": 2522,
      "##amm": 2523,
      "##ows": 2524,
      "##ific": 2525,
      "##ands": 2526,
      "answ": 2527,
      "shroud": 2528,
      "##ected": 2529,
      "monarch": 2530,
      "collect": 2531,
      "believe": 2532,
      "Gener": 2533,
      "##alker": 2534,
      "together": 2535,
      "##ised": 2536,
      "##ason": 2537,
      "##ids": 2538,
      "seem": 2539,
      "claim": 2540,
      "small": 2541,
      "Many": 2542,
      "eye": 2543,
      "Life": 2544,
      "##ungus": 2545,
      "learned": 2546,
      "fail": 2547,
      "per": 2548,
      "##iet": 2549,
      "##xic": 2550,
      "##pose": 2551,
      "##eren": 2552,
      "##iving": 2553,
      "##owned": 2554,
      "Attacking": 2555,
      "adv": 2556,
      "acc": 2557,
      "trees": 2558,
      "World": 2559,
      "Eye": 2560,
      "Fore": 2561,
      "Raid": 2562,
      "Sel": 2563,
      "Susp": 2564,
      "Tor": 2565,
      "##sed": 2566,
      "##ka": 2567,
      "comple": 2568,
      "Shield": 2569,
      "##come": 2570,
      "Def": 2571,
      "##issa": 2572,
      "banding": 2573,
      "Bless": 2574,
      "Echo": 2575,
      "Zend": 2576,
      "dr": 2577,
      "giant": 2578,
      "mult": 2579,
      "rage": 2580,
      "try": 2581,
      "##inter": 2582,
      "##ny": 2583,
      "##bo": 2584,
      "##alan": 2585,
      "##gent": 2586,
      "real": 2587,
      "##ague": 2588,
      "##rows": 2589,
      "excess": 2590,
      "entered": 2591,
      "Mirrod": 2592,
      "Barb": 2593,
      "blessing": 2594,
      "Weatherlight": 2595,
      "Zendik": 2596,
      "Mirrodin": 2597,
      "App": 2598,
      "Somet": 2599,
      "bur": 2600,
      "free": 2601,
      "guild": 2602,
      "water": 2603,
      "##alia": 2604,
      "##stand": 2605,
      "##ife": 2606,
      "##rad": 2607,
      "##rider": 2608,
      "level": 2609,
      "##ounded": 2610,
      "resp": 2611,
      "Spells": 2612,
      "extra": 2613,
      "Bel": 2614,
      "Drone": 2615,
      "From": 2616,
      "Fall": 2617,
      "Kind": 2618,
      "Mor": 2619,
      "Who": 2620,
      "gold": 2621,
      "pat": 2622,
      "squ": 2623,
      "sleep": 2624,
      "wizard": 2625,
      "##aired": 2626,
      "##ining": 2627,
      "##itan": 2628,
      "decl": 2629,
      "##illed": 2630,
      "takes": 2631,
      "nonbl": 2632,
      "Convoke": 2633,
      "days": 2634,
      "repl": 2635,
      "weapons": 2636,
      "##work": 2637,
      "compan": 2638,
      "20": 2639,
      "Gol": 2640,
      "Half": 2641,
      "Int": 2642,
      "cent": 2643,
      "honor": 2644,
      "mage": 2645,
      "##iqu": 2646,
      "##dge": 2647,
      "##inity": 2648,
      "took": 2649,
      "##ited": 2650,
      "##andra": 2651,
      "stay": 2652,
      "##idence": 2653,
      "leg": 2654,
      "##othing": 2655,
      "Mana": 2656,
      "Ravnica": 2657,
      "act": 2658,
      "destruct": 2659,
      "mo": 2660,
      "wo": 2661,
      "##rin": 2662,
      "##ened": 2663,
      "##ront": 2664,
      "stran": 2665,
      "exact": 2666,
      "##ueen": 2667,
      "wasn": 2668,
      "Deep": 2669,
      "Charm": 2670,
      "produ": 2671,
      "knowledge": 2672,
      "truth": 2673,
      "army": 2674,
      "Djinn": 2675,
      "Bat": 2676,
      "Dread": 2677,
      "Lil": 2678,
      "Mark": 2679,
      "Ranger": 2680,
      "Sal": 2681,
      "Ter": 2682,
      "Ul": 2683,
      "matter": 2684,
      "near": 2685,
      "sided": 2686,
      "##iles": 2687,
      "##itor": 2688,
      "##eter": 2689,
      "turns": 2690,
      "##pper": 2691,
      "forge": 2692,
      "##ained": 2693,
      "legend": 2694,
      "##iance": 2695,
      "##ivers": 2696,
      "feed": 2697,
      "known": 2698,
      "##gotten": 2699,
      "Dryad": 2700,
      "Fish": 2701,
      "Gerr": 2702,
      "Pur": 2703,
      "wish": 2704,
      "##__": 2705,
      "##nth": 2706,
      "##osity": 2707,
      "offer": 2708,
      "spread": 2709,
      "stun": 2710,
      "returns": 2711,
      "##clud": 2712,
      "See": 2713,
      "partner": 2714,
      "##hino": 2715,
      "faith": 2716,
      "Gerrard": 2717,
      "Rel": 2718,
      "gener": 2719,
      "##li": 2720,
      "##ts": 2721,
      "##rove": 2722,
      "##eless": 2723,
      "##ley": 2724,
      "##ices": 2725,
      "##rier": 2726,
      "live": 2727,
      "why": 2728,
      "Ancient": 2729,
      "Scaven": 2730,
      "exper": 2731,
      "##gress": 2732,
      "New": 2733,
      "shares": 2734,
      "beneath": 2735,
      "nonblack": 2736,
      "Can": 2737,
      "Ob": 2738,
      "Where": 2739,
      "born": 2740,
      "glory": 2741,
      "poss": 2742,
      "sound": 2743,
      "##amorph": 2744,
      "stone": 2745,
      "##ims": 2746,
      "Plan": 2747,
      "redu": 2748,
      "resolves": 2749,
      "##feri": 2750,
      "Hunt": 2751,
      "Ret": 2752,
      "Sav": 2753,
      "Und": 2754,
      "sent": 2755,
      "##ral": 2756,
      "##ric": 2757,
      "##orrow": 2758,
      "##isdom": 2759,
      "##iff": 2760,
      "dep": 2761,
      "##immer": 2762,
      "abandon": 2763,
      "##iana": 2764,
      "returned": 2765,
      "weak": 2766,
      "highest": 2767,
      "Garg": 2768,
      "Kar": 2769,
      "Kami": 2770,
      "Py": 2771,
      "fle": 2772,
      "##lo": 2773,
      "##yn": 2774,
      "##dos": 2775,
      "##ges": 2776,
      "##zan": 2777,
      "##ank": 2778,
      "##ism": 2779,
      "##etic": 2780,
      "Though": 2781,
      "Ref": 2782,
      "Stone": 2783,
      "Chandra": 2784,
      "arch": 2785,
      "whenever": 2786,
      "Sea": 2787,
      "became": 2788,
      "soldiers": 2789,
      "Rakdos": 2790,
      "##ungeon": 2791,
      "Zendikar": 2792,
      "Cab": 2793,
      "Dawn": 2794,
      "Fungus": 2795,
      "Jace": 2796,
      "Keld": 2797,
      "Tur": 2798,
      "ele": 2799,
      "toward": 2800,
      "##ually": 2801,
      "##basic": 2802,
      "##pers": 2803,
      "##wh": 2804,
      "##ales": 2805,
      "##ures": 2806,
      "##inct": 2807,
      "Thopter": 2808,
      "force": 2809,
      "Exp": 2810,
      "remember": 2811,
      "##auty": 2812,
      "supp": 2813,
      "##spiracy": 2814,
      "Auras": 2815,
      "Legion": 2816,
      "Liliana": 2817,
      "Aug": 2818,
      "Copy": 2819,
      "Gar": 2820,
      "Nothing": 2821,
      "Pho": 2822,
      "River": 2823,
      "Zh": 2824,
      "bones": 2825,
      "dreams": 2826,
      "mist": 2827,
      "ob": 2828,
      "sign": 2829,
      "und": 2830,
      "##cc": 2831,
      "##su": 2832,
      "##vive": 2833,
      "##arp": 2834,
      "##ump": 2835,
      "##hov": 2836,
      "##ruel": 2837,
      "##blade": 2838,
      "##arec": 2839,
      "Elvish": 2840,
      "Zombies": 2841,
      "Black": 2842,
      "clos": 2843,
      "##axim": 2844,
      "Boar": 2845,
      "forever": 2846,
      "Sanct": 2847,
      "Hel": 2848,
      "King": 2849,
      "Tol": 2850,
      "pot": 2851,
      "pack": 2852,
      "##ew": 2853,
      "##ala": 2854,
      "##enix": 2855,
      "##ayer": 2856,
      "##irth": 2857,
      "##umul": 2858,
      "##ests": 2859,
      "##aller": 2860,
      "above": 2861,
      "##rowth": 2862,
      "pred": 2863,
      "knows": 2864,
      "Rob": 2865,
      "Teferi": 2866,
      "purpose": 2867,
      "Boros": 2868,
      "Aff": 2869,
      "Cle": 2870,
      "Ot": 2871,
      "Rest": 2872,
      "build": 2873,
      "side": 2874,
      "very": 2875,
      "##rate": 2876,
      "##owed": 2877,
      "##anic": 2878,
      "##anking": 2879,
      "##iful": 2880,
      "##ified": 2881,
      "##irium": 2882,
      "initi": 2883,
      "includ": 2884,
      "spec": 2885,
      "##ruit": 2886,
      "Order": 2887,
      "elves": 2888,
      "Surviv": 2889,
      "##annel": 2890,
      "votes": 2891,
      "Changeling": 2892,
      "Suspend": 2893,
      "Sometimes": 2894,
      "Burn": 2895,
      "Kra": 2896,
      "Ment": 2897,
      "Off": 2898,
      "Rad": 2899,
      "Roll": 2900,
      "Rhino": 2901,
      "happ": 2902,
      "maxim": 2903,
      "nor": 2904,
      "rul": 2905,
      "vill": 2906,
      "##inel": 2907,
      "ones": 2908,
      "##ries": 2909,
      "manifest": 2910,
      "##ths": 2911,
      "Beh": 2912,
      "Sword": 2913,
      "Delirium": 2914,
      "mutate": 2915,
      "symbol": 2916,
      "General": 2917,
      "##umulative": 2918,
      "Ge": 2919,
      "Mist": 2920,
      "eight": 2921,
      "field": 2922,
      "tree": 2923,
      "##day": 2924,
      "##borg": 2925,
      "##orius": 2926,
      "##urg": 2927,
      "##ches": 2928,
      "##olog": 2929,
      "steel": 2930,
      "##aps": 2931,
      "Plot": 2932,
      "cloud": 2933,
      "##pts": 2934,
      "Gruul": 2935,
      "Bas": 2936,
      "Dusk": 2937,
      "Fo": 2938,
      "Fer": 2939,
      "Fox": 2940,
      "Like": 2941,
      "Pil": 2942,
      "Sol": 2943,
      "Watch": 2944,
      "cut": 2945,
      "crime": 2946,
      "emer": 2947,
      "##oin": 2948,
      "##wine": 2949,
      "##ured": 2950,
      "##change": 2951,
      "contin": 2952,
      "began": 2953,
      "##omad": 2954,
      "##ader": 2955,
      "##dden": 2956,
      "Artifacts": 2957,
      "##unning": 2958,
      "Ext": 2959,
      "##ours": 2960,
      "Another": 2961,
      "##rank": 2962,
      "##anguard": 2963,
      "Role": 2964,
      "Indestructible": 2965,
      "##ascade": 2966,
      "Aw": 2967,
      "Amb": 2968,
      "Bu": 2969,
      "Per": 2970,
      "Pat": 2971,
      "Prim": 2972,
      "Rab": 2973,
      "Titan": 2974,
      "Well": 2975,
      "Wood": 2976,
      "dri": 2977,
      "rock": 2978,
      "rise": 2979,
      "rounded": 2980,
      "tied": 2981,
      "walk": 2982,
      "##he": 2983,
      "##owing": 2984,
      "##rash": 2985,
      "##asm": 2986,
      "##asion": 2987,
      "count": 2988,
      "##adin": 2989,
      "##aging": 2990,
      "nonbasic": 2991,
      "survive": 2992,
      "armor": 2993,
      "carry": 2994,
      "speak": 2995,
      "##icolored": 2996,
      "evidence": 2997,
      "Phoenix": 2998,
      "Car": 2999,
      "Izz": 3000,
      "Ma": 3001,
      "Tower": 3002,
      "fun": 3003,
      "inter": 3004,
      "transform": 3005,
      "##for": 3006,
      "##oid": 3007,
      "##zhov": 3008,
      "##ammer": 3009,
      "##icorn": 3010,
      "beauty": 3011,
      "These": 3012,
      "##umm": 3013,
      "Start": 3014,
      "##ishing": 3015,
      "Orzhov": 3016,
      "Mystic": 3017,
      "hunger": 3018,
      "Magic": 3019,
      "fewer": 3020,
      "divided": 3021,
      "Lightning": 3022,
      "metal": 3023,
      "Ninja": 3024,
      "quickly": 3025,
      "Barbarian": 3026,
      "Kindred": 3027,
      "exactly": 3028,
      "Izzet": 3029,
      "Ben": 3030,
      "Crab": 3031,
      "Mo": 3032,
      "Madness": 3033,
      "Ol": 3034,
      "Oct": 3035,
      "Ver": 3036,
      "Witch": 3037,
      "dire": 3038,
      "full": 3039,
      "harm": 3040,
      "luck": 3041,
      "mar": 3042,
      "pile": 3043,
      "sav": 3044,
      "##ek": 3045,
      "##cycling": 3046,
      "##unt": 3047,
      "##ging": 3048,
      "love": 3049,
      "cold": 3050,
      "##ifact": 3051,
      "spl": 3052,
      "##tern": 3053,
      "created": 3054,
      "treasure": 3055,
      "##flu": 3056,
      "silent": 3057,
      "starting": 3058,
      "truly": 3059,
      "Simic": 3060,
      "##iliar": 3061,
      "##arecrow": 3062,
      "Cycl": 3063,
      "High": 3064,
      "Rage": 3065,
      "Visit": 3066,
      "favor": 3067,
      "king": 3068,
      "natural": 3069,
      "##race": 3070,
      "##vin": 3071,
      "##reaker": 3072,
      "##orin": 3073,
      "##urt": 3074,
      "##rak": 3075,
      "##bling": 3076,
      "Ste": 3077,
      "Arg": 3078,
      "##artifact": 3079,
      "hero": 3080,
      "arri": 3081,
      "seek": 3082,
      "teach": 3083,
      "Serra": 3084,
      "foot": 3085,
      "souls": 3086,
      "friends": 3087,
      "Bolas": 3088,
      "Dominaria": 3089,
      "strange": 3090,
      "Cumulative": 3091,
      "Gift": 3092,
      "Most": 3093,
      "Nissa": 3094,
      "Path": 3095,
      "Trans": 3096,
      "fier": 3097,
      "##aff": 3098,
      "##ns": 3099,
      "##ply": 3100,
      "threat": 3101,
      "##onin": 3102,
      "##isher": 3103,
      "##icious": 3104,
      "bear": 3105,
      "Thunder": 3106,
      "gained": 3107,
      "##imir": 3108,
      "##isted": 3109,
      "##opus": 3110,
      "Dec": 3111,
      "White": 3112,
      "Hexproof": 3113,
      "Hunter": 3114,
      "victory": 3115,
      "easy": 3116,
      "Art": 3117,
      "Fam": 3118,
      "Ho": 3119,
      "Host": 3120,
      "Mill": 3121,
      "Nature": 3122,
      "Take": 3123,
      "Vanguard": 3124,
      "bar": 3125,
      "corp": 3126,
      "fate": 3127,
      "miss": 3128,
      "suff": 3129,
      "treat": 3130,
      "vol": 3131,
      "vampire": 3132,
      "wood": 3133,
      "##gamorph": 3134,
      "##ered": 3135,
      "##isk": 3136,
      "##uries": 3137,
      "##ched": 3138,
      "forgotten": 3139,
      "Inst": 3140,
      "Spawn": 3141,
      "##iend": 3142,
      "##izz": 3143,
      "##aval": 3144,
      "chaos": 3145,
      "Strike": 3146,
      "lesser": 3147,
      "ways": 3148,
      "Fort": 3149,
      "##shaper": 3150,
      "Trap": 3151,
      "spirits": 3152,
      "meaning": 3153,
      "discover": 3154,
      "Mentor": 3155,
      "Gide": 3156,
      "Heart": 3157,
      "Mer": 3158,
      "Perf": 3159,
      "pie": 3160,
      "rare": 3161,
      "##rost": 3162,
      "##rine": 3163,
      "##erial": 3164,
      "##eng": 3165,
      "list": 3166,
      "##idar": 3167,
      "##oph": 3168,
      "Scarecrow": 3169,
      "Elves": 3170,
      "understand": 3171,
      "##awa": 3172,
      "Cloud": 3173,
      "goad": 3174,
      "teeth": 3175,
      "Herald": 3176,
      "##attered": 3177,
      "difference": 3178,
      "called": 3179,
      "serve": 3180,
      "simply": 3181,
      "family": 3182,
      "journal": 3183,
      "Cabal": 3184,
      "maximum": 3185,
      "Octopus": 3186,
      "Gideon": 3187,
      "By": 3188,
      "Om": 3189,
      "Way": 3190,
      "druid": 3191,
      "gone": 3192,
      "hop": 3193,
      "ign": 3194,
      "pray": 3195,
      "walls": 3196,
      "##lan": 3197,
      "##rict": 3198,
      "##oh": 3199,
      "##ders": 3200,
      "##..": 3201,
      "##erve": 3202,
      "##ele": 3203,
      "##elcome": 3204,
      "yourself": 3205,
      "##ume": 3206,
      "realm": 3207,
      "##iders": 3208,
      "##ills": 3209,
      "##ips": 3210,
      "##igure": 3211,
      "whose": 3212,
      "Shade": 3213,
      "Chim": 3214,
      "##ickers": 3215,
      "Goblins": 3216,
      "clash": 3217,
      "##oyle": 3218,
      "foretell": 3219,
      "entire": 3220,
      "Sentinel": 3221,
      "...": 3222,
      "Inter": 3223,
      "cor": 3224,
      "dungeon": 3225,
      "names": 3226,
      "wisdom": 3227,
      "##cing": 3228,
      "##ior": 3229,
      "##mith": 3230,
      "##sy": 3231,
      "##kn": 3232,
      "##atyr": 3233,
      "##acred": 3234,
      "##ening": 3235,
      "##sters": 3236,
      "##irt": 3237,
      "requ": 3238,
      "##gine": 3239,
      "##bled": 3240,
      "grew": 3241,
      "prec": 3242,
      "Ghoul": 3243,
      "##world": 3244,
      "clear": 3245,
      "dragons": 3246,
      "multicolored": 3247,
      "Golg": 3248,
      "Dist": 3249,
      "Lav": 3250,
      "Mish": 3251,
      "du": 3252,
      "draft": 3253,
      "ple": 3254,
      "ra": 3255,
      "ren": 3256,
      "wat": 3257,
      "##ech": 3258,
      "##caller": 3259,
      "##ters": 3260,
      "##ino": 3261,
      "Inn": 3262,
      "reb": 3263,
      "##ulk": 3264,
      "##iple": 3265,
      "##iege": 3266,
      "nonartifact": 3267,
      "Star": 3268,
      "##keeper": 3269,
      "flame": 3270,
      "Dragons": 3271,
      "conn": 3272,
      "Whis": 3273,
      "everyone": 3274,
      "##rought": 3275,
      "Comp": 3276,
      "broken": 3277,
      "dangerous": 3278,
      "destruction": 3279,
      "Golgari": 3280,
      "Cap": 3281,
      "Head": 3282,
      "Lost": 3283,
      "Rather": 3284,
      "ide": 3285,
      "song": 3286,
      "vi": 3287,
      "##ned": 3288,
      "##well": 3289,
      "##van": 3290,
      "##aced": 3291,
      "exert": 3292,
      "##ocked": 3293,
      "shaman": 3294,
      "##ister": 3295,
      "chose": 3296,
      "means": 3297,
      "process": 3298,
      "feet": 3299,
      "Swarm": 3300,
      "higher": 3301,
      "Orcs": 3302,
      "prevented": 3303,
      "serv": 3304,
      "suspend": 3305,
      "Azorius": 3306,
      "##rupted": 3307,
      "person": 3308,
      "Prowess": 3309,
      "Mishra": 3310,
      "Bur": 3311,
      "Mal": 3312,
      "Raven": 3313,
      "evil": 3314,
      "fury": 3315,
      "##vi": 3316,
      "##alt": 3317,
      "##ators": 3318,
      "##ament": 3319,
      "##ancy": 3320,
      "##rand": 3321,
      "##let": 3322,
      "Thought": 3323,
      "ste": 3324,
      "story": 3325,
      "lies": 3326,
      "##imid": 3327,
      "common": 3328,
      "##uls": 3329,
      "drawn": 3330,
      "##ection": 3331,
      "outl": 3332,
      "##scri": 3333,
      "team": 3334,
      "Ghost": 3335,
      "assign": 3336,
      "tempts": 3337,
      "because": 3338,
      "##engeance": 3339,
      "Gargoyle": 3340,
      "##load": 3341,
      "Cyclops": 3342,
      "Bet": 3343,
      "Dimir": 3344,
      "Fin": 3345,
      "Song": 3346,
      "Yav": 3347,
      "bright": 3348,
      "cert": 3349,
      "knight": 3350,
      "proliferate": 3351,
      "rot": 3352,
      "##oak": 3353,
      "##dent": 3354,
      "##ni": 3355,
      "##wing": 3356,
      "##outh": 3357,
      "##amed": 3358,
      "##edition": 3359,
      "##itu": 3360,
      "forces": 3361,
      "##rawler": 3362,
      "nec": 3363,
      "neither": 3364,
      "##inding": 3365,
      "unp": 3366,
      "##uffle": 3367,
      "Channel": 3368,
      "##icks": 3369,
      "Phyrexians": 3370,
      "surp": 3371,
      "skies": 3372,
      "Horse": 3373,
      "##ighty": 3374,
      "Grave": 3375,
      "shadows": 3376,
      "Harvest": 3377,
      "explores": 3378,
      "victims": 3379,
      "ready": 3380,
      "Paladin": 3381,
      "Dream": 3382,
      "Field": 3383,
      "Hand": 3384,
      "Hom": 3385,
      "Hope": 3386,
      "fly": 3387,
      "gh": 3388,
      "imm": 3389,
      "mortal": 3390,
      "##iok": 3391,
      "##gar": 3392,
      "##gen": 3393,
      "##guard": 3394,
      "##VE": 3395,
      "##alted": 3396,
      "##ately": 3397,
      "##ndred": 3398,
      "cour": 3399,
      "##ada": 3400,
      "##rible": 3401,
      "comb": 3402,
      "##iven": 3403,
      "##ender": 3404,
      "Anim": 3405,
      "prov": 3406,
      "research": 3407,
      "Unicorn": 3408,
      "someone": 3409,
      "repres": 3410,
      "following": 3411,
      "Silver": 3412,
      "Domain": 3413,
      "final": 3414,
      "rule": 3415,
      "Tyran": 3416,
      "memory": 3417,
      "Halfling": 3418,
      "##eteran": 3419,
      "##fluence": 3420,
      "Yavim": 3421,
      "Aut": 3422,
      "Ball": 3423,
      "Cy": 3424,
      "City": 3425,
      "Day": 3426,
      "House": 3427,
      "Kal": 3428,
      "Raz": 3429,
      "Sage": 3430,
      "Vi": 3431,
      "dream": 3432,
      "felt": 3433,
      "law": 3434,
      "mach": 3435,
      "match": 3436,
      "summon": 3437,
      "##craft": 3438,
      "##go": 3439,
      "##bt": 3440,
      "##20": 3441,
      "##owers": 3442,
      "##roach": 3443,
      "places": 3444,
      "stack": 3445,
      "anyone": 3446,
      "Spy": 3447,
      "Shuffle": 3448,
      "close": 3449,
      "surf": 3450,
      "lightning": 3451,
      "deadly": 3452,
      "design": 3453,
      "Crypt": 3454,
      "wonder": 3455,
      "Ast": 3456,
      "Cave": 3457,
      "Den": 3458,
      "Hal": 3459,
      "Iron": 3460,
      "Imm": 3461,
      "LE": 3462,
      "Mur": 3463,
      "Mant": 3464,
      "Never": 3465,
      "Set": 3466,
      "bad": 3467,
      "paired": 3468,
      "tact": 3469,
      "##eous": 3470,
      "##cod": 3471,
      "##ha": 3472,
      "##anship": 3473,
      "##ards": 3474,
      "##asant": 3475,
      "attackers": 3476,
      "abs": 3477,
      "##thy": 3478,
      "Reck": 3479,
      "##unk": 3480,
      "prep": 3481,
      "##rors": 3482,
      "milled": 3483,
      "skin": 3484,
      "saying": 3485,
      "minds": 3486,
      "Grand": 3487,
      "##aughter": 3488,
      "angels": 3489,
      "triggered": 3490,
      "Ruin": 3491,
      "potent": 3492,
      "Yavimaya": 3493,
      "Best": 3494,
      "Cho": 3495,
      "Gor": 3496,
      "Hist": 3497,
      "Hidden": 3498,
      "Kros": 3499,
      "Lore": 3500,
      "Pra": 3501,
      "crew": 3502,
      "captain": 3503,
      "dice": 3504,
      "d20": 3505,
      "food": 3506,
      "horn": 3507,
      "line": 3508,
      "##oor": 3509,
      "##gas": 3510,
      "##zen": 3511,
      "##era": 3512,
      "##ana": 3513,
      "##enses": 3514,
      "##irl": 3515,
      "Revel": 3516,
      "##unn": 3517,
      "plane": 3518,
      "##ortun": 3519,
      "##orde": 3520,
      "Class": 3521,
      "going": 3522,
      "warning": 3523,
      "Root": 3524,
      "##eneg": 3525,
      "Spellshaper": 3526,
      "grows": 3527,
      "beasts": 3528,
      "Secret": 3529,
      "Kraken": 3530,
      "renowned": 3531,
      "13": 3532,
      "Ape": 3533,
      "Bal": 3534,
      "Ban": 3535,
      "Enter": 3536,
      "Fury": 3537,
      "Gen": 3538,
      "Llan": 3539,
      "Satyr": 3540,
      "Wither": 3541,
      "bone": 3542,
      "dread": 3543,
      "ill": 3544,
      "voice": 3545,
      "wr": 3546,
      "##anter": 3547,
      "##cent": 3548,
      "##lers": 3549,
      "##life": 3550,
      "##uary": 3551,
      "##rise": 3552,
      "##gm": 3553,
      "##hil": 3554,
      "##ki": 3555,
      "##rest": 3556,
      "third": 3557,
      "lot": 3558,
      "cover": 3559,
      "putting": 3560,
      "really": 3561,
      "coming": 3562,
      "##odon": 3563,
      "door": 3564,
      "Ascend": 3565,
      "##ending": 3566,
      "chance": 3567,
      "##ashino": 3568,
      "Blast": 3569,
      "ago": 3570,
      "##ssence": 3571,
      "inde": 3572,
      "Emb": 3573,
      "hung": 3574,
      "Doom": 3575,
      "Urborg": 3576,
      "letter": 3577,
      "sometimes": 3578,
      "Guide": 3579,
      "waiting": 3580,
      "whisper": 3581,
      "children": 3582,
      "companion": 3583,
      "Turtle": 3584,
      "##sych": 3585,
      "Kill": 3586,
      "Know": 3587,
      "Less": 3588,
      "Non": 3589,
      "Vess": 3590,
      "eld": 3591,
      "fade": 3592,
      "given": 3593,
      "self": 3594,
      "##io": 3595,
      "##uge": 3596,
      "##ubat": 3597,
      "##most": 3598,
      "##oup": 3599,
      "##reet": 3600,
      "##esny": 3601,
      "##aled": 3602,
      "##arl": 3603,
      "##ances": 3604,
      "##iled": 3605,
      "##itely": 3606,
      "##asters": 3607,
      "##ircle": 3608,
      "##omat": 3609,
      "stri": 3610,
      "steal": 3611,
      "##key": 3612,
      "##odies": 3613,
      "##emb": 3614,
      "##iper": 3615,
      "##igawa": 3616,
      "Shrine": 3617,
      "Scion": 3618,
      "Before": 3619,
      "prefer": 3620,
      "##ney": 3621,
      "Skull": 3622,
      "mages": 3623,
      "##finitely": 3624,
      "fool": 3625,
      "Avacy": 3626,
      "warriors": 3627,
      "empty": 3628,
      "Devour": 3629,
      "built": 3630,
      "Kamigawa": 3631,
      "price": 3632,
      "Specter": 3633,
      "Selesny": 3634,
      "Awaken": 3635,
      "Rabbit": 3636,
      "##VEL": 3637,
      "surface": 3638,
      "LEVEL": 3639,
      "Avacyn": 3640,
      "Selesnya": 3641,
      "Bone": 3642,
      "Fle": 3643,
      "Haunt": 3644,
      "Living": 3645,
      "mis": 3646,
      "pu": 3647,
      "weren": 3648,
      "##ux": 3649,
      "##ught": 3650,
      "##alking": 3651,
      "##owar": 3652,
      "##onic": 3653,
      "##enty": 3654,
      "##astes": 3655,
      "##vers": 3656,
      "inn": 3657,
      "##ads": 3658,
      "##adem": 3659,
      "##ulus": 3660,
      "##ude": 3661,
      "Emer": 3662,
      "hundred": 3663,
      "Rats": 3664,
      "##strosity": 3665,
      "hearts": 3666,
      "guide": 3667,
      "clean": 3668,
      "##ridge": 3669,
      "Tales": 3670,
      "wilds": 3671,
      "worthy": 3672,
      "Strength": 3673,
      "##codile": 3674,
      "Llanowar": 3675,
      ".'": 3676,
      "12": 3677,
      "Band": 3678,
      "Grim": 3679,
      "Nomad": 3680,
      "Ox": 3681,
      "Old": 3682,
      "Queen": 3683,
      "Sleep": 3684,
      "Tang": 3685,
      "Transform": 3686,
      "Vault": 3687,
      "catch": 3688,
      "dest": 3689,
      "mort": 3690,
      "ret": 3691,
      "sho": 3692,
      "##ao": 3693,
      "##ml": 3694,
      "##den": 3695,
      "##bound": 3696,
      "##wind": 3697,
      "##va": 3698,
      "##oun": 3699,
      "thunder": 3700,
      "##iner": 3701,
      "##enom": 3702,
      "insp": 3703,
      "ends": 3704,
      "stru": 3705,
      "##attach": 3706,
      "##emoth": 3707,
      "##ulf": 3708,
      "##blocked": 3709,
      "Stickers": 3710,
      "##oka": 3711,
      "heard": 3712,
      "whole": 3713,
      "##angu": 3714,
      "##iverse": 3715,
      "quiet": 3716,
      "Sagas": 3717,
      "sources": 3718,
      "Mirror": 3719,
      "Minion": 3720,
      "disguise": 3721,
      "cross": 3722,
      "Marsh": 3723,
      "Green": 3724,
      "leader": 3725,
      "Incubat": 3726,
      "##oggart": 3727,
      "##autiful": 3728,
      "promise": 3729,
      "##scription": 3730,
      "Tyranid": 3731,
      "Bard": 3732,
      "Batt": 3733,
      "Mach": 3734,
      "Sand": 3735,
      "bound": 3736,
      "bird": 3737,
      "cruel": 3738,
      "dra": 3739,
      "host": 3740,
      "merc": 3741,
      "pet": 3742,
      "sight": 3743,
      "tide": 3744,
      "##ef": 3745,
      "##een": 3746,
      "##xe": 3747,
      "##nc": 3748,
      "##sl": 3749,
      "##bur": 3750,
      "##erv": 3751,
      "powerful": 3752,
      "young": 3753,
      "##orage": 3754,
      "##itual": 3755,
      "##enture": 3756,
      "ancest": 3757,
      "targeted": 3758,
      "inside": 3759,
      "counts": 3760,
      "Inv": 3761,
      "##iding": 3762,
      "short": 3763,
      "##emanship": 3764,
      "doom": 3765,
      "begins": 3766,
      "Steel": 3767,
      "##ourn": 3768,
      "along": 3769,
      "scout": 3770,
      "conf": 3771,
      "used": 3772,
      "Seer": 3773,
      "roots": 3774,
      "##itting": 3775,
      "##ubble": 3776,
      "##iddle": 3777,
      "##ungle": 3778,
      "explo": 3779,
      "Heroic": 3780,
      "mountain": 3781,
      "Gnome": 3782,
      "Robot": 3783,
      "Affinity": 3784,
      "clouds": 3785,
      "Familiar": 3786,
      "certain": 3787,
      "##gasus": 3788,
      "Cal": 3789,
      "Earth": 3790,
      "Escape": 3791,
      "Gal": 3792,
      "Gorg": 3793,
      "Pu": 3794,
      "Pack": 3795,
      "Pers": 3796,
      "Pred": 3797,
      "Ramp": 3798,
      "Were": 3799,
      "aether": 3800,
      "lab": 3801,
      "mess": 3802,
      "save": 3803,
      "van": 3804,
      "##forcer": 3805,
      "##rd": 3806,
      "##oint": 3807,
      "##horn": 3808,
      "##breaker": 3809,
      "##esis": 3810,
      "##rot": 3811,
      "##ona": 3812,
      "##ify": 3813,
      "##leash": 3814,
      "##cher": 3815,
      "##urnace": 3816,
      "##utter": 3817,
      "##ument": 3818,
      "##epar": 3819,
      "lie": 3820,
      "Insp": 3821,
      "##brace": 3822,
      "unf": 3823,
      "unblocked": 3824,
      "Expl": 3825,
      "amb": 3826,
      "warm": 3827,
      "Slivers": 3828,
      "Islands": 3829,
      "Phant": 3830,
      "brother": 3831,
      "Keeper": 3832,
      "Crocodile": 3833,
      "Foretell": 3834,
      "declared": 3835,
      "##ique": 3836,
      "legendaries": 3837,
      "##ncil": 3838,
      "*,": 3839,
      "Bri": 3840,
      "Bog": 3841,
      "Dar": 3842,
      "Ever": 3843,
      "Jud": 3844,
      "Mod": 3845,
      "Rip": 3846,
      "Sire": 3847,
      "Viv": 3848,
      "den": 3849,
      "eager": 3850,
      "key": 3851,
      "moon": 3852,
      "prow": 3853,
      "vers": 3854,
      "wield": 3855,
      "##culus": 3856,
      "##iness": 3857,
      "##freet": 3858,
      "##oz": 3859,
      "##bute": 3860,
      "##ench": 3861,
      "toxic": 3862,
      "##ising": 3863,
      "##itness": 3864,
      "##chief": 3865,
      "beautiful": 3866,
      "invent": 3867,
      "spark": 3868,
      "courage": 3869,
      "##ried": 3870,
      "libraries": 3871,
      "sharp": 3872,
      "##izon": 3873,
      "adds": 3874,
      "Stand": 3875,
      "Scour": 3876,
      "Form": 3877,
      "##ounty": 3878,
      "Skir": 3879,
      "swift": 3880,
      "hunter": 3881,
      "monsters": 3882,
      "slow": 3883,
      "##finite": 3884,
      "Surge": 3885,
      "Temp": 3886,
      "Few": 3887,
      "Two": 3888,
      "Collect": 3889,
      "Priest": 3890,
      "Infect": 3891,
      "encou": 3892,
      "##rentice": 3893,
      "answer": 3894,
      "course": 3895,
      "Lesson": 3896,
      "Down": 3897,
      "Last": 3898,
      "Pr": 3899,
      "Water": 3900,
      "ap": 3901,
      "crank": 3902,
      "dawn": 3903,
      "eternal": 3904,
      "mir": 3905,
      "pure": 3906,
      "taste": 3907,
      "wake": 3908,
      "##iot": 3909,
      "##tide": 3910,
      "##wolf": 3911,
      "##ina": 3912,
      "##enn": 3913,
      "today": 3914,
      "##edd": 3915,
      "##pping": 3916,
      "storage": 3917,
      "example": 3918,
      "##earing": 3919,
      "##ivil": 3920,
      "none": 3921,
      "Flesh": 3922,
      "##ounds": 3923,
      "Charge": 3924,
      "heav": 3925,
      "##sper": 3926,
      "##augh": 3927,
      "looks": 3928,
      "fighting": 3929,
      "##aptor": 3930,
      "Monstrosity": 3931,
      "Surveil": 3932,
      "bestow": 3933,
      "import": 3934,
      "keeps": 3935,
      "secretly": 3936,
      "##ression": 3937,
      "Warden": 3938,
      "Coloss": 3939,
      "easily": 3940,
      "Recon": 3941,
      "##known": 3942,
      "##imidate": 3943,
      "Incubator": 3944,
      "Cos": 3945,
      "Caval": 3946,
      "Frost": 3947,
      "Growth": 3948,
      "Kess": 3949,
      "Long": 3950,
      "Ok": 3951,
      "Obs": 3952,
      "Rot": 3953,
      "event": 3954,
      "emb": 3955,
      "faces": 3956,
      "gather": 3957,
      "hit": 3958,
      "join": 3959,
      "mine": 3960,
      "mighty": 3961,
      "test": 3962,
      "visit": 3963,
      "wrong": 3964,
      "##uro": 3965,
      "##kite": 3966,
      "##arger": 3967,
      "##acc": 3968,
      "##ching": 3969,
      "fort": 3970,
      "##acker": 3971,
      "Inqu": 3972,
      "##orcerer": 3973,
      "##usher": 3974,
      "##rust": 3975,
      "##rull": 3976,
      "Ancest": 3977,
      "Elk": 3978,
      "ens": 3979,
      "conspiracy": 3980,
      "resist": 3981,
      "lasts": 3982,
      "trained": 3983,
      "##claim": 3984,
      "suc": 3985,
      "Faith": 3986,
      "Mountains": 3987,
      "descend": 3988,
      "parts": 3989,
      "crack": 3990,
      "guess": 3991,
      "group": 3992,
      "simple": 3993,
      "Perform": 3994,
      "Chimera": 3995,
      "Whisper": 3996,
      "represents": 3997,
      "Bush": 3998,
      "Case": 3999,
      "Cascade": 4000,
      "Horn": 4001,
      "Might": 4002,
      "Neph": 4003,
      "Ram": 4004,
      "brought": 4005,
      "cult": 4006,
      "dust": 4007,
      "fer": 4008,
      "phy": 4009,
      "rose": 4010,
      "##lic": 4011,
      "##loy": 4012,
      "##uel": 4013,
      "##rat": 4014,
      "##me": 4015,
      "##itz": 4016,
      "##asses": 4017,
      "##umph": 4018,
      "##ading": 4019,
      "##ido": 4020,
      "grant": 4021,
      "##oster": 4022,
      "##bringer": 4023,
      "##imate": 4024,
      "comm": 4025,
      "Shroud": 4026,
      "amass": 4027,
      "##aren": 4028,
      "flavor": 4029,
      "flanking": 4030,
      "Scar": 4031,
      "worse": 4032,
      "Chaos": 4033,
      "Force": 4034,
      "Plague": 4035,
      "##ably": 4036,
      "resol": 4037,
      "Alien": 4038,
      "couldn": 4039,
      "adapt": 4040,
      "needed": 4041,
      "Disguise": 4042,
      "thoughts": 4043,
      "ruins": 4044,
      "holds": 4045,
      "Underworld": 4046,
      "trust": 4047,
      "merely": 4048,
      "Powerstone": 4049,
      "##addle": 4050,
      "##umbers": 4051,
      "##enegade": 4052,
      "Cult": 4053,
      "Drom": 4054,
      "Div": 4055,
      "Fre": 4056,
      "Fate": 4057,
      "Kin": 4058,
      "Li": 4059,
      "Mol": 4060,
      "Nim": 4061,
      "Ren": 4062,
      "Sis": 4063,
      "Tel": 4064,
      "Van": 4065,
      "Voice": 4066,
      "Veteran": 4067,
      "ahead": 4068,
      "esc": 4069,
      "ge": 4070,
      "gave": 4071,
      "hour": 4072,
      "ice": 4073,
      "mor": 4074,
      "pop": 4075,
      "pull": 4076,
      "rad": 4077,
      "rich": 4078,
      "town": 4079,
      "##ex": 4080,
      "##eg": 4081,
      "##eaker": 4082,
      "##pair": 4083,
      "##water": 4084,
      "##ghold": 4085,
      "##inner": 4086,
      "##roat": 4087,
      "##storm": 4088,
      "##ises": 4089,
      "##eting": 4090,
      "endless": 4091,
      "star": 4092,
      "reality": 4093,
      "ship": 4094,
      "##ermin": 4095,
      "##ival": 4096,
      "##athom": 4097,
      "Blight": 4098,
      "scream": 4099,
      "Clan": 4100,
      "Toxic": 4101,
      "##fully": 4102,
      "quite": 4103,
      "##ronghold": 4104,
      "creations": 4105,
      "himself": 4106,
      "##renz": 4107,
      "Dwarven": 4108,
      "divide": 4109,
      "##ittering": 4110,
      "swords": 4111,
      "Tyrant": 4112,
      "safety": 4113,
      "Street": 4114,
      "Consulate": 4115,
      "Blessed": 4116,
      "Burning": 4117,
      "Bestow": 4118,
      "important": 4119,
      "Kessig": 4120,
      "Han": 4121,
      "Ky": 4122,
      "Mine": 4123,
      "Wander": 4124,
      "Yaw": 4125,
      "ban": 4126,
      "bran": 4127,
      "drop": 4128,
      "making": 4129,
      "pol": 4130,
      "ride": 4131,
      "sense": 4132,
      "sacred": 4133,
      "separ": 4134,
      "##agh": 4135,
      "##ci": 4136,
      "##oly": 4137,
      "##hold": 4138,
      "##ps": 4139,
      "loss": 4140,
      "powers": 4141,
      "##ena": 4142,
      "##ilit": 4143,
      "##urk": 4144,
      "##iter": 4145,
      "yours": 4146,
      "Three": 4147,
      "Thief": 4148,
      "##irc": 4149,
      "##iri": 4150,
      "ash": 4151,
      "##ester": 4152,
      "blades": 4153,
      "twisted": 4154,
      "##ization": 4155,
      "whether": 4156,
      "Shiv": 4157,
      "unattach": 4158,
      "alive": 4159,
      "##clave": 4160,
      "tried": 4161,
      "smell": 4162,
      "below": 4163,
      "prize": 4164,
      "artist": 4165,
      "Volrath": 4166,
      "mountains": 4167,
      "harvest": 4168,
      "Blessing": 4169,
      "forget": 4170,
      "reduced": 4171,
      "Tolarian": 4172,
      "Transm": 4173,
      "Et": 4174,
      "Gri": 4175,
      "Jack": 4176,
      "Kj": 4177,
      "Oath": 4178,
      "Pit": 4179,
      "Psych": 4180,
      "dance": 4181,
      "iron": 4182,
      "pair": 4183,
      "piles": 4184,
      "ran": 4185,
      "send": 4186,
      "sail": 4187,
      "terr": 4188,
      "wins": 4189,
      "##ease": 4190,
      "##city": 4191,
      "##son": 4192,
      "##eret": 4193,
      "##ession": 4194,
      "lock": 4195,
      "##rov": 4196,
      "##ede": 4197,
      "##edge": 4198,
      "##chn": 4199,
      "ang": 4200,
      "##asing": 4201,
      "##irin": 4202,
      "demon": 4203,
      "##omancer": 4204,
      "Investigate": 4205,
      "##eldor": 4206,
      "Leech": 4207,
      "##lorious": 4208,
      "##unculus": 4209,
      "notes": 4210,
      "Elsp": 4211,
      "weight": 4212,
      "instinct": 4213,
      "Forge": 4214,
      "Loyal": 4215,
      "conqu": 4216,
      "constant": 4217,
      "##abit": 4218,
      "looked": 4219,
      "Oracle": 4220,
      "Serv": 4221,
      "##lection": 4222,
      "##ubate": 4223,
      "foes": 4224,
      "Tezz": 4225,
      "silver": 4226,
      "phased": 4227,
      "decay": 4228,
      "Prize": 4229,
      "Avenger": 4230,
      "Disciple": 4231,
      "advance": 4232,
      "##elebr": 4233,
      "combination": 4234,
      "indefinitely": 4235,
      "Gorgon": 4236,
      "Performer": 4237,
      "Elspeth": 4238,
      "Tezzeret": 4239,
      "Bell": 4240,
      "Basic": 4241,
      "Dep": 4242,
      "Evol": 4243,
      "Efreet": 4244,
      "Found": 4245,
      "Gam": 4246,
      "Get": 4247,
      "Hall": 4248,
      "Ice": 4249,
      "March": 4250,
      "Sho": 4251,
      "bol": 4252,
      "crop": 4253,
      "fre": 4254,
      "gives": 4255,
      "held": 4256,
      "haven": 4257,
      "mus": 4258,
      "wander": 4259,
      "##cast": 4260,
      "##mir": 4261,
      "##gy": 4262,
      "##haps": 4263,
      "##stal": 4264,
      "##struct": 4265,
      "##iling": 4266,
      "##urb": 4267,
      "##itude": 4268,
      "##elm": 4269,
      "##chol": 4270,
      "##ased": 4271,
      "Thorn": 4272,
      "##atters": 4273,
      "##ights": 4274,
      "Sphere": 4275,
      "##ully": 4276,
      "##igator": 4277,
      "##izier": 4278,
      "taught": 4279,
      "##ians": 4280,
      "almost": 4281,
      "works": 4282,
      "##phe": 4283,
      "Heal": 4284,
      "sudden": 4285,
      "Archon": 4286,
      "##ocus": 4287,
      "Enc": 4288,
      "repeat": 4289,
      "streets": 4290,
      "crush": 4291,
      "fallen": 4292,
      "growth": 4293,
      "##araoh": 4294,
      "Pharaoh": 4295,
      "Greml": 4296,
      "winds": 4297,
      "Pegasus": 4298,
      "##spiration": 4299,
      "question": 4300,
      "Acc": 4301,
      "Hellion": 4302,
      "vote": 4303,
      "##rism": 4304,
      "terrible": 4305,
      "whispers": 4306,
      "centuries": 4307,
      "abandoned": 4308,
      "rules": 4309,
      "##ternity": 4310,
      "vampires": 4311,
      "duty": 4312,
      "viol": 4313,
      "assigns": 4314,
      "##dentity": 4315,
      "##nihil": 4316,
      "Kjeldor": 4317,
      "Aj": 4318,
      "Bant": 4319,
      "Dire": 4320,
      "Er": 4321,
      "IV": 4322,
      "Mel": 4323,
      "Rath": 4324,
      "Sub": 4325,
      "Umb": 4326,
      "Void": 4327,
      "ant": 4328,
      "aff": 4329,
      "bodies": 4330,
      "craft": 4331,
      "dou": 4332,
      "fill": 4333,
      "foul": 4334,
      "hot": 4335,
      "haunt": 4336,
      "rever": 4337,
      "river": 4338,
      "sick": 4339,
      "trans": 4340,
      "welcome": 4341,
      "##eet": 4342,
      "##iment": 4343,
      "##iest": 4344,
      "##rum": 4345,
      "##no": 4346,
      "##acious": 4347,
      "told": 4348,
      "##isions": 4349,
      "forged": 4350,
      "##rint": 4351,
      "stood": 4352,
      "Infer": 4353,
      "shap": 4354,
      "##ector": 4355,
      "sees": 4356,
      "equip": 4357,
      "discarding": 4358,
      "worlds": 4359,
      "##claw": 4360,
      "##issary": 4361,
      "advent": 4362,
      "Squad": 4363,
      "nightmare": 4364,
      "##magin": 4365,
      "Syl": 4366,
      "history": 4367,
      "brings": 4368,
      "grace": 4369,
      "hunting": 4370,
      "humans": 4371,
      "memories": 4372,
      "speed": 4373,
      "Guildmage": 4374,
      "Nyx": 4375,
      "respect": 4376,
      "depths": 4377,
      "Keldon": 4378,
      "Tangle": 4379,
      "Siren": 4380,
      "Cut": 4381,
      "Give": 4382,
      "Gae": 4383,
      "Jund": 4384,
      "Oj": 4385,
      "Pass": 4386,
      "Proliferate": 4387,
      "Rune": 4388,
      "Raptor": 4389,
      "Summon": 4390,
      "Saddle": 4391,
      "ble": 4392,
      "cap": 4393,
      "capt": 4394,
      "drew": 4395,
      "eff": 4396,
      "earn": 4397,
      "fur": 4398,
      "hers": 4399,
      "low": 4400,
      "odd": 4401,
      "pir": 4402,
      "rain": 4403,
      "tor": 4404,
      "venture": 4405,
      "##iam": 4406,
      "##gl": 4407,
      "##natural": 4408,
      "##hon": 4409,
      "##reep": 4410,
      "##esk": 4411,
      "##utt": 4412,
      "##utsu": 4413,
      "Thrab": 4414,
      "inh": 4415,
      "inscription": 4416,
      "deple": 4417,
      "##ady": 4418,
      "reward": 4419,
      "##idnight": 4420,
      "grand": 4421,
      "Spark": 4422,
      "Exalted": 4423,
      "##venge": 4424,
      "Elite": 4425,
      "scrap": 4426,
      "Conf": 4427,
      "Knights": 4428,
      "##ords": 4429,
      "feast": 4430,
      "looking": 4431,
      "expect": 4432,
      "swamp": 4433,
      "##iction": 4434,
      "justice": 4435,
      "Adapt": 4436,
      "##ension": 4437,
      "Servo": 4438,
      "##chemist": 4439,
      "##oyf": 4440,
      "seconds": 4441,
      "Swampwalk": 4442,
      "arms": 4443,
      "Hunger": 4444,
      "wanted": 4445,
      "opening": 4446,
      "Abzan": 4447,
      "mode": 4448,
      "soldier": 4449,
      "study": 4450,
      "Corrupted": 4451,
      "##ifications": 4452,
      "patrol": 4453,
      "Zhalf": 4454,
      "##force": 4455,
      "rarely": 4456,
      "Compan": 4457,
      "tactics": 4458,
      "##gmoth": 4459,
      "elder": 4460,
      "Yawgmoth": 4461,
      "Gaea": 4462,
      "Thraben": 4463,
      "Ant": 4464,
      "Ep": 4465,
      "Esper": 4466,
      "Key": 4467,
      "Lim": 4468,
      "Mis": 4469,
      "Prism": 4470,
      "Rock": 4471,
      "Rider": 4472,
      "Sar": 4473,
      "Vec": 4474,
      "Wand": 4475,
      "av": 4476,
      "civil": 4477,
      "dig": 4478,
      "fast": 4479,
      "fought": 4480,
      "freed": 4481,
      "hum": 4482,
      "occ": 4483,
      "tro": 4484,
      "##istant": 4485,
      "##figure": 4486,
      "##tion": 4487,
      "##vax": 4488,
      "##alion": 4489,
      "##ano": 4490,
      "##oral": 4491,
      "##itable": 4492,
      "##etor": 4493,
      "anger": 4494,
      "Thrull": 4495,
      "##oted": 4496,
      "##ident": 4497,
      "##hood": 4498,
      "Leaf": 4499,
      "##ruption": 4500,
      "taken": 4501,
      "##combat": 4502,
      "leaving": 4503,
      "Reg": 4504,
      "##aga": 4505,
      "##wald": 4506,
      "heat": 4507,
      "meet": 4508,
      "measure": 4509,
      "herd": 4510,
      "expression": 4511,
      "##voc": 4512,
      "##ails": 4513,
      "Advent": 4514,
      "Mirran": 4515,
      "foe": 4516,
      "Silent": 4517,
      "book": 4518,
      "stronger": 4519,
      "curse": 4520,
      "horrors": 4521,
      "solve": 4522,
      "determ": 4523,
      "accept": 4524,
      "drink": 4525,
      "Markov": 4526,
      "Planeswal": 4527,
      "Behemoth": 4528,
      "transforms": 4529,
      "Homunculus": 4530,
      "History": 4531,
      "Ajani": 4532,
      "Bond": 4533,
      "Breath": 4534,
      "Bands": 4535,
      "Cath": 4536,
      "Care": 4537,
      "Come": 4538,
      "Ed": 4539,
      "Far": 4540,
      "Fiend": 4541,
      "Furnace": 4542,
      "Good": 4543,
      "Jug": 4544,
      "Kn": 4545,
      "Kol": 4546,
      "Nor": 4547,
      "Nicol": 4548,
      "Ral": 4549,
      "Rig": 4550,
      "Sark": 4551,
      "Siege": 4552,
      "Tim": 4553,
      "Tah": 4554,
      "bow": 4555,
      "bite": 4556,
      "bond": 4557,
      "dom": 4558,
      "dwell": 4559,
      "ears": 4560,
      "frag": 4561,
      "farm": 4562,
      "fears": 4563,
      "hom": 4564,
      "mad": 4565,
      "numbers": 4566,
      "pract": 4567,
      "sand": 4568,
      "sadd": 4569,
      "vengeance": 4570,
      "##co": 4571,
      "##last": 4572,
      "##ram": 4573,
      "##by": 4574,
      "##break": 4575,
      "##eror": 4576,
      "##reck": 4577,
      "##alish": 4578,
      "##aming": 4579,
      "##ilos": 4580,
      "##itory": 4581,
      "##enth": 4582,
      "##raid": 4583,
      "##antage": 4584,
      "##cha": 4585,
      "##icore": 4586,
      "anim": 4587,
      "Ther": 4588,
      "dem": 4589,
      "##riad": 4590,
      "exchange": 4591,
      "Spr": 4592,
      "##run": 4593,
      "##athan": 4594,
      "Stri": 4595,
      "flow": 4596,
      "flames": 4597,
      "meal": 4598,
      "Conclave": 4599,
      "Weaver": 4600,
      "Vampires": 4601,
      "golem": 4602,
      "using": 4603,
      "Protect": 4604,
      "##perate": 4605,
      "Armor": 4606,
      "##naut": 4607,
      "Mercad": 4608,
      "Syr": 4609,
      "Peasant": 4610,
      "##orpion": 4611,
      "perfection": 4612,
      "suspected": 4613,
      "Apprentice": 4614,
      "guilds": 4615,
      "mistake": 4616,
      "Geist": 4617,
      "Benalish": 4618,
      "Verd": 4619,
      "waters": 4620,
      "potential": 4621,
      "Fleet": 4622,
      "Bushido": 4623,
      "escap": 4624,
      "Sarkhan": 4625,
      "Ap": 4626,
      "Fract": 4627,
      "Horde": 4628,
      "Lor": 4629,
      "Med": 4630,
      "More": 4631,
      "Norn": 4632,
      "Oh": 4633,
      "Tide": 4634,
      "Vict": 4635,
      "Wo": 4636,
      "Worm": 4637,
      "Winter": 4638,
      "fine": 4639,
      "hat": 4640,
      "jungle": 4641,
      "rust": 4642,
      "vast": 4643,
      "witch": 4644,
      "##uous": 4645,
      "##yo": 4646,
      "##oot": 4647,
      "##da": 4648,
      "##hu": 4649,
      "##bond": 4650,
      "##eries": 4651,
      "lord": 4652,
      "##type": 4653,
      "##edron": 4654,
      "##urs": 4655,
      "cond": 4656,
      "##elter": 4657,
      "##rayal": 4658,
      "##legendary": 4659,
      "##chant": 4660,
      "##asa": 4661,
      "##vere": 4662,
      "Thass": 4663,
      "##ellation": 4664,
      "##rth": 4665,
      "island": 4666,
      "playing": 4667,
      "stir": 4668,
      "Initi": 4669,
      "##imp": 4670,
      "Humans": 4671,
      "attacker": 4672,
      "Levi": 4673,
      "##oded": 4674,
      "##ems": 4675,
      "##ivia": 4676,
      "##iger": 4677,
      "Asp": 4678,
      "che": 4679,
      "wouldn": 4680,
      "Lands": 4681,
      "Chain": 4682,
      "prof": 4683,
      "problem": 4684,
      "planeswalk": 4685,
      "pret": 4686,
      "Pres": 4687,
      "Assault": 4688,
      "former": 4689,
      "##itten": 4690,
      "##weaver": 4691,
      "Quest": 4692,
      "priest": 4693,
      "Temple": 4694,
      "burns": 4695,
      "consum": 4696,
      "Necron": 4697,
      "Bolt": 4698,
      "regular": 4699,
      "survival": 4700,
      "Golden": 4701,
      "##ribute": 4702,
      "Otter": 4703,
      "Buy": 4704,
      "treated": 4705,
      "Ravenous": 4706,
      "Viashino": 4707,
      "Vivien": 4708,
      "##accoon": 4709,
      "Inquisit": 4710,
      "Sisay": 4711,
      "Umbra": 4712,
      "depletion": 4713,
      "Thassa": 4714,
      "19": 4715,
      "11": 4716,
      "Big": 4717,
      "Bring": 4718,
      "Bald": 4719,
      "Fang": 4720,
      "Glory": 4721,
      "Grix": 4722,
      "Here": 4723,
      "Hob": 4724,
      "Honor": 4725,
      "Hammer": 4726,
      "Ka": 4727,
      "Karn": 4728,
      "Mard": 4729,
      "Melet": 4730,
      "Of": 4731,
      "Ritual": 4732,
      "Sig": 4733,
      "Sorin": 4734,
      "Ugin": 4735,
      "Zeal": 4736,
      "bell": 4737,
      "dying": 4738,
      "edge": 4739,
      "filled": 4740,
      "hors": 4741,
      "mel": 4742,
      "queen": 4743,
      "sat": 4744,
      "wall": 4745,
      "##ls": 4746,
      "##ias": 4747,
      "##fort": 4748,
      "##ration": 4749,
      "##rator": 4750,
      "##ya": 4751,
      "##dig": 4752,
      "##grim": 4753,
      "##atory": 4754,
      "##atli": 4755,
      "##aro": 4756,
      "##osing": 4757,
      "##steel": 4758,
      "##ilder": 4759,
      "##lex": 4760,
      "##asher": 4761,
      "Through": 4762,
      "spect": 4763,
      "stat": 4764,
      "##ested": 4765,
      "##quis": 4766,
      "##riff": 4767,
      "shell": 4768,
      "##ushing": 4769,
      "##gineer": 4770,
      "##ulpt": 4771,
      "##iety": 4772,
      "##ruk": 4773,
      "taking": 4774,
      "Recl": 4775,
      "Realm": 4776,
      "Stalker": 4777,
      "##shift": 4778,
      "##spring": 4779,
      "feather": 4780,
      "##azing": 4781,
      "explor": 4782,
      "##gernaut": 4783,
      "Emrak": 4784,
      "Roil": 4785,
      "Forests": 4786,
      "Constellation": 4787,
      "elf": 4788,
      "Islandwalk": 4789,
      "##ika": 4790,
      "needs": 4791,
      "activating": 4792,
      "Truth": 4793,
      "Everything": 4794,
      "Mutate": 4795,
      "stands": 4796,
      "burning": 4797,
      "consider": 4798,
      "blessed": 4799,
      "modified": 4800,
      "modifications": 4801,
      "Hellkite": 4802,
      "##alcraft": 4803,
      "Ninjutsu": 4804,
      "Metalcraft": 4805,
      "Split": 4806,
      "presence": 4807,
      "Crovax": 4808,
      "realized": 4809,
      "hungry": 4810,
      "Knowledge": 4811,
      "mortals": 4812,
      "ancestors": 4813,
      "Reconfigure": 4814,
      "##olyte": 4815,
      "saddled": 4816,
      "Grixis": 4817,
      "Mardu": 4818,
      "Emrakul": 4819,
      "Age": 4820,
      "Cond": 4821,
      "Corp": 4822,
      "Dran": 4823,
      "Dreams": 4824,
      "Ert": 4825,
      "Got": 4826,
      "Ix": 4827,
      "Law": 4828,
      "Laz": 4829,
      "Mouse": 4830,
      "Mizz": 4831,
      "Nala": 4832,
      "Open": 4833,
      "Rever": 4834,
      "Rally": 4835,
      "Raccoon": 4836,
      "Ta": 4837,
      "Tin": 4838,
      "Tomb": 4839,
      "Vision": 4840,
      "Wings": 4841,
      "artificer": 4842,
      "bare": 4843,
      "birth": 4844,
      "caught": 4845,
      "evol": 4846,
      "hate": 4847,
      "joy": 4848,
      "kin": 4849,
      "lack": 4850,
      "lav": 4851,
      "mere": 4852,
      "masters": 4853,
      "raid": 4854,
      "wise": 4855,
      "##eker": 4856,
      "##canic": 4857,
      "##igin": 4858,
      "##ta": 4859,
      "##pur": 4860,
      "##vy": 4861,
      "##eron": 4862,
      "##angel": 4863,
      "##oros": 4864,
      "tom": 4865,
      "##urer": 4866,
      "coll": 4867,
      "##itation": 4868,
      "##ention": 4869,
      "##henom": 4870,
      "##icid": 4871,
      "##uten": 4872,
      "stones": 4873,
      "##hok": 4874,
      "##uss": 4875,
      "##ulse": 4876,
      "##iew": 4877,
      "##izing": 4878,
      "##oldred": 4879,
      "##seen": 4880,
      "##agger": 4881,
      "uns": 4882,
      "flood": 4883,
      "Flip": 4884,
      "Weird": 4885,
      "claws": 4886,
      "skill": 4887,
      "skull": 4888,
      "train": 4889,
      "Coal": 4890,
      "roar": 4891,
      "Bloodth": 4892,
      "##ocious": 4893,
      "Enforcer": 4894,
      "Glimmer": 4895,
      "belong": 4896,
      "Sheoldred": 4897,
      "Marau": 4898,
      "Everyone": 4899,
      "righteous": 4900,
      "killed": 4901,
      "booster": 4902,
      "silence": 4903,
      "entwine": 4904,
      "temp": 4905,
      "Temur": 4906,
      "consists": 4907,
      "defense": 4908,
      "awaken": 4909,
      "Sentry": 4910,
      "Duel": 4911,
      "asked": 4912,
      "Entwine": 4913,
      "declare": 4914,
      "Salv": 4915,
      "Relic": 4916,
      "Scavenge": 4917,
      "experience": 4918,
      "Augment": 4919,
      "special": 4920,
      "Survivor": 4921,
      "Basil": 4922,
      "Olivia": 4923,
      "Argoth": 4924,
      "corpses": 4925,
      "Instead": 4926,
      "goaded": 4927,
      "raised": 4928,
      "Scourge": 4929,
      "Cosm": 4930,
      "Dromoka": 4931,
      "##vereign": 4932,
      "horsemanship": 4933,
      "Nalaar": 4934,
      "Agent": 4935,
      "Circle": 4936,
      "Ez": 4937,
      "Ere": 4938,
      "Ger": 4939,
      "Git": 4940,
      "Ground": 4941,
      "Grace": 4942,
      "Lair": 4943,
      "Mass": 4944,
      "Naya": 4945,
      "Pet": 4946,
      "Pain": 4947,
      "Taken": 4948,
      "Vit": 4949,
      "Vras": 4950,
      "barg": 4951,
      "fro": 4952,
      "gaze": 4953,
      "having": 4954,
      "identity": 4955,
      "job": 4956,
      "kicker": 4957,
      "laugh": 4958,
      "nine": 4959,
      "pal": 4960,
      "tale": 4961,
      "troll": 4962,
      "waste": 4963,
      "##uv": 4964,
      "##bear": 4965,
      "##wart": 4966,
      "##eral": 4967,
      "##alse": 4968,
      "throw": 4969,
      "##acon": 4970,
      "##acing": 4971,
      "##enon": 4972,
      "##order": 4973,
      "##stalker": 4974,
      "##ays": 4975,
      "##raith": 4976,
      "##leg": 4977,
      "controllers": 4978,
      "origin": 4979,
      "Thran": 4980,
      "##acher": 4981,
      "##umgar": 4982,
      "##ote": 4983,
      "##herd": 4984,
      "##aged": 4985,
      "##rist": 4986,
      "##ode": 4987,
      "Ata": 4988,
      "hasn": 4989,
      "necess": 4990,
      "##older": 4991,
      "##istrad": 4992,
      "seed": 4993,
      "noble": 4994,
      "nonlegendary": 4995,
      "##aked": 4996,
      "willing": 4997,
      "megamorph": 4998,
      "##rowd": 4999,
      "Conspiracy": 5000,
      "##iable": 5001,
      "Others": 5002,
      "Council": 5003,
      "Angelic": 5004,
      "Room": 5005,
      "Adept": 5006,
      "Imperial": 5007,
      "disapp": 5008,
      "Squee": 5009,
      "Pirates": 5010,
      "Huatli": 5011,
      "##ahl": 5012,
      "appear": 5013,
      "True": 5014,
      "##bey": 5015,
      "##arnation": 5016,
      "Skysh": 5017,
      "followed": 5018,
      "Silumgar": 5019,
      "##flict": 5020,
      "perform": 5021,
      "Suq": 5022,
      "Feed": 5023,
      "mutates": 5024,
      "students": 5025,
      "terror": 5026,
      "promised": 5027,
      "Splice": 5028,
      "seems": 5029,
      "Scavenger": 5030,
      "closer": 5031,
      "Restless": 5032,
      "initiative": 5033,
      "Pilot": 5034,
      "saved": 5035,
      "splice": 5036,
      "piece": 5037,
      "Innistrad": 5038,
      "Reckless": 5039,
      "##omaton": 5040,
      "##burst": 5041,
      "Jackal": 5042,
      "Vraska": 5043,
      "Break": 5044,
      "Cer": 5045,
      "Fight": 5046,
      "Haz": 5047,
      "Haven": 5048,
      "Lur": 5049,
      "Mask": 5050,
      "Tact": 5051,
      "Taj": 5052,
      "Wave": 5053,
      "bit": 5054,
      "fou": 5055,
      "fact": 5056,
      "front": 5057,
      "focus": 5058,
      "large": 5059,
      "late": 5060,
      "mass": 5061,
      "ogre": 5062,
      "pun": 5063,
      "venom": 5064,
      "winter": 5065,
      "year": 5066,
      "##iod": 5067,
      "##ued": 5068,
      "##rion": 5069,
      "##rown": 5070,
      "##miss": 5071,
      "##gest": 5072,
      "##bor": 5073,
      "##bid": 5074,
      "##joy": 5075,
      "##rock": 5076,
      "##arden": 5077,
      "##uri": 5078,
      "##chie": 5079,
      "##utai": 5080,
      "demand": 5081,
      "plague": 5082,
      "##umin": 5083,
      "forth": 5084,
      "blind": 5085,
      "limit": 5086,
      "##aph": 5087,
      "twenty": 5088,
      "##empt": 5089,
      "dog": 5090,
      "Spring": 5091,
      "##igor": 5092,
      "##bloom": 5093,
      "chall": 5094,
      "Revol": 5095,
      "##agg": 5096,
      "Exc": 5097,
      "Exper": 5098,
      "Exchange": 5099,
      "Goat": 5100,
      "##oney": 5101,
      "Scorpion": 5102,
      "worry": 5103,
      "myself": 5104,
      "arrows": 5105,
      "clan": 5106,
      "Loc": 5107,
      "Clown": 5108,
      "expedition": 5109,
      "usually": 5110,
      "hunters": 5111,
      "trick": 5112,
      "says": 5113,
      "Engine": 5114,
      "armies": 5115,
      "fires": 5116,
      "Grasp": 5117,
      "Assassins": 5118,
      "Souls": 5119,
      "Rebound": 5120,
      "finality": 5121,
      "Worker": 5122,
      "heads": 5123,
      "results": 5124,
      "horizon": 5125,
      "suspect": 5126,
      "Auriok": 5127,
      "moments": 5128,
      "##uko": 5129,
      "Megamorph": 5130,
      "awoke": 5131,
      "##alcon": 5132,
      "##ephal": 5133,
      "subtle": 5134,
      "Brood": 5135,
      "infect": 5136,
      "##tooth": 5137,
      "present": 5138,
      "Memory": 5139,
      "Beleren": 5140,
      "replicate": 5141,
      "produce": 5142,
      "Undying": 5143,
      "Garruk": 5144,
      "village": 5145,
      "Patrol": 5146,
      "direct": 5147,
      "clashing": 5148,
      "Lava": 5149,
      "suspended": 5150,
      "Werewolf": 5151,
      "verse": 5152,
      "Psychic": 5153,
      "angry": 5154,
      "Gremlin": 5155,
      "Ojutai": 5156,
      "herself": 5157,
      "##ilosop": 5158,
      "Leviathan": 5159,
      "Ertai": 5160,
      "##henomenon": 5161,
      "Ah": 5162,
      "Are": 5163,
      "Comb": 5164,
      "Cao": 5165,
      "Egg": 5166,
      "Evoke": 5167,
      "Essence": 5168,
      "Fem": 5169,
      "Friend": 5170,
      "Favor": 5171,
      "Kh": 5172,
      "Kond": 5173,
      "Sult": 5174,
      "Sorcerer": 5175,
      "Vold": 5176,
      "aim": 5177,
      "bal": 5178,
      "bounty": 5179,
      "ear": 5180,
      "gle": 5181,
      "hy": 5182,
      "hon": 5183,
      "imagin": 5184,
      "laws": 5185,
      "langu": 5186,
      "rats": 5187,
      "sal": 5188,
      "tall": 5189,
      "task": 5190,
      "ur": 5191,
      "vision": 5192,
      "went": 5193,
      "wurm": 5194,
      "##eem": 5195,
      "##uit": 5196,
      "##rus": 5197,
      "##oing": 5198,
      "##oves": 5199,
      "##ti": 5200,
      "##gler": 5201,
      "##heart": 5202,
      "##bb": 5203,
      "##bos": 5204,
      "##zed": 5205,
      "##amog": 5206,
      "##ency": 5207,
      "##urch": 5208,
      "##urity": 5209,
      "##icken": 5210,
      "##asual": 5211,
      "##irm": 5212,
      "infinite": 5213,
      "##olver": 5214,
      "sto": 5215,
      "getting": 5216,
      "##idge": 5217,
      "commit": 5218,
      "##eref": 5219,
      "Rev": 5220,
      "Reality": 5221,
      "##artes": 5222,
      "##linger": 5223,
      "Conver": 5224,
      "##ossom": 5225,
      "Alt": 5226,
      "expend": 5227,
      "trapped": 5228,
      "root": 5229,
      "monster": 5230,
      "Neuro": 5231,
      "follows": 5232,
      "opened": 5233,
      "leads": 5234,
      "passed": 5235,
      "Employ": 5236,
      "healing": 5237,
      "incubate": 5238,
      "Moonfolk": 5239,
      "encoded": 5240,
      "Multiverse": 5241,
      "answers": 5242,
      "wizards": 5243,
      "Ulamog": 5244,
      "generations": 5245,
      "Sanctum": 5246,
      "Sanctuary": 5247,
      "Starting": 5248,
      "discovered": 5249,
      "Astartes": 5250,
      "Embalm": 5251,
      "Persist": 5252,
      "Riptide": 5253,
      "branches": 5254,
      "##cholar": 5255,
      "freedom": 5256,
      "Juggernaut": 5257,
      "##hunter": 5258,
      "Buyback": 5259,
      "##utenant": 5260,
      "Coalition": 5261,
      "Femeref": 5262,
      "Sultai": 5263,
      "Voldaren": 5264,
      "Neurok": 5265,
      "Axe": 5266,
      "Cinder": 5267,
      "Fest": 5268,
      "Fier": 5269,
      "Gand": 5270,
      "Hold": 5271,
      "Jor": 5272,
      "Lie": 5273,
      "Lab": 5274,
      "Mast": 5275,
      "Make": 5276,
      "Maze": 5277,
      "Op": 5278,
      "Pest": 5279,
      "Poss": 5280,
      "Rise": 5281,
      "Rush": 5282,
      "Tell": 5283,
      "Tami": 5284,
      "Vir": 5285,
      "Yet": 5286,
      "af": 5287,
      "aut": 5288,
      "aven": 5289,
      "avoid": 5290,
      "batt": 5291,
      "dinosaur": 5292,
      "dwar": 5293,
      "fruit": 5294,
      "fuel": 5295,
      "glorious": 5296,
      "hur": 5297,
      "hidden": 5298,
      "kept": 5299,
      "merfolk": 5300,
      "mouth": 5301,
      "pick": 5302,
      "passes": 5303,
      "tend": 5304,
      "tales": 5305,
      "##cap": 5306,
      "##uphe": 5307,
      "##rr": 5308,
      "##ba": 5309,
      "##bal": 5310,
      "##bane": 5311,
      "##erunning": 5312,
      "##oured": 5313,
      "##ama": 5314,
      "##amander": 5315,
      "##osed": 5316,
      "##geant": 5317,
      "##step": 5318,
      "##isan": 5319,
      "##iler": 5320,
      "##ently": 5321,
      "Ink": 5322,
      "revel": 5323,
      "##idian": 5324,
      "opportun": 5325,
      "shift": 5326,
      "Leonin": 5327,
      "##used": 5328,
      "allies": 5329,
      "Spike": 5330,
      "##ipe": 5331,
      "##ects": 5332,
      "##bliv": 5333,
      "unlock": 5334,
      "##itions": 5335,
      "Spirits": 5336,
      "proper": 5337,
      "##phet": 5338,
      "soc": 5339,
      "claw": 5340,
      "goes": 5341,
      "afterlife": 5342,
      "trap": 5343,
      "training": 5344,
      "Ember": 5345,
      "Emissary": 5346,
      "super": 5347,
      "techn": 5348,
      "Fair": 5349,
      "overload": 5350,
      "elvish": 5351,
      "Monkey": 5352,
      "##ocity": 5353,
      "Imprint": 5354,
      "approach": 5355,
      "glass": 5356,
      "Book": 5357,
      "falls": 5358,
      "##uthless": 5359,
      "Magus": 5360,
      "Without": 5361,
      "pride": 5362,
      "##ibility": 5363,
      "temper": 5364,
      "Backup": 5365,
      "burned": 5366,
      "Feast": 5367,
      "Research": 5368,
      "Overload": 5369,
      "minus": 5370,
      "minotaur": 5371,
      "Kamahl": 5372,
      "Morbid": 5373,
      "##____": 5374,
      "##ologist": 5375,
      "countless": 5376,
      "lucky": 5377,
      "exerted": 5378,
      "Setess": 5379,
      "##unnel": 5380,
      "##ademy": 5381,
      "Inspired": 5382,
      "Phantom": 5383,
      "phys": 5384,
      "morning": 5385,
      "territory": 5386,
      "Sigard": 5387,
      "tomorrow": 5388,
      "Erebos": 5389,
      "Gitax": 5390,
      "Tamiyo": 5391,
      "Ay": 5392,
      "Activ": 5393,
      "Bob": 5394,
      "Bridge": 5395,
      "Cart": 5396,
      "Dash": 5397,
      "Dale": 5398,
      "Edge": 5399,
      "Gix": 5400,
      "Ha": 5401,
      "Junk": 5402,
      "Kaya": 5403,
      "Koz": 5404,
      "Lot": 5405,
      "Mom": 5406,
      "Move": 5407,
      "Nar": 5408,
      "Net": 5409,
      "Tar": 5410,
      "artif": 5411,
      "corn": 5412,
      "circ": 5413,
      "dim": 5414,
      "et": 5415,
      "faster": 5416,
      "father": 5417,
      "fully": 5418,
      "gri": 5419,
      "lay": 5420,
      "med": 5421,
      "mot": 5422,
      "prim": 5423,
      "san": 5424,
      "sought": 5425,
      "tang": 5426,
      "wave": 5427,
      "##cano": 5428,
      "##rated": 5429,
      "##mane": 5430,
      "##wolves": 5431,
      "##vok": 5432,
      "##amity": 5433,
      "##urel": 5434,
      "tong": 5435,
      "##ingers": 5436,
      "##elly": 5437,
      "##elest": 5438,
      "##antuko": 5439,
      "##ician": 5440,
      "##lyph": 5441,
      "##umbling": 5442,
      "spore": 5443,
      "##olly": 5444,
      "stars": 5445,
      "stories": 5446,
      "##epherd": 5447,
      "blast": 5448,
      "rece": 5449,
      "reason": 5450,
      "##hod": 5451,
      "##ilek": 5452,
      "Ley": 5453,
      "##emble": 5454,
      "Atark": 5455,
      "##igan": 5456,
      "##izens": 5457,
      "Show": 5458,
      "Rein": 5459,
      "##agon": 5460,
      "Stud": 5461,
      "Strider": 5462,
      "##walker": 5463,
      "Flood": 5464,
      "##ishes": 5465,
      "scar": 5466,
      "Weap": 5467,
      "##vention": 5468,
      "soil": 5469,
      "##angs": 5470,
      "arrow": 5471,
      "##speaker": 5472,
      "Whip": 5473,
      "##iously": 5474,
      "trad": 5475,
      "Assemb": 5476,
      "Insight": 5477,
      "despair": 5478,
      "disp": 5479,
      "##itcher": 5480,
      "##uthor": 5481,
      "Silence": 5482,
      "Within": 5483,
      "finally": 5484,
      "Sovereign": 5485,
      "Supp": 5486,
      "watched": 5487,
      "Peace": 5488,
      "passion": 5489,
      "Valor": 5490,
      "Guest": 5491,
      "defenses": 5492,
      "Infilt": 5493,
      "Necromancer": 5494,
      "##jects": 5495,
      "##rief": 5496,
      "##totype": 5497,
      "failed": 5498,
      "Raider": 5499,
      "trying": 5500,
      "legs": 5501,
      "flee": 5502,
      "Survival": 5503,
      "Primal": 5504,
      "treasures": 5505,
      "corpse": 5506,
      "listen": 5507,
      "precious": 5508,
      "idea": 5509,
      "ghoul": 5510,
      "machines": 5511,
      "mercy": 5512,
      "encounter": 5513,
      "descended": 5514,
      "Nephalia": 5515,
      "Molten": 5516,
      "Wanderer": 5517,
      "##aghan": 5518,
      "Transmute": 5519,
      "inhabit": 5520,
      "Kolaghan": 5521,
      "Protector": 5522,
      "Skyshroud": 5523,
      "Employee": 5524,
      "Activated": 5525,
      "Kozilek": 5526,
      "Atarka": 5527,
      "Bad": 5528,
      "Bane": 5529,
      "Boggart": 5530,
      "Cold": 5531,
      "Cephal": 5532,
      "Da": 5533,
      "Evil": 5534,
      "Hide": 5535,
      "Jaya": 5536,
      "Ken": 5537,
      "Licid": 5538,
      "Midnight": 5539,
      "Niv": 5540,
      "Nantuko": 5541,
      "Ow": 5542,
      "Row": 5543,
      "Rime": 5544,
      "Sor": 5545,
      "Touch": 5546,
      "Urab": 5547,
      "Vill": 5548,
      "Wraith": 5549,
      "bus": 5550,
      "cascade": 5551,
      "dash": 5552,
      "dare": 5553,
      "evoke": 5554,
      "fit": 5555,
      "folk": 5556,
      "hell": 5557,
      "hurt": 5558,
      "lur": 5559,
      "obs": 5560,
      "pier": 5561,
      "tal": 5562,
      "view": 5563,
      "wear": 5564,
      "wond": 5565,
      "waves": 5566,
      "yield": 5567,
      "##cape": 5568,
      "##lt": 5569,
      "##foot": 5570,
      "##uber": 5571,
      "##xodon": 5572,
      "##overy": 5573,
      "##mark": 5574,
      "##gain": 5575,
      "##py": 5576,
      "##esa": 5577,
      "thir": 5578,
      "##acles": 5579,
      "##enna": 5580,
      "##ora": 5581,
      "##iless": 5582,
      "##rax": 5583,
      "##rain": 5584,
      "##lea": 5585,
      "##etime": 5586,
      "##ette": 5587,
      "beg": 5588,
      "Thousand": 5589,
      "##umble": 5590,
      "spring": 5591,
      "##rik": 5592,
      "shape": 5593,
      "##illa": 5594,
      "##alli": 5595,
      "seeds": 5596,
      "leonin": 5597,
      "##ogn": 5598,
      "##lands": 5599,
      "Wizards": 5600,
      "flight": 5601,
      "##aks": 5602,
      "##lings": 5603,
      "##phoros": 5604,
      "##awk": 5605,
      "##away": 5606,
      "screams": 5607,
      "press": 5608,
      "Rogues": 5609,
      "knowing": 5610,
      "Courier": 5611,
      "##velop": 5612,
      "Prof": 5613,
      "Coven": 5614,
      "Adam": 5615,
      "forms": 5616,
      "##itted": 5617,
      "slivers": 5618,
      "creation": 5619,
      "Swamps": 5620,
      "Bargain": 5621,
      "Desp": 5622,
      "##itsune": 5623,
      "calls": 5624,
      "##chool": 5625,
      "running": 5626,
      "decided": 5627,
      "##spiring": 5628,
      "Magecraft": 5629,
      "Empire": 5630,
      "##rask": 5631,
      "embrace": 5632,
      "Aetherborn": 5633,
      "marks": 5634,
      "storms": 5635,
      "journey": 5636,
      "brain": 5637,
      "Torment": 5638,
      "buried": 5639,
      "Fallen": 5640,
      "Purphoros": 5641,
      "possible": 5642,
      "Savage": 5643,
      "support": 5644,
      "predators": 5645,
      "Pilgrim": 5646,
      "emerge": 5647,
      "Omen": 5648,
      "surpris": 5649,
      "provide": 5650,
      "Razor": 5651,
      "summoning": 5652,
      "absol": 5653,
      "Krosan": 5654,
      "Praetor": 5655,
      "struck": 5656,
      "Battalion": 5657,
      "Inquisitor": 5658,
      "language": 5659,
      "Gandalf": 5660,
      "Lieutenant": 5661,
      "Urabrask": 5662,
      "Aunt": 5663,
      "Bru": 5664,
      "Carn": 5665,
      "Cann": 5666,
      "Cruel": 5667,
      "Celest": 5668,
      "Frenz": 5669,
      "Gis": 5670,
      "Hav": 5671,
      "Jesk": 5672,
      "Ly": 5673,
      "Lock": 5674,
      "Lich": 5675,
      "Mat": 5676,
      "Mire": 5677,
      "Mort": 5678,
      "Mob": 5679,
      "Rain": 5680,
      "Wire": 5681,
      "Wastes": 5682,
      "affect": 5683,
      "bre": 5684,
      "ed": 5685,
      "fil": 5686,
      "fair": 5687,
      "gn": 5688,
      "mur": 5689,
      "om": 5690,
      "push": 5691,
      "sle": 5692,
      "vedalken": 5693,
      "wounds": 5694,
      "##aab": 5695,
      "##ca": 5696,
      "##la": 5697,
      "##fish": 5698,
      "##tely": 5699,
      "##gment": 5700,
      "##gav": 5701,
      "##narch": 5702,
      "##ko": 5703,
      "##bra": 5704,
      "##val": 5705,
      "##NG": 5706,
      "##reg": 5707,
      "##reci": 5708,
      "##amber": 5709,
      "thri": 5710,
      "##amet": 5711,
      "##ndor": 5712,
      "##anc": 5713,
      "##sto": 5714,
      "##isi": 5715,
      "##entless": 5716,
      "##rafter": 5717,
      "##vey": 5718,
      "contains": 5719,
      "##irk": 5720,
      "##ppet": 5721,
      "##herever": 5722,
      "court": 5723,
      "##aders": 5724,
      "##olation": 5725,
      "lived": 5726,
      "##ceed": 5727,
      "##ldron": 5728,
      "Spire": 5729,
      "Spec": 5730,
      "##igence": 5731,
      "Targeting": 5732,
      "##avigator": 5733,
      "##seer": 5734,
      "##the": 5735,
      "unw": 5736,
      "noncombat": 5737,
      "Flanking": 5738,
      "enjoy": 5739,
      "##ishment": 5740,
      "progress": 5741,
      "Confluence": 5742,
      "Cloak": 5743,
      "feeds": 5744,
      "Too": 5745,
      "##auldron": 5746,
      "choices": 5747,
      "Swift": 5748,
      "Court": 5749,
      "##razen": 5750,
      "##atcher": 5751,
      "Prototype": 5752,
      "philosop": 5753,
      "Seed": 5754,
      "tribute": 5755,
      "##ensive": 5756,
      "reaches": 5757,
      "Mirri": 5758,
      "displ": 5759,
      "devour": 5760,
      "Soulshift": 5761,
      "##beast": 5762,
      "##avern": 5763,
      "magical": 5764,
      "Cursed": 5765,
      "divinity": 5766,
      "Harb": 5767,
      "strongest": 5768,
      "Outlast": 5769,
      "Valley": 5770,
      "Delve": 5771,
      "Brute": 5772,
      "syst": 5773,
      "questions": 5774,
      "Parad": 5775,
      "Crown": 5776,
      "Eyes": 5777,
      "Justice": 5778,
      "Poison": 5779,
      "peaceful": 5780,
      "Eternalize": 5781,
      "completely": 5782,
      "giants": 5783,
      "moves": 5784,
      "Salamander": 5785,
      "Terror": 5786,
      "Seeker": 5787,
      "possess": 5788,
      "Expedition": 5789,
      "Augur": 5790,
      "closed": 5791,
      "include": 5792,
      "fields": 5793,
      "harmony": 5794,
      "favorite": 5795,
      "arrived": 5796,
      "ignore": 5797,
      "requires": 5798,
      "knights": 5799,
      "unpaired": 5800,
      "destiny": 5801,
      "Explo": 5802,
      "Colossus": 5803,
      "Cavalry": 5804,
      "decayed": 5805,
      "sickness": 5806,
      "Companion": 5807,
      "pretty": 5808,
      "Balduv": 5809,
      "Konda": 5810,
      "afraid": 5811,
      "##blivion": 5812,
      "Jeskai": 5813,
      "*.": 5814,
      "Boon": 5815,
      "Bright": 5816,
      "Brawler": 5817,
      "Creep": 5818,
      "Dam": 5819,
      "Esc": 5820,
      "Find": 5821,
      "Front": 5822,
      "Gav": 5823,
      "Hyp": 5824,
      "Hollow": 5825,
      "Im": 5826,
      "Id": 5827,
      "Jho": 5828,
      "Jour": 5829,
      "Ku": 5830,
      "Lady": 5831,
      "Mad": 5832,
      "Nah": 5833,
      "Pol": 5834,
      "Pun": 5835,
      "Rift": 5836,
      "Renegade": 5837,
      "Sigil": 5838,
      "Tom": 5839,
      "fish": 5840,
      "gen": 5841,
      "griffin": 5842,
      "hive": 5843,
      "hammer": 5844,
      "kithkin": 5845,
      "mal": 5846,
      "moved": 5847,
      "net": 5848,
      "op": 5849,
      "ring": 5850,
      "riddle": 5851,
      "wicked": 5852,
      "##cat": 5853,
      "##far": 5854,
      "##fic": 5855,
      "##rith": 5856,
      "##rison": 5857,
      "##yri": 5858,
      "##yll": 5859,
      "##oft": 5860,
      "##mph": 5861,
      "##maw": 5862,
      "##tain": 5863,
      "##growth": 5864,
      "##hurg": 5865,
      "##kh": 5866,
      "##bow": 5867,
      "##body": 5868,
      "##ware": 5869,
      "##wright": 5870,
      "##wyn": 5871,
      "##jo": 5872,
      "##rents": 5873,
      "##aly": 5874,
      "##alth": 5875,
      "##alwart": 5876,
      "##amb": 5877,
      "##tyr": 5878,
      "##osition": 5879,
      "##orus": 5880,
      "##room": 5881,
      "##iser": 5882,
      "##ilver": 5883,
      "##chor": 5884,
      "##asty": 5885,
      "##asons": 5886,
      "##umi": 5887,
      "##umn": 5888,
      "spo": 5889,
      "sprock": 5890,
      "##otic": 5891,
      "##aded": 5892,
      "##olith": 5893,
      "##rifying": 5894,
      "##rawl": 5895,
      "##illing": 5896,
      "##ipl": 5897,
      "Ship": 5898,
      "Shark": 5899,
      "note": 5900,
      "Flow": 5901,
      "Scor": 5902,
      "Chrom": 5903,
      "meant": 5904,
      "Blue": 5905,
      "##ortex": 5906,
      "taps": 5907,
      "searches": 5908,
      "surge": 5909,
      "whatever": 5910,
      "swarm": 5911,
      "##ially": 5912,
      "track": 5913,
      "Season": 5914,
      "##igned": 5915,
      "Forestwalk": 5916,
      "Monster": 5917,
      "Monument": 5918,
      "Walls": 5919,
      "##ocol": 5920,
      "smash": 5921,
      "Barrin": 5922,
      "Descend": 5923,
      "##attering": 5924,
      "Ghira": 5925,
      "thinking": 5926,
      "forestwalk": 5927,
      "##flame": 5928,
      "killing": 5929,
      "finest": 5930,
      "bands": 5931,
      "Sudden": 5932,
      "Samite": 5933,
      "entry": 5934,
      "Tempt": 5935,
      "gifts": 5936,
      "changed": 5937,
      "distance": 5938,
      "disturb": 5939,
      "remained": 5940,
      "Pride": 5941,
      "incre": 5942,
      "delight": 5943,
      "Amass": 5944,
      "Caller": 5945,
      "Recruit": 5946,
      "Memnarch": 5947,
      "Multani": 5948,
      "Nylea": 5949,
      "golden": 5950,
      "##iffs": 5951,
      "##whelm": 5952,
      "Heliod": 5953,
      "Ambush": 5954,
      "fiery": 5955,
      "woods": 5956,
      "prepare": 5957,
      "##antern": 5958,
      "Marshal": 5959,
      "exploits": 5960,
      "message": 5961,
      "Modular": 5962,
      "miracle": 5963,
      "success": 5964,
      "Ramos": 5965,
      "##rovise": 5966,
      "Servant": 5967,
      "Healer": 5968,
      "##impse": 5969,
      "Gotcha": 5970,
      "Infiltrator": 5971,
      "Auntie": 5972,
      "murder": 5973,
      "Exploit": 5974,
      "Jhoira": 5975,
      "##hurgoyf": 5976,
      "Ghirapur": 5977,
      "Bi": 5978,
      "Bomb": 5979,
      "Body": 5980,
      "Brazen": 5981,
      "Dust": 5982,
      "Farm": 5983,
      "Frod": 5984,
      "Grove": 5985,
      "Hour": 5986,
      "Into": 5987,
      "Kell": 5988,
      "Lion": 5989,
      "Lun": 5990,
      "Lhurgoyf": 5991,
      "Mog": 5992,
      "Null": 5993,
      "Pill": 5994,
      "Permanent": 5995,
      "Right": 5996,
      "Rite": 5997,
      "Sure": 5998,
      "Sen": 5999,
      "Safe": 6000,
      "Tid": 6001,
      "Wicked": 6002,
      "achie": 6003,
      "bid": 6004,
      "bog": 6005,
      "calm": 6006,
      "celebr": 6007,
      "crowd": 6008,
      "fav": 6009,
      "figure": 6010,
      "gru": 6011,
      "giving": 6012,
      "hours": 6013,
      "il": 6014,
      "lines": 6015,
      "milit": 6016,
      "nest": 6017,
      "page": 6018,
      "ramp": 6019,
      "vizier": 6020,
      "wal": 6021,
      "##eed": 6022,
      "##eath": 6023,
      "##aits": 6024,
      "##man": 6025,
      "##moor": 6026,
      "##nith": 6027,
      "##hir": 6028,
      "##sk": 6029,
      "##bot": 6030,
      "##wall": 6031,
      "##var": 6032,
      "##ûl": 6033,
      "##oum": 6034,
      "##roan": 6035,
      "tool": 6036,
      "tools": 6037,
      "##oning": 6038,
      "##ilis": 6039,
      "##raf": 6040,
      "##etle": 6041,
      "##iced": 6042,
      "##icated": 6043,
      "##utor": 6044,
      "##aser": 6045,
      "inspiration": 6046,
      "dear": 6047,
      "develop": 6048,
      "spy": 6049,
      "##omber": 6050,
      "##oter": 6051,
      "asp": 6052,
      "stom": 6053,
      "lifetime": 6054,
      "comfort": 6055,
      "Learn": 6056,
      "##ngarth": 6057,
      "Spo": 6058,
      "##ieft": 6059,
      "##izer": 6060,
      "owns": 6061,
      "Shift": 6062,
      "##seeker": 6063,
      "##throat": 6064,
      "unl": 6065,
      "unleash": 6066,
      "unnatural": 6067,
      "Strom": 6068,
      "Staff": 6069,
      "##ashi": 6070,
      "Arrim": 6071,
      "Flames": 6072,
      "Scrap": 6073,
      "Chief": 6074,
      "meat": 6075,
      "Beyond": 6076,
      "myst": 6077,
      "myth": 6078,
      "soft": 6079,
      "##shot": 6080,
      "Skycl": 6081,
      "##spass": 6082,
      "##ability": 6083,
      "sacrificing": 6084,
      "##ecution": 6085,
      "Unleash": 6086,
      "Project": 6087,
      "##ictable": 6088,
      "trade": 6089,
      "Snare": 6090,
      "magn": 6091,
      "Manifest": 6092,
      "Need": 6093,
      "appreci": 6094,
      "Soulbond": 6095,
      "Quicks": 6096,
      "glad": 6097,
      "growing": 6098,
      "Magn": 6099,
      "Valgav": 6100,
      "intimidate": 6101,
      "Twin": 6102,
      "defeat": 6103,
      "##sworn": 6104,
      "Hellb": 6105,
      "Akoum": 6106,
      "student": 6107,
      "regret": 6108,
      "survivors": 6109,
      "travelers": 6110,
      "##ainted": 6111,
      "bigger": 6112,
      "##ification": 6113,
      "feeding": 6114,
      "offering": 6115,
      "Explor": 6116,
      "initiate": 6117,
      "Radiant": 6118,
      "Perhaps": 6119,
      "fierce": 6120,
      "##ervek": 6121,
      "ghost": 6122,
      "horns": 6123,
      "Secrets": 6124,
      "innoc": 6125,
      "inspire": 6126,
      "drakes": 6127,
      "apart": 6128,
      "Vanishing": 6129,
      "##nihilator": 6130,
      "Tahngarth": 6131,
      "islandwalk": 6132,
      "Initiate": 6133,
      "Kaervek": 6134,
      "Lazav": 6135,
      "Bloodthirst": 6136,
      "Basilisk": 6137,
      "Geralf": 6138,
      "Locus": 6139,
      "physical": 6140,
      "Assembly": 6141,
      "Adamant": 6142,
      "Nahiri": 6143,
      "Frodo": 6144,
      "Valgavoth": 6145,
      "15": 6146,
      "Bow": 6147,
      "Creat": 6148,
      "Did": 6149,
      "Eid": 6150,
      "Ether": 6151,
      "Fan": 6152,
      "Fur": 6153,
      "Ign": 6154,
      "Jin": 6155,
      "Join": 6156,
      "Natural": 6157,
      "Ouphe": 6158,
      "Ray": 6159,
      "Riot": 6160,
      "Sign": 6161,
      "Tro": 6162,
      "Try": 6163,
      "Tark": 6164,
      "Terr": 6165,
      "Vuls": 6166,
      "Vengeance": 6167,
      "Wolves": 6168,
      "Wolver": 6169,
      "Yu": 6170,
      "_____": 6171,
      "aid": 6172,
      "bug": 6173,
      "boggart": 6174,
      "case": 6175,
      "crim": 6176,
      "dry": 6177,
      "essence": 6178,
      "fresh": 6179,
      "house": 6180,
      "jud": 6181,
      "kor": 6182,
      "led": 6183,
      "matters": 6184,
      "pen": 6185,
      "rum": 6186,
      "rout": 6187,
      "sin": 6188,
      "sust": 6189,
      "sorrow": 6190,
      "wast": 6191,
      "witness": 6192,
      "yes": 6193,
      "zomb": 6194,
      "##iac": 6195,
      "##iary": 6196,
      "##iator": 6197,
      "##uc": 6198,
      "##rings": 6199,
      "##yl": 6200,
      "##maker": 6201,
      "##haven": 6202,
      "##sing": 6203,
      "##brand": 6204,
      "##ped": 6205,
      "##pact": 6206,
      "##wurm": 6207,
      "##eran": 6208,
      "##essor": 6209,
      "##root": 6210,
      "##isf": 6211,
      "##eled": 6212,
      "##etra": 6213,
      "Thalia": 6214,
      "spear": 6215,
      "space": 6216,
      "##omination": 6217,
      "##olen": 6218,
      "stead": 6219,
      "Invent": 6220,
      "reclaim": 6221,
      "##oret": 6222,
      "Leader": 6223,
      "doing": 6224,
      "Spree": 6225,
      "Spite": 6226,
      "Shepherd": 6227,
      "##endant": 6228,
      "##tered": 6229,
      "Reid": 6230,
      "##agged": 6231,
      "unknown": 6232,
      "Stronghold": 6233,
      "##eadow": 6234,
      "floor": 6235,
      "Scroll": 6236,
      "worst": 6237,
      "Charger": 6238,
      "untaps": 6239,
      "Blitz": 6240,
      "##pha": 6241,
      "##ortion": 6242,
      "cloak": 6243,
      "##ptions": 6244,
      "Clock": 6245,
      "Hex": 6246,
      "Alliance": 6247,
      "trouble": 6248,
      "triumph": 6249,
      "Does": 6250,
      "adm": 6251,
      "diffic": 6252,
      "Trail": 6253,
      "Whatever": 6254,
      "Tracker": 6255,
      "assass": 6256,
      "assault": 6257,
      "mastery": 6258,
      "divine": 6259,
      "##ibb": 6260,
      "explos": 6261,
      "passage": 6262,
      "useful": 6263,
      "intru": 6264,
      "grounds": 6265,
      "Crack": 6266,
      "##teller": 6267,
      "Wilds": 6268,
      "Emperor": 6269,
      "##engeful": 6270,
      "reflect": 6271,
      "refuse": 6272,
      "shields": 6273,
      "touching": 6274,
      "Prowler": 6275,
      "symbols": 6276,
      "Spectral": 6277,
      "advantage": 6278,
      "destructive": 6279,
      "produced": 6280,
      "nearly": 6281,
      "Planar": 6282,
      "weakness": 6283,
      "elemental": 6284,
      "Helm": 6285,
      "includes": 6286,
      "including": 6287,
      "Ferocious": 6288,
      "Benalia": 6289,
      "Holy": 6290,
      "pieces": 6291,
      "hopes": 6292,
      "hoping": 6293,
      "connives": 6294,
      "service": 6295,
      "outlaws": 6296,
      "surprise": 6297,
      "##going": 6298,
      "birds": 6299,
      "prowess": 6300,
      "Collector": 6301,
      "heavy": 6302,
      "Hanna": 6303,
      "Encore": 6304,
      "doubt": 6305,
      "nightmares": 6306,
      "civilization": 6307,
      "troops": 6308,
      "fragile": 6309,
      "salv": 6310,
      "Revane": 6311,
      "society": 6312,
      "Leyline": 6313,
      "Balduvian": 6314,
      "sprockets": 6315,
      "Permanents": 6316,
      "##ieftain": 6317,
      "Hellbent": 6318,
      "Tarkir": 6319,
      "Vulshok": 6320,
      "difficult": 6321,
      "Ang": 6322,
      "Aerial": 6323,
      "Aurel": 6324,
      "Bot": 6325,
      "Bene": 6326,
      "Diss": 6327,
      "Ev": 6328,
      "Fil": 6329,
      "Free": 6330,
      "Hag": 6331,
      "Hound": 6332,
      "Jol": 6333,
      "Lat": 6334,
      "Luck": 6335,
      "Map": 6336,
      "Mother": 6337,
      "Meph": 6338,
      "Ong": 6339,
      "Past": 6340,
      "Rubble": 6341,
      "Tome": 6342,
      "Tail": 6343,
      "Tenth": 6344,
      "Vel": 6345,
      "Vod": 6346,
      "Vorin": 6347,
      "Wing": 6348,
      "Wrath": 6349,
      "Witness": 6350,
      "action": 6351,
      "cat": 6352,
      "camp": 6353,
      "diss": 6354,
      "jo": 6355,
      "mists": 6356,
      "pit": 6357,
      "patter": 6358,
      "tower": 6359,
      "talk": 6360,
      "vault": 6361,
      "wand": 6362,
      "##cutter": 6363,
      "##cension": 6364,
      "##ige": 6365,
      "##iments": 6366,
      "##iosity": 6367,
      "##uct": 6368,
      "##rill": 6369,
      "##yss": 6370,
      "##mate": 6371,
      "##tam": 6372,
      "##ties": 6373,
      "##gate": 6374,
      "##gers": 6375,
      "##smith": 6376,
      "##bers": 6377,
      "##bomb": 6378,
      "##amri": 6379,
      "##arika": 6380,
      "loc": 6381,
      "loved": 6382,
      "##yalise": 6383,
      "##enag": 6384,
      "##ences": 6385,
      "##roke": 6386,
      "##iting": 6387,
      "ongoing": 6388,
      "##antu": 6389,
      "##chan": 6390,
      "##ication": 6391,
      "orders": 6392,
      "beings": 6393,
      "Throne": 6394,
      "inev": 6395,
      "influence": 6396,
      "wither": 6397,
      "plant": 6398,
      "##elligence": 6399,
      "aside": 6400,
      "##ria": 6401,
      "##ribe": 6402,
      "##apse": 6403,
      "attempt": 6404,
      "shattered": 6405,
      "Leave": 6406,
      "blockers": 6407,
      "##emon": 6408,
      "##blehead": 6409,
      "Spear": 6410,
      "##ively": 6411,
      "##ieves": 6412,
      "##ruits": 6413,
      "whom": 6414,
      "Shrie": 6415,
      "##ended": 6416,
      "##lessly": 6417,
      "char": 6418,
      "chap": 6419,
      "chang": 6420,
      "unsp": 6421,
      "Warriors": 6422,
      "Chron": 6423,
      "Elad": 6424,
      "reminder": 6425,
      "Soldiers": 6426,
      "instances": 6427,
      "##inking": 6428,
      "myr": 6429,
      "prove": 6430,
      "##eption": 6431,
      "scent": 6432,
      "arc": 6433,
      "Slug": 6434,
      "##spire": 6435,
      "Whale": 6436,
      "Clash": 6437,
      "Switch": 6438,
      "Heav": 6439,
      "Unknown": 6440,
      "Isle": 6441,
      "sweet": 6442,
      "Prec": 6443,
      "##anged": 6444,
      "adept": 6445,
      "deser": 6446,
      "desert": 6447,
      "Enrage": 6448,
      "Vehicles": 6449,
      "appet": 6450,
      "Trick": 6451,
      "Teys": 6452,
      "agent": 6453,
      "falling": 6454,
      "wants": 6455,
      "##formation": 6456,
      "suns": 6457,
      "Gods": 6458,
      "print": 6459,
      "started": 6460,
      "watching": 6461,
      "Talent": 6462,
      "relics": 6463,
      "Acolyte": 6464,
      "Academy": 6465,
      "ruin": 6466,
      "bringing": 6467,
      "healer": 6468,
      "refuge": 6469,
      "feeling": 6470,
      "Devils": 6471,
      "##clex": 6472,
      "Crystal": 6473,
      "Drac": 6474,
      "Replic": 6475,
      "peril": 6476,
      "burst": 6477,
      "Intimidate": 6478,
      "centaur": 6479,
      "Offspring": 6480,
      "emerged": 6481,
      "driven": 6482,
      "direction": 6483,
      "heroes": 6484,
      "suffer": 6485,
      "##irtue": 6486,
      "servants": 6487,
      "necromancer": 6488,
      "Automaton": 6489,
      "Manticore": 6490,
      "Krosa": 6491,
      "Revelation": 6492,
      "Baloth": 6493,
      "whispered": 6494,
      "strugg": 6495,
      "Ancestor": 6496,
      "resistance": 6497,
      "resolved": 6498,
      "Freyalise": 6499,
      "screaming": 6500,
      "Infernal": 6501,
      "occasion": 6502,
      "practice": 6503,
      "Victory": 6504,
      "Meletis": 6505,
      "Zealot": 6506,
      "satisf": 6507,
      "##digy": 6508,
      "##quisite": 6509,
      "Corpse": 6510,
      "Mizzet": 6511,
      "bargained": 6512,
      "frozen": 6513,
      "Bobblehead": 6514,
      "Lotus": 6515,
      "inhabitants": 6516,
      "genius": 6517,
      "Wolverine": 6518,
      "Aurelia": 6519,
      "Ongoing": 6520,
      "Vorinclex": 6521,
      "Teysa": 6522,
      "Arag": 6523,
      "Bound": 6524,
      "Came": 6525,
      "Core": 6526,
      "Cross": 6527,
      "Cunning": 6528,
      "Dred": 6529,
      "Eerie": 6530,
      "Falken": 6531,
      "Germ": 6532,
      "Hard": 6533,
      "Hur": 6534,
      "Hot": 6535,
      "Hatch": 6536,
      "Hipp": 6537,
      "Jam": 6538,
      "Jav": 6539,
      "Jura": 6540,
      "Kald": 6541,
      "Mak": 6542,
      "Mang": 6543,
      "Myc": 6544,
      "Nak": 6545,
      "Nix": 6546,
      "Rho": 6547,
      "Rust": 6548,
      "Vor": 6549,
      "West": 6550,
      "Wake": 6551,
      "Wren": 6552,
      "Welcome": 6553,
      "Yes": 6554,
      "bitter": 6555,
      "cath": 6556,
      "cleric": 6557,
      "crash": 6558,
      "drag": 6559,
      "faced": 6560,
      "nomad": 6561,
      "oath": 6562,
      "obey": 6563,
      "rivers": 6564,
      "sever": 6565,
      "ty": 6566,
      "ult": 6567,
      "vines": 6568,
      "wolf": 6569,
      "##caster": 6570,
      "##fang": 6571,
      "##nod": 6572,
      "##hide": 6573,
      "##sd": 6574,
      "##knight": 6575,
      "##kki": 6576,
      "##pri": 6577,
      "##wer": 6578,
      "##jek": 6579,
      "##rect": 6580,
      "##arity": 6581,
      "##enment": 6582,
      "##enger": 6583,
      "##ilty": 6584,
      "##entle": 6585,
      "##ravel": 6586,
      "contain": 6587,
      "##utes": 6588,
      "##uma": 6589,
      "spot": 6590,
      "forward": 6591,
      "endure": 6592,
      "played": 6593,
      "##olis": 6594,
      "strate": 6595,
      "##estone": 6596,
      "blow": 6597,
      "liz": 6598,
      "##idable": 6599,
      "##hop": 6600,
      "##imic": 6601,
      "##empl": 6602,
      "allow": 6603,
      "##ula": 6604,
      "##ulation": 6605,
      "##ived": 6606,
      "##igree": 6607,
      "Asm": 6608,
      "tax": 6609,
      "##ends": 6610,
      "##though": 6611,
      "Reaper": 6612,
      "unc": 6613,
      "unique": 6614,
      "Sting": 6615,
      "Strix": 6616,
      "Stalwart": 6617,
      "noted": 6618,
      "Goad": 6619,
      "values": 6620,
      "##hyr": 6621,
      "##arts": 6622,
      "Elect": 6623,
      "Blind": 6624,
      "Web": 6625,
      "##orts": 6626,
      "Loxodon": 6627,
      "construct": 6628,
      "feared": 6629,
      "Toy": 6630,
      "##aza": 6631,
      "Alchemist": 6632,
      "Myriad": 6633,
      "Process": 6634,
      "Embrace": 6635,
      "##ailing": 6636,
      "##retched": 6637,
      "Archmage": 6638,
      "Arcbound": 6639,
      "smoke": 6640,
      "Improvise": 6641,
      "however": 6642,
      "Travel": 6643,
      "Graft": 6644,
      "##itched": 6645,
      "appears": 6646,
      "darkest": 6647,
      "fools": 6648,
      "Butcher": 6649,
      "forests": 6650,
      "##zzle": 6651,
      "offers": 6652,
      "##lightenment": 6653,
      "##volent": 6654,
      "brood": 6655,
      "faerie": 6656,
      "Tribute": 6657,
      "Sapraz": 6658,
      "Darkness": 6659,
      "Incarnation": 6660,
      "Mercenaries": 6661,
      "##biter": 6662,
      "##rasher": 6663,
      "touched": 6664,
      "##eval": 6665,
      "Deadly": 6666,
      "Brother": 6667,
      "Guildpact": 6668,
      "harness": 6669,
      "Second": 6670,
      "Brain": 6671,
      "Braids": 6672,
      "invaders": 6673,
      "patience": 6674,
      "predator": 6675,
      "rocks": 6676,
      "kingdom": 6677,
      "suffering": 6678,
      "outlaw": 6679,
      "Betrayal": 6680,
      "Murasa": 6681,
      "Banner": 6682,
      "Witherbloom": 6683,
      "Invasion": 6684,
      "Predator": 6685,
      "brothers": 6686,
      "prowl": 6687,
      "Temporal": 6688,
      "ensure": 6689,
      "granted": 6690,
      "Renown": 6691,
      "populate": 6692,
      "Shivan": 6693,
      "Evolve": 6694,
      "suddenly": 6695,
      "Sylvan": 6696,
      "Adventure": 6697,
      "Rigger": 6698,
      "homes": 6699,
      "demons": 6700,
      "Verdant": 6701,
      "Fractal": 6702,
      "##riffins": 6703,
      "Duelist": 6704,
      "necessary": 6705,
      "fourth": 6706,
      "Revolt": 6707,
      "Excav": 6708,
      "opportunity": 6709,
      "Sigarda": 6710,
      "sanct": 6711,
      "tongue": 6712,
      "Reinforce": 6713,
      "Rowan": 6714,
      "system": 6715,
      "Kellan": 6716,
      "Mogis": 6717,
      "##tamun": 6718,
      "Eladamri": 6719,
      "Aragorn": 6720,
      "Falkenrath": 6721,
      "Air": 6722,
      "Bre": 6723,
      "Crim": 6724,
      "Cauldron": 6725,
      "Dig": 6726,
      "Dross": 6727,
      "Eternity": 6728,
      "Fel": 6729,
      "Gy": 6730,
      "Gle": 6731,
      "Gore": 6732,
      "Gates": 6733,
      "Hours": 6734,
      "Jil": 6735,
      "Jun": 6736,
      "Juk": 6737,
      "Koth": 6738,
      "Kirin": 6739,
      "Mogg": 6740,
      "None": 6741,
      "Ori": 6742,
      "Oran": 6743,
      "Ple": 6744,
      "Prom": 6745,
      "Pact": 6746,
      "Ran": 6747,
      "Sin": 6748,
      "Such": 6749,
      "Sah": 6750,
      "Sense": 6751,
      "Saint": 6752,
      "Sacred": 6753,
      "Tot": 6754,
      "Tod": 6755,
      "Taze": 6756,
      "Wait": 6757,
      "Walker": 6758,
      "Zuber": 6759,
      "aud": 6760,
      "axe": 6761,
      "cit": 6762,
      "drif": 6763,
      "dryad": 6764,
      "eating": 6765,
      "eternity": 6766,
      "fright": 6767,
      "hair": 6768,
      "hedron": 6769,
      "mid": 6770,
      "map": 6771,
      "miles": 6772,
      "mourn": 6773,
      "money": 6774,
      "py": 6775,
      "post": 6776,
      "port": 6777,
      "proud": 6778,
      "rhy": 6779,
      "rider": 6780,
      "tears": 6781,
      "visions": 6782,
      "wears": 6783,
      "##eared": 6784,
      "##fast": 6785,
      "##fly": 6786,
      "##och": 6787,
      "##dy": 6788,
      "##hem": 6789,
      "##kind": 6790,
      "##bidden": 6791,
      "##pre": 6792,
      "##post": 6793,
      "##00": 6794,
      "##ju": 6795,
      "##amble": 6796,
      "##inary": 6797,
      "##inations": 6798,
      "##inction": 6799,
      "##acre": 6800,
      "##isp": 6801,
      "cook": 6802,
      "coins": 6803,
      "##ital": 6804,
      "##itic": 6805,
      "##ifying": 6806,
      "oni": 6807,
      "##antry": 6808,
      "##che": 6809,
      "##icient": 6810,
      "ann": 6811,
      "beat": 6812,
      "deeds": 6813,
      "##adel": 6814,
      "##olon": 6815,
      "##rig": 6816,
      "stronghold": 6817,
      "bloom": 6818,
      "##imin": 6819,
      "##dder": 6820,
      "landwalk": 6821,
      "##ipher": 6822,
      "##iga": 6823,
      "tail": 6824,
      "##avan": 6825,
      "##istic": 6826,
      "season": 6827,
      "church": 6828,
      "Reaver": 6829,
      "##agers": 6830,
      "unm": 6831,
      "unity": 6832,
      "##aret": 6833,
      "alike": 6834,
      "Flight": 6835,
      "Sculpt": 6836,
      "Elesh": 6837,
      "undercity": 6838,
      "##ountain": 6839,
      "clim": 6840,
      "class": 6841,
      "Skaab": 6842,
      "Whether": 6843,
      "##azi": 6844,
      "Orb": 6845,
      "ours": 6846,
      "##ossible": 6847,
      "Alab": 6848,
      "seeking": 6849,
      "##voker": 6850,
      "surround": 6851,
      "veins": 6852,
      "##aneous": 6853,
      "Fae": 6854,
      "Fabr": 6855,
      "reached": 6856,
      "Comple": 6857,
      "slay": 6858,
      "Veil": 6859,
      "##weft": 6860,
      "desperate": 6861,
      "charged": 6862,
      "disaster": 6863,
      "partic": 6864,
      "Ghitu": 6865,
      "rolled": 6866,
      "Control": 6867,
      "Domri": 6868,
      "Rebirth": 6869,
      "Abs": 6870,
      "Abandon": 6871,
      "Disp": 6872,
      "Harpy": 6873,
      "box": 6874,
      "watches": 6875,
      "temple": 6876,
      "Synth": 6877,
      "Talism": 6878,
      "consume": 6879,
      "##rosper": 6880,
      "Brush": 6881,
      "Triumph": 6882,
      "Volcanic": 6883,
      "paths": 6884,
      "Party": 6885,
      "easier": 6886,
      "Empires": 6887,
      "merchant": 6888,
      "emblem": 6889,
      "regard": 6890,
      "survived": 6891,
      "Drown": 6892,
      "existence": 6893,
      "market": 6894,
      "harsh": 6895,
      "##aji": 6896,
      "complete": 6897,
      "stays": 6898,
      "##itorial": 6899,
      "Reflection": 6900,
      "Tolaria": 6901,
      "Watcher": 6902,
      "##heim": 6903,
      "speaks": 6904,
      "druids": 6905,
      "prayer": 6906,
      "prayers": 6907,
      "##iora": 6908,
      "Final": 6909,
      "Cryptic": 6910,
      "Immortal": 6911,
      "Lorehold": 6912,
      "Machine": 6913,
      "Calamity": 6914,
      "##ointed": 6915,
      "ambition": 6916,
      "slowly": 6917,
      "Tempest": 6918,
      "ferocity": 6919,
      "geists": 6920,
      "unattached": 6921,
      "Foundry": 6922,
      "bolster": 6923,
      "crushed": 6924,
      "Cutthroat": 6925,
      "earned": 6926,
      "Zhalfir": 6927,
      "##vocation": 6928,
      "Cathar": 6929,
      "Strive": 6930,
      "escapes": 6931,
      "Presence": 6932,
      "Combine": 6933,
      "Fiery": 6934,
      "Weapon": 6935,
      "##uthority": 6936,
      "business": 6937,
      "Celestial": 6938,
      "Gisa": 6939,
      "philosopher": 6940,
      "Harbinger": 6941,
      "##yrinth": 6942,
      "##ocolored": 6943,
      "walks": 6944,
      "stomach": 6945,
      "Jukai": 6946,
      "Today": 6947,
      "Tazeem": 6948,
      "Talisman": 6949,
      "Act": 6950,
      "Cru": 6951,
      "Cust": 6952,
      "Capt": 6953,
      "Crawler": 6954,
      "Destruct": 6955,
      "Eph": 6956,
      "Falcon": 6957,
      "Gim": 6958,
      "Gem": 6959,
      "Gather": 6960,
      "Henge": 6961,
      "Kob": 6962,
      "Kiora": 6963,
      "Lux": 6964,
      "Mu": 6965,
      "Mong": 6966,
      "Ond": 6967,
      "Opp": 6968,
      "Rose": 6969,
      "Rene": 6970,
      "Ridge": 6971,
      "Seng": 6972,
      "Scholar": 6973,
      "Treat": 6974,
      "Trust": 6975,
      "Vitu": 6976,
      "Vortex": 6977,
      "Vengeful": 6978,
      "aug": 6979,
      "border": 6980,
      "ce": 6981,
      "cer": 6982,
      "creed": 6983,
      "dinner": 6984,
      "fac": 6985,
      "foll": 6986,
      "gate": 6987,
      "garg": 6988,
      "griffins": 6989,
      "ir": 6990,
      "keen": 6991,
      "mother": 6992,
      "oce": 6993,
      "race": 6994,
      "rav": 6995,
      "raw": 6996,
      "rift": 6997,
      "renegade": 6998,
      "sap": 6999,
      "tire": 7000,
      "tides": 7001,
      "ut": 7002,
      "wolves": 7003,
      "##eble": 7004,
      "##car": 7005,
      "##ios": 7006,
      "##iro": 7007,
      "##finder": 7008,
      "##ming": 7009,
      "##mant": 7010,
      "##dog": 7011,
      "##ners": 7012,
      "##nation": 7013,
      "##how": 7014,
      "##hort": 7015,
      "##house": 7016,
      "##bed": 7017,
      "##ball": 7018,
      "##belt": 7019,
      "##zumi": 7020,
      "##watch": 7021,
      "##ANG": 7022,
      "##reamed": 7023,
      "##atus": 7024,
      "##amo": 7025,
      "thirst": 7026,
      "##essian": 7027,
      "##arant": 7028,
      "##inia": 7029,
      "##osp": 7030,
      "##anar": 7031,
      "##oner": 7032,
      "##ilight": 7033,
      "##ilities": 7034,
      "##uru": 7035,
      "##ifier": 7036,
      "##elcom": 7037,
      "##anto": 7038,
      "##ett": 7039,
      "##etery": 7040,
      "##icers": 7041,
      "##icial": 7042,
      "##utal": 7043,
      "Thirst": 7044,
      "##irs": 7045,
      "investig": 7046,
      "dean": 7047,
      "##ellow": 7048,
      "spawn": 7049,
      "##ppable": 7050,
      "##olve": 7051,
      "stra": 7052,
      "stick": 7053,
      "##ephyr": 7054,
      "blitz": 7055,
      "Young": 7056,
      "reck": 7057,
      "revenge": 7058,
      "##idross": 7059,
      "grasp": 7060,
      "shout": 7061,
      "##illiant": 7062,
      "landcycling": 7063,
      "##emetery": 7064,
      "##ermit": 7065,
      "##thos": 7066,
      "##inders": 7067,
      "chain": 7068,
      "champion": 7069,
      "Read": 7070,
      "unseen": 7071,
      "Stran": 7072,
      "##oper": 7073,
      "Gondor": 7074,
      "##ongue": 7075,
      "flo": 7076,
      "Scient": 7077,
      "Child": 7078,
      "##angers": 7079,
      "##orders": 7080,
      "conflict": 7081,
      "defenders": 7082,
      "Slayer": 7083,
      "Slaughter": 7084,
      "Together": 7085,
      "##aunch": 7086,
      "searched": 7087,
      "##oths": 7088,
      "Although": 7089,
      "skips": 7090,
      "poor": 7091,
      "poet": 7092,
      "trail": 7093,
      "Cohort": 7094,
      "Roar": 7095,
      "roam": 7096,
      "monocolored": 7097,
      "Dovin": 7098,
      "elite": 7099,
      "Archangel": 7100,
      "Engineer": 7101,
      "howl": 7102,
      "Glissa": 7103,
      "Miracle": 7104,
      "Training": 7105,
      "devast": 7106,
      "finding": 7107,
      "street": 7108,
      "##airs": 7109,
      "Foods": 7110,
      "apply": 7111,
      "kinds": 7112,
      "Orcish": 7113,
      "Ghazi": 7114,
      "Quand": 7115,
      "glow": 7116,
      "Boast": 7117,
      "agents": 7118,
      "##arging": 7119,
      "##idding": 7120,
      "carved": 7121,
      "carried": 7122,
      "##rogen": 7123,
      "assem": 7124,
      "Shaper": 7125,
      "Dogs": 7126,
      "clever": 7127,
      "Pharika": 7128,
      "compet": 7129,
      "starts": 7130,
      "broke": 7131,
      "victim": 7132,
      "passing": 7133,
      "Outrider": 7134,
      "Centuries": 7135,
      "Resp": 7136,
      "Valiant": 7137,
      "blessings": 7138,
      "currents": 7139,
      "Tribe": 7140,
      "distribute": 7141,
      "Crus": 7142,
      "Mastery": 7143,
      "Akki": 7144,
      "Akroan": 7145,
      "Darksteel": 7146,
      "recogn": 7147,
      "Legacy": 7148,
      "Bearer": 7149,
      "Endless": 7150,
      "survivor": 7151,
      "cryst": 7152,
      "points": 7153,
      "Repl": 7154,
      "Maybe": 7155,
      "hooves": 7156,
      "Nymph": 7157,
      "seemed": 7158,
      "completed": 7159,
      "##alanche": 7160,
      "companions": 7161,
      "Market": 7162,
      "Obsc": 7163,
      "Affl": 7164,
      "Offering": 7165,
      "happy": 7166,
      "Foot": 7167,
      "continue": 7168,
      "interest": 7169,
      "##ummons": 7170,
      "Steam": 7171,
      "volcano": 7172,
      "Intervention": 7173,
      "pleasure": 7174,
      "Burst": 7175,
      "Cyborg": 7176,
      "Halo": 7177,
      "Haunted": 7178,
      "Emeria": 7179,
      "swiftly": 7180,
      "eventually": 7181,
      "succeed": 7182,
      "Gamer": 7183,
      "violence": 7184,
      "capture": 7185,
      "further": 7186,
      "pirate": 7187,
      "Wandering": 7188,
      "Planeswalker": 7189,
      "Theros": 7190,
      "##ilderness": 7191,
      "Visionary": 7192,
      "lava": 7193,
      "Marauder": 7194,
      "Takeno": 7195,
      "##bearer": 7196,
      "massive": 7197,
      "balance": 7198,
      "##asualty": 7199,
      "Viridian": 7200,
      "Yeti": 7201,
      "dinosaurs": 7202,
      "Gitaxias": 7203,
      "lurks": 7204,
      "wonders": 7205,
      "##stoppable": 7206,
      "Flowstone": 7207,
      "Eidolon": 7208,
      "intruders": 7209,
      "Mephidross": 7210,
      "Naktamun": 7211,
      "Nixilis": 7212,
      "Zubera": 7213,
      "Sengir": 7214,
      "),": 7215,
      "*-": 7216,
      "BANG": 7217,
      "Camp": 7218,
      "Count": 7219,
      "Coll": 7220,
      "Dan": 7221,
      "Drag": 7222,
      "Dûl": 7223,
      "Eag": 7224,
      "Fen": 7225,
      "Five": 7226,
      "Fading": 7227,
      "Game": 7228,
      "Gear": 7229,
      "Geth": 7230,
      "Harm": 7231,
      "Jelly": 7232,
      "Kr": 7233,
      "Kro": 7234,
      "Lud": 7235,
      "Made": 7236,
      "Moss": 7237,
      "Nest": 7238,
      "Nik": 7239,
      "Od": 7240,
      "Orim": 7241,
      "Oona": 7242,
      "Pop": 7243,
      "Pray": 7244,
      "Ra": 7245,
      "Rish": 7246,
      "Rhon": 7247,
      "Sz": 7248,
      "Town": 7249,
      "Tiger": 7250,
      "Venom": 7251,
      "Win": 7252,
      "Wish": 7253,
      "bother": 7254,
      "cra": 7255,
      "cries": 7256,
      "cunning": 7257,
      "circle": 7258,
      "due": 7259,
      "egg": 7260,
      "fed": 7261,
      "fingers": 7262,
      "fangs": 7263,
      "gentle": 7264,
      "hides": 7265,
      "id": 7266,
      "larger": 7267,
      "men": 7268,
      "mol": 7269,
      "mater": 7270,
      "mob": 7271,
      "maze": 7272,
      "nim": 7273,
      "rip": 7274,
      "rig": 7275,
      "ripp": 7276,
      "sel": 7277,
      "sigil": 7278,
      "tight": 7279,
      "unch": 7280,
      "vow": 7281,
      "##eor": 7282,
      "##cut": 7283,
      "##iel": 7284,
      "##iath": 7285,
      "##fe": 7286,
      "##xious": 7287,
      "##oo": 7288,
      "##oices": 7289,
      "##soul": 7290,
      "##saken": 7291,
      "##ky": 7292,
      "##vale": 7293,
      "##rep": 7294,
      "##render": 7295,
      "##esome": 7296,
      "##alian": 7297,
      "##ata": 7298,
      "##aters": 7299,
      "thin": 7300,
      "thick": 7301,
      "thread": 7302,
      "tomb": 7303,
      "##ingly": 7304,
      "##itive": 7305,
      "##raged": 7306,
      "##leader": 7307,
      "##antic": 7308,
      "##ically": 7309,
      "##ases": 7310,
      "##ashen": 7311,
      "bears": 7312,
      "##irling": 7313,
      "inj": 7314,
      "##ache": 7315,
      "debt": 7316,
      "##uming": 7317,
      "spr": 7318,
      "spies": 7319,
      "spoke": 7320,
      "##oma": 7321,
      "##ador": 7322,
      "##mentia": 7323,
      "##ctic": 7324,
      "blink": 7325,
      "blank": 7326,
      "##kem": 7327,
      "Invoker": 7328,
      "attention": 7329,
      "##ima": 7330,
      "Legend": 7331,
      "Leads": 7332,
      "Ath": 7333,
      "##uler": 7334,
      "##istance": 7335,
      "##istrate": 7336,
      "seat": 7337,
      "chant": 7338,
      "chorus": 7339,
      "wash": 7340,
      "Warlord": 7341,
      "une": 7342,
      "united": 7343,
      "Step": 7344,
      "notice": 7345,
      "Dece": 7346,
      "Arctic": 7347,
      "Scale": 7348,
      "valu": 7349,
      "Chamber": 7350,
      "Returned": 7351,
      "wealth": 7352,
      "Beware": 7353,
      "Beetle": 7354,
      "underest": 7355,
      "##ickle": 7356,
      "Forgotten": 7357,
      "Plunder": 7358,
      "##thern": 7359,
      "scars": 7360,
      "scales": 7361,
      "prev": 7362,
      "##neak": 7363,
      "Skulk": 7364,
      "conj": 7365,
      "conver": 7366,
      "concer": 7367,
      "Claw": 7368,
      "landscape": 7369,
      "werewolves": 7370,
      "##azer": 7371,
      "Attendant": 7372,
      "expans": 7373,
      "##voy": 7374,
      "##esha": 7375,
      "skills": 7376,
      "Hors": 7377,
      "Angels": 7378,
      "Coast": 7379,
      "Seal": 7380,
      "##ronze": 7381,
      "royal": 7382,
      "##ission": 7383,
      "creating": 7384,
      "entering": 7385,
      "##ikicker": 7386,
      "##ocal": 7387,
      "smith": 7388,
      "Glass": 7389,
      "Gloom": 7390,
      "Baron": 7391,
      "Sunburst": 7392,
      "Anything": 7393,
      "calling": 7394,
      "Trost": 7395,
      "Quick": 7396,
      "carries": 7397,
      "##worthy": 7398,
      "##ropolis": 7399,
      "Abomination": 7400,
      "parad": 7401,
      "runs": 7402,
      "relic": 7403,
      "release": 7404,
      "protects": 7405,
      "colored": 7406,
      "Undergrowth": 7407,
      "Winds": 7408,
      "deliver": 7409,
      "Aggress": 7410,
      "Palace": 7411,
      "insult": 7412,
      "Runner": 7413,
      "Multikicker": 7414,
      "square": 7415,
      "experiments": 7416,
      "reduce": 7417,
      "Retrace": 7418,
      "Pyromancer": 7419,
      "undead": 7420,
      "species": 7421,
      "happen": 7422,
      "Feral": 7423,
      "Titania": 7424,
      "Steward": 7425,
      "arrival": 7426,
      "teaching": 7427,
      "missing": 7428,
      "Omn": 7429,
      "required": 7430,
      "precision": 7431,
      "Capashen": 7432,
      "viashino": 7433,
      "Harvester": 7434,
      "Mantle": 7435,
      "prepared": 7436,
      "Genesis": 7437,
      "strikes": 7438,
      "Emerge": 7439,
      "labor": 7440,
      "Explos": 7441,
      "Phantasm": 7442,
      "invention": 7443,
      "Prison": 7444,
      "Cavalier": 7445,
      "Divine": 7446,
      "conquer": 7447,
      "music": 7448,
      "Kjeldoran": 7449,
      "Zhalfirin": 7450,
      "domain": 7451,
      "Sprite": 7452,
      "Recluse": 7453,
      "feathers": 7454,
      "Cosmos": 7455,
      "challenge": 7456,
      "Converge": 7457,
      "Altar": 7458,
      "Dalek": 7459,
      "corner": 7460,
      "Cephalid": 7461,
      "Wirewood": 7462,
      "Quicksilver": 7463,
      "Explorer": 7464,
      "innocent": 7465,
      "chapter": 7466,
      "Jamura": 7467,
      "lizard": 7468,
      "Jilad": 7469,
      "##aretti": 7470,
      "Kobold": 7471,
      "Scientist": 7472,
      "Quandrix": 7473,
      "Replicate": 7474,
      "Rhonas": 7475,
      "!'": 7476,
      "Bay": 7477,
      "Bitter": 7478,
      "Binding": 7479,
      "Bounty": 7480,
      "Card": 7481,
      "Cand": 7482,
      "Celebr": 7483,
      "Cemetery": 7484,
      "Dri": 7485,
      "Dest": 7486,
      "Eater": 7487,
      "Fist": 7488,
      "Fountain": 7489,
      "Gro": 7490,
      "Gust": 7491,
      "Jab": 7492,
      "La": 7493,
      "Love": 7494,
      "Lancer": 7495,
      "Nars": 7496,
      "Oak": 7497,
      "Rief": 7498,
      "Raging": 7499,
      "Riders": 7500,
      "Ruthless": 7501,
      "Sad": 7502,
      "Sau": 7503,
      "Schem": 7504,
      "Tran": 7505,
      "Tief": 7506,
      "Tunnel": 7507,
      "Tainted": 7508,
      "Vigil": 7509,
      "Vine": 7510,
      "Wisdom": 7511,
      "akki": 7512,
      "breed": 7513,
      "cru": 7514,
      "coward": 7515,
      "er": 7516,
      "fog": 7517,
      "false": 7518,
      "grim": 7519,
      "gates": 7520,
      "jump": 7521,
      "raz": 7522,
      "rely": 7523,
      "raven": 7524,
      "rope": 7525,
      "rises": 7526,
      "sum": 7527,
      "tit": 7528,
      "voices": 7529,
      "##late": 7530,
      "##list": 7531,
      "##fell": 7532,
      "##uis": 7533,
      "##uke": 7534,
      "##uity": 7535,
      "##rit": 7536,
      "##rush": 7537,
      "##oj": 7538,
      "##mages": 7539,
      "##tec": 7540,
      "##hip": 7541,
      "##hart": 7542,
      "##bably": 7543,
      "##ero": 7544,
      "##reh": 7545,
      "##atal": 7546,
      "##atile": 7547,
      "##atiable": 7548,
      "##amer": 7549,
      "loose": 7550,
      "##osh": 7551,
      "##osk": 7552,
      "##anced": 7553,
      "##enance": 7554,
      "##orian": 7555,
      "toll": 7556,
      "##ste": 7557,
      "##stable": 7558,
      "##onse": 7559,
      "##edy": 7560,
      "##ilies": 7561,
      "coast": 7562,
      "item": 7563,
      "##itect": 7564,
      "##ifth": 7565,
      "##eline": 7566,
      "##raint": 7567,
      "##andal": 7568,
      "inner": 7569,
      "plains": 7570,
      "##umbled": 7571,
      "##ioneer": 7572,
      "plays": 7573,
      "##acks": 7574,
      "stench": 7575,
      "Infinite": 7576,
      "##quill": 7577,
      "##oreal": 7578,
      "exalted": 7579,
      "exquisite": 7580,
      "twist": 7581,
      "shrie": 7582,
      "ships": 7583,
      "##iller": 7584,
      "##genda": 7585,
      "##using": 7586,
      "##ermark": 7587,
      "##ulous": 7588,
      "Shu": 7589,
      "seas": 7590,
      "##blood": 7591,
      "##hereal": 7592,
      "##ashion": 7593,
      "Arbiter": 7594,
      "flock": 7595,
      "Char": 7596,
      "Chosen": 7597,
      "Soldev": 7598,
      "weave": 7599,
      "##icket": 7600,
      "##phec": 7601,
      "Wei": 7602,
      "##ortality": 7603,
      "clock": 7604,
      "Skip": 7605,
      "deaths": 7606,
      "conse": 7607,
      "Slith": 7608,
      "Which": 7609,
      "everywhere": 7610,
      "resour": 7611,
      "agony": 7612,
      "Unl": 7613,
      "seeks": 7614,
      "Lookout": 7615,
      "Progress": 7616,
      "Prodigy": 7617,
      "swall": 7618,
      "##scale": 7619,
      "Cover": 7620,
      "Remember": 7621,
      "hunts": 7622,
      "##inted": 7623,
      "Assist": 7624,
      "road": 7625,
      "Treasures": 7626,
      "formed": 7627,
      "Comm": 7628,
      "slain": 7629,
      "slight": 7630,
      "##racted": 7631,
      "Seraph": 7632,
      "Demonic": 7633,
      "##xpected": 7634,
      "##ansing": 7635,
      "Arms": 7636,
      "Armored": 7637,
      "Glade": 7638,
      "effective": 7639,
      "Barrier": 7640,
      "finds": 7641,
      "Surrak": 7642,
      "letters": 7643,
      "Quar": 7644,
      "glowing": 7645,
      "serves": 7646,
      "Martyr": 7647,
      "##tingu": 7648,
      "compreh": 7649,
      "Mutation": 7650,
      "priests": 7651,
      "Super": 7652,
      "fae": 7653,
      "leaders": 7654,
      "Resc": 7655,
      "cursed": 7656,
      "district": 7657,
      "horror": 7658,
      "knock": 7659,
      "guards": 7660,
      "guarded": 7661,
      "Shadows": 7662,
      "Akros": 7663,
      "healers": 7664,
      "Heroes": 7665,
      "merrow": 7666,
      "##evic": 7667,
      "Broken": 7668,
      "Eternals": 7669,
      "Duo": 7670,
      "##ipper": 7671,
      "breaks": 7672,
      "hole": 7673,
      "holy": 7674,
      "##ribution": 7675,
      "invasion": 7676,
      "failure": 7677,
      "Torch": 7678,
      "replacing": 7679,
      "Goliath": 7680,
      "moving": 7681,
      "produces": 7682,
      "Ult": 7683,
      "wishes": 7684,
      "sounds": 7685,
      "reduces": 7686,
      "Undead": 7687,
      "Reflect": 7688,
      "building": 7689,
      "##ology": 7690,
      "Oltec": 7691,
      "split": 7692,
      "bearer": 7693,
      "Decree": 7694,
      "Fortune": 7695,
      "shamans": 7696,
      "Ballard": 7697,
      "Balloon": 7698,
      "machine": 7699,
      "Murder": 7700,
      "written": 7701,
      "Oketra": 7702,
      "Observ": 7703,
      "Whispering": 7704,
      "resolve": 7705,
      "Libr": 7706,
      "constantly": 7707,
      "freerunning": 7708,
      "Passage": 7709,
      "pirates": 7710,
      "swampwalk": 7711,
      "farmer": 7712,
      "consumed": 7713,
      "Bringer": 7714,
      "Ixalan": 7715,
      "Tactician": 7716,
      "Setessan": 7717,
      "Moment": 7718,
      "receive": 7719,
      "Gavony": 7720,
      "Journey": 7721,
      "Righteous": 7722,
      "appreciate": 7723,
      "Vodalian": 7724,
      "Dredge": 7725,
      "Saprazzan": 7726,
      "Crimson": 7727,
      "Sensei": 7728,
      "audience": 7729,
      "Fabricate": 7730,
      "Ondu": 7731,
      "followers": 7732,
      "Obscura": 7733,
      "Jellyfish": 7734,
      "Ludevic": 7735,
      "Soldevi": 7736,
      "Af": 7737,
      "Aren": 7738,
      "Bones": 7739,
      "Cub": 7740,
      "Cavern": 7741,
      "Dari": 7742,
      "Dyn": 7743,
      "Dungeon": 7744,
      "Dagger": 7745,
      "Eb": 7746,
      "Eigan": 7747,
      "Face": 7748,
      "Foul": 7749,
      "Fathom": 7750,
      "Gray": 7751,
      "Grot": 7752,
      "Hive": 7753,
      "Hier": 7754,
      "Hop": 7755,
      "Ir": 7756,
      "Ik": 7757,
      "Iro": 7758,
      "Ide": 7759,
      "Jet": 7760,
      "Kels": 7761,
      "Lan": 7762,
      "Lum": 7763,
      "Line": 7764,
      "Mess": 7765,
      "Mite": 7766,
      "Malc": 7767,
      "Port": 7768,
      "Phenomenon": 7769,
      "Rive": 7770,
      "Rhy": 7771,
      "Sum": 7772,
      "Sight": 7773,
      "Saw": 7774,
      "Sands": 7775,
      "Sangu": 7776,
      "Slinger": 7777,
      "Somber": 7778,
      "Tutor": 7779,
      "Uk": 7780,
      "Vile": 7781,
      "Vizier": 7782,
      "Words": 7783,
      "agenda": 7784,
      "bind": 7785,
      "brief": 7786,
      "cro": 7787,
      "cycling": 7788,
      "dro": 7789,
      "distant": 7790,
      "ep": 7791,
      "eats": 7792,
      "fest": 7793,
      "fert": 7794,
      "fulf": 7795,
      "garden": 7796,
      "image": 7797,
      "kavu": 7798,
      "lest": 7799,
      "laid": 7800,
      "ow": 7801,
      "paint": 7802,
      "sor": 7803,
      "sort": 7804,
      "sens": 7805,
      "senses": 7806,
      "tear": 7807,
      "towers": 7808,
      "void": 7809,
      "wastes": 7810,
      "wearing": 7811,
      "welcom": 7812,
      "##eur": 7813,
      "##aa": 7814,
      "##aan": 7815,
      "##ccess": 7816,
      "##fist": 7817,
      "##fiend": 7818,
      "##unch": 7819,
      "##ulet": 7820,
      "##xus": 7821,
      "##rut": 7822,
      "##rous": 7823,
      "##yan": 7824,
      "##down": 7825,
      "##gor": 7826,
      "##kirk": 7827,
      "##bel": 7828,
      "##bol": 7829,
      "##wen": 7830,
      "##wagg": 7831,
      "##vice": 7832,
      "##vity": 7833,
      "##vala": 7834,
      "##viction": 7835,
      "##inker": 7836,
      "##inous": 7837,
      "##osy": 7838,
      "##orous": 7839,
      "##orium": 7840,
      "toler": 7841,
      "##ilim": 7842,
      "cool": 7843,
      "##ito": 7844,
      "##iton": 7845,
      "##eland": 7846,
      "##uts": 7847,
      "##uted": 7848,
      "##asp": 7849,
      "##asks": 7850,
      "##vern": 7851,
      "##ithe": 7852,
      "Thr": 7853,
      "Thall": 7854,
      "dece": 7855,
      "##elling": 7856,
      "spider": 7857,
      "sphinx": 7858,
      "##omer": 7859,
      "##otter": 7860,
      "council": 7861,
      "##riarch": 7862,
      "sting": 7863,
      "stuff": 7864,
      "##epter": 7865,
      "blossom": 7866,
      "lik": 7867,
      "cann": 7868,
      "Inspiration": 7869,
      "##aping": 7870,
      "##imar": 7871,
      "##ddy": 7872,
      "shelter": 7873,
      "##ampede": 7874,
      "##uli": 7875,
      "##ulent": 7876,
      "##ipline": 7877,
      "##oldering": 7878,
      "##avoc": 7879,
      "##atha": 7880,
      "Warm": 7881,
      "##oulder": 7882,
      "Stat": 7883,
      "Stitcher": 7884,
      "##opters": 7885,
      "##ograp": 7886,
      "Deal": 7887,
      "alchemist": 7888,
      "##venwald": 7889,
      "fled": 7890,
      "flicker": 7891,
      "Flare": 7892,
      "worship": 7893,
      "Chant": 7894,
      "remind": 7895,
      "web": 7896,
      "weep": 7897,
      "planar": 7898,
      "Beacon": 7899,
      "Elend": 7900,
      "underst": 7901,
      "##rane": 7902,
      "scaven": 7903,
      "Conqu": 7904,
      "##orns": 7905,
      "##ouche": 7906,
      "##spec": 7907,
      "##abo": 7908,
      "##abor": 7909,
      "agree": 7910,
      "Courage": 7911,
      "security": 7912,
      "##redictable": 7913,
      "##sson": 7914,
      "seeing": 7915,
      "veil": 7916,
      "Royal": 7917,
      "trink": 7918,
      "Herd": 7919,
      "##enser": 7920,
      "Combat": 7921,
      "slumber": 7922,
      "sliver": 7923,
      "mindless": 7924,
      "Arcan": 7925,
      "smart": 7926,
      "Nightstalker": 7927,
      "Glider": 7928,
      "Mirari": 7929,
      "Trained": 7930,
      "Squid": 7931,
      "##obite": 7932,
      "##beat": 7933,
      "impro": 7934,
      "##uthi": 7935,
      "learning": 7936,
      "##works": 7937,
      "finished": 7938,
      "##ressed": 7939,
      "##ressive": 7940,
      "##magine": 7941,
      "standing": 7942,
      "Warlocks": 7943,
      "Trial": 7944,
      "Twilight": 7945,
      "defe": 7946,
      "Paragon": 7947,
      "Overlord": 7948,
      "Undercity": 7949,
      "cycl": 7950,
      "harder": 7951,
      "minute": 7952,
      "breathe": 7953,
      "subst": 7954,
      "familiar": 7955,
      "crypt": 7956,
      "Devast": 7957,
      "##ainty": 7958,
      "marked": 7959,
      "Memories": 7960,
      "Brass": 7961,
      "eaten": 7962,
      "brains": 7963,
      "perhaps": 7964,
      "Raiders": 7965,
      "##book": 7966,
      "##radle": 7967,
      "legacy": 7968,
      "Ulvenwald": 7969,
      "Seeing": 7970,
      "faithful": 7971,
      "Relentless": 7972,
      "Canopy": 7973,
      "fleeting": 7974,
      "eleg": 7975,
      "##suit": 7976,
      "ruled": 7977,
      "walked": 7978,
      "Hoard": 7979,
      "mission": 7980,
      "Merrow": 7981,
      "understanding": 7982,
      "Heralds": 7983,
      "ignor": 7984,
      "Lavinia": 7985,
      "Capenna": 7986,
      "storyteller": 7987,
      "Kalon": 7988,
      "designed": 7989,
      "Gorger": 7990,
      "Bandit": 7991,
      "certainly": 7992,
      "Galad": 7993,
      "Puppet": 7994,
      "Brig": 7995,
      "Judgment": 7996,
      "##edding": 7997,
      "heavens": 7998,
      "commun": 7999,
      "##egis": 8000,
      "ashes": 8001,
      "Gambit": 8002,
      "haunting": 8003,
      "Inferno": 8004,
      "Nyxborn": 8005,
      "capable": 8006,
      "lowest": 8007,
      "torment": 8008,
      "##glass": 8009,
      "Epic": 8010,
      "avail": 8011,
      "##vocate": 8012,
      "determined": 8013,
      "fearsome": 8014,
      "animals": 8015,
      "Lorwyn": 8016,
      "check": 8017,
      "Drana": 8018,
      "barely": 8019,
      "##eronaut": 8020,
      "appearance": 8021,
      "Tajuru": 8022,
      "ogres": 8023,
      "stopped": 8024,
      "Joraga": 8025,
      "Opal": 8026,
      "Dauthi": 8027,
      "Owl": 8028,
      "Rimewind": 8029,
      "Village": 8030,
      "display": 8031,
      "Shifting": 8032,
      "Stromkirk": 8033,
      "Skyclave": 8034,
      "##ecutioner": 8035,
      "bugs": 8036,
      "zombie": 8037,
      "steady": 8038,
      "Rubblebelt": 8039,
      "changes": 8040,
      "arcane": 8041,
      "Heavy": 8042,
      "appetite": 8043,
      "Processor": 8044,
      "material": 8045,
      "Horsemanship": 8046,
      "##ocalyp": 8047,
      "Trostani": 8048,
      "Destiny": 8049,
      "Narset": 8050,
      "Tiefling": 8051,
      "Eiganjo": 8052,
      "Iroas": 8053,
      "##specially": 8054,
      "+*": 8055,
      "Amp": 8056,
      "Away": 8057,
      "Aeronaut": 8058,
      "Brim": 8059,
      "Cage": 8060,
      "Crag": 8061,
      "Crash": 8062,
      "Cipher": 8063,
      "Dance": 8064,
      "Dancer": 8065,
      "Daring": 8066,
      "Effect": 8067,
      "Evan": 8068,
      "Fell": 8069,
      "Fun": 8070,
      "False": 8071,
      "Gat": 8072,
      "Gall": 8073,
      "Gran": 8074,
      "Gale": 8075,
      "Gris": 8076,
      "Garden": 8077,
      "Hon": 8078,
      "Hear": 8079,
      "Hedron": 8080,
      "Iv": 8081,
      "Ichor": 8082,
      "Jump": 8083,
      "Kit": 8084,
      "Kru": 8085,
      "Kaz": 8086,
      "Lash": 8087,
      "Liege": 8088,
      "Lantern": 8089,
      "Maw": 8090,
      "Mists": 8091,
      "Milit": 8092,
      "Ort": 8093,
      "Pant": 8094,
      "Pear": 8095,
      "Pak": 8096,
      "Pick": 8097,
      "Pulse": 8098,
      "Say": 8099,
      "Since": 8100,
      "Ts": 8101,
      "Wu": 8102,
      "Word": 8103,
      "Walking": 8104,
      "Xenag": 8105,
      "Zur": 8106,
      "cal": 8107,
      "craw": 8108,
      "dar": 8109,
      "est": 8110,
      "fet": 8111,
      "fig": 8112,
      "finger": 8113,
      "fuse": 8114,
      "fathom": 8115,
      "fashion": 8116,
      "hatch": 8117,
      "hint": 8118,
      "hollow": 8119,
      "hills": 8120,
      "kitsune": 8121,
      "ment": 8122,
      "mask": 8123,
      "nurt": 8124,
      "pra": 8125,
      "perm": 8126,
      "poll": 8127,
      "pets": 8128,
      "panic": 8129,
      "phenomenon": 8130,
      "round": 8131,
      "ritual": 8132,
      "rubble": 8133,
      "rising": 8134,
      "sang": 8135,
      "sets": 8136,
      "salt": 8137,
      "sorcerer": 8138,
      "term": 8139,
      "tiny": 8140,
      "vile": 8141,
      "vul": 8142,
      "wing": 8143,
      "##cas": 8144,
      "##cept": 8145,
      "##lit": 8146,
      "##lain": 8147,
      "##lash": 8148,
      "##rou": 8149,
      "##rac": 8150,
      "##ril": 8151,
      "##rite": 8152,
      "##oa": 8153,
      "##mn": 8154,
      "##gence": 8155,
      "##ku": 8156,
      "##bts": 8157,
      "##ping": 8158,
      "##pet": 8159,
      "##wick": 8160,
      "##word": 8161,
      "##ER": 8162,
      "##rester": 8163,
      "##atl": 8164,
      "##amation": 8165,
      "log": 8166,
      "lon": 8167,
      "loot": 8168,
      "youth": 8169,
      "##isen": 8170,
      "##chi": 8171,
      "##chs": 8172,
      "##ica": 8173,
      "##verb": 8174,
      "##verse": 8175,
      "bend": 8176,
      "Throw": 8177,
      "##iral": 8178,
      "turning": 8179,
      "plot": 8180,
      "##umer": 8181,
      "##oman": 8182,
      "##romancy": 8183,
      "ate": 8184,
      "ended": 8185,
      "##olas": 8186,
      "##estation": 8187,
      "blaze": 8188,
      "canopy": 8189,
      "Invocation": 8190,
      "##kenzan": 8191,
      "exists": 8192,
      "##rifter": 8193,
      "##attacking": 8194,
      "shame": 8195,
      "shine": 8196,
      "##uses": 8197,
      "doors": 8198,
      "Speaker": 8199,
      "##ivian": 8200,
      "neigh": 8201,
      "Shard": 8202,
      "##athran": 8203,
      "##istence": 8204,
      "##blazer": 8205,
      "channel": 8206,
      "Reviv": 8207,
      "Reward": 8208,
      "Regent": 8209,
      "##unner": 8210,
      "unearth": 8211,
      "unravel": 8212,
      "becoming": 8213,
      "nonattacking": 8214,
      "Stead": 8215,
      "Stens": 8216,
      "Strong": 8217,
      "Starn": 8218,
      "lesson": 8219,
      "##ustom": 8220,
      "ally": 8221,
      "Arden": 8222,
      "Arrester": 8223,
      "Flag": 8224,
      "Scy": 8225,
      "Scream": 8226,
      "Chieftain": 8227,
      "height": 8228,
      "meets": 8229,
      "engine": 8230,
      "enforcer": 8231,
      "myriad": 8232,
      "Blow": 8233,
      "Blink": 8234,
      "Bloom": 8235,
      "scour": 8236,
      "herald": 8237,
      "Weak": 8238,
      "Slumber": 8239,
      "Slime": 8240,
      "Beasts": 8241,
      "##amancer": 8242,
      "##azed": 8243,
      "##otha": 8244,
      "millenn": 8245,
      "##udge": 8246,
      "Alpha": 8247,
      "expand": 8248,
      "Birds": 8249,
      "skip": 8250,
      "Prophet": 8251,
      "##scious": 8252,
      "##ickery": 8253,
      "quality": 8254,
      "Road": 8255,
      "fighter": 8256,
      "##inth": 8257,
      "trace": 8258,
      "Admir": 8259,
      "teamm": 8260,
      "throughout": 8261,
      "##ulling": 8262,
      "##ullmage": 8263,
      "Faeries": 8264,
      "overwhelm": 8265,
      "Sergeant": 8266,
      "Archers": 8267,
      "Archae": 8268,
      "Arcum": 8269,
      "deserve": 8270,
      "Envoy": 8271,
      "Nexus": 8272,
      "Glac": 8273,
      "##ubborn": 8274,
      "Spellbomb": 8275,
      "Quiet": 8276,
      "glimpse": 8277,
      "trem": 8278,
      "winged": 8279,
      "impossible": 8280,
      "keeping": 8281,
      "Dwarves": 8282,
      "carrion": 8283,
      "##ungs": 8284,
      "sunlight": 8285,
      "Sokenzan": 8286,
      "##annah": 8287,
      "Battlemage": 8288,
      "##arians": 8289,
      "curiosity": 8290,
      "worked": 8291,
      "brack": 8292,
      "changeling": 8293,
      "protected": 8294,
      "Crusher": 8295,
      "Overseer": 8296,
      "Wildspeaker": 8297,
      "##eys": 8298,
      "guardian": 8299,
      "Squirrels": 8300,
      "Shadowmoor": 8301,
      "Infantry": 8302,
      "humanity": 8303,
      "reflection": 8304,
      "Legolas": 8305,
      "deeper": 8306,
      "Willow": 8307,
      "Azra": 8308,
      "Agency": 8309,
      "subjects": 8310,
      "traveler": 8311,
      "buy": 8312,
      "Dupl": 8313,
      "cares": 8314,
      "biggest": 8315,
      "insight": 8316,
      "breaking": 8317,
      "snake": 8318,
      "Ashiok": 8319,
      "Ashnod": 8320,
      "##ammoth": 8321,
      "collection": 8322,
      "smallest": 8323,
      "Echoes": 8324,
      "squirrel": 8325,
      "active": 8326,
      "woven": 8327,
      "general": 8328,
      "Retri": 8329,
      "remembered": 8330,
      "Clear": 8331,
      "initiates": 8332,
      "treefolk": 8333,
      "continues": 8334,
      "Extort": 8335,
      "Woodland": 8336,
      "Carrion": 8337,
      "transformed": 8338,
      "Moons": 8339,
      "savage": 8340,
      "Argivian": 8341,
      "footstep": 8342,
      "Artist": 8343,
      "Artisan": 8344,
      "barb": 8345,
      "Fortress": 8346,
      "Merchant": 8347,
      "Ghoulcaller": 8348,
      "District": 8349,
      "drafted": 8350,
      "watermark": 8351,
      "rotting": 8352,
      "researcher": 8353,
      "Silverquill": 8354,
      "summoner": 8355,
      "absence": 8356,
      "Rootwater": 8357,
      "##rested": 8358,
      "Awakening": 8359,
      "mischief": 8360,
      "Battles": 8361,
      "cruelty": 8362,
      "Rampaging": 8363,
      "Inspector": 8364,
      "Dariga": 8365,
      "Judge": 8366,
      "Colossal": 8367,
      "Nephilim": 8368,
      "Scarab": 8369,
      "adapted": 8370,
      "Fateful": 8371,
      "ranks": 8372,
      "Marchesa": 8373,
      "ante": 8374,
      "shapes": 8375,
      "adventure": 8376,
      "Sylvok": 8377,
      "bleed": 8378,
      "##utton": 8379,
      "Prismari": 8380,
      "Wojek": 8381,
      "hatred": 8382,
      "spectacle": 8383,
      "explorers": 8384,
      "Drannith": 8385,
      "unsol": 8386,
      "belongs": 8387,
      "Salvage": 8388,
      "Hazoret": 8389,
      "Cartouche": 8390,
      "begun": 8391,
      "Despite": 8392,
      "Cannon": 8393,
      "Paradox": 8394,
      "Tidal": 8395,
      "achieve": 8396,
      "developed": 8397,
      "boggarts": 8398,
      "Spiteful": 8399,
      "unspent": 8400,
      "printed": 8401,
      "Hatchling": 8402,
      "Kaldra": 8403,
      "Mangara": 8404,
      "Rhox": 8405,
      "Please": 8406,
      "particular": 8407,
      "Gimli": 8408,
      "assembles": 8409,
      "Crusader": 8410,
      "molten": 8411,
      "Celebration": 8412,
      "Sauron": 8413,
      "razor": 8414,
      "comprehend": 8415,
      "Darien": 8416,
      "Somberwald": 8417,
      "available": 8418,
      "##ocalypse": 8419,
      "Xenagos": 8420,
      "Darigaaz": 8421,
      ",'": 8422,
      "Ax": 8423,
      "Aerie": 8424,
      "Anth": 8425,
      "Arash": 8426,
      "Bran": 8427,
      "Both": 8428,
      "Breaker": 8429,
      "Cad": 8430,
      "Cog": 8431,
      "Cele": 8432,
      "Casualty": 8433,
      "Follow": 8434,
      "Gw": 8435,
      "Gang": 8436,
      "Gilt": 8437,
      "Hat": 8438,
      "Ham": 8439,
      "Have": 8440,
      "Hawk": 8441,
      "Jo": 8442,
      "Jar": 8443,
      "Jungle": 8444,
      "Ke": 8445,
      "Kher": 8446,
      "Keen": 8447,
      "List": 8448,
      "Mac": 8449,
      "Mord": 8450,
      "Maj": 8451,
      "Nem": 8452,
      "Oraz": 8453,
      "Pin": 8454,
      "Pan": 8455,
      "Pie": 8456,
      "Pier": 8457,
      "Pang": 8458,
      "Portal": 8459,
      "Prosper": 8460,
      "Pioneer": 8461,
      "Rap": 8462,
      "Rag": 8463,
      "Ride": 8464,
      "Rub": 8465,
      "Rites": 8466,
      "Sle": 8467,
      "Sak": 8468,
      "Self": 8469,
      "Sidar": 8470,
      "Summons": 8471,
      "Ten": 8472,
      "Tawn": 8473,
      "Var": 8474,
      "Vast": 8475,
      "Vap": 8476,
      "Voy": 8477,
      "Vicious": 8478,
      "Vigor": 8479,
      "bi": 8480,
      "ball": 8481,
      "bree": 8482,
      "balan": 8483,
      "bidding": 8484,
      "cand": 8485,
      "cities": 8486,
      "caves": 8487,
      "caut": 8488,
      "dam": 8489,
      "dull": 8490,
      "dusk": 8491,
      "fal": 8492,
      "fist": 8493,
      "glyph": 8494,
      "hes": 8495,
      "hang": 8496,
      "hau": 8497,
      "halls": 8498,
      "hiding": 8499,
      "lash": 8500,
      "link": 8501,
      "mant": 8502,
      "maint": 8503,
      "oblivion": 8504,
      "position": 8505,
      "range": 8506,
      "rene": 8507,
      "raging": 8508,
      "school": 8509,
      "tim": 8510,
      "torn": 8511,
      "tread": 8512,
      "ver": 8513,
      "vicious": 8514,
      "veteran": 8515,
      "virtue": 8516,
      "wide": 8517,
      "wrath": 8518,
      "walking": 8519,
      "wherever": 8520,
      "wilderness": 8521,
      "zeal": 8522,
      "##eks": 8523,
      "##cr": 8524,
      "##cible": 8525,
      "##lies": 8526,
      "##law": 8527,
      "##iad": 8528,
      "##uver": 8529,
      "##xing": 8530,
      "##rines": 8531,
      "##yx": 8532,
      "##oop": 8533,
      "##taker": 8534,
      "##ding": 8535,
      "##gling": 8536,
      "##hall": 8537,
      "##sm": 8538,
      "##wain": 8539,
      "##AR": 8540,
      "##rench": 8541,
      "throat": 8542,
      "##arb": 8543,
      "##reathing": 8544,
      "##orc": 8545,
      "##oration": 8546,
      "##oria": 8547,
      "##robat": 8548,
      "##strom": 8549,
      "##onom": 8550,
      "##onies": 8551,
      "##urers": 8552,
      "##urance": 8553,
      "##urry": 8554,
      "##itary": 8555,
      "##ela": 8556,
      "##elin": 8557,
      "##elope": 8558,
      "##elstrom": 8559,
      "##rael": 8560,
      "##rase": 8561,
      "##chnic": 8562,
      "##utely": 8563,
      "##asis": 8564,
      "##astic": 8565,
      "##irion": 8566,
      "withstand": 8567,
      "plants": 8568,
      "##uments": 8569,
      "##ellent": 8570,
      "spin": 8571,
      "spite": 8572,
      "forage": 8573,
      "##action": 8574,
      "##ainous": 8575,
      "ending": 8576,
      "##olute": 8577,
      "stab": 8578,
      "stolen": 8579,
      "blows": 8580,
      "blinding": 8581,
      "Ingen": 8582,
      "Inspiring": 8583,
      "##idance": 8584,
      "##que": 8585,
      "##quil": 8586,
      "##aphe": 8587,
      "##hole": 8588,
      "##bris": 8589,
      "##ockets": 8590,
      "compl": 8591,
      "shar": 8592,
      "shimmer": 8593,
      "##usive": 8594,
      "allowed": 8595,
      "Spin": 8596,
      "##ulp": 8597,
      "##ivore": 8598,
      "drawing": 8599,
      "table": 8600,
      "Shore": 8601,
      "Shire": 8602,
      "Shimmer": 8603,
      "##seed": 8604,
      "##lert": 8605,
      "##blast": 8606,
      "chains": 8607,
      "##agery": 8608,
      "##una": 8609,
      "unstoppable": 8610,
      "Still": 8611,
      "thank": 8612,
      "##ogue": 8613,
      "##ouses": 8614,
      "##onger": 8615,
      "##uster": 8616,
      "alleg": 8617,
      "flour": 8618,
      "##akers": 8619,
      "Scree": 8620,
      "Scorn": 8621,
      "heights": 8622,
      "weather": 8623,
      "plans": 8624,
      "Being": 8625,
      "myster": 8626,
      "proverb": 8627,
      "scroll": 8628,
      "Conj": 8629,
      "##ilded": 8630,
      "arrog": 8631,
      "Clerics": 8632,
      "Skin": 8633,
      "conce": 8634,
      "##azz": 8635,
      "Hek": 8636,
      "commands": 8637,
      "Always": 8638,
      "Myst": 8639,
      "Myra": 8640,
      "##ixir": 8641,
      "Horizon": 8642,
      "Cats": 8643,
      "Seven": 8644,
      "monks": 8645,
      "Door": 8646,
      "##retch": 8647,
      "peaks": 8648,
      "betrayal": 8649,
      "Snapp": 8650,
      "Monitor": 8651,
      "##ushroom": 8652,
      "smile": 8653,
      "accom": 8654,
      "desire": 8655,
      "Enlist": 8656,
      "Dinosaurs": 8657,
      "Traitor": 8658,
      "device": 8659,
      "devices": 8660,
      "Desec": 8661,
      "##attery": 8662,
      "Squire": 8663,
      "Suns": 8664,
      "nights": 8665,
      "appeared": 8666,
      "Quirion": 8667,
      "sergeant": 8668,
      "##strate": 8669,
      "##eeli": 8670,
      "##vised": 8671,
      "carve": 8672,
      "Magma": 8673,
      "Mountainwalk": 8674,
      "guilty": 8675,
      "##averns": 8676,
      "mastered": 8677,
      "energies": 8678,
      "Disa": 8679,
      "##warden": 8680,
      "Phalan": 8681,
      "Phasing": 8682,
      "Commando": 8683,
      "Success": 8684,
      "Afterlife": 8685,
      "Symb": 8686,
      "perfectly": 8687,
      "brilliant": 8688,
      "Twisted": 8689,
      "protecting": 8690,
      "mightiest": 8691,
      "hunted": 8692,
      "Ravager": 8693,
      "recruit": 8694,
      "recruits": 8695,
      "members": 8696,
      "believed": 8697,
      "await": 8698,
      "Citadel": 8699,
      "touches": 8700,
      "delicate": 8701,
      "delicious": 8702,
      "Enduring": 8703,
      "Upon": 8704,
      "Border": 8705,
      "terrifying": 8706,
      "Callaphe": 8707,
      "Poly": 8708,
      "families": 8709,
      "telling": 8710,
      "shows": 8711,
      "Howl": 8712,
      "sooner": 8713,
      "Smash": 8714,
      "empire": 8715,
      "fellow": 8716,
      "echoes": 8717,
      "Discover": 8718,
      "Coral": 8719,
      "Spectacle": 8720,
      "Redeem": 8721,
      "detail": 8722,
      "answered": 8723,
      "Defiant": 8724,
      "Fallaji": 8725,
      "actions": 8726,
      "Terisi": 8727,
      "offered": 8728,
      "spreads": 8729,
      "experien": 8730,
      "sentry": 8731,
      "Pyro": 8732,
      "Cleave": 8733,
      "Cleansing": 8734,
      "happens": 8735,
      "Behold": 8736,
      "Ambusher": 8737,
      "Maelstrom": 8738,
      "##ummy": 8739,
      "Verge": 8740,
      "marsh": 8741,
      "Instinct": 8742,
      "corruption": 8743,
      "correct": 8744,
      "duel": 8745,
      "rebuild": 8746,
      "connection": 8747,
      "Ghostly": 8748,
      "Better": 8749,
      "Autumn": 8750,
      "Cyb": 8751,
      "Denial": 8752,
      "Halimar": 8753,
      "##unnels": 8754,
      "covered": 8755,
      "foolish": 8756,
      "innov": 8757,
      "inspired": 8758,
      "doomed": 8759,
      "exploit": 8760,
      "Rampage": 8761,
      "ambush": 8762,
      "Judith": 8763,
      "Skirk": 8764,
      "guesses": 8765,
      "guessed": 8766,
      "cultists": 8767,
      "##rata": 8768,
      "Cultiv": 8769,
      "pulled": 8770,
      "riches": 8771,
      "banner": 8772,
      "bolt": 8773,
      "Melee": 8774,
      "shaped": 8775,
      "##iamond": 8776,
      "Saruman": 8777,
      "books": 8778,
      "Planeswalkers": 8779,
      "golems": 8780,
      "Massacre": 8781,
      "##acherous": 8782,
      "Lurking": 8783,
      "Tactics": 8784,
      "battles": 8785,
      "artificers": 8786,
      "tradition": 8787,
      "Badger": 8788,
      "Hideaway": 8789,
      "Frenzy": 8790,
      "Idol": 8791,
      "##ambler": 8792,
      "gladly": 8793,
      "salvation": 8794,
      "Jolrael": 8795,
      "inevitable": 8796,
      "Trickster": 8797,
      "Draconic": 8798,
      "Breach": 8799,
      "Juniper": 8800,
      "Saheeli": 8801,
      "hedrons": 8802,
      "reckless": 8803,
      "Krark": 8804,
      "sprout": 8805,
      "##phecy": 8806,
      "Observations": 8807,
      "Evangel": 8808,
      "Starnheim": 8809,
      "Orazca": 8810,
      "Tawnos": 8811,
      "Phalanx": 8812,
      "Terisiare": 8813,
      "16": 8814,
      "Aud": 8815,
      "Amon": 8816,
      "Aegis": 8817,
      "Bil": 8818,
      "Ble": 8819,
      "Born": 8820,
      "Bala": 8821,
      "Bronze": 8822,
      "Could": 8823,
      "Crop": 8824,
      "Coward": 8825,
      "Dos": 8826,
      "Dro": 8827,
      "Daunt": 8828,
      "Dwell": 8829,
      "Es": 8830,
      "Ear": 8831,
      "Eng": 8832,
      "Eff": 8833,
      "Fug": 8834,
      "Ged": 8835,
      "Goll": 8836,
      "Had": 8837,
      "Hak": 8838,
      "Halan": 8839,
      "Hulk": 8840,
      "Il": 8841,
      "Keran": 8842,
      "Mul": 8843,
      "Mold": 8844,
      "Mimic": 8845,
      "Mammoth": 8846,
      "Ni": 8847,
      "Name": 8848,
      "Nine": 8849,
      "Navigator": 8850,
      "Rich": 8851,
      "Ruk": 8852,
      "Sa": 8853,
      "Send": 8854,
      "Six": 8855,
      "School": 8856,
      "Tus": 8857,
      "Tru": 8858,
      "Top": 8859,
      "Tax": 8860,
      "Ut": 8861,
      "Vis": 8862,
      "Very": 8863,
      "Visions": 8864,
      "Would": 8865,
      "Wreck": 8866,
      "Yot": 8867,
      "Zul": 8868,
      "Zephyr": 8869,
      "bed": 8870,
      "bits": 8871,
      "bait": 8872,
      "cower": 8873,
      "cell": 8874,
      "cave": 8875,
      "cried": 8876,
      "drove": 8877,
      "dirt": 8878,
      "elect": 8879,
      "fix": 8880,
      "fungus": 8881,
      "fiend": 8882,
      "fifth": 8883,
      "gro": 8884,
      "hol": 8885,
      "imb": 8886,
      "jaws": 8887,
      "jew": 8888,
      "laughter": 8889,
      "muff": 8890,
      "mix": 8891,
      "navigator": 8892,
      "pup": 8893,
      "rap": 8894,
      "rush": 8895,
      "ranger": 8896,
      "riders": 8897,
      "sit": 8898,
      "seld": 8899,
      "tort": 8900,
      "toss": 8901,
      "wished": 8902,
      "##eers": 8903,
      "##eak": 8904,
      "##aotic": 8905,
      "##lay": 8906,
      "##iq": 8907,
      "##iate": 8908,
      "##ule": 8909,
      "##uce": 8910,
      "##rance": 8911,
      "##rils": 8912,
      "##yon": 8913,
      "##ms": 8914,
      "##more": 8915,
      "##morph": 8916,
      "##meadow": 8917,
      "##hv": 8918,
      "##hand": 8919,
      "##sn": 8920,
      "##sion": 8921,
      "##kar": 8922,
      "##kos": 8923,
      "##bro": 8924,
      "##bing": 8925,
      "##zing": 8926,
      "##wreck": 8927,
      "##ja": 8928,
      "##jack": 8929,
      "##rem": 8930,
      "##ntu": 8931,
      "thrown": 8932,
      "thieves": 8933,
      "##arr": 8934,
      "loves": 8935,
      "##inate": 8936,
      "##inated": 8937,
      "##acomb": 8938,
      "##orless": 8939,
      "##rochi": 8940,
      "##ardic": 8941,
      "##ural": 8942,
      "##itate": 8943,
      "##itality": 8944,
      "##lege": 8945,
      "contained": 8946,
      "##astion": 8947,
      "ord": 8948,
      "beck": 8949,
      "Than": 8950,
      "inspiring": 8951,
      "##achery": 8952,
      "plunder": 8953,
      "##umphant": 8954,
      "spare": 8955,
      "##roma": 8956,
      "##heres": 8957,
      "asks": 8958,
      "##riel": 8959,
      "##riers": 8960,
      "stage": 8961,
      "struct": 8962,
      "strict": 8963,
      "strand": 8964,
      "stubborn": 8965,
      "castle": 8966,
      "limb": 8967,
      "Investig": 8968,
      "##rift": 8969,
      "graves": 8970,
      "lift": 8971,
      "##hob": 8972,
      "attract": 8973,
      "shore": 8974,
      "shake": 8975,
      "shred": 8976,
      "shiny": 8977,
      "shards": 8978,
      "##emption": 8979,
      "Atog": 8980,
      "##ampions": 8981,
      "##ivid": 8982,
      "Ascension": 8983,
      "tails": 8984,
      "Shin": 8985,
      "Shall": 8986,
      "Shattered": 8987,
      "Shambler": 8988,
      "##aved": 8989,
      "##indi": 8990,
      "sealed": 8991,
      "##blic": 8992,
      "Real": 8993,
      "Revenge": 8994,
      "Stay": 8995,
      "Stom": 8996,
      "Story": 8997,
      "##oked": 8998,
      "lessons": 8999,
      "##ryff": 9000,
[...]
